{
  "version": "1.0",
  "truncation": null,
  "padding": null,
  "added_tokens": [
    {
      "id": 0,
      "content": "[START]",
      "single_word": false,
      "lstrip": false,
      "rstrip": false,
      "normalized": false,
      "special": true
    },
    {
      "id": 1,
      "content": "[END]",
      "single_word": false,
      "lstrip": false,
      "rstrip": false,
      "normalized": false,
      "special": true
    },
    {
      "id": 2,
      "content": "[SEP]",
      "single_word": false,
      "lstrip": false,
      "rstrip": false,
      "normalized": false,
      "special": true
    },
    {
      "id": 3,
      "content": "[UNK]",
      "single_word": false,
      "lstrip": false,
      "rstrip": false,
      "normalized": false,
      "special": true
    },
    {
      "id": 4,
      "content": "[FILL]",
      "single_word": false,
      "lstrip": false,
      "rstrip": false,
      "normalized": false,
      "special": true
    }
  ],
  "normalizer": {
    "type": "BertNormalizer",
    "clean_text": true,
    "handle_chinese_chars": true,
    "strip_accents": null,
    "lowercase": true
  },
  "pre_tokenizer": {
    "type": "BertPreTokenizer"
  },
  "post_processor": {
    "type": "TemplateProcessing",
    "single": [
      {
        "SpecialToken": {
          "id": "[START]",
          "type_id": 0
        }
      },
      {
        "Sequence": {
          "id": "A",
          "type_id": 0
        }
      },
      {
        "SpecialToken": {
          "id": "[END]",
          "type_id": 0
        }
      }
    ],
    "pair": [
      {
        "SpecialToken": {
          "id": "[START]",
          "type_id": 0
        }
      },
      {
        "Sequence": {
          "id": "A",
          "type_id": 0
        }
      },
      {
        "SpecialToken": {
          "id": "[SEP]",
          "type_id": 0
        }
      },
      {
        "Sequence": {
          "id": "B",
          "type_id": 1
        }
      },
      {
        "SpecialToken": {
          "id": "[END]",
          "type_id": 1
        }
      }
    ],
    "special_tokens": {
      "[END]": {
        "id": "[END]",
        "ids": [
          1
        ],
        "tokens": [
          "[END]"
        ]
      },
      "[SEP]": {
        "id": "[SEP]",
        "ids": [
          2
        ],
        "tokens": [
          "[SEP]"
        ]
      },
      "[START]": {
        "id": "[START]",
        "ids": [
          0
        ],
        "tokens": [
          "[START]"
        ]
      }
    }
  },
  "decoder": {
    "type": "WordPiece",
    "prefix": "##",
    "cleanup": true
  },
  "model": {
    "type": "WordPiece",
    "unk_token": "[UNK]",
    "continuing_subword_prefix": "##",
    "max_input_chars_per_word": 100,
    "vocab": {
      "[START]": 0,
      "[END]": 1,
      "[SEP]": 2,
      "[UNK]": 3,
      "[FILL]": 4,
      "!": 5,
      "\"": 6,
      "#": 7,
      "$": 8,
      "%": 9,
      "&": 10,
      "'": 11,
      "(": 12,
      ")": 13,
      "*": 14,
      "+": 15,
      ",": 16,
      "-": 17,
      ".": 18,
      "/": 19,
      "0": 20,
      "1": 21,
      "2": 22,
      "3": 23,
      "4": 24,
      "5": 25,
      "6": 26,
      "7": 27,
      "8": 28,
      "9": 29,
      ":": 30,
      ";": 31,
      "<": 32,
      ">": 33,
      "?": 34,
      "@": 35,
      "_": 36,
      "a": 37,
      "b": 38,
      "c": 39,
      "d": 40,
      "e": 41,
      "f": 42,
      "g": 43,
      "h": 44,
      "i": 45,
      "j": 46,
      "k": 47,
      "l": 48,
      "m": 49,
      "n": 50,
      "o": 51,
      "p": 52,
      "q": 53,
      "r": 54,
      "s": 55,
      "t": 56,
      "u": 57,
      "v": 58,
      "w": 59,
      "x": 60,
      "y": 61,
      "z": 62,
      "£": 63,
      "°": 64,
      "ø": 65,
      "ł": 66,
      "–": 67,
      "—": 68,
      "‘": 69,
      "’": 70,
      "“": 71,
      "”": 72,
      "€": 73,
      "##r": 74,
      "##i": 75,
      "##g": 76,
      "##e": 77,
      "##t": 78,
      "##a": 79,
      "##s": 80,
      "##o": 81,
      "##n": 82,
      "##y": 83,
      "##v": 84,
      "##d": 85,
      "##h": 86,
      "##l": 87,
      "##w": 88,
      "##p": 89,
      "##c": 90,
      "##j": 91,
      "##2": 92,
      "##5": 93,
      "##b": 94,
      "##m": 95,
      "##0": 96,
      "##k": 97,
      "##u": 98,
      "##7": 99,
      "##f": 100,
      "##4": 101,
      "##1": 102,
      "##z": 103,
      "##x": 104,
      "##q": 105,
      "##3": 106,
      "##9": 107,
      "##8": 108,
      "##6": 109,
      "##ł": 110,
      "##€": 111,
      "##ø": 112,
      "##°": 113,
      "##he": 114,
      "##in": 115,
      "to": 116,
      "##nd": 117,
      "the": 118,
      "##er": 119,
      "##or": 120,
      "##ll": 121,
      "##ing": 122,
      "##an": 123,
      "and": 124,
      "##ar": 125,
      "wi": 126,
      "##es": 127,
      "##at": 128,
      "##on": 129,
      "##re": 130,
      "##is": 131,
      "##en": 132,
      "is": 133,
      "##as": 134,
      "##ed": 135,
      "will": 136,
      "##om": 137,
      "##et": 138,
      "in": 139,
      "##ou": 140,
      "##ay": 141,
      "##ic": 142,
      "##th": 143,
      "for": 144,
      "he": 145,
      "go": 146,
      "be": 147,
      "at": 148,
      "on": 149,
      "her": 150,
      "##ac": 151,
      "##it": 152,
      "she": 153,
      "##ot": 154,
      "##le": 155,
      "th": 156,
      "##ow": 157,
      "##ut": 158,
      "##ie": 159,
      "of": 160,
      "##ke": 161,
      "##im": 162,
      "##us": 163,
      "##am": 164,
      "it": 165,
      "##ve": 166,
      "ne": 167,
      "with": 168,
      "##ad": 169,
      "##al": 170,
      "##id": 171,
      "has": 172,
      "##ts": 173,
      "an": 174,
      "##ome": 175,
      "##ir": 176,
      "st": 177,
      "fr": 178,
      "##gh": 179,
      "are": 180,
      "re": 181,
      "##ee": 182,
      "##os": 183,
      "##ent": 184,
      "his": 185,
      "##il": 186,
      "##ter": 187,
      "they": 188,
      "me": 189,
      "##oo": 190,
      "##ur": 191,
      "as": 192,
      "##ia": 193,
      "ch": 194,
      "##day": 195,
      "ha": 196,
      "do": 197,
      "##ion": 198,
      "jo": 199,
      "mar": 200,
      "wan": 201,
      "##ch": 202,
      "going": 203,
      "##ght": 204,
      "##her": 205,
      "tom": 206,
      "##el": 207,
      "##ro": 208,
      "sh": 209,
      "ab": 210,
      "meet": 211,
      "but": 212,
      "li": 213,
      "##out": 214,
      "##ick": 215,
      "##ri": 216,
      "pl": 217,
      "##ry": 218,
      "al": 219,
      "wor": 220,
      "##ight": 221,
      "##ack": 222,
      "su": 223,
      "him": 224,
      "##ol": 225,
      "##ake": 226,
      "##ate": 227,
      "about": 228,
      "##op": 229,
      "##ver": 230,
      "not": 231,
      "wants": 232,
      "##art": 233,
      "##ul": 234,
      "##ce": 235,
      "##ess": 236,
      "##row": 237,
      "##ks": 238,
      "##end": 239,
      "##ra": 240,
      "##ca": 241,
      "can": 242,
      "##all": 243,
      "was": 244,
      "from": 245,
      "that": 246,
      "##king": 247,
      "car": 248,
      "wh": 249,
      "##use": 250,
      "##ld": 251,
      "##ec": 252,
      "##orrow": 253,
      "up": 254,
      "have": 255,
      "so": 256,
      "new": 257,
      "##est": 258,
      "some": 259,
      "##cause": 260,
      "because": 261,
      "##and": 262,
      "con": 263,
      "le": 264,
      "##ab": 265,
      "##ly": 266,
      "tomorrow": 267,
      "wee": 268,
      "##ine": 269,
      "cl": 270,
      "does": 271,
      "##un": 272,
      "##ris": 273,
      "##ind": 274,
      "##pp": 275,
      "##ge": 276,
      "bu": 277,
      "##ation": 278,
      "br": 279,
      "there": 280,
      "##ice": 281,
      "ar": 282,
      "##ell": 283,
      "##st": 284,
      "##ast": 285,
      "com": 286,
      "get": 287,
      "pro": 288,
      "tim": 289,
      "##one": 290,
      "##ace": 291,
      "af": 292,
      "work": 293,
      "##ill": 294,
      "need": 295,
      "out": 296,
      "doesn": 297,
      "ann": 298,
      "##xt": 299,
      "pa": 300,
      "##ould": 301,
      "##ore": 302,
      "##ers": 303,
      "buy": 304,
      "sp": 305,
      "ro": 306,
      "mo": 307,
      "##um": 308,
      "##ff": 309,
      "ad": 310,
      "come": 311,
      "part": 312,
      "them": 313,
      "ex": 314,
      "##ook": 315,
      "home": 316,
      "ag": 317,
      "or": 318,
      "##av": 319,
      "after": 320,
      "##our": 321,
      "##ear": 322,
      "pr": 323,
      "their": 324,
      "ph": 325,
      "##ber": 326,
      "##ann": 327,
      "hel": 328,
      "am": 329,
      "today": 330,
      "ton": 331,
      "this": 332,
      "##li": 333,
      "##iend": 334,
      "off": 335,
      "wat": 336,
      "##ound": 337,
      "##se": 338,
      "chris": 339,
      "bo": 340,
      "next": 341,
      "ma": 342,
      "back": 343,
      "##ck": 344,
      "needs": 345,
      "##ma": 346,
      "co": 347,
      "##hn": 348,
      "##ara": 349,
      "by": 350,
      "had": 351,
      "se": 352,
      "john": 353,
      "##ina": 354,
      "got": 355,
      "see": 356,
      "##ich": 357,
      "party": 358,
      "##ian": 359,
      "whe": 360,
      "dr": 361,
      "##ard": 362,
      "de": 363,
      "##now": 364,
      "mon": 365,
      "##ust": 366,
      "gi": 367,
      "lu": 368,
      "##ass": 369,
      "##od": 370,
      "take": 371,
      "##ud": 372,
      "did": 373,
      "time": 374,
      "##ost": 375,
      "call": 376,
      "min": 377,
      "##gg": 378,
      "thin": 379,
      "rec": 380,
      "sam": 381,
      "want": 382,
      "meeting": 383,
      "tonight": 384,
      "mat": 385,
      "pet": 386,
      "too": 387,
      "place": 388,
      "##ain": 389,
      "la": 390,
      "last": 391,
      "one": 392,
      "know": 393,
      "like": 394,
      "day": 395,
      "help": 396,
      "##enn": 397,
      "ac": 398,
      "ev": 399,
      "em": 400,
      "pm": 401,
      "te": 402,
      "##ect": 403,
      "dis": 404,
      "lo": 405,
      "##alk": 406,
      "week": 407,
      "send": 408,
      "minut": 409,
      "en": 410,
      "no": 411,
      "##iday": 412,
      "##ig": 413,
      "##ily": 414,
      "##ies": 415,
      "che": 416,
      "un": 417,
      "pre": 418,
      "watch": 419,
      "##ort": 420,
      "if": 421,
      "par": 422,
      "wa": 423,
      "##ica": 424,
      "minutes": 425,
      "dan": 426,
      "year": 427,
      "##ide": 428,
      "##ach": 429,
      "##ose": 430,
      "##inn": 431,
      "vis": 432,
      "##kes": 433,
      "##ft": 434,
      "##ment": 435,
      "##other": 436,
      "##ant": 437,
      "fl": 438,
      "mi": 439,
      "join": 440,
      "jack": 441,
      "visit": 442,
      "##eth": 443,
      "ll": 444,
      "##ame": 445,
      "wait": 446,
      "##red": 447,
      "paul": 448,
      "all": 449,
      "bir": 450,
      "now": 451,
      "pick": 452,
      "##ther": 453,
      "bring": 454,
      "##ents": 455,
      "friend": 456,
      "play": 457,
      "##ip": 458,
      "##ving": 459,
      "##ct": 460,
      "##ue": 461,
      "##ong": 462,
      "been": 463,
      "inv": 464,
      "gre": 465,
      "30": 466,
      "##ite": 467,
      "kate": 468,
      "tr": 469,
      "didn": 470,
      "##ub": 471,
      "find": 472,
      "##ary": 473,
      "bus": 474,
      "jan": 475,
      "##iz": 476,
      "tra": 477,
      "##get": 478,
      "loo": 479,
      "birth": 480,
      "christ": 481,
      "##ery": 482,
      "##ist": 483,
      "mike": 484,
      "peter": 485,
      "talk": 486,
      "10": 487,
      "birthday": 488,
      "ale": 489,
      "gr": 490,
      "pe": 491,
      "##ure": 492,
      "##ves": 493,
      "##ish": 494,
      "mary": 495,
      "##per": 496,
      "##ict": 497,
      "other": 498,
      "pat": 499,
      "sat": 500,
      "##kend": 501,
      "weekend": 502,
      "coming": 503,
      "##ah": 504,
      "who": 505,
      "##ag": 506,
      "##cy": 507,
      "##ady": 508,
      "##ool": 509,
      "when": 510,
      "##gan": 511,
      "won": 512,
      "##omm": 513,
      "over": 514,
      "##ave": 515,
      "don": 516,
      "##ail": 517,
      "job": 518,
      "##ak": 519,
      "stay": 520,
      "make": 521,
      "##ting": 522,
      "##che": 523,
      "just": 524,
      "mark": 525,
      "alex": 526,
      "##pt": 527,
      "##ble": 528,
      "##ought": 529,
      "bl": 530,
      "di": 531,
      "friday": 532,
      "should": 533,
      "inter": 534,
      "bre": 535,
      "char": 536,
      "bar": 537,
      "jul": 538,
      "##iss": 539,
      "thinks": 540,
      "##ans": 541,
      "mad": 542,
      "##ity": 543,
      "##ree": 544,
      "night": 545,
      "book": 546,
      "tw": 547,
      "##ank": 548,
      "acc": 549,
      "satur": 550,
      "hour": 551,
      "##ood": 552,
      "saturday": 553,
      "app": 554,
      "bet": 555,
      "ke": 556,
      "tri": 557,
      "##ile": 558,
      "##lly": 559,
      "##ath": 560,
      "any": 561,
      "##inner": 562,
      "sch": 563,
      "comp": 564,
      "##ren": 565,
      "##irl": 566,
      "##ph": 567,
      "recomm": 568,
      "anna": 569,
      "recommend": 570,
      "dinner": 571,
      "late": 572,
      "would": 573,
      "ste": 574,
      "looking": 575,
      "sugg": 576,
      "sara": 577,
      "sa": 578,
      "girl": 579,
      "##fore": 580,
      "try": 581,
      "##act": 582,
      "around": 583,
      "school": 584,
      "##ere": 585,
      "ask": 586,
      "har": 587,
      "mov": 588,
      "jenn": 589,
      "toget": 590,
      "before": 591,
      "##ames": 592,
      "##ally": 593,
      "together": 594,
      "which": 595,
      "##ord": 596,
      "##ester": 597,
      "shop": 598,
      "class": 599,
      "fee": 600,
      "##ive": 601,
      "##mas": 602,
      "##nday": 603,
      "man": 604,
      "##qu": 605,
      "##are": 606,
      "##oun": 607,
      "##so": 608,
      "##ests": 609,
      "lat": 610,
      "##ning": 611,
      "##lie": 612,
      "##ather": 613,
      "##ous": 614,
      "fin": 615,
      "good": 616,
      "##ople": 617,
      "month": 618,
      "people": 619,
      "feel": 620,
      "je": 621,
      "went": 622,
      "christmas": 623,
      "dec": 624,
      "##ason": 625,
      "invit": 626,
      "more": 627,
      "phot": 628,
      "yester": 629,
      "##way": 630,
      "yesterday": 631,
      "ben": 632,
      "##orm": 633,
      "us": 634,
      "bought": 635,
      "res": 636,
      "sent": 637,
      "also": 638,
      "##la": 639,
      "##ough": 640,
      "fe": 641,
      "may": 642,
      "sc": 643,
      "##ouse": 644,
      "##ap": 645,
      "##og": 646,
      "##fer": 647,
      "ge": 648,
      "matt": 649,
      "##ty": 650,
      "oli": 651,
      "##tha": 652,
      "##der": 653,
      "##cer": 654,
      "very": 655,
      "##ink": 656,
      "##ang": 657,
      "##ets": 658,
      "##oss": 659,
      "mom": 660,
      "left": 661,
      "house": 662,
      "##fr": 663,
      "##oy": 664,
      "##irst": 665,
      "exp": 666,
      "two": 667,
      "how": 668,
      "ta": 669,
      "show": 670,
      "som": 671,
      "likes": 672,
      "waiting": 673,
      "found": 674,
      "wed": 675,
      "##ric": 676,
      "##very": 677,
      "adv": 678,
      "##ley": 679,
      "##ild": 680,
      "start": 681,
      "pres": 682,
      "lot": 683,
      "##int": 684,
      "even": 685,
      "##te": 686,
      "ang": 687,
      "jim": 688,
      "##ven": 689,
      "##ready": 690,
      "already": 691,
      "jane": 692,
      "##friend": 693,
      "first": 694,
      "##my": 695,
      "##able": 696,
      "give": 697,
      "ser": 698,
      "way": 699,
      "##ping": 700,
      "stud": 701,
      "jess": 702,
      "tick": 703,
      "disc": 704,
      "##ved": 705,
      "##erry": 706,
      "##iel": 707,
      "suggests": 708,
      "let": 709,
      "##les": 710,
      "20": 711,
      "might": 712,
      "##ress": 713,
      "inst": 714,
      "##ething": 715,
      "friends": 716,
      "##age": 717,
      "what": 718,
      "parents": 719,
      "sus": 720,
      "##oney": 721,
      "something": 722,
      "##vin": 723,
      "##ise": 724,
      "##oup": 725,
      "bro": 726,
      "game": 727,
      "wr": 728,
      "##br": 729,
      "##hes": 730,
      "##igh": 731,
      "##own": 732,
      "##uss": 733,
      "qu": 734,
      "working": 735,
      "trip": 736,
      "##ai": 737,
      "hasn": 738,
      "well": 739,
      "##lle": 740,
      "##ance": 741,
      "##fe": 742,
      "##esday": 743,
      "cat": 744,
      "eat": 745,
      "jos": 746,
      "##ond": 747,
      "##ence": 748,
      "prep": 749,
      "later": 750,
      "##form": 751,
      "dav": 752,
      "food": 753,
      "lun": 754,
      "mor": 755,
      "tell": 756,
      "happ": 757,
      "kar": 758,
      "money": 759,
      "##wn": 760,
      "adam": 761,
      "geor": 762,
      "##oe": 763,
      "gu": 764,
      "##isa": 765,
      "cont": 766,
      "still": 767,
      "every": 768,
      "rob": 769,
      "office": 770,
      "##yl": 771,
      "##ange": 772,
      "##ated": 773,
      "##ens": 774,
      "again": 775,
      "days": 776,
      "david": 777,
      "dad": 778,
      "##old": 779,
      "order": 780,
      "jake": 781,
      "##ne": 782,
      "##ys": 783,
      "##via": 784,
      "gra": 785,
      "phone": 786,
      "recommends": 787,
      "15": 788,
      "james": 789,
      "yet": 790,
      "pol": 791,
      "##ount": 792,
      "josh": 793,
      "##uch": 794,
      "##any": 795,
      "##urn": 796,
      "##za": 797,
      "ed": 798,
      "each": 799,
      "rest": 800,
      "##bert": 801,
      "check": 802,
      "rep": 803,
      "lind": 804,
      "##ates": 805,
      "soon": 806,
      "dri": 807,
      "frank": 808,
      "read": 809,
      "sends": 810,
      "sarah": 811,
      "ap": 812,
      "we": 813,
      "##ings": 814,
      "having": 815,
      "train": 816,
      "bill": 817,
      "where": 818,
      "lunch": 819,
      "ell": 820,
      "##ob": 821,
      "mel": 822,
      "kim": 823,
      "##got": 824,
      "andre": 825,
      "att": 826,
      "cons": 827,
      "long": 828,
      "down": 829,
      "##anda": 830,
      "concer": 831,
      "arri": 832,
      "monica": 833,
      "av": 834,
      "##ms": 835,
      "room": 836,
      "emma": 837,
      "busy": 838,
      "made": 839,
      "harry": 840,
      "##ject": 841,
      "##by": 842,
      "##ried": 843,
      "watching": 844,
      "movie": 845,
      "jeff": 846,
      "fi": 847,
      "sm": 848,
      "than": 849,
      "asks": 850,
      "present": 851,
      "war": 852,
      "were": 853,
      "##lee": 854,
      "dress": 855,
      "miss": 856,
      "##ises": 857,
      "tickets": 858,
      "del": 859,
      "el": 860,
      "nick": 861,
      "per": 862,
      "shar": 863,
      "##ched": 864,
      "##ael": 865,
      "##sel": 866,
      "##de": 867,
      "##ign": 868,
      "##ial": 869,
      "coff": 870,
      "laur": 871,
      "carol": 872,
      "nat": 873,
      "sk": 874,
      "##iver": 875,
      "##ache": 876,
      "ear": 877,
      "fam": 878,
      "getting": 879,
      "jenny": 880,
      "shopping": 881,
      "da": 882,
      "mother": 883,
      "pay": 884,
      "##bab": 885,
      "##mp": 886,
      "##ory": 887,
      "date": 888,
      "pict": 889,
      "proble": 890,
      "george": 891,
      "forgot": 892,
      "maria": 893,
      "greg": 894,
      "sick": 895,
      "##thing": 896,
      "##oph": 897,
      "exam": 898,
      "ca": 899,
      "##ions": 900,
      "martha": 901,
      "alice": 902,
      "emily": 903,
      "coffee": 904,
      "much": 905,
      "##ating": 906,
      "##ations": 907,
      "met": 908,
      "sur": 909,
      "##son": 910,
      "dog": 911,
      "joe": 912,
      "lisa": 913,
      "##itt": 914,
      "probab": 915,
      "lucy": 916,
      "laura": 917,
      "probably": 918,
      "only": 919,
      "eve": 920,
      "rem": 921,
      "happy": 922,
      "cam": 923,
      "sw": 924,
      "vide": 925,
      "vict": 926,
      "andy": 927,
      "supp": 928,
      "project": 929,
      "both": 930,
      "fred": 931,
      "kid": 932,
      "##joy": 933,
      "weeks": 934,
      "mia": 935,
      "inform": 936,
      "mart": 937,
      "##ested": 938,
      "max": 939,
      "bad": 940,
      "gl": 941,
      "hen": 942,
      "old": 943,
      "##not": 944,
      "##ash": 945,
      "enjoy": 946,
      "##self": 947,
      "##oint": 948,
      "##mber": 949,
      "daniel": 950,
      "better": 951,
      "fo": 952,
      "##line": 953,
      "plann": 954,
      "luke": 955,
      "discuss": 956,
      "morning": 957,
      "concert": 958,
      "family": 959,
      "victor": 960,
      "soph": 961,
      "##ons": 962,
      "int": 963,
      "requ": 964,
      "cannot": 965,
      "bob": 966,
      "sim": 967,
      "sunday": 968,
      "cle": 969,
      "pass": 970,
      "piz": 971,
      "##air": 972,
      "##ister": 973,
      "barb": 974,
      "saw": 975,
      "mich": 976,
      "##na": 977,
      "##rian": 978,
      "hol": 979,
      "op": 980,
      "##ward": 981,
      "took": 982,
      "could": 983,
      "##io": 984,
      "##ead": 985,
      "agre": 986,
      "jac": 987,
      "##ding": 988,
      "##co": 989,
      "then": 990,
      "child": 991,
      "julia": 992,
      "cho": 993,
      "while": 994,
      "##ctor": 995,
      "mil": 996,
      "organ": 997,
      "instead": 998,
      "12": 999,
      "cr": 1000,
      "mum": 1001,
      "##ely": 1002,
      "##umber": 1003,
      "seen": 1004,
      "olivia": 1005,
      "linda": 1006,
      "test": 1007,
      "##mer": 1008,
      "amy": 1009,
      "henry": 1010,
      "pizza": 1011,
      "##ork": 1012,
      "##ena": 1013,
      "hair": 1014,
      "photo": 1015,
      "holiday": 1016,
      "hann": 1017,
      "lost": 1018,
      "##ious": 1019,
      "finds": 1020,
      "slee": 1021,
      "##ition": 1022,
      "monday": 1023,
      "##aving": 1024,
      "kee": 1025,
      "##elly": 1026,
      "called": 1027,
      "hours": 1028,
      "consid": 1029,
      "michael": 1030,
      "fun": 1031,
      "look": 1032,
      "sand": 1033,
      "##ugh": 1034,
      "robert": 1035,
      "taking": 1036,
      "cine": 1037,
      "sister": 1038,
      "##aur": 1039,
      "##acy": 1040,
      "##urs": 1041,
      "think": 1042,
      "evening": 1043,
      "##ny": 1044,
      "##ancy": 1045,
      "works": 1046,
      "boy": 1047,
      "few": 1048,
      "restaur": 1049,
      "andrew": 1050,
      "cook": 1051,
      "es": 1052,
      "wedding": 1053,
      "red": 1054,
      "##iv": 1055,
      "##ug": 1056,
      "steve": 1057,
      "fil": 1058,
      "number": 1059,
      "##rick": 1060,
      "##if": 1061,
      "##dy": 1062,
      "##uring": 1063,
      "sue": 1064,
      "planning": 1065,
      "cinema": 1066,
      "des": 1067,
      "imp": 1068,
      "kelly": 1069,
      "##ger": 1070,
      "##ase": 1071,
      "jacob": 1072,
      "stu": 1073,
      "helen": 1074,
      "offer": 1075,
      "broke": 1076,
      "karen": 1077,
      "##achel": 1078,
      "kids": 1079,
      "end": 1080,
      "##pm": 1081,
      "##ora": 1082,
      "break": 1083,
      "grand": 1084,
      "##ince": 1085,
      "thom": 1086,
      "##osed": 1087,
      "video": 1088,
      "air": 1089,
      "dar": 1090,
      "during": 1091,
      "ide": 1092,
      "jason": 1093,
      "##hed": 1094,
      "wis": 1095,
      "drink": 1096,
      "restaurant": 1097,
      "wear": 1098,
      "##ott": 1099,
      "plan": 1100,
      "request": 1101,
      "ian": 1102,
      "son": 1103,
      "##ked": 1104,
      "beer": 1105,
      "##ures": 1106,
      "trans": 1107,
      "diff": 1108,
      "girlfriend": 1109,
      "feels": 1110,
      "study": 1111,
      "bor": 1112,
      "rachel": 1113,
      "ti": 1114,
      "##ier": 1115,
      "##vel": 1116,
      "care": 1117,
      "leave": 1118,
      "asked": 1119,
      "##artment": 1120,
      "po": 1121,
      "rece": 1122,
      "group": 1123,
      "free": 1124,
      "##side": 1125,
      "ago": 1126,
      "years": 1127,
      "keep": 1128,
      "borrow": 1129,
      "mess": 1130,
      "wine": 1131,
      "amanda": 1132,
      "luc": 1133,
      "hannah": 1134,
      "##iew": 1135,
      "##ald": 1136,
      "star": 1137,
      "gift": 1138,
      "eng": 1139,
      "kevin": 1140,
      "thomas": 1141,
      "prom": 1142,
      "susan": 1143,
      "##ursday": 1144,
      "thursday": 1145,
      "another": 1146,
      "ash": 1147,
      "leaving": 1148,
      "anne": 1149,
      "spend": 1150,
      "phil": 1151,
      "months": 1152,
      "jessica": 1153,
      "bab": 1154,
      "gab": 1155,
      "jose": 1156,
      "list": 1157,
      "post": 1158,
      "tu": 1159,
      "tina": 1160,
      "##ka": 1161,
      "patrick": 1162,
      "hot": 1163,
      "pub": 1164,
      "ron": 1165,
      "##ical": 1166,
      "doctor": 1167,
      "plans": 1168,
      "invites": 1169,
      "invited": 1170,
      "photos": 1171,
      "dave": 1172,
      "ret": 1173,
      "##sa": 1174,
      "prepare": 1175,
      "attend": 1176,
      "clean": 1177,
      "rich": 1178,
      "sec": 1179,
      "ter": 1180,
      "ve": 1181,
      "##lin": 1182,
      "##ident": 1183,
      "sure": 1184,
      "drin": 1185,
      "same": 1186,
      "used": 1187,
      "eth": 1188,
      "less": 1189,
      "##port": 1190,
      "##ult": 1191,
      "finis": 1192,
      "angry": 1193,
      "lou": 1194,
      "mr": 1195,
      "##iam": 1196,
      "##nesday": 1197,
      "##nder": 1198,
      "brother": 1199,
      "wednesday": 1200,
      "boyfriend": 1201,
      "ce": 1202,
      "due": 1203,
      "kat": 1204,
      "##til": 1205,
      "##ering": 1206,
      "##ently": 1207,
      "boo": 1208,
      "nancy": 1209,
      "song": 1210,
      "##az": 1211,
      "##ym": 1212,
      "##lain": 1213,
      "##book": 1214,
      "prof": 1215,
      "tony": 1216,
      "##iana": 1217,
      "martin": 1218,
      "tuesday": 1219,
      "say": 1220,
      "card": 1221,
      "text": 1222,
      "##athan": 1223,
      "##ivers": 1224,
      "sophie": 1225,
      "##ith": 1226,
      "##gr": 1227,
      "##cel": 1228,
      "black": 1229,
      "##ney": 1230,
      "away": 1231,
      "eli": 1232,
      "eric": 1233,
      "run": 1234,
      "rose": 1235,
      "##ics": 1236,
      "belie": 1237,
      "station": 1238,
      "fran": 1239,
      "liked": 1240,
      "offers": 1241,
      "interested": 1242,
      "classes": 1243,
      "med": 1244,
      "put": 1245,
      "tre": 1246,
      "##ndon": 1247,
      "liz": 1248,
      "##anna": 1249,
      "until": 1250,
      "flat": 1251,
      "company": 1252,
      "children": 1253,
      "ber": 1254,
      "rick": 1255,
      "##ital": 1256,
      "though": 1257,
      "sum": 1258,
      "eva": 1259,
      "noah": 1260,
      "sleep": 1261,
      "11": 1262,
      "mic": 1263,
      "##man": 1264,
      "##00": 1265,
      "##uc": 1266,
      "##ful": 1267,
      "stop": 1268,
      "##osp": 1269,
      "##ela": 1270,
      "team": 1271,
      "charlie": 1272,
      "prepar": 1273,
      "surp": 1274,
      "bi": 1275,
      "brian": 1276,
      "jon": 1277,
      "##ton": 1278,
      "##die": 1279,
      "##thy": 1280,
      "agree": 1281,
      "ethan": 1282,
      "surpris": 1283,
      "cent": 1284,
      "cold": 1285,
      "hal": 1286,
      "set": 1287,
      "since": 1288,
      "ted": 1289,
      "use": 1290,
      "##sc": 1291,
      "##ock": 1292,
      "ital": 1293,
      "art": 1294,
      "playing": 1295,
      "decid": 1296,
      "agrees": 1297,
      "gina": 1298,
      "terry": 1299,
      "under": 1300,
      "##oon": 1301,
      "##yn": 1302,
      "reg": 1303,
      "worried": 1304,
      "##ording": 1305,
      "boss": 1306,
      "ele": 1307,
      "jam": 1308,
      "own": 1309,
      "walk": 1310,
      "zoe": 1311,
      "##nie": 1312,
      "told": 1313,
      "doing": 1314,
      "carl": 1315,
      "someone": 1316,
      "flight": 1317,
      "natal": 1318,
      "into": 1319,
      "cor": 1320,
      "er": 1321,
      "lily": 1322,
      "##gn": 1323,
      "##ont": 1324,
      "##ene": 1325,
      "apartment": 1326,
      "cre": 1327,
      "hop": 1328,
      "lar": 1329,
      "net": 1330,
      "##land": 1331,
      "contact": 1332,
      "##ensive": 1333,
      "mus": 1334,
      "ra": 1335,
      "tv": 1336,
      "##lla": 1337,
      "##ette": 1338,
      "near": 1339,
      "##olog": 1340,
      "##andy": 1341,
      "add": 1342,
      "love": 1343,
      "##aire": 1344,
      "father": 1345,
      "gym": 1346,
      "##gar": 1347,
      "##ana": 1348,
      "isn": 1349,
      "change": 1350,
      "wanted": 1351,
      "pete": 1352,
      "loves": 1353,
      "great": 1354,
      "appoint": 1355,
      "bed": 1356,
      "col": 1357,
      "fav": 1358,
      "jay": 1359,
      "ky": 1360,
      "mir": 1361,
      "things": 1362,
      "ass": 1363,
      "##iona": 1364,
      "leo": 1365,
      "##ody": 1366,
      "paula": 1367,
      "##ize": 1368,
      "drive": 1369,
      "hosp": 1370,
      "jud": 1371,
      "pop": 1372,
      "right": 1373,
      "sal": 1374,
      "tal": 1375,
      "wend": 1376,
      "##view": 1377,
      "##zy": 1378,
      "##ison": 1379,
      "ready": 1380,
      "cla": 1381,
      "club": 1382,
      "teac": 1383,
      "trying": 1384,
      "advises": 1385,
      "problems": 1386,
      "idea": 1387,
      "big": 1388,
      "cost": 1389,
      "came": 1390,
      "face": 1391,
      "fiona": 1392,
      "kit": 1393,
      "##be": 1394,
      "conf": 1395,
      "coll": 1396,
      "dep": 1397,
      "according": 1398,
      "feeling": 1399,
      "open": 1400,
      "lucas": 1401,
      "appointment": 1402,
      "name": 1403,
      "ow": 1404,
      "##een": 1405,
      "##app": 1406,
      "sub": 1407,
      "patric": 1408,
      "victoria": 1409,
      "differ": 1410,
      "tired": 1411,
      "cele": 1412,
      "summer": 1413,
      "hospital": 1414,
      "wendy": 1415,
      "cour": 1416,
      "city": 1417,
      "dor": 1418,
      "online": 1419,
      "stre": 1420,
      "##ails": 1421,
      "half": 1422,
      "ger": 1423,
      "##ues": 1424,
      "##rey": 1425,
      "##ila": 1426,
      "claire": 1427,
      "buying": 1428,
      "teacher": 1429,
      "gave": 1430,
      "##rie": 1431,
      "##em": 1432,
      "##oes": 1433,
      "##work": 1434,
      "william": 1435,
      "aftern": 1436,
      "jenni": 1437,
      "pictures": 1438,
      "simon": 1439,
      "joseph": 1440,
      "patricia": 1441,
      "osc": 1442,
      "vi": 1443,
      "ver": 1444,
      "##loe": 1445,
      "##ball": 1446,
      "town": 1447,
      "isab": 1448,
      "##ita": 1449,
      "really": 1450,
      "##elia": 1451,
      "liam": 1452,
      "lilly": 1453,
      "##rist": 1454,
      "gets": 1455,
      "barbara": 1456,
      "baby": 1457,
      "celebr": 1458,
      "afternoon": 1459,
      "oscar": 1460,
      "cur": 1461,
      "nor": 1462,
      "##ru": 1463,
      "herself": 1464,
      "##ella": 1465,
      "##erson": 1466,
      "##anny": 1467,
      "advice": 1468,
      "picture": 1469,
      "wishes": 1470,
      "hotel": 1471,
      "finished": 1472,
      "sally": 1473,
      "##ited": 1474,
      "##ither": 1475,
      "chang": 1476,
      "chloe": 1477,
      "expensive": 1478,
      "series": 1479,
      "ashley": 1480,
      "land": 1481,
      "megan": 1482,
      "##lix": 1483,
      "grace": 1484,
      "finish": 1485,
      "##ference": 1486,
      "started": 1487,
      "richard": 1488,
      "books": 1489,
      "bra": 1490,
      "jun": 1491,
      "sit": 1492,
      "##say": 1493,
      "##othy": 1494,
      "##ual": 1495,
      "being": 1496,
      "neigh": 1497,
      "intern": 1498,
      "tells": 1499,
      "sandra": 1500,
      "neighb": 1501,
      "beth": 1502,
      "jerry": 1503,
      "nina": 1504,
      "pack": 1505,
      "ru": 1506,
      "##hip": 1507,
      "##ces": 1508,
      "##ins": 1509,
      "##orts": 1510,
      "head": 1511,
      "beh": 1512,
      "molly": 1513,
      "##anne": 1514,
      "betty": 1515,
      "problem": 1516,
      "jennifer": 1517,
      "done": 1518,
      "sy": 1519,
      "##ib": 1520,
      "##ied": 1521,
      "##ole": 1522,
      "##ken": 1523,
      "##fers": 1524,
      "iss": 1525,
      "alan": 1526,
      "brad": 1527,
      "recently": 1528,
      "event": 1529,
      "##issa": 1530,
      "remind": 1531,
      "det": 1532,
      "##ner": 1533,
      "##uary": 1534,
      "##flix": 1535,
      "##iness": 1536,
      "thr": 1537,
      "never": 1538,
      "ref": 1539,
      "marie": 1540,
      "colle": 1541,
      "looks": 1542,
      "booked": 1543,
      "guy": 1544,
      "return": 1545,
      "netflix": 1546,
      "cake": 1547,
      "pam": 1548,
      "ry": 1549,
      "rent": 1550,
      "##res": 1551,
      "##go": 1552,
      "##lo": 1553,
      "##bs": 1554,
      "##hew": 1555,
      "haven": 1556,
      "able": 1557,
      "notes": 1558,
      "conference": 1559,
      "##unk": 1560,
      "##indy": 1561,
      "watched": 1562,
      "##enny": 1563,
      "prefers": 1564,
      "accident": 1565,
      "write": 1566,
      "music": 1567,
      "bit": 1568,
      "diana": 1569,
      "games": 1570,
      "litt": 1571,
      "nice": 1572,
      "val": 1573,
      "wal": 1574,
      "##lish": 1575,
      "##ors": 1576,
      "##antha": 1577,
      "joan": 1578,
      "lear": 1579,
      "spe": 1580,
      "##mail": 1581,
      "sean": 1582,
      "##ggie": 1583,
      "thinking": 1584,
      "samantha": 1585,
      "law": 1586,
      "charles": 1587,
      "##ressed": 1588,
      "arrive": 1589,
      "fix": 1590,
      "facebook": 1591,
      "little": 1592,
      "best": 1593,
      "stan": 1594,
      "rel": 1595,
      "marc": 1596,
      "prop": 1597,
      "match": 1598,
      "univers": 1599,
      "girls": 1600,
      "caroline": 1601,
      "airport": 1602,
      "different": 1603,
      "coo": 1604,
      "person": 1605,
      "##vor": 1606,
      "##ced": 1607,
      "alm": 1608,
      "outside": 1609,
      "exc": 1610,
      "agn": 1611,
      "drunk": 1612,
      "london": 1613,
      "keys": 1614,
      "many": 1615,
      "oliver": 1616,
      "weather": 1617,
      "early": 1618,
      "enjoyed": 1619,
      "english": 1620,
      "fine": 1621,
      "##pe": 1622,
      "##ars": 1623,
      "##ote": 1624,
      "hand": 1625,
      "##room": 1626,
      "ups": 1627,
      "##ump": 1628,
      "water": 1629,
      "season": 1630,
      "park": 1631,
      "business": 1632,
      "supposed": 1633,
      "50": 1634,
      "dro": 1635,
      "nic": 1636,
      "turn": 1637,
      "win": 1638,
      "##ming": 1639,
      "##isy": 1640,
      "inc": 1641,
      "front": 1642,
      "shir": 1643,
      "move": 1644,
      "dead": 1645,
      "##ches": 1646,
      "longer": 1647,
      "ava": 1648,
      "presentation": 1649,
      "natalie": 1650,
      "street": 1651,
      "university": 1652,
      "dam": 1653,
      "##lic": 1654,
      "##bo": 1655,
      "##lled": 1656,
      "##llow": 1657,
      "##ese": 1658,
      "##ised": 1659,
      "##ett": 1660,
      "ins": 1661,
      "married": 1662,
      "##ola": 1663,
      "deb": 1664,
      "lapt": 1665,
      "jackie": 1666,
      "tracy": 1667,
      "donna": 1668,
      "decide": 1669,
      "maya": 1670,
      "missed": 1671,
      "recei": 1672,
      "drinks": 1673,
      "ryan": 1674,
      "hun": 1675,
      "##ling": 1676,
      "##uel": 1677,
      "##anie": 1678,
      "without": 1679,
      "himself": 1680,
      "arr": 1681,
      "act": 1682,
      "##ailable": 1683,
      "interview": 1684,
      "anything": 1685,
      "shares": 1686,
      "almost": 1687,
      "agnes": 1688,
      "laptop": 1689,
      "eur": 1690,
      "high": 1691,
      "jill": 1692,
      "nathan": 1693,
      "##tr": 1694,
      "##med": 1695,
      "##ane": 1696,
      "goes": 1697,
      "share": 1698,
      "paid": 1699,
      "staying": 1700,
      "account": 1701,
      "collect": 1702,
      "link": 1703,
      "##ible": 1704,
      "##helle": 1705,
      "wife": 1706,
      "store": 1707,
      "caron": 1708,
      "spent": 1709,
      "making": 1710,
      "received": 1711,
      "ep": 1712,
      "##lot": 1713,
      "##uce": 1714,
      "##ices": 1715,
      "##ade": 1716,
      "##ects": 1717,
      "amelia": 1718,
      "seeing": 1719,
      "invite": 1720,
      "##ption": 1721,
      "julie": 1722,
      "profess": 1723,
      "upset": 1724,
      "coup": 1725,
      "jen": 1726,
      "lend": 1727,
      "pos": 1728,
      "vick": 1729,
      "##ges": 1730,
      "##ween": 1731,
      "##ona": 1732,
      "once": 1733,
      "##iting": 1734,
      "super": 1735,
      "##ction": 1736,
      "between": 1737,
      "##ways": 1738,
      "##airs": 1739,
      "couldn": 1740,
      "second": 1741,
      "june": 1742,
      "45": 1743,
      "aud": 1744,
      "cos": 1745,
      "email": 1746,
      "snow": 1747,
      "##tt": 1748,
      "##over": 1749,
      "##mar": 1750,
      "##isod": 1751,
      "door": 1752,
      "tommy": 1753,
      "libr": 1754,
      "##abeth": 1755,
      "mail": 1756,
      "gives": 1757,
      "reading": 1758,
      "daisy": 1759,
      "##ughter": 1760,
      "film": 1761,
      "michelle": 1762,
      "episod": 1763,
      "ur": 1764,
      "##ient": 1765,
      "##up": 1766,
      "##und": 1767,
      "##erv": 1768,
      "short": 1769,
      "##cept": 1770,
      "annie": 1771,
      "homework": 1772,
      "recip": 1773,
      "disapp": 1774,
      "visiting": 1775,
      "scar": 1776,
      "ella": 1777,
      "says": 1778,
      "favour": 1779,
      "library": 1780,
      "bas": 1781,
      "gary": 1782,
      "ho": 1783,
      "hard": 1784,
      "ken": 1785,
      "most": 1786,
      "ros": 1787,
      "table": 1788,
      "##body": 1789,
      "##its": 1790,
      "three": 1791,
      "abig": 1792,
      "##cember": 1793,
      "comm": 1794,
      "december": 1795,
      "moved": 1796,
      "explain": 1797,
      "broken": 1798,
      "daughter": 1799,
      "choose": 1800,
      "starts": 1801,
      "listen": 1802,
      "##saw": 1803,
      "refus": 1804,
      "dom": 1805,
      "mall": 1806,
      "##ember": 1807,
      "##als": 1808,
      "conn": 1809,
      "##ffic": 1810,
      "math": 1811,
      "logan": 1812,
      "travel": 1813,
      "melissa": 1814,
      "available": 1815,
      "warsaw": 1816,
      "foot": 1817,
      "course": 1818,
      "dorothy": 1819,
      "abigail": 1820,
      "00": 1821,
      "cal": 1822,
      "cop": 1823,
      "ind": 1824,
      "sell": 1825,
      "##aking": 1826,
      "##ham": 1827,
      "##ony": 1828,
      "##ones": 1829,
      "##othes": 1830,
      "shoes": 1831,
      "moving": 1832,
      "knows": 1833,
      "blue": 1834,
      "larry": 1835,
      "kyle": 1836,
      "talking": 1837,
      "details": 1838,
      "fly": 1839,
      "vac": 1840,
      "##fast": 1841,
      "always": 1842,
      "clothes": 1843,
      "##cky": 1844,
      "pregn": 1845,
      "resp": 1846,
      "arrived": 1847,
      "lor": 1848,
      "lect": 1849,
      "##ract": 1850,
      "##den": 1851,
      "##nda": 1852,
      "##erg": 1853,
      "##ower": 1854,
      "##uter": 1855,
      "##idge": 1856,
      "margar": 1857,
      "alone": 1858,
      "others": 1859,
      "charlot": 1860,
      "##iley": 1861,
      "manag": 1862,
      "poland": 1863,
      "holidays": 1864,
      "considering": 1865,
      "studying": 1866,
      "believes": 1867,
      "confir": 1868,
      "internet": 1869,
      "ruth": 1870,
      "reminds": 1871,
      "charlotte": 1872,
      "ext": 1873,
      "hates": 1874,
      "mandy": 1875,
      "wom": 1876,
      "##sw": 1877,
      "##uation": 1878,
      "##here": 1879,
      "top": 1880,
      "##asm": 1881,
      "march": 1882,
      "life": 1883,
      "maggie": 1884,
      "traffic": 1885,
      "patty": 1886,
      "computer": 1887,
      "movies": 1888,
      "takes": 1889,
      "jimmy": 1890,
      "running": 1891,
      "through": 1892,
      "25": 1893,
      "band": 1894,
      "fel": 1895,
      "ly": 1896,
      "port": 1897,
      "bea": 1898,
      "##key": 1899,
      "##ters": 1900,
      "meg": 1901,
      "chick": 1902,
      "##raid": 1903,
      "soc": 1904,
      "afraid": 1905,
      "paris": 1906,
      "everything": 1907,
      "##yler": 1908,
      "ellie": 1909,
      "breakfast": 1910,
      "jamie": 1911,
      "assign": 1912,
      "owen": 1913,
      "couple": 1914,
      "margaret": 1915,
      "bart": 1916,
      "bath": 1917,
      "bott": 1918,
      "kay": 1919,
      "sl": 1920,
      "wond": 1921,
      "##ix": 1922,
      "##lor": 1923,
      "##cle": 1924,
      "##more": 1925,
      "str": 1926,
      "hist": 1927,
      "joanna": 1928,
      "lives": 1929,
      "alb": 1930,
      "prod": 1931,
      "sex": 1932,
      "died": 1933,
      "matthew": 1934,
      "##ylan": 1935,
      "##asha": 1936,
      "stuff": 1937,
      "grandma": 1938,
      "favourite": 1939,
      "cindy": 1940,
      "den": 1941,
      "hus": 1942,
      "pan": 1943,
      "rain": 1944,
      "wall": 1945,
      "##ire": 1946,
      "##oke": 1947,
      "##lling": 1948,
      "##llie": 1949,
      "##roy": 1950,
      "##vers": 1951,
      "wasn": 1952,
      "news": 1953,
      "paper": 1954,
      "main": 1955,
      "gif": 1956,
      "loc": 1957,
      "whole": 1958,
      "##rent": 1959,
      "expect": 1960,
      "informs": 1961,
      "##wards": 1962,
      "organiz": 1963,
      "decided": 1964,
      "hopes": 1965,
      "aust": 1966,
      "dylan": 1967,
      "ju": 1968,
      "rub": 1969,
      "sched": 1970,
      "theres": 1971,
      "answ": 1972,
      "mem": 1973,
      "doll": 1974,
      "##ope": 1975,
      "convin": 1976,
      "pain": 1977,
      "##chen": 1978,
      "anymore": 1979,
      "jean": 1980,
      "angela": 1981,
      "ordered": 1982,
      "stuck": 1983,
      "preparing": 1984,
      "drop": 1985,
      "professor": 1986,
      "vicky": 1987,
      "cut": 1988,
      "dra": 1989,
      "file": 1990,
      "hor": 1991,
      "muse": 1992,
      "mist": 1993,
      "pot": 1994,
      "till": 1995,
      "##ga": 1996,
      "##band": 1997,
      "theat": 1998,
      "##ults": 1999,
      "spec": 2000,
      "sending": 2001,
      "cheap": 2002,
      "green": 2003,
      "##ages": 2004,
      "##aken": 2005,
      "ticket": 2006,
      "training": 2007,
      "small": 2008,
      "message": 2009,
      "bank": 2010,
      "case": 2011,
      "dere": 2012,
      "danny": 2013,
      "ice": 2014,
      "##hing": 2015,
      "##pa": 2016,
      "here": 2017,
      "suz": 2018,
      "cance": 2019,
      "leg": 2020,
      "amber": 2021,
      "##lier": 2022,
      "makes": 2023,
      "teach": 2024,
      "surprise": 2025,
      "italy": 2026,
      "kitchen": 2027,
      "veron": 2028,
      "neighbour": 2029,
      "deadline": 2030,
      "chicken": 2031,
      "derek": 2032,
      "19": 2033,
      "jord": 2034,
      "mid": 2035,
      "poss": 2036,
      "rom": 2037,
      "syl": 2038,
      "##iet": 2039,
      "##ten": 2040,
      "##ov": 2041,
      "##cum": 2042,
      "##ually": 2043,
      "heal": 2044,
      "##leas": 2045,
      "##ird": 2046,
      "live": 2047,
      "##elle": 2048,
      "##stairs": 2049,
      "cover": 2050,
      "trave": 2051,
      "alexand": 2052,
      "brenda": 2053,
      "steven": 2054,
      "##ights": 2055,
      "everyone": 2056,
      "information": 2057,
      "milk": 2058,
      "essay": 2059,
      "excited": 2060,
      "football": 2061,
      "husband": 2062,
      "40": 2063,
      "bon": 2064,
      "bag": 2065,
      "far": 2066,
      "fren": 2067,
      "ir": 2068,
      "jere": 2069,
      "lee": 2070,
      "ross": 2071,
      "sign": 2072,
      "tur": 2073,
      "##vis": 2074,
      "toby": 2075,
      "throw": 2076,
      "neither": 2077,
      "arg": 2078,
      "exch": 2079,
      "seb": 2080,
      "deal": 2081,
      "tried": 2082,
      "moment": 2083,
      "agreed": 2084,
      "bored": 2085,
      "katie": 2086,
      "cream": 2087,
      "celebrate": 2088,
      "relations": 2089,
      "nicole": 2090,
      "bry": 2091,
      "dre": 2092,
      "eas": 2093,
      "iv": 2094,
      "past": 2095,
      "sing": 2096,
      "##oc": 2097,
      "##da": 2098,
      "##py": 2099,
      "##fa": 2100,
      "##rect": 2101,
      "##ists": 2102,
      "bella": 2103,
      "white": 2104,
      "times": 2105,
      "key": 2106,
      "quest": 2107,
      "driving": 2108,
      "webs": 2109,
      "delay": 2110,
      "earlier": 2111,
      "funny": 2112,
      "centre": 2113,
      "learn": 2114,
      "episode": 2115,
      "recipe": 2116,
      "pregnant": 2117,
      "theresa": 2118,
      "french": 2119,
      "hur": 2120,
      "mind": 2121,
      "ok": 2122,
      "tay": 2123,
      "tyler": 2124,
      "##ta": 2125,
      "##let": 2126,
      "##where": 2127,
      "##pl": 2128,
      "##col": 2129,
      "##jam": 2130,
      "##ule": 2131,
      "form": 2132,
      "leah": 2133,
      "amaz": 2134,
      "dean": 2135,
      "talked": 2136,
      "susp": 2137,
      "polit": 2138,
      "ski": 2139,
      "cafe": 2140,
      "plane": 2141,
      "believe": 2142,
      "trevor": 2143,
      "changed": 2144,
      "lecture": 2145,
      "history": 2146,
      "museum": 2147,
      "cancelled": 2148,
      "aw": 2149,
      "hang": 2150,
      "mill": 2151,
      "russ": 2152,
      "taken": 2153,
      "york": 2154,
      "##ril": 2155,
      "##ever": 2156,
      "##sy": 2157,
      "##vice": 2158,
      "##cess": 2159,
      "beach": 2160,
      "becky": 2161,
      "##ities": 2162,
      "##amp": 2163,
      "sun": 2164,
      "suit": 2165,
      "why": 2166,
      "##stand": 2167,
      "price": 2168,
      "prev": 2169,
      "justin": 2170,
      "interest": 2171,
      "complain": 2172,
      "perform": 2173,
      "swe": 2174,
      "swim": 2175,
      "##ointed": 2176,
      "follow": 2177,
      "artic": 2178,
      "claim": 2179,
      "costs": 2180,
      "veronica": 2181,
      "jeremy": 2182,
      "sebast": 2183,
      "relationship": 2184,
      "bur": 2185,
      "dent": 2186,
      "dest": 2187,
      "lena": 2188,
      "mason": 2189,
      "pri": 2190,
      "##iot": 2191,
      "##men": 2192,
      "##ford": 2193,
      "##isf": 2194,
      "##ime": 2195,
      "mari": 2196,
      "pract": 2197,
      "flo": 2198,
      "writing": 2199,
      "happen": 2200,
      "edward": 2201,
      "sophia": 2202,
      "considers": 2203,
      "transfer": 2204,
      "surprised": 2205,
      "italian": 2206,
      "college": 2207,
      "holly": 2208,
      "refuses": 2209,
      "website": 2210,
      "taylor": 2211,
      "sebastian": 2212,
      "brow": 2213,
      "fact": 2214,
      "hugh": 2215,
      "mer": 2216,
      "##ket": 2217,
      "##xit": 2218,
      "##ira": 2219,
      "##lyn": 2220,
      "comes": 2221,
      "##avi": 2222,
      "laure": 2223,
      "entr": 2224,
      "january": 2225,
      "july": 2226,
      "using": 2227,
      "scott": 2228,
      "report": 2229,
      "else": 2230,
      "opin": 2231,
      "promises": 2232,
      "lesson": 2233,
      "louise": 2234,
      "##ology": 2235,
      "cooking": 2236,
      "shirt": 2237,
      "assignment": 2238,
      "entrance": 2239,
      "fan": 2240,
      "iren": 2241,
      "king": 2242,
      "lia": 2243,
      "uk": 2244,
      "##sh": 2245,
      "##dd": 2246,
      "##ler": 2247,
      "##ze": 2248,
      "##que": 2249,
      "##itch": 2250,
      "reck": 2251,
      "##urch": 2252,
      "spain": 2253,
      "road": 2254,
      "enough": 2255,
      "visited": 2256,
      "grad": 2257,
      "##athy": 2258,
      "angel": 2259,
      "jessie": 2260,
      "georg": 2261,
      "smith": 2262,
      "thanks": 2263,
      "support": 2264,
      "offered": 2265,
      "transl": 2266,
      "drinking": 2267,
      "current": 2268,
      "speak": 2269,
      "domin": 2270,
      "copy": 2271,
      "jordan": 2272,
      "count": 2273,
      "fish": 2274,
      "mal": 2275,
      "ol": 2276,
      "pen": 2277,
      "ray": 2278,
      "ral": 2279,
      "sol": 2280,
      "van": 2281,
      "you": 2282,
      "##bers": 2283,
      "inf": 2284,
      "beat": 2285,
      "##oses": 2286,
      "docum": 2287,
      "leon": 2288,
      "clar": 2289,
      "build": 2290,
      "spot": 2291,
      "exper": 2292,
      "played": 2293,
      "market": 2294,
      "bread": 2295,
      "suggest": 2296,
      "students": 2297,
      "discount": 2298,
      "wrong": 2299,
      "cats": 2300,
      "deliver": 2301,
      "passed": 2302,
      "decides": 2303,
      "miranda": 2304,
      "audrey": 2305,
      "travelling": 2306,
      "##isfied": 2307,
      "gro": 2308,
      "ill": 2309,
      "que": 2310,
      "##ral": 2311,
      "##ien": 2312,
      "##lud": 2313,
      "##bec": 2314,
      "##oria": 2315,
      "##icia": 2316,
      "hall": 2317,
      "##els": 2318,
      "##pped": 2319,
      "##ational": 2320,
      "span": 2321,
      "partner": 2322,
      "afterwards": 2323,
      "cond": 2324,
      "flu": 2325,
      "##ips": 2326,
      "brexit": 2327,
      "said": 2328,
      "shower": 2329,
      "against": 2330,
      "ellen": 2331,
      "andrea": 2332,
      "downstairs": 2333,
      "claud": 2334,
      "situation": 2335,
      "issues": 2336,
      "theatre": 2337,
      "article": 2338,
      "ralph": 2339,
      "cas": 2340,
      "cra": 2341,
      "dou": 2342,
      "kas": 2343,
      "kind": 2344,
      "rita": 2345,
      "sn": 2346,
      "sel": 2347,
      "size": 2348,
      "tam": 2349,
      "##ped": 2350,
      "##cis": 2351,
      "##ments": 2352,
      "##uck": 2353,
      "##ino": 2354,
      "##ania": 2355,
      "##aron": 2356,
      "thought": 2357,
      "##ada": 2358,
      "ana": 2359,
      "##unt": 2360,
      "exh": 2361,
      "board": 2362,
      "##ennis": 2363,
      "evan": 2364,
      "##ortant": 2365,
      "flow": 2366,
      "jacket": 2367,
      "blake": 2368,
      "apply": 2369,
      "steph": 2370,
      "lately": 2371,
      "##ilda": 2372,
      "service": 2373,
      "police": 2374,
      "april": 2375,
      "cookies": 2376,
      "important": 2377,
      "veget": 2378,
      "berlin": 2379,
      "understand": 2380,
      "##load": 2381,
      "disappointed": 2382,
      "special": 2383,
      "irene": 2384,
      "reckons": 2385,
      "spanish": 2386,
      "aunt": 2387,
      "finn": 2388,
      "ola": 2389,
      "rory": 2390,
      "sil": 2391,
      "soup": 2392,
      "ty": 2393,
      "tat": 2394,
      "via": 2395,
      "wind": 2396,
      "##ki": 2397,
      "##ert": 2398,
      "##though": 2399,
      "bec": 2400,
      "anth": 2401,
      "rebec": 2402,
      "##rible": 2403,
      "albert": 2404,
      "although": 2405,
      "##ula": 2406,
      "cancel": 2407,
      "washing": 2408,
      "close": 2409,
      "annoy": 2410,
      "exer": 2411,
      "mag": 2412,
      "uncle": 2413,
      "100": 2414,
      "however": 2415,
      "sharon": 2416,
      "camp": 2417,
      "freddie": 2418,
      "sonia": 2419,
      "boring": 2420,
      "winter": 2421,
      "beaut": 2422,
      "ruby": 2423,
      "sylvia": 2424,
      "previous": 2425,
      "rebecca": 2426,
      "dating": 2427,
      "krist": 2428,
      "les": 2429,
      "rh": 2430,
      "sad": 2431,
      "youn": 2432,
      "##hol": 2433,
      "heard": 2434,
      "stand": 2435,
      "asking": 2436,
      "##rib": 2437,
      "##essa": 2438,
      "clock": 2439,
      "##acey": 2440,
      "##illa": 2441,
      "mona": 2442,
      "donald": 2443,
      "diet": 2444,
      "barry": 2445,
      "step": 2446,
      "suggested": 2447,
      "results": 2448,
      "robin": 2449,
      "elis": 2450,
      "consider": 2451,
      "sandy": 2452,
      "prepared": 2453,
      "bike": 2454,
      "address": 2455,
      "bottle": 2456,
      "gifts": 2457,
      "swimming": 2458,
      "claims": 2459,
      "dentist": 2460,
      "lauren": 2461,
      "opinion": 2462,
      "18": 2463,
      "aaron": 2464,
      "cous": 2465,
      "ec": 2466,
      "fight": 2467,
      "fell": 2468,
      "gard": 2469,
      "hi": 2470,
      "jasm": 2471,
      "mac": 2472,
      "mach": 2473,
      "oct": 2474,
      "pu": 2475,
      "viv": 2476,
      "##gi": 2477,
      "##ok": 2478,
      "##bi": 2479,
      "##me": 2480,
      "##min": 2481,
      "##xi": 2482,
      "inside": 2483,
      "ate": 2484,
      "##aces": 2485,
      "sheila": 2486,
      "##ows": 2487,
      "##amed": 2488,
      "##vey": 2489,
      "chat": 2490,
      "joy": 2491,
      "##ries": 2492,
      "note": 2493,
      "client": 2494,
      "brun": 2495,
      "whether": 2496,
      "samuel": 2497,
      "tea": 2498,
      "flor": 2499,
      "joining": 2500,
      "pauline": 2501,
      "recommended": 2502,
      "##atherine": 2503,
      "starting": 2504,
      "melanie": 2505,
      "remember": 2506,
      "bobby": 2507,
      "##ival": 2508,
      "design": 2509,
      "louis": 2510,
      "lizzy": 2511,
      "jonathan": 2512,
      "stanley": 2513,
      "arrange": 2514,
      "flying": 2515,
      "dollars": 2516,
      "exchange": 2517,
      "##jamin": 2518,
      "flowers": 2519,
      "anthony": 2520,
      "either": 2521,
      "fall": 2522,
      "fail": 2523,
      "gar": 2524,
      "hit": 2525,
      "ka": 2526,
      "sab": 2527,
      "yog": 2528,
      "zack": 2529,
      "##ik": 2530,
      "##ika": 2531,
      "##gers": 2532,
      "##well": 2533,
      "##ci": 2534,
      "##cks": 2535,
      "##ja": 2536,
      "##bie": 2537,
      "##mma": 2538,
      "##ua": 2539,
      "##xic": 2540,
      "##hen": 2541,
      "##ata": 2542,
      "##ret": 2543,
      "isla": 2544,
      "heather": 2545,
      "bel": 2546,
      "##ghts": 2547,
      "ali": 2548,
      "##ular": 2549,
      "carrie": 2550,
      "clara": 2551,
      "brit": 2552,
      "rod": 2553,
      "adrian": 2554,
      "##avier": 2555,
      "amer": 2556,
      "box": 2557,
      "seat": 2558,
      "accept": 2559,
      "danie": 2560,
      "##uba": 2561,
      "janet": 2562,
      "benjamin": 2563,
      "febr": 2564,
      "eating": 2565,
      "polish": 2566,
      "kimber": 2567,
      "sky": 2568,
      "chocol": 2569,
      "organize": 2570,
      "haird": 2571,
      "sleeping": 2572,
      "promot": 2573,
      "philip": 2574,
      "cleaning": 2575,
      "vegan": 2576,
      "carlos": 2577,
      "poppy": 2578,
      "behavi": 2579,
      "europe": 2580,
      "bathroom": 2581,
      "album": 2582,
      "interesting": 2583,
      "practice": 2584,
      "february": 2585,
      "cher": 2586,
      "fu": 2587,
      "fest": 2588,
      "gone": 2589,
      "mount": 2590,
      "nora": 2591,
      "oper": 2592,
      "ren": 2593,
      "sor": 2594,
      "tes": 2595,
      "##ek": 2596,
      "##cing": 2597,
      "toil": 2598,
      "stressed": 2599,
      "congr": 2600,
      "##ables": 2601,
      "##ille": 2602,
      "pap": 2603,
      "roy": 2604,
      "##ume": 2605,
      "nothing": 2606,
      "cheese": 2607,
      "dance": 2608,
      "reserv": 2609,
      "##ogra": 2610,
      "serious": 2611,
      "catch": 2612,
      "fire": 2613,
      "exams": 2614,
      "miles": 2615,
      "ideas": 2616,
      "diffic": 2617,
      "polly": 2618,
      "gabrie": 2619,
      "viol": 2620,
      "includ": 2621,
      "manager": 2622,
      "health": 2623,
      "exerc": 2624,
      "garden": 2625,
      "toilet": 2626,
      "congrat": 2627,
      "14": 2628,
      "aid": 2629,
      "hank": 2630,
      "jar": 2631,
      "kai": 2632,
      "lola": 2633,
      "ment": 2634,
      "must": 2635,
      "nate": 2636,
      "pie": 2637,
      "pill": 2638,
      "sold": 2639,
      "vet": 2640,
      "##riel": 2641,
      "##gin": 2642,
      "##ss": 2643,
      "##dia": 2644,
      "##ple": 2645,
      "##bur": 2646,
      "todd": 2647,
      "##eral": 2648,
      "wil": 2649,
      "##ayla": 2650,
      "##ots": 2651,
      "sha": 2652,
      "living": 2653,
      "along": 2654,
      "alco": 2655,
      "convers": 2656,
      "brought": 2657,
      "arth": 2658,
      "##astic": 2659,
      "spl": 2660,
      "roger": 2661,
      "##earch": 2662,
      "##ggy": 2663,
      "helps": 2664,
      "finally": 2665,
      "shows": 2666,
      "quit": 2667,
      "warm": 2668,
      "perf": 2669,
      "videos": 2670,
      "glass": 2671,
      "gloria": 2672,
      "gabriel": 2673,
      "elect": 2674,
      "judy": 2675,
      "syst": 2676,
      "##chester": 2677,
      "hung": 2678,
      "vacation": 2679,
      "extra": 2680,
      "lydia": 2681,
      "raining": 2682,
      "possible": 2683,
      "elisabeth": 2684,
      "cousin": 2685,
      "tesco": 2686,
      "congratul": 2687,
      "alcohol": 2688,
      "17": 2689,
      "21": 2690,
      "ey": 2691,
      "fed": 2692,
      "fut": 2693,
      "ham": 2694,
      "mas": 2695,
      "pal": 2696,
      "pear": 2697,
      "penny": 2698,
      "rad": 2699,
      "sou": 2700,
      "##ror": 2701,
      "##iat": 2702,
      "##ience": 2703,
      "##gery": 2704,
      "##cus": 2705,
      "##fit": 2706,
      "##ories": 2707,
      "island": 2708,
      "##lept": 2709,
      "##ider": 2710,
      "stacy": 2711,
      "real": 2712,
      "reason": 2713,
      "carmen": 2714,
      "broo": 2715,
      "prov": 2716,
      "sever": 2717,
      "##iane": 2718,
      "dem": 2719,
      "calling": 2720,
      "##ains": 2721,
      "laund": 2722,
      "helped": 2723,
      "201": 2724,
      "surgery": 2725,
      "discussing": 2726,
      "keeps": 2727,
      "medic": 2728,
      "##ocked": 2729,
      "isabella": 2730,
      "colleag": 2731,
      "walter": 2732,
      "marcus": 2733,
      "connect": 2734,
      "happened": 2735,
      "brown": 2736,
      "exhib": 2737,
      "jasmine": 2738,
      "machine": 2739,
      "yoga": 2740,
      "difficult": 2741,
      "split": 2742,
      "system": 2743,
      "future": 2744,
      "16": 2745,
      "diane": 2746,
      "egg": 2747,
      "four": 2748,
      "fli": 2749,
      "hil": 2750,
      "##vate": 2751,
      "##ds": 2752,
      "##lace": 2753,
      "##hem": 2754,
      "touch": 2755,
      "theo": 2756,
      "##orn": 2757,
      "##ute": 2758,
      "##ield": 2759,
      "ant": 2760,
      "chann": 2761,
      "##eline": 2762,
      "##rove": 2763,
      "alison": 2764,
      "world": 2765,
      "such": 2766,
      "somewhere": 2767,
      "lea": 2768,
      "bruce": 2769,
      "proper": 2770,
      "needed": 2771,
      "print": 2772,
      "johnny": 2773,
      "given": 2774,
      "calls": 2775,
      "disli": 2776,
      "parking": 2777,
      "trou": 2778,
      "madison": 2779,
      "twice": 2780,
      "##atha": 2781,
      "gemma": 2782,
      "guests": 2783,
      "joshua": 2784,
      "##itten": 2785,
      "##ify": 2786,
      "ronald": 2787,
      "francis": 2788,
      "stopped": 2789,
      "isabel": 2790,
      "schedule": 2791,
      "answer": 2792,
      "alexander": 2793,
      "bryan": 2794,
      "floor": 2795,
      "country": 2796,
      "claudia": 2797,
      "chocolate": 2798,
      "festival": 2799,
      "sorry": 2800,
      "reservation": 2801,
      "arthur": 2802,
      "gal": 2803,
      "hum": 2804,
      "lara": 2805,
      "lang": 2806,
      "men": 2807,
      "mick": 2808,
      "ollie": 2809,
      "pink": 2810,
      "rome": 2811,
      "sid": 2812,
      "sant": 2813,
      "tas": 2814,
      "uber": 2815,
      "##ness": 2816,
      "##fort": 2817,
      "##zabeth": 2818,
      "##ency": 2819,
      "isa": 2820,
      "hear": 2821,
      "ones": 2822,
      "hers": 2823,
      "##used": 2824,
      "anita": 2825,
      "reach": 2826,
      "mexic": 2827,
      "places": 2828,
      "##ession": 2829,
      "annivers": 2830,
      "prin": 2831,
      "##enna": 2832,
      "loved": 2833,
      "uns": 2834,
      "satisfied": 2835,
      "##ission": 2836,
      "##phone": 2837,
      "manchester": 2838,
      "angie": 2839,
      "wrote": 2840,
      "grab": 2841,
      "reports": 2842,
      "cale": 2843,
      "lessons": 2844,
      "songs": 2845,
      "elizabeth": 2846,
      "erin": 2847,
      "hope": 2848,
      "favor": 2849,
      "pamela": 2850,
      "##box": 2851,
      "explains": 2852,
      "woman": 2853,
      "produc": 2854,
      "##leased": 2855,
      "questions": 2856,
      "private": 2857,
      "dominic": 2858,
      "building": 2859,
      "stephanie": 2860,
      "failed": 2861,
      "brooke": 2862,
      "anniversary": 2863,
      "ba": 2864,
      "cec": 2865,
      "cast": 2866,
      "die": 2867,
      "host": 2868,
      "ike": 2869,
      "na": 2870,
      "norm": 2871,
      "san": 2872,
      "zara": 2873,
      "##rad": 2874,
      "##ned": 2875,
      "##led": 2876,
      "##cent": 2877,
      "##bon": 2878,
      "##ught": 2879,
      "tour": 2880,
      "goog": 2881,
      "##itar": 2882,
      "fridge": 2883,
      "alf": 2884,
      "least": 2885,
      "##inder": 2886,
      "afford": 2887,
      "pair": 2888,
      "sports": 2889,
      "agatha": 2890,
      "mater": 2891,
      "minute": 2892,
      "picking": 2893,
      "picked": 2894,
      "bringing": 2895,
      "christian": 2896,
      "##isha": 2897,
      "##aged": 2898,
      "tries": 2899,
      "anyway": 2900,
      "student": 2901,
      "##resser": 2902,
      "contro": 2903,
      "lindsay": 2904,
      "misses": 2905,
      "deli": 2906,
      "shared": 2907,
      "camer": 2908,
      "messages": 2909,
      "learning": 2910,
      "confirm": 2911,
      "wallet": 2912,
      "suzie": 2913,
      "performance": 2914,
      "kimberly": 2915,
      "hairdresser": 2916,
      "hungry": 2917,
      "several": 2918,
      "exhibition": 2919,
      "13": 2920,
      "22": 2921,
      "aven": 2922,
      "bat": 2923,
      "bri": 2924,
      "cy": 2925,
      "cro": 2926,
      "gen": 2927,
      "hu": 2928,
      "lake": 2929,
      "line": 2930,
      "mot": 2931,
      "mur": 2932,
      "save": 2933,
      "tab": 2934,
      "troy": 2935,
      "vo": 2936,
      "vot": 2937,
      "##ius": 2938,
      "##lene": 2939,
      "##word": 2940,
      "##cou": 2941,
      "##zo": 2942,
      "thes": 2943,
      "##ater": 2944,
      "##ense": 2945,
      "forward": 2946,
      "third": 2947,
      "france": 2948,
      "##ilia": 2949,
      "meat": 2950,
      "meal": 2951,
      "church": 2952,
      "##acks": 2953,
      "arch": 2954,
      "progr": 2955,
      "partic": 2956,
      "sammy": 2957,
      "finding": 2958,
      "decor": 2959,
      "decis": 2960,
      "invitation": 2961,
      "##aps": 2962,
      "instru": 2963,
      "contract": 2964,
      "billy": 2965,
      "focus": 2966,
      "##iful": 2967,
      "dark": 2968,
      "postp": 2969,
      "finishes": 2970,
      "colour": 2971,
      "german": 2972,
      "women": 2973,
      "portug": 2974,
      "delayed": 2975,
      "olga": 2976,
      "document": 2977,
      "beautiful": 2978,
      "full": 2979,
      "conversation": 2980,
      "laundry": 2981,
      "channel": 2982,
      "trouble": 2983,
      "ikea": 2984,
      "program": 2985,
      "bak": 2986,
      "crist": 2987,
      "dora": 2988,
      "est": 2989,
      "fab": 2990,
      "hy": 2991,
      "hay": 2992,
      "im": 2993,
      "jour": 2994,
      "kn": 2995,
      "kris": 2996,
      "pur": 2997,
      "pool": 2998,
      "power": 2999,
      "rid": 3000,
      "ride": 3001,
      "rather": 3002,
      "tara": 3003,
      "ven": 3004,
      "vol": 3005,
      "yout": 3006,
      "##ients": 3007,
      "##aks": 3008,
      "##aper": 3009,
      "##yle": 3010,
      "##hop": 3011,
      "##less": 3012,
      "##mother": 3013,
      "##ines": 3014,
      "##esa": 3015,
      "##ism": 3016,
      "willing": 3017,
      "##oud": 3018,
      "##thia": 3019,
      "##itive": 3020,
      "often": 3021,
      "##ush": 3022,
      "##osing": 3023,
      "##tery": 3024,
      "##uri": 3025,
      "##ially": 3026,
      "marry": 3027,
      "shi": 3028,
      "##rish": 3029,
      "page": 3030,
      "##ude": 3031,
      "enter": 3032,
      "cheaper": 3033,
      "prefer": 3034,
      "dana": 3035,
      "##ube": 3036,
      "divor": 3037,
      "julian": 3038,
      "harvey": 3039,
      "feed": 3040,
      "susie": 3041,
      "guitar": 3042,
      "repair": 3043,
      "apolog": 3044,
      "password": 3045,
      "wearing": 3046,
      "public": 3047,
      "secret": 3048,
      "teresa": 3049,
      "mrs": 3050,
      "cards": 3051,
      "media": 3052,
      "##ucks": 3053,
      "natalia": 3054,
      "package": 3055,
      "proposed": 3056,
      "rosie": 3057,
      "connor": 3058,
      "throwing": 3059,
      "georgia": 3060,
      "condition": 3061,
      "young": 3062,
      "florence": 3063,
      "favorite": 3064,
      "delivery": 3065,
      "thesis": 3066,
      "cust": 3067,
      "dry": 3068,
      "fai": 3069,
      "ign": 3070,
      "opt": 3071,
      "pad": 3072,
      "row": 3073,
      "si": 3074,
      "squ": 3075,
      "session": 3076,
      "vote": 3077,
      "zach": 3078,
      "##ron": 3079,
      "##rina": 3080,
      "##hi": 3081,
      "##cut": 3082,
      "##bre": 3083,
      "##uct": 3084,
      "##ants": 3085,
      "##ative": 3086,
      "##icy": 3087,
      "goss": 3088,
      "beg": 3089,
      "##iter": 3090,
      "stra": 3091,
      "reun": 3092,
      "marion": 3093,
      "mario": 3094,
      "##rod": 3095,
      "##uled": 3096,
      "worked": 3097,
      "outfit": 3098,
      "adm": 3099,
      "deg": 3100,
      "##ustr": 3101,
      "giving": 3102,
      "empl": 3103,
      "cheer": 3104,
      "christine": 3105,
      "alexis": 3106,
      "final": 3107,
      "quite": 3108,
      "attract": 3109,
      "delet": 3110,
      "natasha": 3111,
      "dogs": 3112,
      "evelyn": 3113,
      "enjoys": 3114,
      "grandmother": 3115,
      "posted": 3116,
      "katy": 3117,
      "behind": 3118,
      "issue": 3119,
      "returned": 3120,
      "proposes": 3121,
      "damian": 3122,
      "arrang": 3123,
      "social": 3124,
      "organizing": 3125,
      "juice": 3126,
      "skiing": 3127,
      "window": 3128,
      "leslie": 3129,
      "skype": 3130,
      "products": 3131,
      "youtube": 3132,
      "custom": 3133,
      "reunion": 3134,
      "employ": 3135,
      "aug": 3136,
      "cred": 3137,
      "cuba": 3138,
      "dub": 3139,
      "fant": 3140,
      "gw": 3141,
      "gara": 3142,
      "las": 3143,
      "lent": 3144,
      "lady": 3145,
      "ms": 3146,
      "mu": 3147,
      "nerv": 3148,
      "nights": 3149,
      "ob": 3150,
      "ram": 3151,
      "randy": 3152,
      "riley": 3153,
      "vers": 3154,
      "xavier": 3155,
      "##ria": 3156,
      "##ece": 3157,
      "##night": 3158,
      "##ps": 3159,
      "##mon": 3160,
      "##ints": 3161,
      "##ores": 3162,
      "##ator": 3163,
      "##oming": 3164,
      "heav": 3165,
      "its": 3166,
      "anim": 3167,
      "anton": 3168,
      "frustr": 3169,
      "##ility": 3170,
      "##urt": 3171,
      "##olas": 3172,
      "const": 3173,
      "brid": 3174,
      "arn": 3175,
      "spr": 3176,
      "spa": 3177,
      "space": 3178,
      "##ounds": 3179,
      "maur": 3180,
      "sept": 3181,
      "johnson": 3182,
      "##odation": 3183,
      "helping": 3184,
      "dist": 3185,
      "nove": 3186,
      "invol": 3187,
      "maddie": 3188,
      "accomm": 3189,
      "##rence": 3190,
      "safe": 3191,
      "jenna": 3192,
      "sushi": 3193,
      "whereas": 3194,
      "fifa": 3195,
      "nicky": 3196,
      "marta": 3197,
      "impressed": 3198,
      "wish": 3199,
      "profile": 3200,
      "department": 3201,
      "brandon": 3202,
      "fixed": 3203,
      "##board": 3204,
      "urs": 3205,
      "scared": 3206,
      "listening": 3207,
      "felix": 3208,
      "draw": 3209,
      "stephen": 3210,
      "econ": 3211,
      "papers": 3212,
      "south": 3213,
      "eggs": 3214,
      "hilary": 3215,
      "material": 3216,
      "faith": 3217,
      "gossip": 3218,
      "august": 3219,
      "nervous": 3220,
      "september": 3221,
      "cup": 3222,
      "dy": 3223,
      "fit": 3224,
      "fast": 3225,
      "kill": 3226,
      "lyn": 3227,
      "lenny": 3228,
      "mc": 3229,
      "national": 3230,
      "psy": 3231,
      "slept": 3232,
      "##ram": 3233,
      "##rid": 3234,
      "##iff": 3235,
      "##ired": 3236,
      "##ns": 3237,
      "##par": 3238,
      "##jects": 3239,
      "##rees": 3240,
      "##ising": 3241,
      "##asts": 3242,
      "gold": 3243,
      "thai": 3244,
      "neil": 3245,
      "within": 3246,
      "##tern": 3247,
      "chand": 3248,
      "tomat": 3249,
      "upd": 3250,
      "clare": 3251,
      "closed": 3252,
      "##ung": 3253,
      "##aves": 3254,
      "code": 3255,
      "jackson": 3256,
      "trump": 3257,
      "apple": 3258,
      "complet": 3259,
      "stef": 3260,
      "fever": 3261,
      "scre": 3262,
      "president": 3263,
      "guys": 3264,
      "replace": 3265,
      "smo": 3266,
      "elena": 3267,
      "##ific": 3268,
      "desp": 3269,
      "desc": 3270,
      "desk": 3271,
      "points": 3272,
      "promised": 3273,
      "teddy": 3274,
      "election": 3275,
      "corner": 3276,
      "correct": 3277,
      "jude": 3278,
      "judith": 3279,
      "landed": 3280,
      "sitting": 3281,
      "valent": 3282,
      "position": 3283,
      "basket": 3284,
      "respons": 3285,
      "topic": 3286,
      "expected": 3287,
      "austin": 3288,
      "convinced": 3289,
      "easy": 3290,
      "political": 3291,
      "vegetables": 3292,
      "cheryl": 3293,
      "##ograph": 3294,
      "violet": 3295,
      "pearl": 3296,
      "flights": 3297,
      "google": 3298,
      "particip": 3299,
      "garage": 3300,
      "november": 3301,
      "ursula": 3302,
      "35": 3303,
      "bang": 3304,
      "cand": 3305,
      "cab": 3306,
      "cathy": 3307,
      "fa": 3308,
      "fre": 3309,
      "gil": 3310,
      "gate": 3311,
      "hom": 3312,
      "jap": 3313,
      "lenn": 3314,
      "nad": 3315,
      "nails": 3316,
      "opp": 3317,
      "ring": 3318,
      "river": 3319,
      "tree": 3320,
      "vin": 3321,
      "vod": 3322,
      "view": 3323,
      "##ster": 3324,
      "##ober": 3325,
      "##cher": 3326,
      "beers": 3327,
      "##ality": 3328,
      "fru": 3329,
      "##ghan": 3330,
      "rela": 3331,
      "review": 3332,
      "hallow": 3333,
      "hailey": 3334,
      "abby": 3335,
      "carter": 3336,
      "sof": 3337,
      "britt": 3338,
      "##ston": 3339,
      "spee": 3340,
      "bohem": 3341,
      "##ardo": 3342,
      "emb": 3343,
      "noon": 3344,
      "nobody": 3345,
      "dancing": 3346,
      "allerg": 3347,
      "plays": 3348,
      "grey": 3349,
      "greta": 3350,
      "shouldn": 3351,
      "charity": 3352,
      "access": 3353,
      "compet": 3354,
      "sale": 3355,
      "harper": 3356,
      "manage": 3357,
      "usual": 3358,
      "resched": 3359,
      "research": 3360,
      "maybe": 3361,
      "advised": 3362,
      "letter": 3363,
      "luna": 3364,
      "morgan": 3365,
      "karl": 3366,
      "checked": 3367,
      "dresses": 3368,
      "missing": 3369,
      "caught": 3370,
      "introd": 3371,
      "cross": 3372,
      "files": 3373,
      "daria": 3374,
      "starb": 3375,
      "terrible": 3376,
      "central": 3377,
      "salad": 3378,
      "kitty": 3379,
      "owes": 3380,
      "subway": 3381,
      "isabelle": 3382,
      "changing": 3383,
      "cooper": 3384,
      "supermar": 3385,
      "selling": 3386,
      "respond": 3387,
      "drew": 3388,
      "suspects": 3389,
      "vanessa": 3390,
      "delivered": 3391,
      "october": 3392,
      "behaviour": 3393,
      "mountains": 3394,
      "langu": 3395,
      "##apsody": 3396,
      "accommodation": 3397,
      "psych": 3398,
      "chandler": 3399,
      "japan": 3400,
      "vodka": 3401,
      "relax": 3402,
      "halloween": 3403,
      "bohemian": 3404,
      "60": 3405,
      "7pm": 3406,
      "8pm": 3407,
      "ari": 3408,
      "bow": 3409,
      "bost": 3410,
      "cir": 3411,
      "cash": 3412,
      "catherine": 3413,
      "dee": 3414,
      "dates": 3415,
      "hug": 3416,
      "lin": 3417,
      "named": 3418,
      "pra": 3419,
      "sav": 3420,
      "side": 3421,
      "seth": 3422,
      "ten": 3423,
      "tinder": 3424,
      "yell": 3425,
      "##ige": 3426,
      "##ged": 3427,
      "##tle": 3428,
      "##ax": 3429,
      "##ya": 3430,
      "##hood": 3431,
      "##win": 3432,
      "##pec": 3433,
      "##mission": 3434,
      "##ky": 3435,
      "heid": 3436,
      "##itter": 3437,
      "thing": 3438,
      "thre": 3439,
      "##alie": 3440,
      "stru": 3441,
      "area": 3442,
      "##oof": 3443,
      "##ural": 3444,
      "##urance": 3445,
      "chap": 3446,
      "jody": 3447,
      "abs": 3448,
      "butter": 3449,
      "lift": 3450,
      "pln": 3451,
      "lew": 3452,
      "pages": 3453,
      "mob": 3454,
      "press": 3455,
      "prices": 3456,
      "##sea": 3457,
      "##sey": 3458,
      "##iano": 3459,
      "diss": 3460,
      "dish": 3461,
      "encou": 3462,
      "unp": 3463,
      "parcel": 3464,
      "##inny": 3465,
      "##ized": 3466,
      "grant": 3467,
      "charac": 3468,
      "charger": 3469,
      "appro": 3470,
      "recommendations": 3471,
      "wouldn": 3472,
      "howard": 3473,
      "advise": 3474,
      "200": 3475,
      "written": 3476,
      "morris": 3477,
      "arrives": 3478,
      "payment": 3479,
      "joey": 3480,
      "planned": 3481,
      "mila": 3482,
      "hanna": 3483,
      "funeral": 3484,
      "cooked": 3485,
      "receive": 3486,
      "spending": 3487,
      "medical": 3488,
      "bern": 3489,
      "regard": 3490,
      "erica": 3491,
      "kylie": 3492,
      "depart": 3493,
      "brand": 3494,
      "neighbor": 3495,
      "insurance": 3496,
      "lori": 3497,
      "kayla": 3498,
      "##royed": 3499,
      "juan": 3500,
      "mistake": 3501,
      "ivy": 3502,
      "kasia": 3503,
      "bruno": 3504,
      "danielle": 3505,
      "exercises": 3506,
      "jared": 3507,
      "mexico": 3508,
      "unsure": 3509,
      "diego": 3510,
      "decision": 3511,
      "portugal": 3512,
      "square": 3513,
      "credit": 3514,
      "speech": 3515,
      "starbucks": 3516,
      "boston": 3517,
      "encoura": 3518,
      "au": 3519,
      "aut": 3520,
      "bal": 3521,
      "bake": 3522,
      "ball": 3523,
      "baking": 3524,
      "cass": 3525,
      "dennis": 3526,
      "eff": 3527,
      "fig": 3528,
      "five": 3529,
      "id": 3530,
      "iphone": 3531,
      "lim": 3532,
      "mate": 3533,
      "mood": 3534,
      "nar": 3535,
      "pounds": 3536,
      "tess": 3537,
      "tast": 3538,
      "tips": 3539,
      "woke": 3540,
      "yuri": 3541,
      "##time": 3542,
      "##oid": 3543,
      "##yer": 3544,
      "##lett": 3545,
      "##cery": 3546,
      "##mit": 3547,
      "##ured": 3548,
      "##atic": 3549,
      "##omi": 3550,
      "nelly": 3551,
      "sta": 3552,
      "stress": 3553,
      "story": 3554,
      "##ilar": 3555,
      "##ional": 3556,
      "joanne": 3557,
      "##rik": 3558,
      "worth": 3559,
      "##opher": 3560,
      "##cakes": 3561,
      "carson": 3562,
      "bud": 3563,
      "timothy": 3564,
      "paint": 3565,
      "spo": 3566,
      "adri": 3567,
      "phoe": 3568,
      "watches": 3569,
      "body": 3570,
      "dev": 3571,
      "def": 3572,
      "luck": 3573,
      "##gger": 3574,
      "##gged": 3575,
      "matilda": 3576,
      "laugh": 3577,
      "tech": 3578,
      "ent": 3579,
      "unh": 3580,
      "pret": 3581,
      "##inning": 3582,
      "christina": 3583,
      "blood": 3584,
      "direct": 3585,
      "keith": 3586,
      "saf": 3587,
      "latest": 3588,
      "uses": 3589,
      "usually": 3590,
      "driver": 3591,
      "camilla": 3592,
      "simone": 3593,
      "haircut": 3594,
      "workshop": 3595,
      "espec": 3596,
      "filip": 3597,
      "reception": 3598,
      "treat": 3599,
      "center": 3600,
      "court": 3601,
      "debbie": 3602,
      "hunter": 3603,
      "positive": 3604,
      "scarlett": 3605,
      "managed": 3606,
      "wondering": 3607,
      "scheduled": 3608,
      "cute": 3609,
      "dream": 3610,
      "amazing": 3611,
      "destin": 3612,
      "destroyed": 3613,
      "clark": 3614,
      "grocery": 3615,
      "become": 3616,
      "kristen": 3617,
      "sabrina": 3618,
      "perfect": 3619,
      "glasses": 3620,
      "electric": 3621,
      "santa": 3622,
      "caleb": 3623,
      "shift": 3624,
      "gwen": 3625,
      "frustrated": 3626,
      "despite": 3627,
      "competition": 3628,
      "hugo": 3629,
      "heidi": 3630,
      "lewis": 3631,
      "phoebe": 3632,
      "especially": 3633,
      "5th": 3634,
      "7th": 3635,
      "ban": 3636,
      "cris": 3637,
      "cap": 3638,
      "fill": 3639,
      "kathy": 3640,
      "low": 3641,
      "lose": 3642,
      "mindy": 3643,
      "nia": 3644,
      "nath": 3645,
      "option": 3646,
      "ped": 3647,
      "rout": 3648,
      "rand": 3649,
      "tennis": 3650,
      "vince": 3651,
      "wes": 3652,
      "##rd": 3653,
      "##rice": 3654,
      "##oot": 3655,
      "##vier": 3656,
      "##don": 3657,
      "##met": 3658,
      "tobi": 3659,
      "these": 3660,
      "##anc": 3661,
      "##ari": 3662,
      "##esh": 3663,
      "##ature": 3664,
      "##oned": 3665,
      "heart": 3666,
      "##acts": 3667,
      "##ota": 3668,
      "##imes": 3669,
      "##ama": 3670,
      "##aming": 3671,
      "anette": 3672,
      "##ires": 3673,
      "stat": 3674,
      "state": 3675,
      "aren": 3676,
      "china": 3677,
      "chance": 3678,
      "marty": 3679,
      "marsh": 3680,
      "shocked": 3681,
      "alicia": 3682,
      "suc": 3683,
      "##ecue": 3684,
      "upload": 3685,
      "level": 3686,
      "leaves": 3687,
      "brook": 3688,
      "##ument": 3689,
      "orange": 3690,
      "##avin": 3691,
      "seems": 3692,
      "drug": 3693,
      "monika": 3694,
      "record": 3695,
      "temp": 3696,
      "chel": 3697,
      "uni": 3698,
      "paulina": 3699,
      "invo": 3700,
      "greece": 3701,
      "janice": 3702,
      "##izes": 3703,
      "brett": 3704,
      "appre": 3705,
      "apples": 3706,
      "anyone": 3707,
      "##phones": 3708,
      "recommendation": 3709,
      "decl": 3710,
      "olivier": 3711,
      "taxi": 3712,
      "eaten": 3713,
      "frankie": 3714,
      "apart": 3715,
      "weight": 3716,
      "weird": 3717,
      "attack": 3718,
      "gregory": 3719,
      "badly": 3720,
      "similar": 3721,
      "barbecue": 3722,
      "crit": 3723,
      "esca": 3724,
      "esme": 3725,
      "transport": 3726,
      "tiff": 3727,
      "engaged": 3728,
      "ronnie": 3729,
      "attending": 3730,
      "cleaner": 3731,
      "booking": 3732,
      "ricky": 3733,
      "mickey": 3734,
      "##ynthia": 3735,
      "regina": 3736,
      "regular": 3737,
      "added": 3738,
      "##appy": 3739,
      "finishing": 3740,
      "headache": 3741,
      "thrones": 3742,
      "lawrence": 3743,
      "supervis": 3744,
      "maths": 3745,
      "confirms": 3746,
      "denise": 3747,
      "local": 3748,
      "painting": 3749,
      "pasta": 3750,
      "hurt": 3751,
      "sweater": 3752,
      "americ": 3753,
      "accepted": 3754,
      "operation": 3755,
      "dislikes": 3756,
      "bridget": 3757,
      "arnold": 3758,
      "brittany": 3759,
      "supermarket": 3760,
      "language": 3761,
      "mobile": 3762,
      "staff": 3763,
      "unhappy": 3764,
      "24": 3765,
      "28": 3766,
      "dir": 3767,
      "eu": 3768,
      "ever": 3769,
      "fat": 3770,
      "hate": 3771,
      "jaz": 3772,
      "kara": 3773,
      "layla": 3774,
      "oc": 3775,
      "ott": 3776,
      "pier": 3777,
      "piot": 3778,
      "six": 3779,
      "tit": 3780,
      "trish": 3781,
      "ul": 3782,
      "vic": 3783,
      "vir": 3784,
      "##ev": 3785,
      "##sung": 3786,
      "##val": 3787,
      "##cking": 3788,
      "##ba": 3789,
      "thera": 3790,
      "##orge": 3791,
      "##inger": 3792,
      "##arm": 3793,
      "wit": 3794,
      "##ences": 3795,
      "##etch": 3796,
      "##iced": 3797,
      "shel": 3798,
      "thail": 3799,
      "##ution": 3800,
      "nev": 3801,
      "nel": 3802,
      "##ads": 3803,
      "##ida": 3804,
      "stella": 3805,
      "refer": 3806,
      "##ential": 3807,
      "meghan": 3808,
      "aslee": 3809,
      "chin": 3810,
      "champ": 3811,
      "joke": 3812,
      "marge": 3813,
      "##ription": 3814,
      "worry": 3815,
      "##rab": 3816,
      "canada": 3817,
      "somebody": 3818,
      "clients": 3819,
      "comfort": 3820,
      "buys": 3821,
      "proud": 3822,
      "recover": 3823,
      "samsung": 3824,
      "alec": 3825,
      "##agram": 3826,
      "stayed": 3827,
      "blog": 3828,
      "shops": 3829,
      "presents": 3830,
      "serena": 3831,
      "studies": 3832,
      "instagram": 3833,
      "karol": 3834,
      "everybody": 3835,
      "franklin": 3836,
      "consult": 3837,
      "jeffrey": 3838,
      "freder": 3839,
      "glo": 3840,
      "cru": 3841,
      "looked": 3842,
      "improve": 3843,
      "plants": 3844,
      "miriam": 3845,
      "eventually": 3846,
      "shortly": 3847,
      "rosa": 3848,
      "wonders": 3849,
      "denis": 3850,
      "convince": 3851,
      "potter": 3852,
      "alexandra": 3853,
      "signed": 3854,
      "question": 3855,
      "hurry": 3856,
      "amazon": 3857,
      "doug": 3858,
      "self": 3859,
      "tamara": 3860,
      "annoyed": 3861,
      "rhapsody": 3862,
      "aiden": 3863,
      "radio": 3864,
      "colleagues": 3865,
      "control": 3866,
      "volun": 3867,
      "divorce": 3868,
      "arranged": 3869,
      "heavy": 3870,
      "lynn": 3871,
      "valentine": 3872,
      "sofia": 3873,
      "chelsea": 3874,
      "appreci": 3875,
      "piotr": 3876,
      "thailand": 3877,
      "asleep": 3878,
      "cry": 3879,
      "crow": 3880,
      "cynthia": 3881,
      "fans": 3882,
      "field": 3883,
      "gay": 3884,
      "gill": 3885,
      "gavin": 3886,
      "jes": 3887,
      "kiss": 3888,
      "lis": 3889,
      "ny": 3890,
      "ori": 3891,
      "ps": 3892,
      "pip": 3893,
      "rice": 3894,
      "rail": 3895,
      "sli": 3896,
      "ula": 3897,
      "var": 3898,
      "wo": 3899,
      "wel": 3900,
      "wood": 3901,
      "##rat": 3902,
      "##gy": 3903,
      "##aw": 3904,
      "##di": 3905,
      "##dle": 3906,
      "##pack": 3907,
      "##bn": 3908,
      "##bing": 3909,
      "##mond": 3910,
      "##kok": 3911,
      "##zz": 3912,
      "##zie": 3913,
      "##eria": 3914,
      "##ored": 3915,
      "##asc": 3916,
      "##utor": 3917,
      "##ides": 3918,
      "##ided": 3919,
      "style": 3920,
      "released": 3921,
      "chad": 3922,
      "notice": 3923,
      "cancer": 3924,
      "carly": 3925,
      "connie": 3926,
      "conrad": 3927,
      "arm": 3928,
      "aria": 3929,
      "timmy": 3930,
      "rock": 3931,
      "mod": 3932,
      "##umes": 3933,
      "prot": 3934,
      "phys": 3935,
      "##lied": 3936,
      "cole": 3937,
      "sem": 3938,
      "##ians": 3939,
      "devel": 3940,
      "##udy": 3941,
      "petra": 3942,
      "allow": 3943,
      "reser": 3944,
      "##ceries": 3945,
      "somet": 3946,
      "wayne": 3947,
      "jesse": 3948,
      "install": 3949,
      "eddie": 3950,
      "avoid": 3951,
      "fired": 3952,
      "permission": 3953,
      "sharing": 3954,
      "##itted": 3955,
      "darcy": 3956,
      "darren": 3957,
      "borrowed": 3958,
      "attended": 3959,
      "texted": 3960,
      "##grid": 3961,
      "frances": 3962,
      "bert": 3963,
      "create": 3964,
      "contacted": 3965,
      "vera": 3966,
      "syd": 3967,
      "lawyer": 3968,
      "turned": 3969,
      "activ": 3970,
      "snowing": 3971,
      "episodes": 3972,
      "refused": 3973,
      "slow": 3974,
      "wonder": 3975,
      "location": 3976,
      "teaching": 3977,
      "ivan": 3978,
      "singing": 3979,
      "hangover": 3980,
      "millie": 3981,
      "beatrice": 3982,
      "experience": 3983,
      "groceries": 3984,
      "crazy": 3985,
      "silvia": 3986,
      "pupp": 3987,
      "notebook": 3988,
      "gabrielle": 3989,
      "mention": 3990,
      "wilson": 3991,
      "congratulates": 3992,
      "isaac": 3993,
      "voted": 3994,
      "immed": 3995,
      "journey": 3996,
      "degrees": 3997,
      "version": 3998,
      "##ography": 3999,
      "bangkok": 4000,
      "lennon": 4001,
      "nathalie": 4002,
      "invoice": 4003,
      "chinese": 4004,
      "cruise": 4005,
      "volunte": 4006,
      "27": 4007,
      "26": 4008,
      "bian": 4009,
      "base": 4010,
      "cou": 4011,
      "dump": 4012,
      "data": 4013,
      "et": 4014,
      "fur": 4015,
      "fond": 4016,
      "grow": 4017,
      "hill": 4018,
      "hold": 4019,
      "hob": 4020,
      "jade": 4021,
      "kam": 4022,
      "kier": 4023,
      "lid": 4024,
      "lora": 4025,
      "macy": 4026,
      "nich": 4027,
      "omar": 4028,
      "pun": 4029,
      "pump": 4030,
      "piano": 4031,
      "ran": 4032,
      "round": 4033,
      "rene": 4034,
      "sasha": 4035,
      "um": 4036,
      "yo": 4037,
      "##rit": 4038,
      "##ior": 4039,
      "##ives": 4040,
      "##gue": 4041,
      "##town": 4042,
      "##lu": 4043,
      "##wise": 4044,
      "##xie": 4045,
      "tor": 4046,
      "tori": 4047,
      "##arian": 4048,
      "##ately": 4049,
      "##enger": 4050,
      "ine": 4051,
      "inj": 4052,
      "ingrid": 4053,
      "##icious": 4054,
      "bee": 4055,
      "stro": 4056,
      "##iler": 4057,
      "chuck": 4058,
      "joel": 4059,
      "##vern": 4060,
      "sofa": 4061,
      "lead": 4062,
      "clo": 4063,
      "clim": 4064,
      "clos": 4065,
      "spider": 4066,
      "moder": 4067,
      "phill": 4068,
      "##berry": 4069,
      "drank": 4070,
      "luis": 4071,
      "##ggage": 4072,
      "evie": 4073,
      "cheated": 4074,
      "christopher": 4075,
      "ground": 4076,
      "barcel": 4077,
      "##action": 4078,
      "harris": 4079,
      "##ape": 4080,
      "showing": 4081,
      "studio": 4082,
      "quality": 4083,
      "contin": 4084,
      "##anya": 4085,
      "bills": 4086,
      "download": 4087,
      "smart": 4088,
      "switch": 4089,
      "glad": 4090,
      "organising": 4091,
      "born": 4092,
      "babys": 4093,
      "saying": 4094,
      "biology": 4095,
      "jonas": 4096,
      "owner": 4097,
      "raph": 4098,
      "colin": 4099,
      "opened": 4100,
      "josephine": 4101,
      "dropped": 4102,
      "turns": 4103,
      "shirley": 4104,
      "urg": 4105,
      "strange": 4106,
      "members": 4107,
      "horrible": 4108,
      "neighbours": 4109,
      "midnight": 4110,
      "##leasant": 4111,
      "bonnie": 4112,
      "turkey": 4113,
      "argu": 4114,
      "suspect": 4115,
      "sunny": 4116,
      "following": 4117,
      "solve": 4118,
      "queen": 4119,
      "joyce": 4120,
      "america": 4121,
      "seats": 4122,
      "promotion": 4123,
      "including": 4124,
      "eye": 4125,
      "master": 4126,
      "task": 4127,
      "naomi": 4128,
      "camera": 4129,
      "avengers": 4130,
      "huge": 4131,
      "instruct": 4132,
      "options": 4133,
      "customer": 4134,
      "econom": 4135,
      "basketball": 4136,
      "threat": 4137,
      "techn": 4138,
      "courtney": 4139,
      "escape": 4140,
      "tiffany": 4141,
      "karaoke": 4142,
      "otto": 4143,
      "jesus": 4144,
      "develop": 4145,
      "sydney": 4146,
      "bianca": 4147,
      "modern": 4148,
      "barcelona": 4149,
      "23": 4150,
      "3rd": 4151,
      "aur": 4152,
      "aub": 4153,
      "ci": 4154,
      "cv": 4155,
      "der": 4156,
      "dia": 4157,
      "dust": 4158,
      "dak": 4159,
      "ela": 4160,
      "fac": 4161,
      "fle": 4162,
      "furn": 4163,
      "fund": 4164,
      "ginny": 4165,
      "honey": 4166,
      "iris": 4167,
      "jas": 4168,
      "kel": 4169,
      "kenn": 4170,
      "kath": 4171,
      "katherine": 4172,
      "lic": 4173,
      "my": 4174,
      "mass": 4175,
      "rum": 4176,
      "sound": 4177,
      "tessa": 4178,
      "tutor": 4179,
      "west": 4180,
      "wanda": 4181,
      "##ration": 4182,
      "##iod": 4183,
      "##ique": 4184,
      "##git": 4185,
      "##tie": 4186,
      "##wa": 4187,
      "##pts": 4188,
      "##case": 4189,
      "##jah": 4190,
      "##bul": 4191,
      "##mo": 4192,
      "##ker": 4193,
      "##hett": 4194,
      "##ini": 4195,
      "##onna": 4196,
      "willow": 4197,
      "##omach": 4198,
      "govern": 4199,
      "##ites": 4200,
      "##iture": 4201,
      "##uts": 4202,
      "##alia": 4203,
      "stock": 4204,
      "stole": 4205,
      "rehe": 4206,
      "mean": 4207,
      "asap": 4208,
      "marco": 4209,
      "shane": 4210,
      "alys": 4211,
      "suff": 4212,
      "soft": 4213,
      "lexi": 4214,
      "##pping": 4215,
      "projects": 4216,
      "annette": 4217,
      "ada": 4218,
      "themsel": 4219,
      "boat": 4220,
      "backpack": 4221,
      "sea": 4222,
      "sees": 4223,
      "dex": 4224,
      "luk": 4225,
      "luggage": 4226,
      "mathew": 4227,
      "tex": 4228,
      "cheating": 4229,
      "checking": 4230,
      "united": 4231,
      "miley": 4232,
      "allie": 4233,
      "travis": 4234,
      "##istic": 4235,
      "gray": 4236,
      "pepp": 4237,
      "alexa": 4238,
      "juliet": 4239,
      "madrid": 4240,
      "accom": 4241,
      "harri": 4242,
      "scan": 4243,
      "##ogn": 4244,
      "20th": 4245,
      "quiz": 4246,
      "telling": 4247,
      "15th": 4248,
      "downtown": 4249,
      "period": 4250,
      "supper": 4251,
      "martina": 4252,
      "glen": 4253,
      "choice": 4254,
      "organise": 4255,
      "##itional": 4256,
      "wears": 4257,
      "boris": 4258,
      "spends": 4259,
      "cleaned": 4260,
      "term": 4261,
      "##lines": 4262,
      "texting": 4263,
      "eliza": 4264,
      "elijah": 4265,
      "bigger": 4266,
      "setting": 4267,
      "eleon": 4268,
      "jayden": 4269,
      "celebrating": 4270,
      "changes": 4271,
      "packing": 4272,
      "packed": 4273,
      "bradley": 4274,
      "renting": 4275,
      "speaking": 4276,
      "hands": 4277,
      "pancakes": 4278,
      "horror": 4279,
      "misty": 4280,
      "argument": 4281,
      "gradu": 4282,
      "thanksgi": 4283,
      "fishing": 4284,
      "tatiana": 4285,
      "vivian": 4286,
      "british": 4287,
      "renov": 4288,
      "pills": 4289,
      "##iately": 4290,
      "demand": 4291,
      "properly": 4292,
      "##brella": 4293,
      "attractive": 4294,
      "dublin": 4295,
      "muff": 4296,
      "involved": 4297,
      "describ": 4298,
      "responsible": 4299,
      "vincent": 4300,
      "reschedule": 4301,
      "strugg": 4302,
      "regarding": 4303,
      "encourages": 4304,
      "tobias": 4305,
      "american": 4306,
      "lisbon": 4307,
      "origin": 4308,
      "railway": 4309,
      "immediately": 4310,
      "umbrella": 4311,
      "furniture": 4312,
      "themselves": 4313,
      "thanksgiving": 4314,
      "1st": 4315,
      "1pm": 4316,
      "34": 4317,
      "4th": 4318,
      "500": 4319,
      "age": 4320,
      "aisha": 4321,
      "arab": 4322,
      "bun": 4323,
      "burn": 4324,
      "cd": 4325,
      "cig": 4326,
      "cool": 4327,
      "dun": 4328,
      "fb": 4329,
      "fancy": 4330,
      "gh": 4331,
      "gather": 4332,
      "ginger": 4333,
      "han": 4334,
      "hig": 4335,
      "jens": 4336,
      "kir": 4337,
      "kaz": 4338,
      "kira": 4339,
      "lil": 4340,
      "lower": 4341,
      "liter": 4342,
      "mort": 4343,
      "mitch": 4344,
      "ost": 4345,
      "point": 4346,
      "purch": 4347,
      "sail": 4348,
      "tanya": 4349,
      "wer": 4350,
      "wake": 4351,
      "your": 4352,
      "##rica": 4353,
      "##gio": 4354,
      "##ele": 4355,
      "##ted": 4356,
      "##tain": 4357,
      "##vi": 4358,
      "##we": 4359,
      "##pir": 4360,
      "##cos": 4361,
      "##coming": 4362,
      "##bl": 4363,
      "##boo": 4364,
      "##bles": 4365,
      "##0s": 4366,
      "##zel": 4367,
      "##hel": 4368,
      "##arr": 4369,
      "##atia": 4370,
      "##rell": 4371,
      "##asy": 4372,
      "forget": 4373,
      "##ima": 4374,
      "##aman": 4375,
      "necess": 4376,
      "##alog": 4377,
      "##irt": 4378,
      "stacey": 4379,
      "stomach": 4380,
      "rele": 4381,
      "##iles": 4382,
      "haw": 4383,
      "jodie": 4384,
      "worse": 4385,
      "##ateful": 4386,
      "##arten": 4387,
      "##cepts": 4388,
      "cante": 4389,
      "carla": 4390,
      "conor": 4391,
      "africa": 4392,
      "announ": 4393,
      "paige": 4394,
      "spare": 4395,
      "roomm": 4396,
      "##umbers": 4397,
      "ord": 4398,
      "##eared": 4399,
      "##male": 4400,
      "coat": 4401,
      "coco": 4402,
      "drake": 4403,
      "gig": 4404,
      "luca": 4405,
      "##gging": 4406,
      "recogn": 4407,
      "tooth": 4408,
      "laila": 4409,
      "accepts": 4410,
      "emerg": 4411,
      "emilia": 4412,
      "env": 4413,
      "##igning": 4414,
      "##ilyn": 4415,
      "ally": 4416,
      "allows": 4417,
      "player": 4418,
      "trad": 4419,
      "trick": 4420,
      "##iction": 4421,
      "otherwise": 4422,
      "##aga": 4423,
      "blind": 4424,
      "juli": 4425,
      "keen": 4426,
      "inviting": 4427,
      "result": 4428,
      "female": 4429,
      "discover": 4430,
      "whatsa": 4431,
      "##bridge": 4432,
      "##aired": 4433,
      "guest": 4434,
      "graph": 4435,
      "graham": 4436,
      "edgar": 4437,
      "lindsey": 4438,
      "concerned": 4439,
      "arriving": 4440,
      "delicious": 4441,
      "forgotten": 4442,
      "caf": 4443,
      "swit": 4444,
      "##elyn": 4445,
      "sandw": 4446,
      "impress": 4447,
      "airbn": 4448,
      "poor": 4449,
      "gabe": 4450,
      "bedroom": 4451,
      "talks": 4452,
      "costume": 4453,
      "depressed": 4454,
      "subsc": 4455,
      "submit": 4456,
      "curry": 4457,
      "heading": 4458,
      "valer": 4459,
      "propose": 4460,
      "##etta": 4461,
      "insists": 4462,
      "euro": 4463,
      "collection": 4464,
      "recipes": 4465,
      "travels": 4466,
      "sells": 4467,
      "soccer": 4468,
      "expecting": 4469,
      "potat": 4470,
      "healthy": 4471,
      "irma": 4472,
      "okay": 4473,
      "complains": 4474,
      "sweets": 4475,
      "burger": 4476,
      "marianne": 4477,
      "translation": 4478,
      "documents": 4479,
      "casper": 4480,
      "snacks": 4481,
      "tatt": 4482,
      "magda": 4483,
      "kale": 4484,
      "britney": 4485,
      "piece": 4486,
      "shawn": 4487,
      "21st": 4488,
      "islands": 4489,
      "colleague": 4490,
      "printer": 4491,
      "alfred": 4492,
      "croatia": 4493,
      "archit": 4494,
      "deleted": 4495,
      "fantastic": 4496,
      "killed": 4497,
      "mcdon": 4498,
      "smoking": 4499,
      "nadia": 4500,
      "fruit": 4501,
      "introduce": 4502,
      "prague": 4503,
      "pressure": 4504,
      "character": 4505,
      "success": 4506,
      "brooklyn": 4507,
      "supervisor": 4508,
      "dirty": 4509,
      "comfortable": 4510,
      "karolina": 4511,
      "sometimes": 4512,
      "26th": 4513,
      "raphael": 4514,
      "aubrey": 4515,
      "necessary": 4516,
      "canteen": 4517,
      "whatsapp": 4518,
      "airbnb": 4519,
      "mcdonald": 4520,
      "29": 4521,
      "ah": 4522,
      "aqu": 4523,
      "bord": 4524,
      "cow": 4525,
      "cel": 4526,
      "cory": 4527,
      "cora": 4528,
      "cert": 4529,
      "dot": 4530,
      "dess": 4531,
      "dary": 4532,
      "equ": 4533,
      "fer": 4534,
      "fol": 4535,
      "ferry": 4536,
      "fash": 4537,
      "fair": 4538,
      "gas": 4539,
      "gail": 4540,
      "hat": 4541,
      "ida": 4542,
      "jum": 4543,
      "jorge": 4544,
      "kend": 4545,
      "kne": 4546,
      "lon": 4547,
      "len": 4548,
      "lane": 4549,
      "mis": 4550,
      "mos": 4551,
      "nose": 4552,
      "nurs": 4553,
      "oven": 4554,
      "pi": 4555,
      "ric": 4556,
      "vou": 4557,
      "£1": 4558,
      "##ross": 4559,
      "##gs": 4560,
      "##ep": 4561,
      "##off": 4562,
      "##nan": 4563,
      "##dam": 4564,
      "##can": 4565,
      "##back": 4566,
      "##mate": 4567,
      "##many": 4568,
      "##ani": 4569,
      "##att": 4570,
      "##onse": 4571,
      "##edy": 4572,
      "ing": 4573,
      "##thus": 4574,
      "held": 4575,
      "heating": 4576,
      "##aco": 4577,
      "those": 4578,
      "##iment": 4579,
      "##uses": 4580,
      "##ado": 4581,
      "##iring": 4582,
      "stick": 4583,
      "storm": 4584,
      "stage": 4585,
      "relie": 4586,
      "reggie": 4587,
      "##entin": 4588,
      "means": 4589,
      "##iah": 4590,
      "chose": 4591,
      "##rop": 4592,
      "shy": 4593,
      "shann": 4594,
      "shoot": 4595,
      "meets": 4596,
      "lip": 4597,
      "worries": 4598,
      "sugar": 4599,
      "##vert": 4600,
      "##ending": 4601,
      "##ended": 4602,
      "wash": 4603,
      "cars": 4604,
      "whom": 4605,
      "##ability": 4606,
      "bucks": 4607,
      "bruss": 4608,
      "aff": 4609,
      "paink": 4610,
      "spag": 4611,
      "adop": 4612,
      "agency": 4613,
      "amount": 4614,
      "coke": 4615,
      "cock": 4616,
      "semin": 4617,
      "death": 4618,
      "helpful": 4619,
      "events": 4620,
      "teen": 4621,
      "##ective": 4622,
      "disg": 4623,
      "disag": 4624,
      "dishes": 4625,
      "distr": 4626,
      "lock": 4627,
      "enthus": 4628,
      "noel": 4629,
      "noise": 4630,
      "chem": 4631,
      "danger": 4632,
      "mix": 4633,
      "visits": 4634,
      "trudy": 4635,
      "##eryl": 4636,
      "grateful": 4637,
      "peggy": 4638,
      "overs": 4639,
      "applic": 4640,
      "kev": 4641,
      "sauce": 4642,
      "resign": 4643,
      "score": 4644,
      "tax": 4645,
      "lots": 4646,
      "eats": 4647,
      "##onda": 4648,
      "wars": 4649,
      "elsa": 4650,
      "cambridge": 4651,
      "supports": 4652,
      "enjoying": 4653,
      "clear": 4654,
      "jacqu": 4655,
      "choosing": 4656,
      "milan": 4657,
      "milena": 4658,
      "12th": 4659,
      "##ified": 4660,
      "ended": 4661,
      "elias": 4662,
      "bernie": 4663,
      "sett": 4664,
      "corn": 4665,
      "created": 4666,
      "raf": 4667,
      "mira": 4668,
      "assist": 4669,
      "doris": 4670,
      "germany": 4671,
      "headphones": 4672,
      "reminded": 4673,
      "walt": 4674,
      "walking": 4675,
      "speaks": 4676,
      "related": 4677,
      "personal": 4678,
      "parker": 4679,
      "euros": 4680,
      "collecting": 4681,
      "cosmet": 4682,
      "based": 4683,
      "commun": 4684,
      "calvin": 4685,
      "loren": 4686,
      "felicia": 4687,
      "strang": 4688,
      "organized": 4689,
      "austral": 4690,
      "suzanne": 4691,
      "possib": 4692,
      "roman": 4693,
      "iron": 4694,
      "exchang": 4695,
      "politics": 4696,
      "kinga": 4697,
      "graduation": 4698,
      "angelica": 4699,
      "influ": 4700,
      "craig": 4701,
      "boarding": 4702,
      "applying": 4703,
      "vegetarian": 4704,
      "annoying": 4705,
      "hiking": 4706,
      "exercise": 4707,
      "##burg": 4708,
      "2019": 4709,
      "connection": 4710,
      "human": 4711,
      "castle": 4712,
      "norman": 4713,
      "motor": 4714,
      "decorations": 4715,
      "postponed": 4716,
      "documentary": 4717,
      "baked": 4718,
      "hayden": 4719,
      "lasag": 4720,
      "spring": 4721,
      "screen": 4722,
      "allergic": 4723,
      "bowling": 4724,
      "yellow": 4725,
      "absent": 4726,
      "laughing": 4727,
      "electricity": 4728,
      "pedro": 4729,
      "occ": 4730,
      "puppy": 4731,
      "kamil": 4732,
      "kieran": 4733,
      "nicholas": 4734,
      "babysit": 4735,
      "instructions": 4736,
      "aurora": 4737,
      "dustin": 4738,
      "kenneth": 4739,
      "##hetti": 4740,
      "government": 4741,
      "accomp": 4742,
      "muffins": 4743,
      "cigar": 4744,
      "literature": 4745,
      "##books": 4746,
      "tattoo": 4747,
      "architect": 4748,
      "dessert": 4749,
      "daryl": 4750,
      "fashion": 4751,
      "knew": 4752,
      "voucher": 4753,
      "brussels": 4754,
      "painkill": 4755,
      "spaghetti": 4756,
      "enthusi": 4757,
      "cosmetics": 4758,
      "3pm": 4759,
      "70": 4760,
      "aj": 4761,
      "arian": 4762,
      "coun": 4763,
      "du": 4764,
      "dina": 4765,
      "ez": 4766,
      "east": 4767,
      "gonna": 4768,
      "hans": 4769,
      "ire": 4770,
      "ima": 4771,
      "icel": 4772,
      "jump": 4773,
      "kent": 4774,
      "kurt": 4775,
      "lion": 4776,
      "nig": 4777,
      "names": 4778,
      "nap": 4779,
      "nik": 4780,
      "pc": 4781,
      "piet": 4782,
      "ri": 4783,
      "rash": 4784,
      "saving": 4785,
      "sights": 4786,
      "tan": 4787,
      "tar": 4788,
      "##ife": 4789,
      "##gas": 4790,
      "##ey": 4791,
      "##akes": 4792,
      "##ove": 4793,
      "##yon": 4794,
      "##do": 4795,
      "##cast": 4796,
      "##ban": 4797,
      "##bby": 4798,
      "##mates": 4799,
      "##uum": 4800,
      "##zer": 4801,
      "##head": 4802,
      "towards": 4803,
      "##lls": 4804,
      "##ller": 4805,
      "##ark": 4806,
      "##atisfied": 4807,
      "##isk": 4808,
      "##isher": 4809,
      "##thor": 4810,
      "hector": 4811,
      "##itude": 4812,
      "##usz": 4813,
      "neck": 4814,
      "##ala": 4815,
      "##alous": 4816,
      "stories": 4817,
      "##ooth": 4818,
      "##urity": 4819,
      "asia": 4820,
      "hazel": 4821,
      "jokes": 4822,
      "jogging": 4823,
      "marvel": 4824,
      "##chan": 4825,
      "##elie": 4826,
      "##road": 4827,
      "shut": 4828,
      "light": 4829,
      "plant": 4830,
      "alvin": 4831,
      "altern": 4832,
      "suzy": 4833,
      "##olen": 4834,
      "##ceed": 4835,
      "##endum": 4836,
      "##raine": 4837,
      "caro": 4838,
      "whose": 4839,
      "leila": 4840,
      "##inda": 4841,
      "comment": 4842,
      "proced": 4843,
      "workers": 4844,
      "papa": 4845,
      "##oreen": 4846,
      "spam": 4847,
      "adele": 4848,
      "exact": 4849,
      "except": 4850,
      "##avia": 4851,
      "##ears": 4852,
      "helena": 4853,
      "amster": 4854,
      "boys": 4855,
      "sele": 4856,
      "##usted": 4857,
      "##enne": 4858,
      "across": 4859,
      "teas": 4860,
      "novel": 4861,
      "checks": 4862,
      "unc": 4863,
      "unwell": 4864,
      "##innie": 4865,
      "allen": 4866,
      "allison": 4867,
      "players": 4868,
      "30th": 4869,
      "track": 4870,
      "trailer": 4871,
      "granny": 4872,
      "stays": 4873,
      "dire": 4874,
      "bren": 4875,
      "charge": 4876,
      "applied": 4877,
      "keira": 4878,
      "jennie": 4879,
      "classroom": 4880,
      "financ": 4881,
      "jealous": 4882,
      "##ilde": 4883,
      "served": 4884,
      "sergio": 4885,
      "quick": 4886,
      "contacts": 4887,
      "robyn": 4888,
      "reply": 4889,
      "repub": 4890,
      "repaired": 4891,
      "skating": 4892,
      "earr": 4893,
      "dale": 4894,
      "fox": 4895,
      "##iforn": 4896,
      "grandpa": 4897,
      "messenger": 4898,
      "gabi": 4899,
      "gaby": 4900,
      "security": 4901,
      "putting": 4902,
      "agreement": 4903,
      "artur": 4904,
      "lars": 4905,
      "raise": 4906,
      "##ologist": 4907,
      "color": 4908,
      "sales": 4909,
      "salmon": 4910,
      "costa": 4911,
      "confused": 4912,
      "norma": 4913,
      "lands": 4914,
      "landing": 4915,
      "professional": 4916,
      "posts": 4917,
      "californ": 4918,
      "vacuum": 4919,
      "pregnancy": 4920,
      "##ergarten": 4921,
      "25th": 4922,
      "alba": 4923,
      "product": 4924,
      "answers": 4925,
      "drag": 4926,
      "single": 4927,
      "##place": 4928,
      "million": 4929,
      "russian": 4930,
      "suitable": 4931,
      "georgina": 4932,
      "penel": 4933,
      "experien": 4934,
      "suggestion": 4935,
      "suggestions": 4936,
      "kindergarten": 4937,
      "olaf": 4938,
      "promoted": 4939,
      "behavior": 4940,
      "renee": 4941,
      "gabriella": 4942,
      "medicine": 4943,
      "tasks": 4944,
      "battery": 4945,
      "general": 4946,
      "muriel": 4947,
      "postpone": 4948,
      "bakery": 4949,
      "cristina": 4950,
      "sienna": 4951,
      "beginning": 4952,
      "straight": 4953,
      "animal": 4954,
      "tomato": 4955,
      "complete": 4956,
      "stefan": 4957,
      "dissatisfied": 4958,
      "unpleasant": 4959,
      "author": 4960,
      "narcos": 4961,
      "budget": 4962,
      "pretty": 4963,
      "safely": 4964,
      "destination": 4965,
      "route": 4966,
      "referendum": 4967,
      "recovering": 4968,
      "gloves": 4969,
      "ps4": 4970,
      "model": 4971,
      "semester": 4972,
      "allowed": 4973,
      "couch": 4974,
      "phillip": 4975,
      "dakota": 4976,
      "harriet": 4977,
      "hawai": 4978,
      "roommate": 4979,
      "orders": 4980,
      "emergency": 4981,
      "cafet": 4982,
      "shannon": 4983,
      "seminar": 4984,
      "dangerous": 4985,
      "lorenzo": 4986,
      "australia": 4987,
      "accompany": 4988,
      "painkillers": 4989,
      "ezra": 4990,
      "ireland": 4991,
      "iceland": 4992,
      "sightsee": 4993,
      "amsterdam": 4994,
      "california": 4995,
      "55": 4996,
      "6th": 4997,
      "6pm": 4998,
      "9pm": 4999,
      "ay": 5000,
      "avery": 5001,
      "bay": 5002,
      "cate": 5003,
      "cough": 5004,
      "cult": 5005,
      "dick": 5006,
      "frey": 5007,
      "fuel": 5008,
      "fetch": 5009,
      "gis": 5010,
      "gus": 5011,
      "gri": 5012,
      "hes": 5013,
      "ip": 5014,
      "ib": 5015,
      "jax": 5016,
      "km": 5017,
      "kon": 5018,
      "kerry": 5019,
      "lets": 5020,
      "mult": 5021,
      "nail": 5022,
      "pin": 5023,
      "pic": 5024,
      "pil": 5025,
      "sas": 5026,
      "sca": 5027,
      "sour": 5028,
      "sort": 5029,
      "site": 5030,
      "scept": 5031,
      "search": 5032,
      "signing": 5033,
      "tap": 5034,
      "trist": 5035,
      "vill": 5036,
      "ward": 5037,
      "##rom": 5038,
      "##rot": 5039,
      "##gress": 5040,
      "##ees": 5041,
      "##ems": 5042,
      "##ti": 5043,
      "##au": 5044,
      "##sie": 5045,
      "##nal": 5046,
      "##nia": 5047,
      "##ho": 5048,
      "##lay": 5049,
      "##list": 5050,
      "##lings": 5051,
      "##wor": 5052,
      "##pre": 5053,
      "##pid": 5054,
      "##jo": 5055,
      "##bed": 5056,
      "##bit": 5057,
      "##bts": 5058,
      "##mary": 5059,
      "##uana": 5060,
      "##uction": 5061,
      "##zil": 5062,
      "##ining": 5063,
      "##inity": 5064,
      "tory": 5065,
      "tough": 5066,
      "##nds": 5067,
      "##eran": 5068,
      "##orah": 5069,
      "##anor": 5070,
      "##ances": 5071,
      "##ares": 5072,
      "##onso": 5073,
      "##rets": 5074,
      "##ished": 5075,
      "##ashed": 5076,
      "##omin": 5077,
      "##etown": 5078,
      "forest": 5079,
      "beck": 5080,
      "atm": 5081,
      "shelly": 5082,
      "##leen": 5083,
      "thri": 5084,
      "##ament": 5085,
      "##ades": 5086,
      "anab": 5087,
      "stolen": 5088,
      "fries": 5089,
      "rev": 5090,
      "##osen": 5091,
      "mechan": 5092,
      "chip": 5093,
      "chosen": 5094,
      "marcel": 5095,
      "marlene": 5096,
      "marilyn": 5097,
      "##robe": 5098,
      "shots": 5099,
      "abroad": 5100,
      "liv": 5101,
      "liqu": 5102,
      "##icked": 5103,
      "##rix": 5104,
      "plus": 5105,
      "plumber": 5106,
      "##oli": 5107,
      "noticed": 5108,
      "##ules": 5109,
      "##ends": 5110,
      "##allen": 5111,
      "##ldon": 5112,
      "##eston": 5113,
      "conc": 5114,
      "lexie": 5115,
      "closing": 5116,
      "##una": 5117,
      "##stal": 5118,
      "##stick": 5119,
      "role": 5120,
      "moham": 5121,
      "ads": 5122,
      "pray": 5123,
      "pros": 5124,
      "##anner": 5125,
      "##lig": 5126,
      "cody": 5127,
      "seas": 5128,
      "##assing": 5129,
      "meetings": 5130,
      "matter": 5131,
      "acting": 5132,
      "emp": 5133,
      "tem": 5134,
      "flav": 5135,
      "flora": 5136,
      "invest": 5137,
      "300": 5138,
      "trust": 5139,
      "true": 5140,
      "blond": 5141,
      "breaking": 5142,
      "jules": 5143,
      "twitter": 5144,
      "compan": 5145,
      "complic": 5146,
      "harold": 5147,
      "##ounts": 5148,
      "declines": 5149,
      "photogra": 5150,
      "housew": 5151,
      "foundation": 5152,
      "presc": 5153,
      "quentin": 5154,
      "editing": 5155,
      "weed": 5156,
      "attitude": 5157,
      "smoke": 5158,
      "elisa": 5159,
      "carolyn": 5160,
      "skirt": 5161,
      "earn": 5162,
      "famil": 5163,
      "cause": 5164,
      "caused": 5165,
      "camille": 5166,
      "older": 5167,
      "films": 5168,
      "stupid": 5169,
      "ends": 5170,
      "darrell": 5171,
      "receip": 5172,
      "groups": 5173,
      "richie": 5174,
      "terri": 5175,
      "vegas": 5176,
      "##ground": 5177,
      "jonah": 5178,
      "eleanor": 5179,
      "nearby": 5180,
      "salary": 5181,
      "opening": 5182,
      "subject": 5183,
      "gerald": 5184,
      "vienna": 5185,
      "brain": 5186,
      "brazil": 5187,
      "bethany": 5188,
      "issac": 5189,
      "accidentally": 5190,
      "marcin": 5191,
      "winston": 5192,
      "shirts": 5193,
      "deborah": 5194,
      "nathaniel": 5195,
      "india": 5196,
      "indian": 5197,
      "indep": 5198,
      "felt": 5199,
      "bottles": 5200,
      "slight": 5201,
      "answering": 5202,
      "convinces": 5203,
      "theater": 5204,
      "casey": 5205,
      "roma": 5206,
      "##iety": 5207,
      "turning": 5208,
      "easter": 5209,
      "politic": 5210,
      "suitcase": 5211,
      "burgers": 5212,
      "grades": 5213,
      "currently": 5214,
      "info": 5215,
      "double": 5216,
      "doubts": 5217,
      "selma": 5218,
      "washington": 5219,
      "campus": 5220,
      "beauty": 5221,
      "brunch": 5222,
      "falling": 5223,
      "garry": 5224,
      "dislike": 5225,
      "motiv": 5226,
      "voice": 5227,
      "archie": 5228,
      "instructor": 5229,
      "hayley": 5230,
      "zachary": 5231,
      "constru": 5232,
      "gossiping": 5233,
      "tomatoes": 5234,
      "participate": 5235,
      "chapter": 5236,
      "figure": 5237,
      "entire": 5238,
      "banana": 5239,
      "marsha": 5240,
      "jazz": 5241,
      "virgin": 5242,
      "shelter": 5243,
      "frederick": 5244,
      "various": 5245,
      "welc": 5246,
      "activities": 5247,
      "etc": 5248,
      "renew": 5249,
      "spiderman": 5250,
      "texts": 5251,
      "handsome": 5252,
      "describes": 5253,
      "sailing": 5254,
      "valerie": 5255,
      "border": 5256,
      "lipstick": 5257,
      "enthusiastic": 5258,
      "ariana": 5259,
      "republic": 5260,
      "penelope": 5261,
      "sightseeing": 5262,
      "freya": 5263,
      "hesit": 5264,
      "tristan": 5265,
      "photograp": 5266,
      "independ": 5267,
      "2nd": 5268,
      "4pm": 5269,
      "56": 5270,
      "aies": 5271,
      "award": 5272,
      "bald": 5273,
      "benny": 5274,
      "bicy": 5275,
      "cit": 5276,
      "cart": 5277,
      "cell": 5278,
      "cath": 5279,
      "candy": 5280,
      "eug": 5281,
      "erik": 5282,
      "ewa": 5283,
      "fina": 5284,
      "fare": 5285,
      "fisher": 5286,
      "gun": 5287,
      "gaming": 5288,
      "iz": 5289,
      "javier": 5290,
      "kh": 5291,
      "kra": 5292,
      "kian": 5293,
      "kane": 5294,
      "lab": 5295,
      "lact": 5296,
      "mica": 5297,
      "nest": 5298,
      "ole": 5299,
      "obs": 5300,
      "py": 5301,
      "pod": 5302,
      "pleased": 5303,
      "sore": 5304,
      "tel": 5305,
      "tests": 5306,
      "yu": 5307,
      "yann": 5308,
      "ze": 5309,
      "##gie": 5310,
      "##eo": 5311,
      "##ale": 5312,
      "##nic": 5313,
      "##hann": 5314,
      "##lan": 5315,
      "##lord": 5316,
      "##was": 5317,
      "##pr": 5318,
      "##pes": 5319,
      "##corn": 5320,
      "##bra": 5321,
      "##bour": 5322,
      "##mad": 5323,
      "##mel": 5324,
      "##kin": 5325,
      "##kins": 5326,
      "##fu": 5327,
      "##fing": 5328,
      "##xp": 5329,
      "##ined": 5330,
      "##inic": 5331,
      "tow": 5332,
      "thea": 5333,
      "##ori": 5334,
      "##oring": 5335,
      "##llian": 5336,
      "##ington": 5337,
      "##encer": 5338,
      "##asion": 5339,
      "##omb": 5340,
      "##eta": 5341,
      "##etn": 5342,
      "##oul": 5343,
      "forec": 5344,
      "hell": 5345,
      "heels": 5346,
      "bever": 5347,
      "beasts": 5348,
      "##acow": 5349,
      "##itions": 5350,
      "##itius": 5351,
      "sheldon": 5352,
      "thank": 5353,
      "##using": 5354,
      "items": 5355,
      "negot": 5356,
      "##adi": 5357,
      "##aden": 5358,
      "##ados": 5359,
      "ania": 5360,
      "states": 5361,
      "rey": 5362,
      "rebe": 5363,
      "##osit": 5364,
      "##ented": 5365,
      "##iling": 5366,
      "member": 5367,
      "##ury": 5368,
      "chica": 5369,
      "chase": 5370,
      "chores": 5371,
      "challen": 5372,
      "tomas": 5373,
      "##roc": 5374,
      "shot": 5375,
      "abort": 5376,
      "lived": 5377,
      "plat": 5378,
      "word": 5379,
      "##olf": 5380,
      "notices": 5381,
      "##essed": 5382,
      "upcoming": 5383,
      "clair": 5384,
      "clinic": 5385,
      "bull": 5386,
      "brie": 5387,
      "arnie": 5388,
      "##storm": 5389,
      "annab": 5390,
      "spencer": 5391,
      "rox": 5392,
      "mollie": 5393,
      "##ffy": 5394,
      "parties": 5395,
      "themed": 5396,
      "pharm": 5397,
      "##annie": 5398,
      "##annah": 5399,
      "helm": 5400,
      "amelie": 5401,
      "##like": 5402,
      "boots": 5403,
      "maure": 5404,
      "johny": 5405,
      "partying": 5406,
      "mont": 5407,
      "matilde": 5408,
      "laos": 5409,
      "empt": 5410,
      "disp": 5411,
      "log": 5412,
      "unav": 5413,
      "##ortun": 5414,
      "parked": 5415,
      "jacky": 5416,
      "brings": 5417,
      "##ipment": 5418,
      "greet": 5419,
      "tracey": 5420,
      "##iza": 5421,
      "##icted": 5422,
      "overw": 5423,
      "blank": 5424,
      "blocked": 5425,
      "dialog": 5426,
      "maddy": 5427,
      "twist": 5428,
      "approve": 5429,
      "saus": 5430,
      "manuel": 5431,
      "##law": 5432,
      "feat": 5433,
      "scot": 5434,
      "scrat": 5435,
      "olive": 5436,
      "showed": 5437,
      "advance": 5438,
      "quinn": 5439,
      "##lley": 5440,
      "josie": 5441,
      "robbie": 5442,
      "ordering": 5443,
      "edith": 5444,
      "drill": 5445,
      "concerning": 5446,
      "rooms": 5447,
      "elise": 5448,
      "laurie": 5449,
      "natural": 5450,
      "skin": 5451,
      "skill": 5452,
      "skip": 5453,
      "daily": 5454,
      "mariah": 5455,
      "remem": 5456,
      "campa": 5457,
      "informed": 5458,
      "clem": 5459,
      "passes": 5460,
      "michal": 5461,
      "crush": 5462,
      "cracow": 5463,
      "keegan": 5464,
      "roberta": 5465,
      "impat": 5466,
      "##ierra": 5467,
      "poll": 5468,
      "pock": 5469,
      "lucia": 5470,
      "england": 5471,
      "loud": 5472,
      "katia": 5473,
      "stops": 5474,
      "##osphere": 5475,
      "useful": 5476,
      "regrets": 5477,
      "erasm": 5478,
      "nearly": 5479,
      "mirror": 5480,
      "popular": 5481,
      "popcorn": 5482,
      "deposit": 5483,
      "viola": 5484,
      "vietn": 5485,
      "landlord": 5486,
      "international": 5487,
      "neighbors": 5488,
      "##pei": 5489,
      "debra": 5490,
      "actress": 5491,
      "scarf": 5492,
      "comments": 5493,
      "calm": 5494,
      "confirmed": 5495,
      "topics": 5496,
      "bartek": 5497,
      "kaylee": 5498,
      "sexual": 5499,
      "paperwork": 5500,
      "memories": 5501,
      "198": 5502,
      "romania": 5503,
      "farm": 5504,
      "bryce": 5505,
      "formal": 5506,
      "russia": 5507,
      "sweet": 5508,
      "brows": 5509,
      "speaker": 5510,
      "queens": 5511,
      "understands": 5512,
      "sadie": 5513,
      "younger": 5514,
      "##ribed": 5515,
      "hired": 5516,
      "designer": 5517,
      "seriously": 5518,
      "perfume": 5519,
      "medication": 5520,
      "cecil": 5521,
      "cecilia": 5522,
      "hostel": 5523,
      "normal": 5524,
      "cameron": 5525,
      "avenue": 5526,
      "gener": 5527,
      "colours": 5528,
      "esther": 5529,
      "journal": 5530,
      "##riage": 5531,
      "mauritius": 5532,
      "materials": 5533,
      "update": 5534,
      "hometown": 5535,
      "opportun": 5536,
      "embarr": 5537,
      "management": 5538,
      "psychology": 5539,
      "approach": 5540,
      "tasty": 5541,
      "stressful": 5542,
      "wesley": 5543,
      "critic": 5544,
      "neville": 5545,
      "nelson": 5546,
      "champions": 5547,
      "crystal": 5548,
      "crowd": 5549,
      "mentioned": 5550,
      "lidia": 5551,
      "injured": 5552,
      "clothing": 5553,
      "closer": 5554,
      "continue": 5555,
      "economy": 5556,
      "rehears": 5557,
      "grayson": 5558,
      "graduated": 5559,
      "release": 5560,
      "discovered": 5561,
      "subscription": 5562,
      "potatoes": 5563,
      "29th": 5564,
      "folder": 5565,
      "ingred": 5566,
      "application": 5567,
      "financial": 5568,
      "earrings": 5569,
      "cafeteria": 5570,
      "atmosphere": 5571,
      "seaside": 5572,
      "complicated": 5573,
      "slightly": 5574,
      "photographer": 5575,
      "aiesec": 5576,
      "finale": 5577,
      "lactose": 5578,
      "forecast": 5579,
      "chicago": 5580,
      "maureen": 5581,
      "empty": 5582,
      "erasmus": 5583,
      "38": 5584,
      "43": 5585,
      "75": 5586,
      "80": 5587,
      "8th": 5588,
      "airl": 5589,
      "bb": 5590,
      "cin": 5591,
      "celia": 5592,
      "celine": 5593,
      "dig": 5594,
      "dap": 5595,
      "fear": 5596,
      "gb": 5597,
      "gust": 5598,
      "hp": 5599,
      "hon": 5600,
      "hut": 5601,
      "hire": 5602,
      "jet": 5603,
      "kore": 5604,
      "kirst": 5605,
      "kuba": 5606,
      "kicked": 5607,
      "lad": 5608,
      "lina": 5609,
      "lance": 5610,
      "lana": 5611,
      "lila": 5612,
      "mim": 5613,
      "merry": 5614,
      "meryl": 5615,
      "ned": 5616,
      "nav": 5617,
      "numbers": 5618,
      "od": 5619,
      "pab": 5620,
      "pris": 5621,
      "pers": 5622,
      "pics": 5623,
      "race": 5624,
      "rach": 5625,
      "rise": 5626,
      "roof": 5627,
      "sin": 5628,
      "sis": 5629,
      "sens": 5630,
      "sons": 5631,
      "tall": 5632,
      "tanner": 5633,
      "ug": 5634,
      "vit": 5635,
      "wy": 5636,
      "winning": 5637,
      "xmas": 5638,
      "xbox": 5639,
      "yasm": 5640,
      "##rim": 5641,
      "##rome": 5642,
      "##iate": 5643,
      "##ez": 5644,
      "##nest": 5645,
      "##vent": 5646,
      "##dal": 5647,
      "##lus": 5648,
      "##ware": 5649,
      "##pose": 5650,
      "##cine": 5651,
      "##card": 5652,
      "##ckey": 5653,
      "##burn": 5654,
      "##mal": 5655,
      "##kle": 5656,
      "##kia": 5657,
      "##kward": 5658,
      "##fi": 5659,
      "##fl": 5660,
      "##field": 5661,
      "##hea": 5662,
      "toy": 5663,
      "ther": 5664,
      "theory": 5665,
      "##aro": 5666,
      "##atan": 5667,
      "##atives": 5668,
      "##rew": 5669,
      "##oma": 5670,
      "##omet": 5671,
      "ines": 5672,
      "##ayden": 5673,
      "##icide": 5674,
      "##iches": 5675,
      "fore": 5676,
      "bear": 5677,
      "##iti": 5678,
      "##itute": 5679,
      "##uten": 5680,
      "##ami": 5681,
      "nep": 5682,
      "##idy": 5683,
      "anal": 5684,
      "ankle": 5685,
      "fresh": 5686,
      "rema": 5687,
      "##enty": 5688,
      "##ilt": 5689,
      "##ilities": 5690,
      "meant": 5691,
      "meggy": 5692,
      "chill": 5693,
      "chips": 5694,
      "jojo": 5695,
      "marks": 5696,
      "marvin": 5697,
      "marisa": 5698,
      "##hern": 5699,
      "##rol": 5700,
      "shout": 5701,
      "shayla": 5702,
      "shape": 5703,
      "liver": 5704,
      "##right": 5705,
      "##ryl": 5706,
      "ala": 5707,
      "alene": 5708,
      "waste": 5709,
      "cara": 5710,
      "upstairs": 5711,
      "##andra": 5712,
      "lemon": 5713,
      "bridge": 5714,
      "##station": 5715,
      "comic": 5716,
      "commer": 5717,
      "comedy": 5718,
      "outland": 5719,
      "spre": 5720,
      "spice": 5721,
      "spons": 5722,
      "##umn": 5723,
      "adults": 5724,
      "prince": 5725,
      "preston": 5726,
      "phd": 5727,
      "phones": 5728,
      "##berries": 5729,
      "##lies": 5730,
      "chrissy": 5731,
      "mak": 5732,
      "##hne": 5733,
      "byron": 5734,
      "seem": 5735,
      "##usting": 5736,
      "recording": 5737,
      "##aint": 5738,
      "laun": 5739,
      "known": 5740,
      "emil": 5741,
      "##ection": 5742,
      "chest": 5743,
      "unf": 5744,
      "unable": 5745,
      "unlike": 5746,
      "parts": 5747,
      "flower": 5748,
      "allan": 5749,
      "bird": 5750,
      "birds": 5751,
      "friendly": 5752,
      "playstation": 5753,
      "trous": 5754,
      "trash": 5755,
      "##istry": 5756,
      "##istics": 5757,
      "##ager": 5758,
      "overnight": 5759,
      "justine": 5760,
      "div": 5761,
      "breaks": 5762,
      "##athon": 5763,
      "compl": 5764,
      "feelings": 5765,
      "invitations": 5766,
      "usa": 5767,
      "express": 5768,
      "expects": 5769,
      "lottery": 5770,
      "studied": 5771,
      "broad": 5772,
      "brody": 5773,
      "quiet": 5774,
      "catering": 5775,
      "karina": 5776,
      "policy": 5777,
      "trainer": 5778,
      "elliot": 5779,
      "attent": 5780,
      "arrival": 5781,
      "avoc": 5782,
      "warns": 5783,
      "elsie": 5784,
      "sharpei": 5785,
      "skate": 5786,
      "skyler": 5787,
      "##ached": 5788,
      "earth": 5789,
      "famous": 5790,
      "metal": 5791,
      "swed": 5792,
      "freda": 5793,
      "discussion": 5794,
      "passport": 5795,
      "pizz": 5796,
      "choices": 5797,
      "restaurants": 5798,
      "engine": 5799,
      "##000": 5800,
      "register": 5801,
      "ernest": 5802,
      "large": 5803,
      "raul": 5804,
      "costumes": 5805,
      "collins": 5806,
      "depress": 5807,
      "subst": 5808,
      "teachers": 5809,
      "north": 5810,
      "fixing": 5811,
      "propos": 5812,
      "damon": 5813,
      "damage": 5814,
      "linked": 5815,
      "vicki": 5816,
      "superher": 5817,
      "hockey": 5818,
      "common": 5819,
      "traveling": 5820,
      "copies": 5821,
      "lectures": 5822,
      "extre": 5823,
      "strong": 5824,
      "pants": 5825,
      "panel": 5826,
      "austria": 5827,
      "jeanette": 5828,
      "mistakes": 5829,
      "smaller": 5830,
      "legal": 5831,
      "19th": 5832,
      "travelled": 5833,
      "learned": 5834,
      "awkward": 5835,
      "russel": 5836,
      "complaining": 5837,
      "merida": 5838,
      "supportive": 5839,
      "malia": 5840,
      "raymond": 5841,
      "spotify": 5842,
      "kindle": 5843,
      "tammy": 5844,
      "auntie": 5845,
      "cancels": 5846,
      "magdal": 5847,
      "rhonda": 5848,
      "18th": 5849,
      "octavia": 5850,
      "##iko": 5851,
      "mountain": 5852,
      "included": 5853,
      "mentions": 5854,
      "reasons": 5855,
      "provide": 5856,
      "provider": 5857,
      "provided": 5858,
      "francisco": 5859,
      "gala": 5860,
      "menu": 5861,
      "sidney": 5862,
      "mexican": 5863,
      "calend": 5864,
      "bailey": 5865,
      "alfie": 5866,
      "hubert": 5867,
      "fabian": 5868,
      "purple": 5869,
      "riding": 5870,
      "venom": 5871,
      "venice": 5872,
      "feedback": 5873,
      "apologize": 5874,
      "admits": 5875,
      "fantasy": 5876,
      "ramona": 5877,
      "animals": 5878,
      "drawer": 5879,
      "##iffer": 5880,
      "replacement": 5881,
      "candid": 5882,
      "fault": 5883,
      "frequ": 5884,
      "views": 5885,
      "fruits": 5886,
      "circum": 5887,
      "links": 5888,
      "savannah": 5889,
      "departure": 5890,
      "treatment": 5891,
      "destiny": 5892,
      "randall": 5893,
      "marshall": 5894,
      "drugs": 5895,
      "declan": 5896,
      "therapy": 5897,
      "appreciate": 5898,
      "woken": 5899,
      "reserved": 5900,
      "volunteer": 5901,
      "baseball": 5902,
      "beef": 5903,
      "urgent": 5904,
      "argued": 5905,
      "threatens": 5906,
      "licence": 5907,
      "massage": 5908,
      "struggling": 5909,
      "arabella": 5910,
      "bunny": 5911,
      "burnt": 5912,
      "ghost": 5913,
      "higher": 5914,
      "weren": 5915,
      "traditional": 5916,
      "switched": 5917,
      "sandwiches": 5918,
      "ahmed": 5919,
      "aquaman": 5920,
      "certain": 5921,
      "lonely": 5922,
      "ricardo": 5923,
      "overslept": 5924,
      "stranger": 5925,
      "influence": 5926,
      "occasion": 5927,
      "architecture": 5928,
      "shuttle": 5929,
      "procedure": 5930,
      "brent": 5931,
      "konrad": 5932,
      "picnic": 5933,
      "sceptical": 5934,
      "prosec": 5935,
      "temper": 5936,
      "families": 5937,
      "construction": 5938,
      "virginia": 5939,
      "welcome": 5940,
      "izzy": 5941,
      "abortion": 5942,
      "platform": 5943,
      "helmut": 5944,
      "unavailable": 5945,
      "skills": 5946,
      "remembers": 5947,
      "campaign": 5948,
      "ingredients": 5949,
      "daphne": 5950,
      "gustav": 5951,
      "ladies": 5952,
      "outlander": 5953,
      "trousers": 5954,
      "39": 5955,
      "600": 5956,
      "aim": 5957,
      "bing": 5958,
      "ble": 5959,
      "bul": 5960,
      "cried": 5961,
      "dim": 5962,
      "dal": 5963,
      "ema": 5964,
      "fas": 5965,
      "fake": 5966,
      "fian": 5967,
      "fanny": 5968,
      "gall": 5969,
      "gino": 5970,
      "gaga": 5971,
      "hr": 5972,
      "hir": 5973,
      "hide": 5974,
      "hated": 5975,
      "hund": 5976,
      "hilda": 5977,
      "irish": 5978,
      "jer": 5979,
      "jace": 5980,
      "jers": 5981,
      "jada": 5982,
      "kg": 5983,
      "kil": 5984,
      "kla": 5985,
      "kings": 5986,
      "kenny": 5987,
      "mack": 5988,
      "mun": 5989,
      "mig": 5990,
      "meth": 5991,
      "non": 5992,
      "nut": 5993,
      "nort": 5994,
      "ox": 5995,
      "pom": 5996,
      "pow": 5997,
      "rug": 5998,
      "rude": 5999,
      "sed": 6000,
      "sven": 6001,
      "sash": 6002,
      "sense": 6003,
      "tac": 6004,
      "tia": 6005,
      "wroc": 6006,
      "wolf": 6007,
      "yv": 6008,
      "zac": 6009,
      "zak": 6010,
      "##iac": 6011,
      "##ienne": 6012,
      "##gu": 6013,
      "##ging": 6014,
      "##gal": 6015,
      "##eh": 6016,
      "##to": 6017,
      "##tic": 6018,
      "##tore": 6019,
      "##ao": 6020,
      "##sia": 6021,
      "##sky": 6022,
      "##oin": 6023,
      "##nand": 6024,
      "##dom": 6025,
      "##ha": 6026,
      "##wood": 6027,
      "##pool": 6028,
      "##cu": 6029,
      "##cies": 6030,
      "##cial": 6031,
      "##cling": 6032,
      "##jor": 6033,
      "##jte": 6034,
      "##juana": 6035,
      "##bin": 6036,
      "##mart": 6037,
      "##made": 6038,
      "##kah": 6039,
      "##for": 6040,
      "##iny": 6041,
      "tot": 6042,
      "tool": 6043,
      "##ero": 6044,
      "##erp": 6045,
      "##orter": 6046,
      "##orage": 6047,
      "##anut": 6048,
      "##arks": 6049,
      "##arming": 6050,
      "wire": 6051,
      "##rett": 6052,
      "isis": 6053,
      "isra": 6054,
      "##asia": 6055,
      "##eds": 6056,
      "##icity": 6057,
      "##icial": 6058,
      "forb": 6059,
      "beyon": 6060,
      "##aches": 6061,
      "##itor": 6062,
      "sheet": 6063,
      "sheeran": 6064,
      "thor": 6065,
      "##uting": 6066,
      "##iece": 6067,
      "##imistic": 6068,
      "##usual": 6069,
      "item": 6070,
      "neg": 6071,
      "##adette": 6072,
      "##adem": 6073,
      "anca": 6074,
      "anast": 6075,
      "##iran": 6076,
      "stone": 6077,
      "storage": 6078,
      "reve": 6079,
      "reject": 6080,
      "reaction": 6081,
      "##ils": 6082,
      "meals": 6083,
      "##iable": 6084,
      "chair": 6085,
      "joking": 6086,
      "joona": 6087,
      "mars": 6088,
      "marina": 6089,
      "marriage": 6090,
      "marathon": 6091,
      "##ching": 6092,
      "tomek": 6093,
      "##eless": 6094,
      "##roid": 6095,
      "shades": 6096,
      "lille": 6097,
      "lights": 6098,
      "lillian": 6099,
      "pla": 6100,
      "plot": 6101,
      "plastic": 6102,
      "alarm": 6103,
      "wore": 6104,
      "words": 6105,
      "##acked": 6106,
      "sud": 6107,
      "suits": 6108,
      "suicide": 6109,
      "##ulty": 6110,
      "##ulated": 6111,
      "##ender": 6112,
      "carlie": 6113,
      "whis": 6114,
      "##ecor": 6115,
      "newest": 6116,
      "##ander": 6117,
      "leag": 6118,
      "leaking": 6119,
      "##unately": 6120,
      "##ppe": 6121,
      "brayden": 6122,
      "aron": 6123,
      "arlene": 6124,
      "comf": 6125,
      "worker": 6126,
      "workout": 6127,
      "anny": 6128,
      "sport": 6129,
      "rocky": 6130,
      "moira": 6131,
      "##umb": 6132,
      "advert": 6133,
      "exit": 6134,
      "##aved": 6135,
      "prim": 6136,
      "proof": 6137,
      "##berg": 6138,
      "##anni": 6139,
      "helga": 6140,
      "ambul": 6141,
      "amalia": 6142,
      "map": 6143,
      "##maid": 6144,
      "cod": 6145,
      "coach": 6146,
      "hadn": 6147,
      "##ards": 6148,
      "gigi": 6149,
      "lux": 6150,
      "luisa": 6151,
      "##ods": 6152,
      "##udia": 6153,
      "minnie": 6154,
      "recent": 6155,
      "sample": 6156,
      "matters": 6157,
      "academ": 6158,
      "lois": 6159,
      "chees": 6160,
      "une": 6161,
      "unusual": 6162,
      "visa": 6163,
      "##antic": 6164,
      "mile": 6165,
      "waits": 6166,
      "##ctic": 6167,
      "janette": 6168,
      "christy": 6169,
      "##istan": 6170,
      "1000": 6171,
      "peace": 6172,
      "peanut": 6173,
      "marylin": 6174,
      "weekends": 6175,
      "overtime": 6176,
      "jobs": 6177,
      "charged": 6178,
      "bars": 6179,
      "madeline": 6180,
      "twins": 6181,
      "keiran": 6182,
      "anywhere": 6183,
      "compares": 6184,
      "schools": 6185,
      "manual": 6186,
      "##quel": 6187,
      "latin": 6188,
      "jew": 6189,
      "resem": 6190,
      "mattie": 6191,
      "matteo": 6192,
      "shown": 6193,
      "lottie": 6194,
      "serve": 6195,
      "serge": 6196,
      "instr": 6197,
      "quar": 6198,
      "karin": 6199,
      "content": 6200,
      "everyday": 6201,
      "everywhere": 6202,
      "eden": 6203,
      "eddy": 6204,
      "repl": 6205,
      "ellis": 6206,
      "smooth": 6207,
      "warming": 6208,
      "dressing": 6209,
      "dressed": 6210,
      "sharp": 6211,
      "paying": 6212,
      "metro": 6213,
      "camping": 6214,
      "freddy": 6215,
      "glob": 6216,
      "gluten": 6217,
      "henri": 6218,
      "requests": 6219,
      "required": 6220,
      "cleo": 6221,
      "childhood": 6222,
      "milo": 6223,
      "organis": 6224,
      "organic": 6225,
      "organised": 6226,
      "120": 6227,
      "crashed": 6228,
      "function": 6229,
      "impro": 6230,
      "grandpar": 6231,
      "wished": 6232,
      "terms": 6233,
      "cardiff": 6234,
      "meds": 6235,
      "treated": 6236,
      "flatmate": 6237,
      "owns": 6238,
      "walked": 6239,
      "zoey": 6240,
      "##onto": 6241,
      "hoping": 6242,
      "network": 6243,
      "raquel": 6244,
      "salv": 6245,
      "vik": 6246,
      "celebration": 6247,
      "norway": 6248,
      "hotels": 6249,
      "bookstore": 6250,
      "junior": 6251,
      "walmart": 6252,
      "handle": 6253,
      "nicolas": 6254,
      "damaged": 6255,
      "##ettes": 6256,
      "actor": 6257,
      "action": 6258,
      "actually": 6259,
      "jeniffer": 6260,
      "mailbox": 6261,
      "urges": 6262,
      "disappeared": 6263,
      "commission": 6264,
      "response": 6265,
      "felicity": 6266,
      "mainly": 6267,
      "gifs": 6268,
      "potential": 6269,
      "middle": 6270,
      "covered": 6271,
      "bonny": 6272,
      "argue": 6273,
      "easily": 6274,
      "singer": 6275,
      "amazed": 6276,
      "skipped": 6277,
      "awake": 6278,
      "aware": 6279,
      "awful": 6280,
      "miller": 6281,
      "complaint": 6282,
      "marika": 6283,
      "marijuana": 6284,
      "factory": 6285,
      "ukraine": 6286,
      "translate": 6287,
      "translator": 6288,
      "malta": 6289,
      "casa": 6290,
      "exha": 6291,
      "type": 6292,
      "tatum": 6293,
      "became": 6294,
      "annoys": 6295,
      "remembered": 6296,
      "falls": 6297,
      "rodger": 6298,
      "rodney": 6299,
      "european": 6300,
      "cherry": 6301,
      "pieces": 6302,
      "##burgh": 6303,
      "17th": 6304,
      "connected": 6305,
      "countryside": 6306,
      "hosting": 6307,
      "batman": 6308,
      "brianna": 6309,
      "brigit": 6310,
      "murder": 6311,
      "tablet": 6312,
      "knee": 6313,
      "purpose": 6314,
      "entertain": 6315,
      "divorced": 6316,
      "straw": 6317,
      "degree": 6318,
      "arranging": 6319,
      "employee": 6320,
      "employees": 6321,
      "maurice": 6322,
      "distur": 6323,
      "distance": 6324,
      "drawing": 6325,
      "dye": 6326,
      "golden": 6327,
      "responsib": 6328,
      "participants": 6329,
      "nadine": 6330,
      "oppos": 6331,
      "introduc": 6332,
      "responded": 6333,
      "japanese": 6334,
      "arianna": 6335,
      "saved": 6336,
      "yelled": 6337,
      "characters": 6338,
      "bernard": 6339,
      "bernadette": 6340,
      "departing": 6341,
      "limited": 6342,
      "spoons": 6343,
      "adrien": 6344,
      "luckily": 6345,
      "directions": 6346,
      "uploaded": 6347,
      "tempor": 6348,
      "regularly": 6349,
      "therap": 6350,
      "neva": 6351,
      "kissed": 6352,
      "slipp": 6353,
      "wojte": 6354,
      "##ascal": 6355,
      "protest": 6356,
      "installed": 6357,
      "further": 6358,
      "toronto": 6359,
      "leader": 6360,
      "grounded": 6361,
      "urgently": 6362,
      "arguing": 6363,
      "development": 6364,
      "ciara": 6365,
      "kelvin": 6366,
      "alyssa": 6367,
      "suffer": 6368,
      "dexter": 6369,
      "lukas": 6370,
      "pepper": 6371,
      "settings": 6372,
      "eleonor": 6373,
      "eleonore": 6374,
      "original": 6375,
      "duncan": 6376,
      "jenson": 6377,
      "kirk": 6378,
      "purchase": 6379,
      "##helmed": 6380,
      "equipment": 6381,
      "nursery": 6382,
      "adopt": 6383,
      "disgusting": 6384,
      "chemistry": 6385,
      "cornelia": 6386,
      "assistant": 6387,
      "communic": 6388,
      "nigel": 6389,
      "pieter": 6390,
      "necklace": 6391,
      "select": 6392,
      "director": 6393,
      "hawaii": 6394,
      "gisela": 6395,
      "scand": 6396,
      "wardrobe": 6397,
      "housewarming": 6398,
      "receipt": 6399,
      "bicycle": 6400,
      "eugene": 6401,
      "micah": 6402,
      "nestor": 6403,
      "oleg": 6404,
      "pyjam": 6405,
      "##hannes": 6406,
      "beverly": 6407,
      "overwhelmed": 6408,
      "sausages": 6409,
      "scotland": 6410,
      "vietnam": 6411,
      "embarrassing": 6412,
      "rehearsal": 6413,
      "airlines": 6414,
      "cinthia": 6415,
      "mimi": 6416,
      "wyatt": 6417,
      "##lusive": 6418,
      "foreign": 6419,
      "commercial": 6420,
      "spreads": 6421,
      "magdalene": 6422,
      "hundred": 6423,
      "jacek": 6424,
      "klaudia": 6425,
      "israel": 6426,
      "beyonce": 6427,
      "anastasia": 6428,
      "league": 6429,
      "grandparents": 6430,
      "brigitte": 6431,
      "wojtek": 6432,
      "2pm": 6433,
      "37": 6434,
      "66": 6435,
      "7am": 6436,
      "90": 6437,
      "9th": 6438,
      "bol": 6439,
      "bother": 6440,
      "bachel": 6441,
      "bolog": 6442,
      "brist": 6443,
      "cu": 6444,
      "cree": 6445,
      "cere": 6446,
      "cott": 6447,
      "dj": 6448,
      "diz": 6449,
      "della": 6450,
      "doreen": 6451,
      "eb": 6452,
      "eco": 6453,
      "erick": 6454,
      "egy": 6455,
      "fing": 6456,
      "fay": 6457,
      "fits": 6458,
      "fights": 6459,
      "fiction": 6460,
      "gia": 6461,
      "gord": 6462,
      "gerry": 6463,
      "hud": 6464,
      "hbo": 6465,
      "ig": 6466,
      "iggy": 6467,
      "kett": 6468,
      "lit": 6469,
      "lamp": 6470,
      "lacey": 6471,
      "mit": 6472,
      "nach": 6473,
      "nuts": 6474,
      "nomin": 6475,
      "niece": 6476,
      "os": 6477,
      "ore": 6478,
      "oil": 6479,
      "pac": 6480,
      "pus": 6481,
      "pant": 6482,
      "pint": 6483,
      "perry": 6484,
      "pisa": 6485,
      "pascal": 6486,
      "rd": 6487,
      "rac": 6488,
      "risk": 6489,
      "sen": 6490,
      "sic": 6491,
      "ske": 6492,
      "sne": 6493,
      "slo": 6494,
      "sierra": 6495,
      "tie": 6496,
      "tate": 6497,
      "tania": 6498,
      "uma": 6499,
      "ves": 6500,
      "vinnie": 6501,
      "wre": 6502,
      "wings": 6503,
      "wade": 6504,
      "yes": 6505,
      "yuc": 6506,
      "zoo": 6507,
      "zel": 6508,
      "zum": 6509,
      "##rich": 6510,
      "##rant": 6511,
      "##ias": 6512,
      "##gl": 6513,
      "##the": 6514,
      "##ses": 6515,
      "##sen": 6516,
      "##ship": 6517,
      "##ners": 6518,
      "##yz": 6519,
      "##vana": 6520,
      "##vals": 6521,
      "##df": 6522,
      "##hy": 6523,
      "##hroom": 6524,
      "##lav": 6525,
      "##werp": 6526,
      "##pet": 6527,
      "##ples": 6528,
      "##cr": 6529,
      "##cow": 6530,
      "##cun": 6531,
      "##ji": 6532,
      "##20": 6533,
      "##bu": 6534,
      "##bish": 6535,
      "##bage": 6536,
      "##bits": 6537,
      "##bille": 6538,
      "##born": 6539,
      "##mi": 6540,
      "##mie": 6541,
      "##mely": 6542,
      "##moon": 6543,
      "##mony": 6544,
      "##ko": 6545,
      "##kow": 6546,
      "##uing": 6547,
      "##ucer": 6548,
      "##ugged": 6549,
      "##fol": 6550,
      "##fall": 6551,
      "##fest": 6552,
      "##fish": 6553,
      "##fits": 6554,
      "##zan": 6555,
      "##zem": 6556,
      "##ław": 6557,
      "##heet": 6558,
      "##inburgh": 6559,
      "tourn": 6560,
      "##oro": 6561,
      "##llo": 6562,
      "wild": 6563,
      "wifi": 6564,
      "##esome": 6565,
      "##atch": 6566,
      "##atory": 6567,
      "##oni": 6568,
      "##onia": 6569,
      "##onne": 6570,
      "##iser": 6571,
      "##isse": 6572,
      "##enzie": 6573,
      "##asure": 6574,
      "##edith": 6575,
      "##edev": 6576,
      "##icure": 6577,
      "##icja": 6578,
      "ford": 6579,
      "atte": 6580,
      "##acon": 6581,
      "##acting": 6582,
      "##itting": 6583,
      "sher": 6584,
      "shed": 6585,
      "sheets": 6586,
      "##otely": 6587,
      "##uto": 6588,
      "##keys": 6589,
      "##ammar": 6590,
      "withd": 6591,
      "##ading": 6592,
      "##adar": 6593,
      "##aland": 6594,
      "ange": 6595,
      "##irting": 6596,
      "stri": 6597,
      "stain": 6598,
      "stood": 6599,
      "stones": 6600,
      "rein": 6601,
      "reese": 6602,
      "relig": 6603,
      "##ili": 6604,
      "##ilo": 6605,
      "##urning": 6606,
      "asian": 6607,
      "asso": 6608,
      "chairs": 6609,
      "dol": 6610,
      "jodi": 6611,
      "marla": 6612,
      "margot": 6613,
      "margo": 6614,
      "##chat": 6615,
      "##chool": 6616,
      "##elin": 6617,
      "shan": 6618,
      "ship": 6619,
      "shona": 6620,
      "abd": 6621,
      "lied": 6622,
      "ligh": 6623,
      "liber": 6624,
      "libby": 6625,
      "lifest": 6626,
      "##rif": 6627,
      "##rika": 6628,
      "##ribe": 6629,
      "plates": 6630,
      "##ryer": 6631,
      "ald": 6632,
      "alma": 6633,
      "alph": 6634,
      "alicja": 6635,
      "worst": 6636,
      "##olut": 6637,
      "##olars": 6638,
      "##ategy": 6639,
      "##opold": 6640,
      "##ulous": 6641,
      "##cey": 6642,
      "##rain": 6643,
      "##cabul": 6644,
      "cancun": 6645,
      "carry": 6646,
      "carbon": 6647,
      "carrot": 6648,
      "upon": 6649,
      "upper": 6650,
      "soap": 6651,
      "lego": 6652,
      "leopold": 6653,
      "clay": 6654,
      "clip": 6655,
      "buba": 6656,
      "bugs": 6657,
      "therefore": 6658,
      "ariel": 6659,
      "arlo": 6660,
      "##elled": 6661,
      "##ste": 6662,
      "##stood": 6663,
      "process": 6664,
      "workplace": 6665,
      "spicy": 6666,
      "rolls": 6667,
      "mode": 6668,
      "adding": 6669,
      "partners": 6670,
      "excel": 6671,
      "homeless": 6672,
      "prost": 6673,
      "przem": 6674,
      "pho": 6675,
      "among": 6676,
      "##liff": 6677,
      "official": 6678,
      "bond": 6679,
      "mae": 6680,
      "male": 6681,
      "maid": 6682,
      "maia": 6683,
      "major": 6684,
      "##cker": 6685,
      "seven": 6686,
      "separ": 6687,
      "drum": 6688,
      "devin": 6689,
      "device": 6690,
      "monkeys": 6691,
      "##assy": 6692,
      "##assed": 6693,
      "mini": 6694,
      "mins": 6695,
      "recre": 6696,
      "lazy": 6697,
      "teo": 6698,
      "tele": 6699,
      "##ected": 6700,
      "dism": 6701,
      "disney": 6702,
      "loan": 6703,
      "loads": 6704,
      "##iesz": 6705,
      "chess": 6706,
      "unfort": 6707,
      "parent": 6708,
      "flirting": 6709,
      "joint": 6710,
      "joined": 6711,
      "lloy": 6712,
      "waited": 6713,
      "waitress": 6714,
      "alle": 6715,
      "picks": 6716,
      "tram": 6717,
      "truck": 6718,
      "jana": 6719,
      "##istration": 6720,
      "aleks": 6721,
      "gran": 6722,
      "grac": 6723,
      "grade": 6724,
      "grammar": 6725,
      "peadar": 6726,
      "maryann": 6727,
      "donnie": 6728,
      "##aka": 6729,
      "##ptical": 6730,
      "bloc": 6731,
      "intermed": 6732,
      "interpre": 6733,
      "bret": 6734,
      "charges": 6735,
      "##issed": 6736,
      "appeared": 6737,
      "kebab": 6738,
      "trial": 6739,
      "scholars": 6740,
      "steam": 6741,
      "##ords": 6742,
      "##ouses": 6743,
      "goodby": 6744,
      "jewell": 6745,
      "resort": 6746,
      "femin": 6747,
      "sci": 6748,
      "scary": 6749,
      "geoff": 6750,
      "mattress": 6751,
      "##ossible": 6752,
      "advent": 6753,
      "advices": 6754,
      "##venient": 6755,
      "letting": 6756,
      "2000": 6757,
      "susy": 6758,
      "happens": 6759,
      "robbed": 6760,
      "##ylar": 6761,
      "150": 6762,
      "edit": 6763,
      "edna": 6764,
      "edinburgh": 6765,
      "repres": 6766,
      "melinda": 6767,
      "arrivals": 6768,
      "avail": 6769,
      "jeffery": 6770,
      "nicki": 6771,
      "percy": 6772,
      "carolina": 6773,
      "skates": 6774,
      "skylar": 6775,
      "caz": 6776,
      "capt": 6777,
      "survey": 6778,
      "eveline": 6779,
      "remotely": 6780,
      "swan": 6781,
      "maxine": 6782,
      "passing": 6783,
      "barbie": 6784,
      "crash": 6785,
      "crime": 6786,
      "michaela": 6787,
      "redecor": 6788,
      "##ivity": 6789,
      "filed": 6790,
      "desi": 6791,
      "impossible": 6792,
      "ending": 6793,
      "daredev": 6794,
      "darcey": 6795,
      "wishing": 6796,
      "tire": 6797,
      "babies": 6798,
      "retired": 6799,
      "returning": 6800,
      "tonya": 6801,
      "tuesdays": 6802,
      "runs": 6803,
      "francine": 6804,
      "medi": 6805,
      "medit": 6806,
      "trey": 6807,
      "trek": 6808,
      "sleepy": 6809,
      "##ucation": 6810,
      "bikes": 6811,
      "jones": 6812,
      "underw": 6813,
      "mushroom": 6814,
      "addison": 6815,
      "additional": 6816,
      "colors": 6817,
      "assures": 6818,
      "salon": 6819,
      "salsa": 6820,
      "clubs": 6821,
      "confl": 6822,
      "owe": 6823,
      "difference": 6824,
      "courses": 6825,
      "geri": 6826,
      "gerard": 6827,
      "gerardo": 6828,
      "##uese": 6829,
      "curious": 6830,
      "##rup": 6831,
      "internship": 6832,
      "ruined": 6833,
      "behaving": 6834,
      "sybille": 6835,
      "syrup": 6836,
      "rented": 6837,
      "laws": 6838,
      "marcia": 6839,
      "excuse": 6840,
      "incident": 6841,
      "inspir": 6842,
      "ryanair": 6843,
      "interviews": 6844,
      "##aneous": 6845,
      "collected": 6846,
      "emails": 6847,
      "basil": 6848,
      "kenzie": 6849,
      "listened": 6850,
      "indust": 6851,
      "lyric": 6852,
      "society": 6853,
      "assignments": 6854,
      "bottom": 6855,
      "slides": 6856,
      "strategy": 6857,
      "histor": 6858,
      "producer": 6859,
      "organization": 6860,
      "austen": 6861,
      "memes": 6862,
      "dollar": 6863,
      "drops": 6864,
      "horse": 6865,
      "specific": 6866,
      "199": 6867,
      "romantic": 6868,
      "bags": 6869,
      "irrit": 6870,
      "keyboard": 6871,
      "learnt": 6872,
      "hurts": 6873,
      "formula": 6874,
      "awesome": 6875,
      "follows": 6876,
      "followed": 6877,
      "prize": 6878,
      "practical": 6879,
      "happening": 6880,
      "mercy": 6881,
      "meredith": 6882,
      "laurel": 6883,
      "opinions": 6884,
      "angelo": 6885,
      "angelina": 6886,
      "speakers": 6887,
      "countries": 6888,
      "solution": 6889,
      "vancou": 6890,
      "beatrix": 6891,
      "leonard": 6892,
      "clarisse": 6893,
      "spots": 6894,
      "snap": 6895,
      "specialist": 6896,
      "silent": 6897,
      "tyre": 6898,
      "kristina": 6899,
      "rhys": 6900,
      "standing": 6901,
      "macie": 6902,
      "macbook": 6903,
      "##gium": 6904,
      "garlic": 6905,
      "##ciation": 6906,
      "belgium": 6907,
      "kimberley": 6908,
      "hairdryer": 6909,
      "14th": 6910,
      "##bury": 6911,
      "shaun": 6912,
      "shakes": 6913,
      "congratulate": 6914,
      "congratulated": 6915,
      "eyes": 6916,
      "palace": 6917,
      "paloma": 6918,
      "reality": 6919,
      "democ": 6920,
      "16th": 6921,
      "antib": 6922,
      "antwerp": 6923,
      "galax": 6924,
      "princess": 6925,
      "tourists": 6926,
      "pairs": 6927,
      "confirmation": 6928,
      "22nd": 6929,
      "cyber": 6930,
      "vocabul": 6931,
      "voting": 6932,
      "portuguese": 6933,
      "programme": 6934,
      "estim": 6935,
      "ridic": 6936,
      "venue": 6937,
      "preferred": 6938,
      "ignored": 6939,
      "ignoring": 6940,
      "optimistic": 6941,
      "paddy": 6942,
      "##ronic": 6943,
      "##bread": 6944,
      "delete": 6945,
      "customers": 6946,
      "ramon": 6947,
      "constance": 6948,
      "involving": 6949,
      "dyed": 6950,
      "fitness": 6951,
      "completed": 6952,
      "candles": 6953,
      "reviews": 6954,
      "struct": 6955,
      "chapters": 6956,
      "dishwas": 6957,
      "neighborhood": 6958,
      "autumn": 6959,
      "effect": 6960,
      "effective": 6961,
      "idiot": 6962,
      "limit": 6963,
      "tessy": 6964,
      "painted": 6965,
      "devices": 6966,
      "entry": 6967,
      "random": 6968,
      "##arium": 6969,
      "statistics": 6970,
      "recorded": 6971,
      "title": 6972,
      "trisha": 6973,
      "worrying": 6974,
      "nyc": 6975,
      "pipe": 6976,
      "slip": 6977,
      "francesca": 6978,
      "activity": 6979,
      "27th": 6980,
      "dumped": 6981,
      "dumplings": 6982,
      "furious": 6983,
      "hillary": 6984,
      "climate": 6985,
      "honeymoon": 6986,
      "jasper": 6987,
      "jasna": 6988,
      "kelsey": 6989,
      "license": 6990,
      "software": 6991,
      "gathering": 6992,
      "gingerbread": 6993,
      "jensen": 6994,
      "purchas": 6995,
      "announced": 6996,
      "cocoa": 6997,
      "julianna": 6998,
      "juliette": 6999,
      "graphic": 7000,
      "kaleigh": 7001,
      "dotty": 7002,
      "jumping": 7003,
      "moscow": 7004,
      "relieved": 7005,
      "cockt": 7006,
      "disagree": 7007,
      "disagrees": 7008,
      "locked": 7009,
      "jacqueline": 7010,
      "settling": 7011,
      "possibly": 7012,
      "cigarette": 7013,
      "cigarettes": 7014,
      "quickly": 7015,
      "experienced": 7016,
      "ipad": 7017,
      "ibiza": 7018,
      "village": 7019,
      "anabelle": 7020,
      "mechanic": 7021,
      "investig": 7022,
      "prescribed": 7023,
      "independence": 7024,
      "citiz": 7025,
      "farewell": 7026,
      "##bourg": 7027,
      "##fully": 7028,
      "pharmacy": 7029,
      "dialogues": 7030,
      "twisted": 7031,
      "impatient": 7032,
      "browsing": 7033,
      "opportunity": 7034,
      "bbc": 7035,
      "pablo": 7036,
      "prison": 7037,
      "rachael": 7038,
      "ugly": 7039,
      "nephew": 7040,
      "compliment": 7041,
      "attention": 7042,
      "linkedin": 7043,
      "extremely": 7044,
      "calendar": 7045,
      "prosecco": 7046,
      "temperature": 7047,
      "fiance": 7048,
      "hiram": 7049,
      "jersey": 7050,
      "rugby": 7051,
      "##ointing": 7052,
      "forbid": 7053,
      "negative": 7054,
      "rejected": 7055,
      "comforts": 7056,
      "ambulance": 7057,
      "academic": 7058,
      "global": 7059,
      "exhausted": 7060,
      "therapist": 7061,
      "bologna": 7062,
      "bristol": 7063,
      "dizzy": 7064,
      "egypt": 7065,
      "fingers": 7066,
      "gordon": 7067,
      "kettle": 7068,
      "sicily": 7069,
      "skeptical": 7070,
      "sneak": 7071,
      "zumba": 7072,
      "tournament": 7073,
      "angella": 7074,
      "lifestyle": 7075,
      "przemek": 7076,
      "scholarship": 7077,
      "goodbye": 7078,
      "jewellery": 7079,
      "daredevil": 7080,
      "inspiration": 7081,
      "vancouver": 7082,
      "galaxy": 7083,
      "vocabulary": 7084,
      "dishwasher": 7085,
      "01": 7086,
      "000": 7087,
      "400": 7088,
      "53": 7089,
      "5pm": 7090,
      "65": 7091,
      "67": 7092,
      "95": 7093,
      "az": 7094,
      "aure": 7095,
      "ahead": 7096,
      "bs": 7097,
      "bin": 7098,
      "bes": 7099,
      "bou": 7100,
      "bess": 7101,
      "benn": 7102,
      "bough": 7103,
      "berry": 7104,
      "cer": 7105,
      "cage": 7106,
      "cuc": 7107,
      "cze": 7108,
      "dv": 7109,
      "dw": 7110,
      "dare": 7111,
      "dyn": 7112,
      "denny": 7113,
      "dinny": 7114,
      "dalia": 7115,
      "diction": 7116,
      "ely": 7117,
      "fasc": 7118,
      "gd": 7119,
      "gorge": 7120,
      "hoo": 7121,
      "hod": 7122,
      "hip": 7123,
      "jee": 7124,
      "jav": 7125,
      "jann": 7126,
      "jure": 7127,
      "janny": 7128,
      "jars": 7129,
      "ku": 7130,
      "kle": 7131,
      "kitten": 7132,
      "ketch": 7133,
      "kaka": 7134,
      "lan": 7135,
      "led": 7136,
      "lie": 7137,
      "loun": 7138,
      "lona": 7139,
      "mut": 7140,
      "mck": 7141,
      "mina": 7142,
      "momm": 7143,
      "mash": 7144,
      "misha": 7145,
      "nol": 7146,
      "none": 7147,
      "oly": 7148,
      "omer": 7149,
      "pit": 7150,
      "pee": 7151,
      "pia": 7152,
      "pure": 7153,
      "pens": 7154,
      "push": 7155,
      "pdf": 7156,
      "ras": 7157,
      "rou": 7158,
      "rit": 7159,
      "rus": 7160,
      "ria": 7161,
      "rate": 7162,
      "ryl": 7163,
      "rings": 7164,
      "rio": 7165,
      "rules": 7166,
      "siss": 7167,
      "slot": 7168,
      "saga": 7169,
      "section": 7170,
      "tent": 7171,
      "tro": 7172,
      "tig": 7173,
      "tag": 7174,
      "tail": 7175,
      "tasha": 7176,
      "tiring": 7177,
      "und": 7178,
      "wra": 7179,
      "winner": 7180,
      "yach": 7181,
      "zan": 7182,
      "zane": 7183,
      "zuri": 7184,
      "##ros": 7185,
      "##rots": 7186,
      "##iest": 7187,
      "##itha": 7188,
      "##iors": 7189,
      "##gara": 7190,
      "##gian": 7191,
      "##tim": 7192,
      "##top": 7193,
      "##tina": 7194,
      "##af": 7195,
      "##ox": 7196,
      "##oth": 7197,
      "##oise": 7198,
      "##nab": 7199,
      "##yton": 7200,
      "##vie": 7201,
      "##vant": 7202,
      "##villa": 7203,
      "##vator": 7204,
      "##las": 7205,
      "##light": 7206,
      "##wia": 7207,
      "##wart": 7208,
      "##por": 7209,
      "##pot": 7210,
      "##pear": 7211,
      "##pect": 7212,
      "##pap": 7213,
      "##pins": 7214,
      "##con": 7215,
      "##cil": 7216,
      "##cia": 7217,
      "##cles": 7218,
      "##cony": 7219,
      "##celyn": 7220,
      "##56": 7221,
      "##mpt": 7222,
      "##kers": 7223,
      "##under": 7224,
      "##10": 7225,
      "##zing": 7226,
      "##zar": 7227,
      "##xual": 7228,
      "##37": 7229,
      "##heal": 7230,
      "##inth": 7231,
      "##ination": 7232,
      "##inated": 7233,
      "##inating": 7234,
      "tou": 7235,
      "toys": 7236,
      "##ndrome": 7237,
      "##orable": 7238,
      "android": 7239,
      "##aran": 7240,
      "##arily": 7241,
      "##aries": 7242,
      "##ario": 7243,
      "##arious": 7244,
      "##arently": 7245,
      "##ats": 7246,
      "##onment": 7247,
      "##reg": 7248,
      "##rel": 7249,
      "##reen": 7250,
      "##asco": 7251,
      "##edies": 7252,
      "##omy": 7253,
      "##omfort": 7254,
      "##ety": 7255,
      "##etty": 7256,
      "inte": 7257,
      "inns": 7258,
      "##outh": 7259,
      "##ays": 7260,
      "fort": 7261,
      "former": 7262,
      "forced": 7263,
      "heat": 7264,
      "god": 7265,
      "goose": 7266,
      "goals": 7267,
      "herm": 7268,
      "##acing": 7269,
      "##aced": 7270,
      "##itut": 7271,
      "##itos": 7272,
      "##leine": 7273,
      "thous": 7274,
      "##kel": 7275,
      "##ims": 7276,
      "##imp": 7277,
      "##amon": 7278,
      "##ador": 7279,
      "##alt": 7280,
      "##alf": 7281,
      "##alist": 7282,
      "##iding": 7283,
      "##idence": 7284,
      "anx": 7285,
      "aneta": 7286,
      "##ironment": 7287,
      "stall": 7288,
      "##ghurt": 7289,
      "arena": 7290,
      "ree": 7291,
      "react": 7292,
      "reece": 7293,
      "##eem": 7294,
      "##osa": 7295,
      "##ilton": 7296,
      "##terest": 7297,
      "mell": 7298,
      "measure": 7299,
      "aston": 7300,
      "chant": 7301,
      "hallie": 7302,
      "habits": 7303,
      "jocelyn": 7304,
      "marri": 7305,
      "tomm": 7306,
      "shake": 7307,
      "shif": 7308,
      "shaz": 7309,
      "shrim": 7310,
      "shiny": 7311,
      "abi": 7312,
      "##ript": 7313,
      "##rique": 7314,
      "##ryn": 7315,
      "aly": 7316,
      "alv": 7317,
      "alonso": 7318,
      "alright": 7319,
      "sucks": 7320,
      "##oler": 7321,
      "##olph": 7322,
      "##olution": 7323,
      "##atever": 7324,
      "notific": 7325,
      "##ulate": 7326,
      "##rows": 7327,
      "##enda": 7328,
      "canad": 7329,
      "##kings": 7330,
      "carib": 7331,
      "whit": 7332,
      "whatever": 7333,
      "newcast": 7334,
      "concent": 7335,
      "leigh": 7336,
      "leanne": 7337,
      "##ably": 7338,
      "clive": 7339,
      "clint": 7340,
      "bub": 7341,
      "bump": 7342,
      "bran": 7343,
      "brat": 7344,
      "brady": 7345,
      "##str": 7346,
      "##astated": 7347,
      "##xton": 7348,
      "pawe": 7349,
      "spin": 7350,
      "spud": 7351,
      "spark": 7352,
      "root": 7353,
      "roast": 7354,
      "##ffles": 7355,
      "adult": 7356,
      "admin": 7357,
      "theme": 7358,
      "aga": 7359,
      "aggie": 7360,
      "agenda": 7361,
      "prud": 7362,
      "prank": 7363,
      "amka": 7364,
      "toni": 7365,
      "tonia": 7366,
      "maja": 7367,
      "##cked": 7368,
      "coast": 7369,
      "sevilla": 7370,
      "johns": 7371,
      "deals": 7372,
      "monique": 7373,
      "giov": 7374,
      "lucky": 7375,
      "##assment": 7376,
      "minor": 7377,
      "minim": 7378,
      "recons": 7379,
      "recru": 7380,
      "samples": 7381,
      "matth": 7382,
      "matches": 7383,
      "##ainted": 7384,
      "lag": 7385,
      "knowled": 7386,
      "likely": 7387,
      "emot": 7388,
      "emman": 7389,
      "tequ": 7390,
      "lobby": 7391,
      "noisy": 7392,
      "cheat": 7393,
      "chester": 7394,
      "unk": 7395,
      "pred": 7396,
      "waking": 7397,
      "wakes": 7398,
      "danial": 7399,
      "##acha": 7400,
      "##inners": 7401,
      "##otherap": 7402,
      "flood": 7403,
      "flash": 7404,
      "birming": 7405,
      "birgit": 7406,
      "playlist": 7407,
      "##ongo": 7408,
      "grew": 7409,
      "greek": 7410,
      "janine": 7411,
      "christie": 7412,
      "peyton": 7413,
      "##aki": 7414,
      "##aked": 7415,
      "##chez": 7416,
      "##check": 7417,
      "blouse": 7418,
      "block": 7419,
      "barg": 7420,
      "julio": 7421,
      "twe": 7422,
      "accoun": 7423,
      "accused": 7424,
      "apparently": 7425,
      "kept": 7426,
      "compens": 7427,
      "##phy": 7428,
      "steak": 7429,
      "##ordin": 7430,
      "manip": 7431,
      "finals": 7432,
      "monthly": 7433,
      "jem": 7434,
      "photography": 7435,
      "reset": 7436,
      "science": 7437,
      "scored": 7438,
      "geography": 7439,
      "leftover": 7440,
      "expans": 7441,
      "howie": 7442,
      "taught": 7443,
      "evenings": 7444,
      "janek": 7445,
      "serv": 7446,
      "server": 7447,
      "ways": 7448,
      "disco": 7449,
      "discounts": 7450,
      "letters": 7451,
      "##bron": 7452,
      "##bruck": 7453,
      "qual": 7454,
      "quote": 7455,
      "##onds": 7456,
      "foods": 7457,
      "moroc": 7458,
      "guard": 7459,
      "contest": 7460,
      "contacting": 7461,
      "##ension": 7462,
      "##yster": 7463,
      "edition": 7464,
      "education": 7465,
      "driven": 7466,
      "lunchbox": 7467,
      "elli": 7468,
      "melvin": 7469,
      "melody": 7470,
      "melania": 7471,
      "attacks": 7472,
      "concerts": 7473,
      "madeleine": 7474,
      "smell": 7475,
      "smok": 7476,
      "presented": 7477,
      "presentations": 7478,
      "warren": 7479,
      "warned": 7480,
      "nickie": 7481,
      "perman": 7482,
      "coffe": 7483,
      "earns": 7484,
      "##mpia": 7485,
      "cait": 7486,
      "surv": 7487,
      "surfing": 7488,
      "##ittee": 7489,
      "remove": 7490,
      "victory": 7491,
      "supplies": 7492,
      "informing": 7493,
      "intoler": 7494,
      "simple": 7495,
      "barbados": 7496,
      "chooses": 7497,
      "123": 7498,
      "cran": 7499,
      "mondays": 7500,
      "ester": 7501,
      "sonny": 7502,
      "poz": 7503,
      "poking": 7504,
      "engage": 7505,
      "ashton": 7506,
      "philos": 7507,
      "gabby": 7508,
      "postcard": 7509,
      "retake": 7510,
      "attends": 7511,
      "terr": 7512,
      "terrence": 7513,
      "louie": 7514,
      "profit": 7515,
      "eliana": 7516,
      "rosemary": 7517,
      "franco": 7518,
      "flats": 7519,
      "flatmates": 7520,
      "summary": 7521,
      "11pm": 7522,
      "preparations": 7523,
      "settle": 7524,
      "deciding": 7525,
      "underground": 7526,
      "understood": 7527,
      "regret": 7528,
      "bosses": 7529,
      "elevator": 7530,
      "corpor": 7531,
      "error": 7532,
      "larisa": 7533,
      "musical": 7534,
      "raw": 7535,
      "addicted": 7536,
      "beds": 7537,
      "jayson": 7538,
      "kyla": 7539,
      "mirac": 7540,
      "assess": 7541,
      "poppins": 7542,
      "confident": 7543,
      "differences": 7544,
      "##embourg": 7545,
      "landmar": 7546,
      "behaved": 7547,
      "behalf": 7548,
      "syndrome": 7549,
      "refuse": 7550,
      "rental": 7551,
      "##gover": 7552,
      "value": 7553,
      "##cedes": 7554,
      "incre": 7555,
      "damar": 7556,
      "damien": 7557,
      "insom": 7558,
      "debate": 7559,
      "debby": 7560,
      "hungover": 7561,
      "arrested": 7562,
      "audi": 7563,
      "audience": 7564,
      "shortcut": 7565,
      "disappointing": 7566,
      "kenya": 7567,
      "mostly": 7568,
      "commute": 7569,
      "daughters": 7570,
      "calms": 7571,
      "induction": 7572,
      "blueberries": 7573,
      "respect": 7574,
      "##ergy": 7575,
      "lynda": 7576,
      "beau": 7577,
      "assigned": 7578,
      "albania": 7579,
      "##versial": 7580,
      "newspap": 7581,
      "located": 7582,
      "locations": 7583,
      "expectations": 7584,
      "rubbish": 7585,
      "therese": 7586,
      "meme": 7587,
      "draft": 7588,
      "cheapest": 7589,
      "##paper": 7590,
      "suzan": 7591,
      "legs": 7592,
      "legend": 7593,
      "veronika": 7594,
      "neighbourhood": 7595,
      "197": 7596,
      "romana": 7597,
      "##ova": 7598,
      "essays": 7599,
      "bonuses": 7600,
      "irina": 7601,
      "irwin": 7602,
      "awa": 7603,
      "russell": 7604,
      "sunburn": 7605,
      "##standing": 7606,
      "prevent": 7607,
      "complained": 7608,
      "articles": 7609,
      "prior": 7610,
      "transferred": 7611,
      "mercedes": 7612,
      "supported": 7613,
      "infinity": 7614,
      "leonardo": 7615,
      "clarice": 7616,
      "experiment": 7617,
      "queue": 7618,
      "##luded": 7619,
      "claude": 7620,
      "casual": 7621,
      "##cising": 7622,
      "tyres": 7623,
      "##ertation": 7624,
      "becoming": 7625,
      "alberto": 7626,
      "magic": 7627,
      "##ribute": 7628,
      "steps": 7629,
      "180": 7630,
      "fighting": 7631,
      "hike": 7632,
      "puzz": 7633,
      "arrangements": 7634,
      "hitting": 7635,
      "kaja": 7636,
      "##hens": 7637,
      "below": 7638,
      "belong": 7639,
      "belinda": 7640,
      "boxing": 7641,
      "opera": 7642,
      "renata": 7643,
      "royal": 7644,
      "include": 7645,
      "aida": 7646,
      "aidan": 7647,
      "wilma": 7648,
      "quitting": 7649,
      "fedora": 7650,
      "palmer": 7651,
      "provides": 7652,
      "demi": 7653,
      "2018": 7654,
      "medications": 7655,
      "brownies": 7656,
      "flies": 7657,
      "hilarious": 7658,
      "property": 7659,
      "ronaldo": 7660,
      "answered": 7661,
      "bale": 7662,
      "cecily": 7663,
      "sanchez": 7664,
      "alfonso": 7665,
      "controversial": 7666,
      "cycling": 7667,
      "tabby": 7668,
      "tabitha": 7669,
      "volley": 7670,
      "forwarded": 7671,
      "decorate": 7672,
      "decisions": 7673,
      "cristian": 7674,
      "fabio": 7675,
      "purse": 7676,
      "volume": 7677,
      "entered": 7678,
      "apologizes": 7679,
      "ignore": 7680,
      "rowan": 7681,
      "admitted": 7682,
      "heavily": 7683,
      "cupcakes": 7684,
      "updates": 7685,
      "updating": 7686,
      "screw": 7687,
      "candle": 7688,
      "cabin": 7689,
      "freel": 7690,
      "homes": 7691,
      "allergy": 7692,
      "crossed": 7693,
      "psychiat": 7694,
      "relaxing": 7695,
      "relaxed": 7696,
      "savings": 7697,
      "threw": 7698,
      "absence": 7699,
      "dissertation": 7700,
      "balcony": 7701,
      "cassie": 7702,
      "ident": 7703,
      "mateusz": 7704,
      "taste": 7705,
      "spoken": 7706,
      "adrianne": 7707,
      "devastated": 7708,
      "directly": 7709,
      "safety": 7710,
      "capital": 7711,
      "niagara": 7712,
      "statue": 7713,
      "critical": 7714,
      "24th": 7715,
      "pierre": 7716,
      "pierce": 7717,
      "titles": 7718,
      "ulrich": 7719,
      "witch": 7720,
      "witness": 7721,
      "witcher": 7722,
      "frederic": 7723,
      "douglas": 7724,
      "appreciates": 7725,
      "physics": 7726,
      "reserve": 7727,
      "wonderful": 7728,
      "volunteers": 7729,
      "basement": 7730,
      "growing": 7731,
      "lidl": 7732,
      "pumpkin": 7733,
      "yoghurt": 7734,
      "stroke": 7735,
      "stroller": 7736,
      "downloaded": 7737,
      "membership": 7738,
      "suspected": 7739,
      "economics": 7740,
      "ciaran": 7741,
      "diab": 7742,
      "elaine": 7743,
      "facial": 7744,
      "flew": 7745,
      "funds": 7746,
      "kathleen": 7747,
      "kathryn": 7748,
      "tutorial": 7749,
      "alyson": 7750,
      "suffers": 7751,
      "lukass": 7752,
      "graduating": 7753,
      "renovation": 7754,
      "demands": 7755,
      "morty": 7756,
      "toothache": 7757,
      "environment": 7758,
      "switzer": 7759,
      "sandwich": 7760,
      "cowork": 7761,
      "celest": 7762,
      "jumper": 7763,
      "kendra": 7764,
      "shooting": 7765,
      "affair": 7766,
      "district": 7767,
      "mixed": 7768,
      "taxes": 7769,
      "rafael": 7770,
      "community": 7771,
      "exchanged": 7772,
      "lasagne": 7773,
      "lasagna": 7774,
      "jumped": 7775,
      "tarant": 7776,
      "target": 7777,
      "alternative": 7778,
      "arturo": 7779,
      "culture": 7780,
      "cultural": 7781,
      "griff": 7782,
      "multip": 7783,
      "pilot": 7784,
      "sources": 7785,
      "##works": 7786,
      "thrilled": 7787,
      "liquid": 7788,
      "blonde": 7789,
      "brazilian": 7790,
      "politician": 7791,
      "motivated": 7792,
      "baldwin": 7793,
      "krakow": 7794,
      "yuval": 7795,
      "zealand": 7796,
      "hellen": 7797,
      "rebeca": 7798,
      "greetings": 7799,
      "pockets": 7800,
      "criticizes": 7801,
      "digital": 7802,
      "gbp": 7803,
      "honor": 7804,
      "kirsty": 7805,
      "persu": 7806,
      "sisi": 7807,
      "vitam": 7808,
      "analys": 7809,
      "shouting": 7810,
      "liverpool": 7811,
      "sponsors": 7812,
      "avocado": 7813,
      "registered": 7814,
      "depression": 7815,
      "proposal": 7816,
      "frequently": 7817,
      "circumst": 7818,
      "mackenzie": 7819,
      "northern": 7820,
      "oxford": 7821,
      "powder": 7822,
      "tacos": 7823,
      "wroclaw": 7824,
      "yvonne": 7825,
      "##nandez": 7826,
      "reveal": 7827,
      "whiskey": 7828,
      "advertise": 7829,
      "luxembourg": 7830,
      "quarter": 7831,
      "vikki": 7832,
      "strawberry": 7833,
      "responsibilities": 7834,
      "opposite": 7835,
      "temporarily": 7836,
      "suffered": 7837,
      "scandin": 7838,
      "pyjamas": 7839,
      "spreadsheet": 7840,
      "bachelor": 7841,
      "ceremony": 7842,
      "cottage": 7843,
      "mitche": 7844,
      "nachos": 7845,
      "yucatan": 7846,
      "attempt": 7847,
      "association": 7848,
      "aldona": 7849,
      "alphonse": 7850,
      "##stein": 7851,
      "unfortunately": 7852,
      "lloyd": 7853,
      "interpreter": 7854,
      "represent": 7855,
      "availability": 7856,
      "captain": 7857,
      "conflict": 7858,
      "industry": 7859,
      "snapchat": 7860,
      "shakespear": 7861,
      "antibiot": 7862,
      "ridiculous": 7863,
      "czech": 7864,
      "gorgeous": 7865,
      "jurek": 7866,
      "ketchup": 7867,
      "lounge": 7868,
      "mommy": 7869,
      "olympia": 7870,
      "router": 7871,
      "sissy": 7872,
      "yacht": 7873,
      "integr": 7874,
      "innsbruck": 7875,
      "thousand": 7876,
      "shifts": 7877,
      "caribbe": 7878,
      "newcastle": 7879,
      "paweł": 7880,
      "knowledge": 7881,
      "emmanuel": 7882,
      "tequila": 7883,
      "birmingham": 7884,
      "accounting": 7885,
      "morocco": 7886,
      "newspapers": 7887,
      "volleyball": 7888,
      "switzerland": 7889,
      "shakespeare": 7890,
      "05": 7891,
      "3d": 7892,
      "31": 7893,
      "42": 7894,
      "44": 7895,
      "41": 7896,
      "49": 7897,
      "58": 7898,
      "69": 7899,
      "76": 7900,
      "80s": 7901,
      "97": 7902,
      "ai": 7903,
      "ak": 7904,
      "aver": 7905,
      "bot": 7906,
      "bam": 7907,
      "bos": 7908,
      "bout": 7909,
      "bour": 7910,
      "ced": 7911,
      "core": 7912,
      "cort": 7913,
      "cable": 7914,
      "civ": 7915,
      "cables": 7916,
      "dh": 7917,
      "ded": 7918,
      "dut": 7919,
      "dus": 7920,
      "dil": 7921,
      "dill": 7922,
      "dies": 7923,
      "dag": 7924,
      "dway": 7925,
      "dough": 7926,
      "dasy": 7927,
      "eld": 7928,
      "eager": 7929,
      "erika": 7930,
      "fir": 7931,
      "fool": 7932,
      "foy": 7933,
      "fainted": 7934,
      "ga": 7935,
      "gent": 7936,
      "gain": 7937,
      "gap": 7938,
      "gang": 7939,
      "gmail": 7940,
      "gilda": 7941,
      "gale": 7942,
      "gender": 7943,
      "hou": 7944,
      "hart": 7945,
      "hort": 7946,
      "hub": 7947,
      "hors": 7948,
      "hiring": 7949,
      "hacked": 7950,
      "houses": 7951,
      "ii": 7952,
      "ira": 7953,
      "iona": 7954,
      "iga": 7955,
      "iev": 7956,
      "ja": 7957,
      "jad": 7958,
      "jil": 7959,
      "jak": 7960,
      "jaden": 7961,
      "kl": 7962,
      "ker": 7963,
      "kac": 7964,
      "kos": 7965,
      "kia": 7966,
      "kitt": 7967,
      "lg": 7968,
      "lay": 7969,
      "lut": 7970,
      "los": 7971,
      "lack": 7972,
      "lore": 7973,
      "lod": 7974,
      "linn": 7975,
      "loss": 7976,
      "lony": 7977,
      "lines": 7978,
      "loreen": 7979,
      "mri": 7980,
      "midge": 7981,
      "masha": 7982,
      "macey": 7983,
      "mama": 7984,
      "nes": 7985,
      "nash": 7986,
      "niam": 7987,
      "nanny": 7988,
      "nola": 7989,
      "om": 7990,
      "oce": 7991,
      "ode": 7992,
      "por": 7993,
      "pir": 7994,
      "pig": 7995,
      "pleasant": 7996,
      "paco": 7997,
      "rs": 7998,
      "rin": 7999
    }
  }
}