{
  "version": "1.0",
  "truncation": null,
  "padding": null,
  "added_tokens": [
    {
      "id": 0,
      "content": "[START]",
      "single_word": false,
      "lstrip": false,
      "rstrip": false,
      "normalized": false,
      "special": true
    },
    {
      "id": 1,
      "content": "[END]",
      "single_word": false,
      "lstrip": false,
      "rstrip": false,
      "normalized": false,
      "special": true
    },
    {
      "id": 2,
      "content": "[SEP]",
      "single_word": false,
      "lstrip": false,
      "rstrip": false,
      "normalized": false,
      "special": true
    },
    {
      "id": 3,
      "content": "[UNK]",
      "single_word": false,
      "lstrip": false,
      "rstrip": false,
      "normalized": false,
      "special": true
    },
    {
      "id": 4,
      "content": "[FILL]",
      "single_word": false,
      "lstrip": false,
      "rstrip": false,
      "normalized": false,
      "special": true
    }
  ],
  "normalizer": {
    "type": "BertNormalizer",
    "clean_text": true,
    "handle_chinese_chars": true,
    "strip_accents": null,
    "lowercase": true
  },
  "pre_tokenizer": {
    "type": "BertPreTokenizer"
  },
  "post_processor": {
    "type": "TemplateProcessing",
    "single": [
      {
        "SpecialToken": {
          "id": "[START]",
          "type_id": 0
        }
      },
      {
        "Sequence": {
          "id": "A",
          "type_id": 0
        }
      },
      {
        "SpecialToken": {
          "id": "[END]",
          "type_id": 0
        }
      }
    ],
    "pair": [
      {
        "SpecialToken": {
          "id": "[START]",
          "type_id": 0
        }
      },
      {
        "Sequence": {
          "id": "A",
          "type_id": 0
        }
      },
      {
        "SpecialToken": {
          "id": "[SEP]",
          "type_id": 0
        }
      },
      {
        "Sequence": {
          "id": "B",
          "type_id": 1
        }
      },
      {
        "SpecialToken": {
          "id": "[END]",
          "type_id": 1
        }
      }
    ],
    "special_tokens": {
      "[END]": {
        "id": "[END]",
        "ids": [
          1
        ],
        "tokens": [
          "[END]"
        ]
      },
      "[SEP]": {
        "id": "[SEP]",
        "ids": [
          2
        ],
        "tokens": [
          "[SEP]"
        ]
      },
      "[START]": {
        "id": "[START]",
        "ids": [
          0
        ],
        "tokens": [
          "[START]"
        ]
      }
    }
  },
  "decoder": {
    "type": "WordPiece",
    "prefix": "##",
    "cleanup": true
  },
  "model": {
    "type": "WordPiece",
    "unk_token": "[UNK]",
    "continuing_subword_prefix": "##",
    "max_input_chars_per_word": 100,
    "vocab": {
      "[START]": 0,
      "[END]": 1,
      "[SEP]": 2,
      "[UNK]": 3,
      "[FILL]": 4,
      "!": 5,
      "\"": 6,
      "#": 7,
      "$": 8,
      "%": 9,
      "&": 10,
      "'": 11,
      "(": 12,
      ")": 13,
      "*": 14,
      "+": 15,
      ",": 16,
      "-": 17,
      ".": 18,
      "/": 19,
      "0": 20,
      "1": 21,
      "2": 22,
      "3": 23,
      "4": 24,
      "5": 25,
      "6": 26,
      "7": 27,
      "8": 28,
      "9": 29,
      ":": 30,
      ";": 31,
      "<": 32,
      "=": 33,
      ">": 34,
      "?": 35,
      "@": 36,
      "[": 37,
      "\\": 38,
      "]": 39,
      "^": 40,
      "_": 41,
      "`": 42,
      "a": 43,
      "b": 44,
      "c": 45,
      "d": 46,
      "e": 47,
      "f": 48,
      "g": 49,
      "h": 50,
      "i": 51,
      "j": 52,
      "k": 53,
      "l": 54,
      "m": 55,
      "n": 56,
      "o": 57,
      "p": 58,
      "q": 59,
      "r": 60,
      "s": 61,
      "t": 62,
      "u": 63,
      "v": 64,
      "w": 65,
      "x": 66,
      "y": 67,
      "z": 68,
      "{": 69,
      "|": 70,
      "~": 71,
      "¡": 72,
      "£": 73,
      "¯": 74,
      "°": 75,
      "´": 76,
      "·": 77,
      "º": 78,
      "½": 79,
      "×": 80,
      "ø": 81,
      "ł": 82,
      "ʖ": 83,
      "ʘ": 84,
      "ε": 85,
      "θ": 86,
      "σ": 87,
      "φ": 88,
      "ω": 89,
      "д": 90,
      "щ": 91,
      "ل": 92,
      "٩": 93,
      "۶": 94,
      "ಠ": 95,
      "ಥ": 96,
      "ง": 97,
      "༼": 98,
      "༽": 99,
      "ლ": 100,
      "ᄈ": 101,
      "ᄋ": 102,
      "ᄎ": 103,
      "ᅥ": 104,
      "ᅨ": 105,
      "ᅳ": 106,
      "ᆨ": 107,
      "ᆫ": 108,
      "ᵔ": 109,
      "‑": 110,
      "–": 111,
      "—": 112,
      "‘": 113,
      "’": 114,
      "“": 115,
      "”": 116,
      "„": 117,
      "•": 118,
      "…": 119,
      "′": 120,
      "‸": 121,
      "‼": 122,
      "‿": 123,
      "€": 124,
      "∀": 125,
      "∇": 126,
      "≦": 127,
      "≧": 128,
      "⊂": 129,
      "⊃": 130,
      "⌒": 131,
      "⌣": 132,
      "⏱": 133,
      "⑩": 134,
      "─": 135,
      "━": 136,
      "┌": 137,
      "┏": 138,
      "┐": 139,
      "┓": 140,
      "┗": 141,
      "┛": 142,
      "┬": 143,
      "┻": 144,
      "╬": 145,
      "╯": 146,
      "▀": 147,
      "□": 148,
      "▽": 149,
      "◇": 150,
      "○": 151,
      "◎": 152,
      "●": 153,
      "◔": 154,
      "◕": 155,
      "◠": 156,
      "◡": 157,
      "☀": 158,
      "☂": 159,
      "☆": 160,
      "☔": 161,
      "☕": 162,
      "☘": 163,
      "☜": 164,
      "☝": 165,
      "☞": 166,
      "☠": 167,
      "☢": 168,
      "☹": 169,
      "☺": 170,
      "♀": 171,
      "♂": 172,
      "♥": 173,
      "♪": 174,
      "♻": 175,
      "⚪": 176,
      "⚫": 177,
      "⚰": 178,
      "⛄": 179,
      "✅": 180,
      "✊": 181,
      "✌": 182,
      "✨": 183,
      "✿": 184,
      "❄": 185,
      "❌": 186,
      "❓": 187,
      "❣": 188,
      "❤": 189,
      "➡": 190,
      "⬛": 191,
      "⭐": 192,
      "。": 193,
      "〆": 194,
      "つ": 195,
      "゜": 196,
      "ゝ": 197,
      "ェ": 198,
      "エ": 199,
      "キ": 200,
      "コ": 201,
      "タ": 202,
      "ツ": 203,
      "ノ": 204,
      "ヘ": 205,
      "ム": 206,
      "メ": 207,
      "ラ": 208,
      "レ": 209,
      "ロ": 210,
      "ヮ": 211,
      "・": 212,
      "ー": 213,
      "ヽ": 214,
      "ㅂ": 215,
      "一": 216,
      "丶": 217,
      "丿": 218,
      "二": 219,
      "屮": 220,
      "彡": 221,
      "皿": 222,
      "益": 223,
      "自": 224,
      "︵": 225,
      "﹏": 226,
      "！": 227,
      "＃": 228,
      "（": 229,
      "）": 230,
      "＊": 231,
      "－": 232,
      "／": 233,
      "；": 234,
      "＠": 235,
      "＼": 236,
      "＾": 237,
      "＿": 238,
      "｀": 239,
      "ａ": 240,
      "ｏ": 241,
      "ｔ": 242,
      "ｕ": 243,
      "ｖ": 244,
      "～": 245,
      "｡": 246,
      "･": 247,
      "ﾉ": 248,
      "ﾐ": 249,
      "ﾟ": 250,
      "￣": 251,
      "￥": 252,
      "🇨": 253,
      "🇫": 254,
      "🇬": 255,
      "🇮": 256,
      "🇳": 257,
      "🇴": 258,
      "🇷": 259,
      "🇸": 260,
      "🌊": 261,
      "🌎": 262,
      "🌜": 263,
      "🌞": 264,
      "🌟": 265,
      "🌠": 266,
      "🌴": 267,
      "🌸": 268,
      "🌹": 269,
      "🌺": 270,
      "🌿": 271,
      "🍄": 272,
      "🍅": 273,
      "🍆": 274,
      "🍉": 275,
      "🍋": 276,
      "🍌": 277,
      "🍑": 278,
      "🍒": 279,
      "🍓": 280,
      "🍔": 281,
      "🍦": 282,
      "🍫": 283,
      "🍭": 284,
      "🍰": 285,
      "🍷": 286,
      "🍸": 287,
      "🍹": 288,
      "🍺": 289,
      "🍻": 290,
      "🍾": 291,
      "🎂": 292,
      "🎃": 293,
      "🎄": 294,
      "🎅": 295,
      "🎆": 296,
      "🎉": 297,
      "🎊": 298,
      "🎥": 299,
      "🎶": 300,
      "🎼": 301,
      "🏆": 302,
      "🏋": 303,
      "🏖": 304,
      "🏝": 305,
      "🏧": 306,
      "🏴": 307,
      "🏻": 308,
      "🏼": 309,
      "🏽": 310,
      "🏾": 311,
      "🏿": 312,
      "🐇": 313,
      "🐈": 314,
      "🐉": 315,
      "🐍": 316,
      "🐔": 317,
      "🐝": 318,
      "🐟": 319,
      "🐬": 320,
      "🐮": 321,
      "🐰": 322,
      "🐱": 323,
      "🐳": 324,
      "🐶": 325,
      "🐷": 326,
      "🐻": 327,
      "🐼": 328,
      "🐾": 329,
      "👀": 330,
      "👋": 331,
      "👌": 332,
      "👍": 333,
      "👏": 334,
      "👑": 335,
      "👧": 336,
      "👮": 337,
      "👯": 338,
      "👱": 339,
      "👴": 340,
      "👶": 341,
      "👸": 342,
      "👹": 343,
      "👺": 344,
      "👻": 345,
      "👼": 346,
      "👽": 347,
      "💀": 348,
      "💁": 349,
      "💃": 350,
      "💄": 351,
      "💇": 352,
      "💊": 353,
      "💋": 354,
      "💑": 355,
      "💒": 356,
      "💓": 357,
      "💔": 358,
      "💕": 359,
      "💖": 360,
      "💗": 361,
      "💙": 362,
      "💚": 363,
      "💛": 364,
      "💜": 365,
      "💞": 366,
      "💤": 367,
      "💥": 368,
      "💦": 369,
      "💩": 370,
      "💪": 371,
      "💯": 372,
      "💵": 373,
      "💶": 374,
      "💸": 375,
      "📜": 376,
      "📺": 377,
      "🔑": 378,
      "🔝": 379,
      "🔥": 380,
      "🔫": 381,
      "🔴": 382,
      "🕵": 383,
      "🕷": 384,
      "🖐": 385,
      "🖕": 386,
      "🖤": 387,
      "🗺": 388,
      "😀": 389,
      "😁": 390,
      "😂": 391,
      "😃": 392,
      "😄": 393,
      "😅": 394,
      "😆": 395,
      "😇": 396,
      "😈": 397,
      "😉": 398,
      "😊": 399,
      "😋": 400,
      "😌": 401,
      "😍": 402,
      "😎": 403,
      "😏": 404,
      "😐": 405,
      "😑": 406,
      "😒": 407,
      "😓": 408,
      "😔": 409,
      "😕": 410,
      "😖": 411,
      "😗": 412,
      "😘": 413,
      "😙": 414,
      "😚": 415,
      "😛": 416,
      "😜": 417,
      "😝": 418,
      "😞": 419,
      "😟": 420,
      "😠": 421,
      "😡": 422,
      "😢": 423,
      "😣": 424,
      "😤": 425,
      "😥": 426,
      "😧": 427,
      "😨": 428,
      "😩": 429,
      "😪": 430,
      "😫": 431,
      "😬": 432,
      "😭": 433,
      "😮": 434,
      "😯": 435,
      "😰": 436,
      "😱": 437,
      "😲": 438,
      "😳": 439,
      "😴": 440,
      "😵": 441,
      "😶": 442,
      "😷": 443,
      "😸": 444,
      "😹": 445,
      "😺": 446,
      "😻": 447,
      "😽": 448,
      "🙀": 449,
      "🙁": 450,
      "🙂": 451,
      "🙃": 452,
      "🙄": 453,
      "🙆": 454,
      "🙇": 455,
      "🙈": 456,
      "🙉": 457,
      "🙊": 458,
      "🙋": 459,
      "🙌": 460,
      "🙍": 461,
      "🙎": 462,
      "🙏": 463,
      "🚀": 464,
      "🚣": 465,
      "🚬": 466,
      "🚱": 467,
      "🛌": 468,
      "🤐": 469,
      "🤑": 470,
      "🤒": 471,
      "🤓": 472,
      "🤔": 473,
      "🤕": 474,
      "🤖": 475,
      "🤗": 476,
      "🤘": 477,
      "🤙": 478,
      "🤝": 479,
      "🤞": 480,
      "🤟": 481,
      "🤡": 482,
      "🤢": 483,
      "🤣": 484,
      "🤤": 485,
      "🤦": 486,
      "🤧": 487,
      "🤨": 488,
      "🤩": 489,
      "🤪": 490,
      "🤫": 491,
      "🤬": 492,
      "🤭": 493,
      "🤮": 494,
      "🤯": 495,
      "🤴": 496,
      "🤵": 497,
      "🤷": 498,
      "🤸": 499,
      "🤼": 500,
      "🥁": 501,
      "🥂": 502,
      "🥃": 503,
      "🥇": 504,
      "🥒": 505,
      "🥕": 506,
      "🥗": 507,
      "🥝": 508,
      "🥞": 509,
      "🥪": 510,
      "🥰": 511,
      "🥳": 512,
      "🥵": 513,
      "🦄": 514,
      "🦊": 515,
      "🦌": 516,
      "🦐": 517,
      "🧒": 518,
      "🧓": 519,
      "🧘": 520,
      "🧙": 521,
      "🧡": 522,
      "🧺": 523,
      "##a": 524,
      "##m": 525,
      "##p": 526,
      "##s": 527,
      "##o": 528,
      "##n": 529,
      "##u": 530,
      "##l": 531,
      "##t": 532,
      "##i": 533,
      "##d": 534,
      "##e": 535,
      "##v": 536,
      "##r": 537,
      "##k": 538,
      "##g": 539,
      "##c": 540,
      "##b": 541,
      "##😥": 542,
      "##😢": 543,
      "##w": 544,
      "##5": 545,
      "##y": 546,
      "##h": 547,
      "##3": 548,
      "##f": 549,
      "##z": 550,
      "##😎": 551,
      "##8": 552,
      "##😞": 553,
      "##1": 554,
      "##🙊": 555,
      "##4": 556,
      "##ł": 557,
      "##0": 558,
      "##x": 559,
      "##j": 560,
      "##🤷": 561,
      "##2": 562,
      "##9": 563,
      "##😂": 564,
      "##👍": 565,
      "##😜": 566,
      "##😀": 567,
      "##❤": 568,
      "##7": 569,
      "##👌": 570,
      "##😍": 571,
      "##☀": 572,
      "##q": 573,
      "##😘": 574,
      "##ᅨ": 575,
      "##ᄈ": 576,
      "##ᅳ": 577,
      "##ᆫ": 578,
      "##ᄎ": 579,
      "##ᅥ": 580,
      "##ᆨ": 581,
      "##🦐": 582,
      "##😱": 583,
      "##🏻": 584,
      "##🎉": 585,
      "##°": 586,
      "##□": 587,
      "##🤑": 588,
      "##😙": 589,
      "##´": 590,
      "##🤧": 591,
      "##◇": 592,
      "##🔥": 593,
      "##😁": 594,
      "##♂": 595,
      "##🤤": 596,
      "##👏": 597,
      "##6": 598,
      "##💦": 599,
      "##😹": 600,
      "##🙄": 601,
      "##🤗": 602,
      "##◔": 603,
      "##۶": 604,
      "##🍰": 605,
      "##😡": 606,
      "##😊": 607,
      "##⚰": 608,
      "##◎": 609,
      "##😶": 610,
      "##😃": 611,
      "##🙌": 612,
      "##😖": 613,
      "##🤦": 614,
      "##♀": 615,
      "##🏼": 616,
      "##🤞": 617,
      "##😉": 618,
      "##💕": 619,
      "##😇": 620,
      "##🍾": 621,
      "##🖤": 622,
      "##⑩": 623,
      "##🤪": 624,
      "##💙": 625,
      "##😻": 626,
      "##😄": 627,
      "##✌": 628,
      "##😚": 629,
      "##😗": 630,
      "##🙈": 631,
      "##🙉": 632,
      "##😔": 633,
      "##☕": 634,
      "##😰": 635,
      "##😭": 636,
      "##🐝": 637,
      "##🤭": 638,
      "##💥": 639,
      "##😝": 640,
      "##♪": 641,
      "##┗": 642,
      "##🇴": 643,
      "##🇨": 644,
      "##€": 645,
      "##🙃": 646,
      "##▽": 647,
      "##⌒": 648,
      "##🐟": 649,
      "##￣": 650,
      "##😮": 651,
      "##😪": 652,
      "##🇳": 653,
      "##🇸": 654,
      "##●": 655,
      "##～": 656,
      "##ｖ": 657,
      "##＾": 658,
      "##レ": 659,
      "##🏽": 660,
      "##👸": 661,
      "##💩": 662,
      "##👋": 663,
      "##😴": 664,
      "##😆": 665,
      "##😕": 666,
      "##😋": 667,
      "##🏿": 668,
      "##д": 669,
      "##ﾟ": 670,
      "##щ": 671,
      "##🤣": 672,
      "##😐": 673,
      "##🎶": 674,
      "##✨": 675,
      "##▀": 676,
      "##💚": 677,
      "##💜": 678,
      "##ヮ": 679,
      "##◕": 680,
      "##😺": 681,
      "##☹": 682,
      "##😛": 683,
      "##💃": 684,
      "##🐶": 685,
      "##👻": 686,
      "##🥃": 687,
      "##🍸": 688,
      "##🤮": 689,
      "##🎅": 690,
      "##🇬": 691,
      "##😫": 692,
      "##💪": 693,
      "##😌": 694,
      "##🎥": 695,
      "##☺": 696,
      "##○": 697,
      "##💖": 698,
      "##💗": 699,
      "##ｕ": 700,
      "##😤": 701,
      "##🏖": 702,
      "##😷": 703,
      "##ノ": 704,
      "##😈": 705,
      "##😓": 706,
      "##🐮": 707,
      "##🦊": 708,
      "##🦌": 709,
      "##🐰": 710,
      "##🐔": 711,
      "##😑": 712,
      "##🎄": 713,
      "##ー": 714,
      "##✊": 715,
      "##🏾": 716,
      "##😠": 717,
      "##😟": 718,
      "##🍆": 719,
      "##👼": 720,
      "##🤙": 721,
      "##🇫": 722,
      "##🇷": 723,
      "##🤘": 724,
      "##🌺": 725,
      "##💛": 726,
      "##😩": 727,
      "##🧡": 728,
      "##😣": 729,
      "##🍋": 730,
      "##ヽ": 731,
      "##🌸": 732,
      "##🙏": 733,
      "##❣": 734,
      "##😸": 735,
      "##🌟": 736,
      "##😽": 737,
      "##🍹": 738,
      "##🚬": 739,
      "##┌": 740,
      "##∀": 741,
      "##｀": 742,
      "##🛌": 743,
      "##💊": 744,
      "##🤨": 745,
      "##🌎": 746,
      "##🌊": 747,
      "##🌞": 748,
      "##👀": 749,
      "##😒": 750,
      "##😳": 751,
      "##ø": 752,
      "##┏": 753,
      "##🙂": 754,
      "##🤡": 755,
      "##😧": 756,
      "##😲": 757,
      "##ω": 758,
      "##🦄": 759,
      "##👶": 760,
      "##💓": 761,
      "##🐍": 762,
      "##ラ": 763,
      "##コ": 764,
      "##🍌": 765,
      "##🍉": 766,
      "##🌠": 767,
      "##━": 768,
      "##📜": 769,
      "##♥": 770,
      "##🍻": 771,
      "##👹": 772,
      "##👺": 773,
      "##£": 774,
      "##😏": 775,
      "##⏱": 776,
      "##🥒": 777,
      "##🥕": 778,
      "##🥗": 779,
      "##☜": 780,
      "##🐬": 781,
      "##💁": 782,
      "##ε": 783,
      "##☠": 784,
      "##💄": 785,
      "##🤬": 786,
      "##🌿": 787,
      "##🎊": 788,
      "##😨": 789,
      "##ェ": 790,
      "##エ": 791,
      "##θ": 792,
      "##❄": 793,
      "##🤔": 794,
      "##￥": 795,
      "##🥪": 796,
      "##🙁": 797,
      "##🍺": 798,
      "##🌴": 799,
      "##🤕": 800,
      "##ಠ": 801,
      "##😅": 802,
      "##😵": 803,
      "##😬": 804,
      "##゜": 805,
      "##⚪": 806,
      "##タ": 807,
      "##🎂": 808,
      "##◠": 809,
      "##🤩": 810,
      "##☆": 811,
      "##∇": 812,
      "##≦": 813,
      "##─": 814,
      "##┬": 815,
      "##🎆": 816,
      "##💤": 817,
      "##⌣": 818,
      "##🏋": 819,
      "##🕷": 820,
      "##☘": 821,
      "##❓": 822,
      "##💔": 823,
      "##🥞": 824,
      "##ｔ": 825,
      "##┻": 826,
      "##ヘ": 827,
      "##🥝": 828,
      "##🐾": 829,
      "th": 830,
      "##ou": 831,
      "##in": 832,
      "##er": 833,
      "##an": 834,
      "##at": 835,
      "you": 836,
      "to": 837,
      "the": 838,
      "##re": 839,
      "##ll": 840,
      "##on": 841,
      "##ing": 842,
      "##or": 843,
      "##ar": 844,
      "##en": 845,
      "an": 846,
      "##es": 847,
      "it": 848,
      "##th": 849,
      "##om": 850,
      "##ay": 851,
      "##is": 852,
      "##ow": 853,
      "##ed": 854,
      "wh": 855,
      "##as": 856,
      "##le": 857,
      "##ic": 858,
      "##ve": 859,
      "##et": 860,
      "ha": 861,
      "and": 862,
      "we": 863,
      "##ot": 864,
      "##ea": 865,
      "##ut": 866,
      "be": 867,
      "in": 868,
      "##oo": 869,
      "me": 870,
      "##it": 871,
      "wi": 872,
      "that": 873,
      "##ke": 874,
      "on": 875,
      "##st": 876,
      "for": 877,
      "he": 878,
      "##id": 879,
      "so": 880,
      "is": 881,
      "of": 882,
      "##ome": 883,
      "##ld": 884,
      "sh": 885,
      "##ac": 886,
      "##ere": 887,
      "##im": 888,
      "##gh": 889,
      "do": 890,
      "##am": 891,
      "st": 892,
      "##ly": 893,
      "##ie": 894,
      "have": 895,
      "what": 896,
      "but": 897,
      "su": 898,
      "##ee": 899,
      "ne": 900,
      "li": 901,
      "can": 902,
      "ju": 903,
      "re": 904,
      "##se": 905,
      "##lly": 906,
      "ch": 907,
      "##al": 908,
      "are": 909,
      "##ould": 910,
      "no": 911,
      "##ght": 912,
      "my": 913,
      "##ch": 914,
      "don": 915,
      "kn": 916,
      "##ry": 917,
      "not": 918,
      "know": 919,
      "go": 920,
      "##ia": 921,
      "ok": 922,
      "al": 923,
      "##ver": 924,
      "##ad": 925,
      "some": 926,
      "##ter": 927,
      "mar": 928,
      "##ri": 929,
      "with": 930,
      "ab": 931,
      "at": 932,
      "will": 933,
      "just": 934,
      "jo": 935,
      "ll": 936,
      "was": 937,
      "##ro": 938,
      "fi": 939,
      "##ent": 940,
      "##out": 941,
      "this": 942,
      "as": 943,
      "##ink": 944,
      "##ight": 945,
      "##ur": 946,
      "##ank": 947,
      "##ha": 948,
      "your": 949,
      "##ood": 950,
      "##ec": 951,
      "like": 952,
      "about": 953,
      "##ion": 954,
      "##ant": 955,
      "there": 956,
      "lo": 957,
      "rea": 958,
      "##el": 959,
      "tim": 960,
      "fr": 961,
      "##thing": 962,
      "##ate": 963,
      "##ir": 964,
      "##nd": 965,
      "any": 966,
      "see": 967,
      "##op": 968,
      "think": 969,
      "how": 970,
      "##na": 971,
      "wor": 972,
      "##ake": 973,
      "they": 974,
      "yes": 975,
      "did": 976,
      "##end": 977,
      "##il": 978,
      "##and": 979,
      "##ine": 980,
      "good": 981,
      "she": 982,
      "##ick": 983,
      "thank": 984,
      "am": 985,
      "##ack": 986,
      "mo": 987,
      "yea": 988,
      "##ab": 989,
      "get": 990,
      "##pp": 991,
      "##ess": 992,
      "##ther": 993,
      "##ill": 994,
      "##ook": 995,
      "##ul": 996,
      "##est": 997,
      "all": 998,
      "yeah": 999,
      "##ice": 1000,
      "tom": 1001,
      "##ge": 1002,
      "##ind": 1003,
      "if": 1004,
      "##day": 1005,
      "pl": 1006,
      "time": 1007,
      "sure": 1008,
      "up": 1009,
      "##ce": 1010,
      "mu": 1011,
      "too": 1012,
      "file": 1013,
      "one": 1014,
      "want": 1015,
      "gre": 1016,
      "really": 1017,
      "##ra": 1018,
      "##one": 1019,
      "or": 1020,
      "##un": 1021,
      "ro": 1022,
      "##ast": 1023,
      "##art": 1024,
      "may": 1025,
      "##are": 1026,
      "need": 1027,
      "well": 1028,
      "ph": 1029,
      "##uc": 1030,
      "pro": 1031,
      "##ol": 1032,
      "ex": 1033,
      "gu": 1034,
      "##ff": 1035,
      "would": 1036,
      "now": 1037,
      "##ard": 1038,
      "out": 1039,
      "##ell": 1040,
      "##ris": 1041,
      "oh": 1042,
      "when": 1043,
      "##ber": 1044,
      "her": 1045,
      "thanks": 1046,
      "ve": 1047,
      "work": 1048,
      "##ven": 1049,
      "going": 1050,
      "car": 1051,
      "com": 1052,
      "then": 1053,
      "##ound": 1054,
      "##ss": 1055,
      "##all": 1056,
      "##our": 1057,
      "from": 1058,
      "##ays": 1059,
      "##li": 1060,
      "ag": 1061,
      "why": 1062,
      "bu": 1063,
      "hi": 1064,
      "let": 1065,
      "##be": 1066,
      "should": 1067,
      "look": 1068,
      "pa": 1069,
      "##ally": 1070,
      "ever": 1071,
      "gi": 1072,
      "cl": 1073,
      "come": 1074,
      "got": 1075,
      "##ek": 1076,
      "us": 1077,
      "br": 1078,
      "ar": 1079,
      "right": 1080,
      "bo": 1081,
      "con": 1082,
      "le": 1083,
      "sam": 1084,
      "great": 1085,
      "##ny": 1086,
      "##ite": 1087,
      "sp": 1088,
      "##ain": 1089,
      "haha": 1090,
      "them": 1091,
      "##nt": 1092,
      "##ble": 1093,
      "ad": 1094,
      "em": 1095,
      "could": 1096,
      "##ara": 1097,
      "new": 1098,
      "week": 1099,
      "him": 1100,
      "maybe": 1101,
      "hey": 1102,
      "##row": 1103,
      "de": 1104,
      "##ina": 1105,
      "##ath": 1106,
      "ma": 1107,
      "much": 1108,
      "##ace": 1109,
      "se": 1110,
      "pre": 1111,
      "sor": 1112,
      "##alk": 1113,
      "every": 1114,
      "##dy": 1115,
      "##oto": 1116,
      "##ery": 1117,
      "##ation": 1118,
      "photo": 1119,
      "##au": 1120,
      "##ect": 1121,
      "bet": 1122,
      "af": 1123,
      "mon": 1124,
      "##ore": 1125,
      "##ne": 1126,
      "other": 1127,
      "ye": 1128,
      "something": 1129,
      "tr": 1130,
      "man": 1131,
      "joh": 1132,
      "happ": 1133,
      "##ong": 1134,
      "hel": 1135,
      "##ool": 1136,
      "##ous": 1137,
      "##ian": 1138,
      "##ct": 1139,
      "john": 1140,
      "love": 1141,
      "sa": 1142,
      "sorry": 1143,
      "##ty": 1144,
      "##ers": 1145,
      "back": 1146,
      "##xt": 1147,
      "lol": 1148,
      "more": 1149,
      "co": 1150,
      "qu": 1151,
      "##ig": 1152,
      "##um": 1153,
      "dan": 1154,
      "##orrow": 1155,
      "wa": 1156,
      "##ough": 1157,
      "been": 1158,
      "pet": 1159,
      "chris": 1160,
      "##ish": 1161,
      "##anna": 1162,
      "##ase": 1163,
      "##ma": 1164,
      "po": 1165,
      "take": 1166,
      "here": 1167,
      "where": 1168,
      "still": 1169,
      "by": 1170,
      "id": 1171,
      "guy": 1172,
      "##em": 1173,
      "talk": 1174,
      "who": 1175,
      "##uck": 1176,
      "##ph": 1177,
      "even": 1178,
      "home": 1179,
      "meet": 1180,
      "very": 1181,
      "had": 1182,
      "wait": 1183,
      "##ich": 1184,
      "##sh": 1185,
      "off": 1186,
      "gr": 1187,
      "after": 1188,
      "fre": 1189,
      "tomorrow": 1190,
      "paul": 1191,
      "da": 1192,
      "ask": 1193,
      "today": 1194,
      "jan": 1195,
      "won": 1196,
      "nice": 1197,
      "mat": 1198,
      "mi": 1199,
      "thing": 1200,
      "tell": 1201,
      "ke": 1202,
      "##ort": 1203,
      "##ica": 1204,
      "our": 1205,
      "pe": 1206,
      "make": 1207,
      "kate": 1208,
      "en": 1209,
      "##ought": 1210,
      "does": 1211,
      "last": 1212,
      "say": 1213,
      "didn": 1214,
      "##ist": 1215,
      "call": 1216,
      "##lie": 1217,
      "jack": 1218,
      "ple": 1219,
      "pat": 1220,
      "##ving": 1221,
      "##ning": 1222,
      "##act": 1223,
      "##ak": 1224,
      "stu": 1225,
      "has": 1226,
      "##per": 1227,
      "next": 1228,
      "way": 1229,
      "##ass": 1230,
      "try": 1231,
      "##ue": 1232,
      "##ure": 1233,
      "year": 1234,
      "hop": 1235,
      "peter": 1236,
      "im": 1237,
      "mary": 1238,
      "only": 1239,
      "ale": 1240,
      "##ail": 1241,
      "##ways": 1242,
      "jen": 1243,
      "were": 1244,
      "day": 1245,
      "##eel": 1246,
      "mean": 1247,
      "##la": 1248,
      "part": 1249,
      "##ies": 1250,
      "help": 1251,
      "aw": 1252,
      "better": 1253,
      "##atch": 1254,
      "##ide": 1255,
      "##read": 1256,
      "feel": 1257,
      "##ily": 1258,
      "anything": 1259,
      "pr": 1260,
      "##os": 1261,
      "mike": 1262,
      "alex": 1263,
      "anna": 1264,
      "##iss": 1265,
      "bec": 1266,
      "guys": 1267,
      "##ach": 1268,
      "di": 1269,
      "peop": 1270,
      "rem": 1271,
      "##blem": 1272,
      "problem": 1273,
      "people": 1274,
      "please": 1275,
      "bl": 1276,
      "mark": 1277,
      "always": 1278,
      "la": 1279,
      "his": 1280,
      "over": 1281,
      "lot": 1282,
      "ann": 1283,
      "##ew": 1284,
      "##itt": 1285,
      "hope": 1286,
      "##us": 1287,
      "lea": 1288,
      "bit": 1289,
      "##ame": 1290,
      "cool": 1291,
      "fine": 1292,
      "##lf": 1293,
      "##ause": 1294,
      "##mm": 1295,
      "sara": 1296,
      "xd": 1297,
      "##ley": 1298,
      "again": 1299,
      "per": 1300,
      "##ict": 1301,
      "##riend": 1302,
      "sound": 1303,
      "char": 1304,
      "place": 1305,
      "cour": 1306,
      "##ater": 1307,
      "idea": 1308,
      "alread": 1309,
      "already": 1310,
      "ste": 1311,
      "luc": 1312,
      "har": 1313,
      "##so": 1314,
      "buy": 1315,
      "el": 1316,
      "plan": 1317,
      "act": 1318,
      "guess": 1319,
      "happen": 1320,
      "##eck": 1321,
      "##ually": 1322,
      "give": 1323,
      "fl": 1324,
      "coming": 1325,
      "thought": 1326,
      "ben": 1327,
      "fin": 1328,
      "##ity": 1329,
      "long": 1330,
      "##te": 1331,
      "sc": 1332,
      "##pt": 1333,
      "##ary": 1334,
      "jam": 1335,
      "check": 1336,
      "##ember": 1337,
      "okay": 1338,
      "gif": 1339,
      "mom": 1340,
      "ser": 1341,
      "##anc": 1342,
      "##ious": 1343,
      "##gan": 1344,
      "find": 1345,
      "un": 1346,
      "fun": 1347,
      "##gg": 1348,
      "start": 1349,
      "##de": 1350,
      "also": 1351,
      "course": 1352,
      "watch": 1353,
      "##der": 1354,
      "##ress": 1355,
      "oli": 1356,
      "##ise": 1357,
      "inter": 1358,
      "##ose": 1359,
      "##ason": 1360,
      "ton": 1361,
      "mor": 1362,
      "##by": 1363,
      "##ment": 1364,
      "##if": 1365,
      "lu": 1366,
      "fir": 1367,
      "##ah": 1368,
      "tw": 1369,
      "sounds": 1370,
      "##ive": 1371,
      "wr": 1372,
      "send": 1373,
      "##tha": 1374,
      "first": 1375,
      "jane": 1376,
      "min": 1377,
      "dr": 1378,
      "##ting": 1379,
      "comp": 1380,
      "night": 1381,
      "never": 1382,
      "mad": 1383,
      "friend": 1384,
      "remember": 1385,
      "app": 1386,
      "hell": 1387,
      "##own": 1388,
      "bar": 1389,
      "##ather": 1390,
      "soon": 1391,
      "jim": 1392,
      "##fe": 1393,
      "bad": 1394,
      "##iel": 1395,
      "##pe": 1396,
      "ru": 1397,
      "doing": 1398,
      "##ck": 1399,
      "gir": 1400,
      "##fore": 1401,
      "sw": 1402,
      "bre": 1403,
      "before": 1404,
      "than": 1405,
      "yet": 1406,
      "chan": 1407,
      "##isa": 1408,
      "bus": 1409,
      "everything": 1410,
      "##my": 1411,
      "##able": 1412,
      "ev": 1413,
      "ge": 1414,
      "##vin": 1415,
      "best": 1416,
      "around": 1417,
      "because": 1418,
      "##ire": 1419,
      "##onna": 1420,
      "hahaha": 1421,
      "exp": 1422,
      "##les": 1423,
      "##oney": 1424,
      "bro": 1425,
      "ter": 1426,
      "tra": 1427,
      "##oe": 1428,
      "gonna": 1429,
      "##via": 1430,
      "later": 1431,
      "##ric": 1432,
      "tonight": 1433,
      "same": 1434,
      "book": 1435,
      "play": 1436,
      "actually": 1437,
      "cou": 1438,
      "rec": 1439,
      "10": 1440,
      "jess": 1441,
      "stay": 1442,
      "##ead": 1443,
      "##inda": 1444,
      "adam": 1445,
      "je": 1446,
      "nothing": 1447,
      "hour": 1448,
      "##int": 1449,
      "gl": 1450,
      "##way": 1451,
      "##age": 1452,
      "told": 1453,
      "christ": 1454,
      "sm": 1455,
      "girl": 1456,
      "##ag": 1457,
      "its": 1458,
      "dec": 1459,
      "which": 1460,
      "happy": 1461,
      "##ip": 1462,
      "perf": 1463,
      "##self": 1464,
      "##bert": 1465,
      "ell": 1466,
      "##orge": 1467,
      "party": 1468,
      "frank": 1469,
      "wanna": 1470,
      "prob": 1471,
      "care": 1472,
      "forg": 1473,
      "##az": 1474,
      "bring": 1475,
      "sarah": 1476,
      "ac": 1477,
      "said": 1478,
      "seen": 1479,
      "##eep": 1480,
      "late": 1481,
      "kid": 1482,
      "james": 1483,
      "##iz": 1484,
      "josh": 1485,
      "litt": 1486,
      "##ner": 1487,
      "doesn": 1488,
      "little": 1489,
      "andre": 1490,
      "rob": 1491,
      "matt": 1492,
      "sch": 1493,
      "two": 1494,
      "down": 1495,
      "##vid": 1496,
      "##ona": 1497,
      "fuck": 1498,
      "pret": 1499,
      "quite": 1500,
      "old": 1501,
      "##dd": 1502,
      "mel": 1503,
      "##ob": 1504,
      "##ub": 1505,
      "fa": 1506,
      "##ile": 1507,
      "though": 1508,
      "greg": 1509,
      "emma": 1510,
      "##eal": 1511,
      "##bo": 1512,
      "jake": 1513,
      "exact": 1514,
      "diff": 1515,
      "##nder": 1516,
      "tri": 1517,
      "morning": 1518,
      "perfect": 1519,
      "##wn": 1520,
      "##anda": 1521,
      "weekend": 1522,
      "things": 1523,
      "##ably": 1524,
      "res": 1525,
      "kim": 1526,
      "heard": 1527,
      "keep": 1528,
      "exactly": 1529,
      "##ust": 1530,
      "sus": 1531,
      "david": 1532,
      "big": 1533,
      "##ding": 1534,
      "##ved": 1535,
      "job": 1536,
      "might": 1537,
      "sim": 1538,
      "under": 1539,
      "vict": 1540,
      "seem": 1541,
      "dad": 1542,
      "days": 1543,
      "done": 1544,
      "30": 1545,
      "nat": 1546,
      "miss": 1547,
      "pick": 1548,
      "wanted": 1549,
      "victor": 1550,
      "joe": 1551,
      "haven": 1552,
      "int": 1553,
      "free": 1554,
      "te": 1555,
      "month": 1556,
      "laur": 1557,
      "nick": 1558,
      "##iday": 1559,
      "few": 1560,
      "##aa": 1561,
      "##yl": 1562,
      "mart": 1563,
      "##hael": 1564,
      "happened": 1565,
      "mic": 1566,
      "##ft": 1567,
      "##oy": 1568,
      "carol": 1569,
      "monica": 1570,
      "probably": 1571,
      "##ory": 1572,
      "hello": 1573,
      "jac": 1574,
      "ang": 1575,
      "george": 1576,
      "thinking": 1577,
      "pretty": 1578,
      "##ond": 1579,
      "martha": 1580,
      "many": 1581,
      "stuff": 1582,
      "show": 1583,
      "daniel": 1584,
      "##ute": 1585,
      "alice": 1586,
      "anyway": 1587,
      "ear": 1588,
      "interest": 1589,
      "om": 1590,
      "harry": 1591,
      "wow": 1592,
      "emily": 1593,
      "true": 1594,
      "##ions": 1595,
      "tea": 1596,
      "max": 1597,
      "andy": 1598,
      "##ep": 1599,
      "laura": 1600,
      "av": 1601,
      "hu": 1602,
      "##ence": 1603,
      "jenny": 1604,
      "looking": 1605,
      "supp": 1606,
      "dar": 1607,
      "##ple": 1608,
      "hear": 1609,
      "kind": 1610,
      "##ful": 1611,
      "##ap": 1612,
      "##zy": 1613,
      "getting": 1614,
      "##io": 1615,
      "mum": 1616,
      "hen": 1617,
      "luck": 1618,
      "sat": 1619,
      "soph": 1620,
      "##ult": 1621,
      "##ial": 1622,
      "class": 1623,
      "else": 1624,
      "dont": 1625,
      "bri": 1626,
      "linda": 1627,
      "lucy": 1628,
      "##lia": 1629,
      "maria": 1630,
      "mind": 1631,
      "worry": 1632,
      "such": 1633,
      "their": 1634,
      "end": 1635,
      "looks": 1636,
      "eat": 1637,
      "mia": 1638,
      "bab": 1639,
      "##king": 1640,
      "##ves": 1641,
      "went": 1642,
      "##sc": 1643,
      "sand": 1644,
      "olivia": 1645,
      "stop": 1646,
      "shop": 1647,
      "lisa": 1648,
      "yester": 1649,
      "school": 1650,
      "##ree": 1651,
      "##ier": 1652,
      "meeting": 1653,
      "yesterday": 1654,
      "##ren": 1655,
      "helen": 1656,
      "michael": 1657,
      "bill": 1658,
      "bob": 1659,
      "money": 1660,
      "someone": 1661,
      "most": 1662,
      "##ens": 1663,
      "##port": 1664,
      "hanna": 1665,
      "robert": 1666,
      "##no": 1667,
      "luke": 1668,
      "bea": 1669,
      "##son": 1670,
      "##vie": 1671,
      "##ouse": 1672,
      "dian": 1673,
      "pay": 1674,
      "nor": 1675,
      "serious": 1676,
      "julia": 1677,
      "##arent": 1678,
      "##any": 1679,
      "##acy": 1680,
      "##ancy": 1681,
      "shit": 1682,
      "##red": 1683,
      "waiting": 1684,
      "leave": 1685,
      "hard": 1686,
      "##urn": 1687,
      "##gether": 1688,
      "##leep": 1689,
      "steve": 1690,
      "jeff": 1691,
      "omg": 1692,
      "ho": 1693,
      "##other": 1694,
      "##ward": 1695,
      "inv": 1696,
      "henry": 1697,
      "eas": 1698,
      "drink": 1699,
      "##ert": 1700,
      "jacob": 1701,
      "amaz": 1702,
      "ed": 1703,
      "read": 1704,
      "acc": 1705,
      "swe": 1706,
      "those": 1707,
      "together": 1708,
      "sue": 1709,
      "friday": 1710,
      "din": 1711,
      "##mas": 1712,
      "kelly": 1713,
      "life": 1714,
      "##oth": 1715,
      "cam": 1716,
      "##nes": 1717,
      "##ang": 1718,
      "these": 1719,
      "##fer": 1720,
      "sur": 1721,
      "##body": 1722,
      "dor": 1723,
      "dri": 1724,
      "vis": 1725,
      "susan": 1726,
      "cra": 1727,
      "house": 1728,
      "working": 1729,
      "left": 1730,
      "rest": 1731,
      "##ta": 1732,
      "belie": 1733,
      "must": 1734,
      "tak": 1735,
      "20": 1736,
      "##ord": 1737,
      "dam": 1738,
      "##nie": 1739,
      "dis": 1740,
      "another": 1741,
      "barb": 1742,
      "##ance": 1743,
      "##ets": 1744,
      "##ated": 1745,
      "amy": 1746,
      "def": 1747,
      "op": 1748,
      "fam": 1749,
      "##ild": 1750,
      "differ": 1751,
      "xx": 1752,
      "everyone": 1753,
      "##wh": 1754,
      "##qu": 1755,
      "andrew": 1756,
      "##rick": 1757,
      "##ans": 1758,
      "##elle": 1759,
      "##ible": 1760,
      "cont": 1761,
      "use": 1762,
      "##ott": 1763,
      "ur": 1764,
      "##pm": 1765,
      "##ever": 1766,
      "sec": 1767,
      "ash": 1768,
      "enough": 1769,
      "amazing": 1770,
      "list": 1771,
      "believe": 1772,
      "bir": 1773,
      "cle": 1774,
      "underst": 1775,
      "visit": 1776,
      "tick": 1777,
      "busy": 1778,
      "food": 1779,
      "join": 1780,
      "gab": 1781,
      "##up": 1782,
      "##ger": 1783,
      "eve": 1784,
      "##gr": 1785,
      "##aren": 1786,
      "##ith": 1787,
      "par": 1788,
      "least": 1789,
      "into": 1790,
      "##mo": 1791,
      "hannah": 1792,
      "##ena": 1793,
      "##oooo": 1794,
      "years": 1795,
      "away": 1796,
      "finish": 1797,
      "put": 1798,
      "far": 1799,
      "karen": 1800,
      "pol": 1801,
      "##kes": 1802,
      "seems": 1803,
      "sk": 1804,
      "evening": 1805,
      "yep": 1806,
      "martin": 1807,
      "sleep": 1808,
      "kevin": 1809,
      "friends": 1810,
      "dinner": 1811,
      "##erry": 1812,
      "hmm": 1813,
      "##ela": 1814,
      "both": 1815,
      "##og": 1816,
      "##hh": 1817,
      "satur": 1818,
      "##ince": 1819,
      "saturday": 1820,
      "understand": 1821,
      "tina": 1822,
      "##ash": 1823,
      "ap": 1824,
      "found": 1825,
      "made": 1826,
      "##unch": 1827,
      "jason": 1828,
      "rach": 1829,
      "##za": 1830,
      "anyone": 1831,
      "office": 1832,
      "awes": 1833,
      "tre": 1834,
      "ready": 1835,
      "eli": 1836,
      "jessica": 1837,
      "ago": 1838,
      "jose": 1839,
      "room": 1840,
      "##where": 1841,
      "lou": 1842,
      "awesome": 1843,
      "having": 1844,
      "##ither": 1845,
      "##ations": 1846,
      "saw": 1847,
      "##erson": 1848,
      "text": 1849,
      "anne": 1850,
      "phil": 1851,
      "rachel": 1852,
      "wish": 1853,
      "##umber": 1854,
      "dave": 1855,
      "isn": 1856,
      "amanda": 1857,
      "sth": 1858,
      "war": 1859,
      "defin": 1860,
      "rose": 1861,
      "mil": 1862,
      "quest": 1863,
      "nancy": 1864,
      "rick": 1865,
      "different": 1866,
      "ian": 1867,
      "##ps": 1868,
      "##ating": 1869,
      "bye": 1870,
      "##ney": 1871,
      "mr": 1872,
      "eva": 1873,
      "phone": 1874,
      "add": 1875,
      "kids": 1876,
      "cor": 1877,
      "birth": 1878,
      "du": 1879,
      "mess": 1880,
      "sophie": 1881,
      "del": 1882,
      "##joy": 1883,
      "tony": 1884,
      "wed": 1885,
      "##utes": 1886,
      "##osed": 1887,
      "wonder": 1888,
      "patrick": 1889,
      "enjoy": 1890,
      "being": 1891,
      "##ts": 1892,
      "##ton": 1893,
      "##ject": 1894,
      "liz": 1895,
      "worri": 1896,
      "christmas": 1897,
      "fred": 1898,
      "forgot": 1899,
      "##ella": 1900,
      "post": 1901,
      "whole": 1902,
      "##line": 1903,
      "##ison": 1904,
      "count": 1905,
      "##athan": 1906,
      "jay": 1907,
      "ly": 1908,
      "exc": 1909,
      "diana": 1910,
      "##rie": 1911,
      "kat": 1912,
      "rich": 1913,
      "vide": 1914,
      "thr": 1915,
      "##ik": 1916,
      "paula": 1917,
      "minutes": 1918,
      "hate": 1919,
      "number": 1920,
      "##itely": 1921,
      "change": 1922,
      "des": 1923,
      "break": 1924,
      "thom": 1925,
      "definitely": 1926,
      "head": 1927,
      "person": 1928,
      "once": 1929,
      "##ign": 1930,
      "birthday": 1931,
      "ya": 1932,
      "reg": 1933,
      "talking": 1934,
      "er": 1935,
      "##aron": 1936,
      "cook": 1937,
      "gina": 1938,
      "##ics": 1939,
      "##ping": 1940,
      "point": 1941,
      "osc": 1942,
      "family": 1943,
      "victoria": 1944,
      "oscar": 1945,
      "parent": 1946,
      "sally": 1947,
      "##ana": 1948,
      "dep": 1949,
      "cla": 1950,
      "lucas": 1951,
      "pass": 1952,
      "##ling": 1953,
      "15": 1954,
      "fo": 1955,
      "while": 1956,
      "str": 1957,
      "hot": 1958,
      "hours": 1959,
      "au": 1960,
      "pres": 1961,
      "patric": 1962,
      "##ual": 1963,
      "news": 1964,
      "since": 1965,
      "god": 1966,
      "zoe": 1967,
      "brian": 1968,
      "hon": 1969,
      "cre": 1970,
      "##itch": 1971,
      "##ents": 1972,
      "lau": 1973,
      "sandra": 1974,
      "train": 1975,
      "less": 1976,
      "##ird": 1977,
      "sweet": 1978,
      "patricia": 1979,
      "##br": 1980,
      "jon": 1981,
      "sis": 1982,
      "beaut": 1983,
      "##ount": 1984,
      "wasn": 1985,
      "thomas": 1986,
      "parents": 1987,
      "boy": 1988,
      "pict": 1989,
      "natal": 1990,
      "name": 1991,
      "win": 1992,
      "##side": 1993,
      "##most": 1994,
      "tot": 1995,
      "charlie": 1996,
      "##ited": 1997,
      "super": 1998,
      "game": 1999,
      "almost": 2000,
      "picture": 2001,
      "joan": 2002,
      "col": 2003,
      "interesting": 2004,
      "through": 2005,
      "##lle": 2006,
      "isab": 2007,
      "girls": 2008,
      "ky": 2009,
      "##iver": 2010,
      "##ette": 2011,
      "inst": 2012,
      "leo": 2013,
      "ah": 2014,
      "ca": 2015,
      "mine": 2016,
      "eric": 2017,
      "movie": 2018,
      "video": 2019,
      "each": 2020,
      "walk": 2021,
      "liam": 2022,
      "##elia": 2023,
      "terry": 2024,
      "turn": 2025,
      "##loe": 2026,
      "real": 2027,
      "funny": 2028,
      "bought": 2029,
      "##tt": 2030,
      "##iam": 2031,
      "bor": 2032,
      "run": 2033,
      "myself": 2034,
      "order": 2035,
      "open": 2036,
      "glad": 2037,
      "hor": 2038,
      "coff": 2039,
      "ow": 2040,
      "sick": 2041,
      "##ues": 2042,
      "che": 2043,
      "fiona": 2044,
      "exam": 2045,
      "betty": 2046,
      "hand": 2047,
      "##right": 2048,
      "wrong": 2049,
      "ken": 2050,
      "chloe": 2051,
      "couple": 2052,
      "##othy": 2053,
      "spec": 2054,
      "##lo": 2055,
      "##vor": 2056,
      "##oup": 2057,
      "without": 2058,
      "dress": 2059,
      "lar": 2060,
      "ron": 2061,
      "marg": 2062,
      "case": 2063,
      "fu": 2064,
      "noah": 2065,
      "plans": 2066,
      "tickets": 2067,
      "able": 2068,
      "poss": 2069,
      "ga": 2070,
      "unt": 2071,
      "ra": 2072,
      "wouldn": 2073,
      "##iv": 2074,
      "##co": 2075,
      "##ical": 2076,
      "##rible": 2077,
      "brad": 2078,
      "prep": 2079,
      "##ggie": 2080,
      "eth": 2081,
      "grace": 2082,
      "mich": 2083,
      "pop": 2084,
      "ass": 2085,
      "##pris": 2086,
      "simon": 2087,
      "ashley": 2088,
      "##ats": 2089,
      "coffee": 2090,
      "hun": 2091,
      "nope": 2092,
      "hol": 2093,
      "own": 2094,
      "som": 2095,
      "used": 2096,
      "surpris": 2097,
      "##lyn": 2098,
      "franc": 2099,
      "dear": 2100,
      "lunch": 2101,
      "inf": 2102,
      "william": 2103,
      "##ired": 2104,
      "city": 2105,
      "prom": 2106,
      "##ensive": 2107,
      "until": 2108,
      "set": 2109,
      "##ca": 2110,
      "kar": 2111,
      "weeks": 2112,
      "easy": 2113,
      "cause": 2114,
      "deal": 2115,
      "es": 2116,
      "##orm": 2117,
      "##rist": 2118,
      "trying": 2119,
      "bas": 2120,
      "supposed": 2121,
      "watching": 2122,
      "att": 2123,
      "agnes": 2124,
      "ted": 2125,
      "alright": 2126,
      "carl": 2127,
      "beth": 2128,
      "mate": 2129,
      "nina": 2130,
      "ry": 2131,
      "##man": 2132,
      "##lla": 2133,
      "sho": 2134,
      "jenn": 2135,
      "trip": 2136,
      "beautif": 2137,
      "##ared": 2138,
      "date": 2139,
      "says": 2140,
      "##ita": 2141,
      "##ition": 2142,
      "megan": 2143,
      "lily": 2144,
      "pete": 2145,
      "cr": 2146,
      "red": 2147,
      "##ib": 2148,
      "feeling": 2149,
      "write": 2150,
      "juli": 2151,
      "high": 2152,
      "##iting": 2153,
      "charles": 2154,
      "forget": 2155,
      "##etim": 2156,
      "wend": 2157,
      "yourself": 2158,
      "arri": 2159,
      "##more": 2160,
      "##uel": 2161,
      "joseph": 2162,
      "bed": 2163,
      "cho": 2164,
      "imp": 2165,
      "expensive": 2166,
      "baby": 2167,
      "##dia": 2168,
      "wear": 2169,
      "took": 2170,
      "spend": 2171,
      "beautiful": 2172,
      "##rey": 2173,
      "thats": 2174,
      "claire": 2175,
      "met": 2176,
      "piz": 2177,
      "thx": 2178,
      "agree": 2179,
      "teach": 2180,
      "##ole": 2181,
      "##haha": 2182,
      "wants": 2183,
      "called": 2184,
      "pam": 2185,
      "##bs": 2186,
      "alan": 2187,
      "finally": 2188,
      "barbara": 2189,
      "sent": 2190,
      "##ky": 2191,
      "##key": 2192,
      "crazy": 2193,
      "pm": 2194,
      "asked": 2195,
      "listen": 2196,
      "dude": 2197,
      "chea": 2198,
      "##pl": 2199,
      "##ange": 2200,
      "##ooo": 2201,
      "shopping": 2202,
      "sometim": 2203,
      "dou": 2204,
      "nic": 2205,
      "live": 2206,
      "##raid": 2207,
      "maya": 2208,
      "expect": 2209,
      "honey": 2210,
      "ima": 2211,
      "afraid": 2212,
      "caroline": 2213,
      "ethan": 2214,
      "##ons": 2215,
      "julie": 2216,
      "cal": 2217,
      "stan": 2218,
      "times": 2219,
      "sean": 2220,
      "wendy": 2221,
      "eu": 2222,
      "sl": 2223,
      "##go": 2224,
      "anymore": 2225,
      "started": 2226,
      "project": 2227,
      "tried": 2228,
      "months": 2229,
      "donna": 2230,
      "couldn": 2231,
      "##andy": 2232,
      "lovely": 2233,
      "asking": 2234,
      "ruth": 2235,
      "fel": 2236,
      "town": 2237,
      "##vel": 2238,
      "totally": 2239,
      "##omm": 2240,
      "jerry": 2241,
      "##ifer": 2242,
      "val": 2243,
      "pizza": 2244,
      "ver": 2245,
      "half": 2246,
      "eng": 2247,
      "flight": 2248,
      "jill": 2249,
      "sund": 2250,
      "group": 2251,
      "question": 2252,
      "michelle": 2253,
      "ryan": 2254,
      "##lain": 2255,
      "gotta": 2256,
      "##ctor": 2257,
      "fe": 2258,
      "##antha": 2259,
      "conf": 2260,
      "samantha": 2261,
      "recomm": 2262,
      "till": 2263,
      "vick": 2264,
      "ava": 2265,
      "recommend": 2266,
      "natalie": 2267,
      "either": 2268,
      "##pid": 2269,
      "##00": 2270,
      "##ork": 2271,
      "tracy": 2272,
      "##anie": 2273,
      "oliver": 2274,
      "honest": 2275,
      "##sa": 2276,
      "##fort": 2277,
      "email": 2278,
      "hur": 2279,
      "chang": 2280,
      "seriously": 2281,
      "##ya": 2282,
      "##ane": 2283,
      "##enc": 2284,
      "maggie": 2285,
      "stupid": 2286,
      "jennifer": 2287,
      "sunday": 2288,
      "mir": 2289,
      "##een": 2290,
      "leaving": 2291,
      "early": 2292,
      "face": 2293,
      "son": 2294,
      "##gin": 2295,
      "##isy": 2296,
      "amelia": 2297,
      "monday": 2298,
      "tired": 2299,
      "small": 2300,
      "taking": 2301,
      "air": 2302,
      "wine": 2303,
      "##urs": 2304,
      "ty": 2305,
      "dog": 2306,
      "art": 2307,
      "prefer": 2308,
      "import": 2309,
      "##eth": 2310,
      "meg": 2311,
      "abig": 2312,
      "##cept": 2313,
      "conc": 2314,
      "sal": 2315,
      "##igh": 2316,
      "##abeth": 2317,
      "adv": 2318,
      "##issa": 2319,
      "nathan": 2320,
      "##ked": 2321,
      "molly": 2322,
      "worries": 2323,
      "poor": 2324,
      "came": 2325,
      "den": 2326,
      "det": 2327,
      "##sw": 2328,
      "##ene": 2329,
      "##aret": 2330,
      "abigail": 2331,
      "sn": 2332,
      "test": 2333,
      "##air": 2334,
      "lilly": 2335,
      "##ention": 2336,
      "logan": 2337,
      "damn": 2338,
      "important": 2339,
      "summ": 2340,
      "dorothy": 2341,
      "sometimes": 2342,
      "##ont": 2343,
      "world": 2344,
      "ext": 2345,
      "second": 2346,
      "12": 2347,
      "##ames": 2348,
      "marie": 2349,
      "richard": 2350,
      "ger": 2351,
      "ther": 2352,
      "spea": 2353,
      "tou": 2354,
      "wel": 2355,
      "alone": 2356,
      "marc": 2357,
      "disc": 2358,
      "cute": 2359,
      "##ately": 2360,
      "ella": 2361,
      "kyle": 2362,
      "beer": 2363,
      "online": 2364,
      "somewhere": 2365,
      "stud": 2366,
      "black": 2367,
      "xxx": 2368,
      "yup": 2369,
      "##come": 2370,
      "grand": 2371,
      "playing": 2372,
      "angela": 2373,
      "##he": 2374,
      "##ates": 2375,
      "whatever": 2376,
      "move": 2377,
      "##ular": 2378,
      "cold": 2379,
      "sad": 2380,
      "##ense": 2381,
      "##ote": 2382,
      "ones": 2383,
      "##uring": 2384,
      "congr": 2385,
      "decid": 2386,
      "aud": 2387,
      "margaret": 2388,
      "##fu": 2389,
      "##enny": 2390,
      "##ese": 2391,
      "##ially": 2392,
      "ill": 2393,
      "comm": 2394,
      "sit": 2395,
      "##ai": 2396,
      "cons": 2397,
      "present": 2398,
      "sister": 2399,
      "si": 2400,
      "##oose": 2401,
      "june": 2402,
      "##lete": 2403,
      "abs": 2404,
      "making": 2405,
      "daisy": 2406,
      "possible": 2407,
      "suz": 2408,
      "afterno": 2409,
      "jackie": 2410,
      "drive": 2411,
      "cu": 2412,
      "##av": 2413,
      "study": 2414,
      "interested": 2415,
      "special": 2416,
      "dom": 2417,
      "ele": 2418,
      "kill": 2419,
      "weird": 2420,
      "organ": 2421,
      "cost": 2422,
      "med": 2423,
      "##lot": 2424,
      "inde": 2425,
      "near": 2426,
      "##artment": 2427,
      "##ails": 2428,
      "larry": 2429,
      "dro": 2430,
      "rather": 2431,
      "##ayla": 2432,
      "jimmy": 2433,
      "afternoon": 2434,
      "pu": 2435,
      "pub": 2436,
      "##ically": 2437,
      "dre": 2438,
      "gen": 2439,
      "jere": 2440,
      "##ald": 2441,
      "child": 2442,
      "lear": 2443,
      "ellie": 2444,
      "avail": 2445,
      "sy": 2446,
      "prof": 2447,
      "steph": 2448,
      "welcome": 2449,
      "deb": 2450,
      "planning": 2451,
      "clean": 2452,
      "decided": 2453,
      "opt": 2454,
      "answ": 2455,
      "cant": 2456,
      "lost": 2457,
      "imag": 2458,
      "summer": 2459,
      "bi": 2460,
      "##den": 2461,
      "##yy": 2462,
      "inc": 2463,
      "trans": 2464,
      "company": 2465,
      "bt": 2466,
      "card": 2467,
      "##ci": 2468,
      "##esa": 2469,
      "##its": 2470,
      "sub": 2471,
      "caron": 2472,
      "coll": 2473,
      "##lin": 2474,
      "mus": 2475,
      "talked": 2476,
      "charlot": 2477,
      "jamie": 2478,
      "charlotte": 2479,
      "cat": 2480,
      "during": 2481,
      "##less": 2482,
      "##ience": 2483,
      "##ime": 2484,
      "##ently": 2485,
      "annie": 2486,
      "moment": 2487,
      "hair": 2488,
      "##ddie": 2489,
      "mid": 2490,
      "##land": 2491,
      "##eas": 2492,
      "weather": 2493,
      "works": 2494,
      "makes": 2495,
      "available": 2496,
      "aaron": 2497,
      "brend": 2498,
      "##ross": 2499,
      "boss": 2500,
      "saying": 2501,
      "imagine": 2502,
      "iv": 2503,
      "##vious": 2504,
      "bart": 2505,
      "ob": 2506,
      "##me": 2507,
      "##min": 2508,
      "##lor": 2509,
      "##ital": 2510,
      "doctor": 2511,
      "stand": 2512,
      "jean": 2513,
      "sing": 2514,
      "##ks": 2515,
      "ins": 2516,
      "close": 2517,
      "catch": 2518,
      "##iness": 2519,
      "##ony": 2520,
      "##ors": 2521,
      "joanna": 2522,
      "conn": 2523,
      "matth": 2524,
      "ruby": 2525,
      "##ize": 2526,
      "##uu": 2527,
      "##gn": 2528,
      "thurs": 2529,
      "stre": 2530,
      "##indy": 2531,
      "song": 2532,
      "wom": 2533,
      "##ora": 2534,
      "patty": 2535,
      "diffic": 2536,
      "##get": 2537,
      "##ident": 2538,
      "gary": 2539,
      "jas": 2540,
      "reason": 2541,
      "##els": 2542,
      "outside": 2543,
      "et": 2544,
      "##ade": 2545,
      "##ila": 2546,
      "adri": 2547,
      "team": 2548,
      "classes": 2549,
      "difficult": 2550,
      "##lish": 2551,
      "rep": 2552,
      "season": 2553,
      "law": 2554,
      "vicky": 2555,
      "sort": 2556,
      "tv": 2557,
      "##aur": 2558,
      "##not": 2559,
      "brand": 2560,
      "ideas": 2561,
      "hang": 2562,
      "pack": 2563,
      "wedding": 2564,
      "jeremy": 2565,
      "music": 2566,
      "tay": 2567,
      "##ga": 2568,
      "liked": 2569,
      "needs": 2570,
      "offer": 2571,
      "lad": 2572,
      "link": 2573,
      "##olute": 2574,
      "becky": 2575,
      "##itting": 2576,
      "lind": 2577,
      "##ka": 2578,
      "exper": 2579,
      "cheap": 2580,
      "holly": 2581,
      "absolute": 2582,
      "answer": 2583,
      "##aurant": 2584,
      "ber": 2585,
      "syl": 2586,
      "##ock": 2587,
      "##book": 2588,
      "cannot": 2589,
      "quick": 2590,
      "earli": 2591,
      "restaurant": 2592,
      "contact": 2593,
      "indeed": 2594,
      "taylor": 2595,
      "ey": 2596,
      "ent": 2597,
      "knew": 2598,
      "knows": 2599,
      "front": 2600,
      "brother": 2601,
      "melissa": 2602,
      "etc": 2603,
      "water": 2604,
      "##ze": 2605,
      "##ann": 2606,
      "kidding": 2607,
      "fucking": 2608,
      "thursday": 2609,
      "kinda": 2610,
      "##ark": 2611,
      "##ider": 2612,
      "##uct": 2613,
      "manag": 2614,
      "complete": 2615,
      "esp": 2616,
      "##olog": 2617,
      "##athy": 2618,
      "pleas": 2619,
      "##yler": 2620,
      "veron": 2621,
      "cent": 2622,
      "cur": 2623,
      "dead": 2624,
      "##od": 2625,
      "##lic": 2626,
      "usual": 2627,
      "matter": 2628,
      "key": 2629,
      "matthew": 2630,
      "##iot": 2631,
      "##ele": 2632,
      "##ins": 2633,
      "##asha": 2634,
      "hahah": 2635,
      "safe": 2636,
      "owen": 2637,
      "##rect": 2638,
      "##llie": 2639,
      "reb": 2640,
      "nicole": 2641,
      "euro": 2642,
      "##sie": 2643,
      "##atherine": 2644,
      "chance": 2645,
      "broke": 2646,
      "cop": 2647,
      "lee": 2648,
      "top": 2649,
      "##ylan": 2650,
      "gave": 2651,
      "worse": 2652,
      "amber": 2653,
      "fav": 2654,
      "babe": 2655,
      "earlier": 2656,
      "##sy": 2657,
      "##eeee": 2658,
      "choose": 2659,
      "##ecially": 2660,
      "##fully": 2661,
      "brenda": 2662,
      "especially": 2663,
      "ret": 2664,
      "##ii": 2665,
      "suck": 2666,
      "dun": 2667,
      "star": 2668,
      "manage": 2669,
      "danny": 2670,
      "touch": 2671,
      "cindy": 2672,
      "short": 2673,
      "tommy": 2674,
      "veronica": 2675,
      "fact": 2676,
      "white": 2677,
      "##astic": 2678,
      "recently": 2679,
      "lucky": 2680,
      "##view": 2681,
      "btw": 2682,
      "##ned": 2683,
      "##ised": 2684,
      "##ried": 2685,
      "idk": 2686,
      "problems": 2687,
      "blood": 2688,
      "##ten": 2689,
      "##iley": 2690,
      "##ww": 2691,
      "past": 2692,
      "wal": 2693,
      "##mal": 2694,
      "##oint": 2695,
      "forward": 2696,
      "worth": 2697,
      "lots": 2698,
      "11": 2699,
      "dylan": 2700,
      "ray": 2701,
      "##ings": 2702,
      "bella": 2703,
      "##unk": 2704,
      "intern": 2705,
      "park": 2706,
      "cine": 2707,
      "main": 2708,
      "yo": 2709,
      "mother": 2710,
      "flat": 2711,
      "trevor": 2712,
      "excited": 2713,
      "details": 2714,
      "absolutely": 2715,
      "##med": 2716,
      "##let": 2717,
      "boring": 2718,
      "english": 2719,
      "fab": 2720,
      "hm": 2721,
      "ral": 2722,
      "##oke": 2723,
      "chick": 2724,
      "usually": 2725,
      "andrea": 2726,
      "katie": 2727,
      "##ax": 2728,
      "##ming": 2729,
      "three": 2730,
      "account": 2731,
      "rebec": 2732,
      "fant": 2733,
      "rid": 2734,
      "land": 2735,
      "yours": 2736,
      "##ump": 2737,
      "sophia": 2738,
      "wednes": 2739,
      "audrey": 2740,
      "beat": 2741,
      "shir": 2742,
      "aren": 2743,
      "fil": 2744,
      "word": 2745,
      "comes": 2746,
      "mag": 2747,
      "steven": 2748,
      "wednesday": 2749,
      "games": 2750,
      "net": 2751,
      "rom": 2752,
      "##ices": 2753,
      "stress": 2754,
      "pain": 2755,
      "fair": 2756,
      "ralph": 2757,
      "dere": 2758,
      "tues": 2759,
      "##cess": 2760,
      "station": 2761,
      "speak": 2762,
      "aust": 2763,
      "seb": 2764,
      "depend": 2765,
      "borrow": 2766,
      "fly": 2767,
      "mandy": 2768,
      "toby": 2769,
      "store": 2770,
      "##vers": 2771,
      "##unately": 2772,
      "price": 2773,
      "appre": 2774,
      "books": 2775,
      "prepare": 2776,
      "##als": 2777,
      "justin": 2778,
      "looked": 2779,
      "grab": 2780,
      "blue": 2781,
      "resp": 2782,
      "kimber": 2783,
      "darling": 2784,
      "louise": 2785,
      "horrible": 2786,
      "##ym": 2787,
      "clara": 2788,
      "business": 2789,
      "finished": 2790,
      "derek": 2791,
      "gone": 2792,
      "##work": 2793,
      "ana": 2794,
      "unfort": 2795,
      "choice": 2796,
      "mention": 2797,
      "##uce": 2798,
      "mem": 2799,
      "gets": 2800,
      "club": 2801,
      "drunk": 2802,
      "full": 2803,
      "side": 2804,
      "##ied": 2805,
      "##aces": 2806,
      "longer": 2807,
      "hotel": 2808,
      "fan": 2809,
      "lit": 2810,
      "##jam": 2811,
      "sun": 2812,
      "##room": 2813,
      "tru": 2814,
      "blake": 2815,
      "scott": 2816,
      "concert": 2817,
      "sylvia": 2818,
      "favour": 2819,
      "nah": 2820,
      "sugg": 2821,
      "##roy": 2822,
      "alexand": 2823,
      "domin": 2824,
      "cinema": 2825,
      "suggest": 2826,
      "math": 2827,
      "pri": 2828,
      "sign": 2829,
      "##erv": 2830,
      "##erc": 2831,
      "fix": 2832,
      "bored": 2833,
      "buying": 2834,
      "terrible": 2835,
      "ellen": 2836,
      "youn": 2837,
      "trust": 2838,
      "huge": 2839,
      "tuesday": 2840,
      "fish": 2841,
      "apparent": 2842,
      "bobby": 2843,
      "ire": 2844,
      "##led": 2845,
      "##iff": 2846,
      "##die": 2847,
      "fran": 2848,
      "hugh": 2849,
      "aff": 2850,
      "cut": 2851,
      "##ars": 2852,
      "whats": 2853,
      "joy": 2854,
      "lola": 2855,
      "stanley": 2856,
      "rebecca": 2857,
      "appreci": 2858,
      "apparently": 2859,
      "bott": 2860,
      "fore": 2861,
      "hos": 2862,
      "##llow": 2863,
      "anth": 2864,
      "neither": 2865,
      "anybody": 2866,
      "evan": 2867,
      "message": 2868,
      "isabella": 2869,
      "lena": 2870,
      "mill": 2871,
      "sid": 2872,
      "##ween": 2873,
      "##ities": 2874,
      "##ston": 2875,
      "goes": 2876,
      "##essa": 2877,
      "##aaaa": 2878,
      "country": 2879,
      "hosp": 2880,
      "ol": 2881,
      "rory": 2882,
      "##ret": 2883,
      "leg": 2884,
      "##aught": 2885,
      "leah": 2886,
      "bry": 2887,
      "na": 2888,
      "sell": 2889,
      "##zabeth": 2890,
      "##lling": 2891,
      "nobody": 2892,
      "samuel": 2893,
      "janet": 2894,
      "flo": 2895,
      "watched": 2896,
      "staying": 2897,
      "missed": 2898,
      "elizabeth": 2899,
      "##ika": 2900,
      "fast": 2901,
      "lond": 2902,
      "neigh": 2903,
      "seeing": 2904,
      "shouldn": 2905,
      "cloth": 2906,
      "dean": 2907,
      "freddie": 2908,
      "driving": 2909,
      "apartment": 2910,
      "pictures": 2911,
      "miranda": 2912,
      "kimberly": 2913,
      "aid": 2914,
      "dra": 2915,
      "ir": 2916,
      "##vis": 2917,
      "between": 2918,
      "finn": 2919,
      "running": 2920,
      "neighb": 2921,
      "bra": 2922,
      "goo": 2923,
      "jes": 2924,
      "##org": 2925,
      "##icia": 2926,
      "jud": 2927,
      "##eline": 2928,
      "##ira": 2929,
      "pauline": 2930,
      "scar": 2931,
      "promise": 2932,
      "##airs": 2933,
      "london": 2934,
      "gym": 2935,
      "vi": 2936,
      "##pa": 2937,
      "##ness": 2938,
      "##ham": 2939,
      "theo": 2940,
      "sharon": 2941,
      "likes": 2942,
      "checked": 2943,
      "francis": 2944,
      "learn": 2945,
      "adrian": 2946,
      "mason": 2947,
      "##oria": 2948,
      "door": 2949,
      "ali": 2950,
      "jessie": 2951,
      "wondering": 2952,
      "street": 2953,
      "cli": 2954,
      "tam": 2955,
      "##onald": 2956,
      "##ivers": 2957,
      "gener": 2958,
      "dunno": 2959,
      "sebast": 2960,
      "hospital": 2961,
      "kit": 2962,
      "sil": 2963,
      "story": 2964,
      "rod": 2965,
      "carrie": 2966,
      "bud": 2967,
      "remind": 2968,
      "gift": 2969,
      "##ments": 2970,
      "minute": 2971,
      "100": 2972,
      "winter": 2973,
      "unfortunately": 2974,
      "cry": 2975,
      "cross": 2976,
      "ola": 2977,
      "pie": 2978,
      "table": 2979,
      "##uation": 2980,
      "##gar": 2981,
      "shall": 2982,
      "##ola": 2983,
      "worried": 2984,
      "dream": 2985,
      "ren": 2986,
      "rain": 2987,
      "sense": 2988,
      "##erg": 2989,
      "iss": 2990,
      "plus": 2991,
      "surprise": 2992,
      "##ower": 2993,
      "rela": 2994,
      "road": 2995,
      "ross": 2996,
      "roger": 2997,
      "paid": 2998,
      "decide": 2999,
      "robin": 3000,
      "lauren": 3001,
      "depends": 3002,
      "anthony": 3003,
      "relax": 3004,
      "50": 3005,
      "cert": 3006,
      "heal": 3007,
      "##bie": 3008,
      "##arch": 3009,
      "##idays": 3010,
      "isla": 3011,
      "lia": 3012,
      "everybody": 3013,
      "photos": 3014,
      "others": 3015,
      "means": 3016,
      "unc": 3017,
      "complain": 3018,
      "angel": 3019,
      "sandy": 3020,
      "diane": 3021,
      "gabrie": 3022,
      "extra": 3023,
      "reading": 3024,
      "series": 3025,
      "edward": 3026,
      "louis": 3027,
      "snow": 3028,
      "drop": 3029,
      "cas": 3030,
      "die": 3031,
      "yu": 3032,
      "##men": 3033,
      "##ix": 3034,
      "##gle": 3035,
      "stuck": 3036,
      "happens": 3037,
      "hahahaha": 3038,
      "teacher": 3039,
      "clothes": 3040,
      "ep": 3041,
      "tyler": 3042,
      "share": 3043,
      "wash": 3044,
      "invite": 3045,
      "inform": 3046,
      "changed": 3047,
      "completely": 3048,
      "sebastian": 3049,
      "00": 3050,
      "pics": 3051,
      "##uss": 3052,
      "##ja": 3053,
      "##ilia": 3054,
      "##audia": 3055,
      "nora": 3056,
      "drinks": 3057,
      "fantastic": 3058,
      "film": 3059,
      "##nn": 3060,
      "##vies": 3061,
      "prod": 3062,
      "##ffic": 3063,
      "leon": 3064,
      "polly": 3065,
      "writing": 3066,
      "georg": 3067,
      "consider": 3068,
      "cele": 3069,
      "krist": 3070,
      "les": 3071,
      "tast": 3072,
      "##ped": 3073,
      "##time": 3074,
      "##ced": 3075,
      "heather": 3076,
      "rel": 3077,
      "albert": 3078,
      "bag": 3079,
      "pot": 3080,
      "rita": 3081,
      "##anne": 3082,
      "along": 3083,
      "asap": 3084,
      "mona": 3085,
      "questions": 3086,
      "internet": 3087,
      "bon": 3088,
      "rent": 3089,
      "wind": 3090,
      "##mine": 3091,
      "##eryl": 3092,
      "benjam": 3093,
      "scre": 3094,
      "melanie": 3095,
      "instead": 3096,
      "holiday": 3097,
      "benjamin": 3098,
      "disa": 3099,
      "bother": 3100,
      "danie": 3101,
      "jord": 3102,
      "##say": 3103,
      "hehe": 3104,
      "stra": 3105,
      "##acey": 3106,
      "mins": 3107,
      "appreciate": 3108,
      "kitch": 3109,
      "wall": 3110,
      "##wise": 3111,
      "##oud": 3112,
      "##ific": 3113,
      "philip": 3114,
      "lydia": 3115,
      "basically": 3116,
      "obvious": 3117,
      "fit": 3118,
      "gar": 3119,
      "sel": 3120,
      "zack": 3121,
      "##ug": 3122,
      "movies": 3123,
      "##lix": 3124,
      "arth": 3125,
      "##wards": 3126,
      "address": 3127,
      "walter": 3128,
      "irene": 3129,
      "##lu": 3130,
      "##riel": 3131,
      "##ball": 3132,
      "married": 3133,
      "loc": 3134,
      "places": 3135,
      "gloria": 3136,
      "gabriel": 3137,
      "holidays": 3138,
      "health": 3139,
      "celebr": 3140,
      "kitchen": 3141,
      "cy": 3142,
      "cake": 3143,
      "fb": 3144,
      "##tf": 3145,
      "##aster": 3146,
      "##ril": 3147,
      "##pped": 3148,
      "proper": 3149,
      "lew": 3150,
      "normal": 3151,
      "dora": 3152,
      "ari": 3153,
      "bath": 3154,
      "ronald": 3155,
      "van": 3156,
      "##friend": 3157,
      "begin": 3158,
      "judy": 3159,
      "chat": 3160,
      "chill": 3161,
      "agre": 3162,
      "explain": 3163,
      "hurry": 3164,
      "discuss": 3165,
      "profess": 3166,
      "gra": 3167,
      "tur": 3168,
      "wtf": 3169,
      "##atul": 3170,
      "##lled": 3171,
      "##ooke": 3172,
      "##illa": 3173,
      "barry": 3174,
      "invited": 3175,
      "warm": 3176,
      "erin": 3177,
      "arrive": 3178,
      "pamela": 3179,
      "honestly": 3180,
      "suzie": 3181,
      "arthur": 3182,
      "##cel": 3183,
      "green": 3184,
      "event": 3185,
      "strange": 3186,
      "##load": 3187,
      "confir": 3188,
      "facebook": 3189,
      "lewis": 3190,
      "fall": 3191,
      "men": 3192,
      "nate": 3193,
      "##ki": 3194,
      "##ken": 3195,
      "##omi": 3196,
      "wife": 3197,
      "isa": 3198,
      "##ship": 3199,
      "smith": 3200,
      "suppose": 3201,
      "sucks": 3202,
      "hum": 3203,
      "tho": 3204,
      "notes": 3205,
      "brooke": 3206,
      "telling": 3207,
      "sending": 3208,
      "lately": 3209,
      "##nold": 3210,
      "hold": 3211,
      "easier": 3212,
      "opin": 3213,
      "congratul": 3214,
      "situation": 3215,
      "certain": 3216,
      "bur": 3217,
      "fing": 3218,
      "mal": 3219,
      "round": 3220,
      "sou": 3221,
      "##old": 3222,
      "##ule": 3223,
      "##ett": 3224,
      "rece": 3225,
      "fig": 3226,
      "sex": 3227,
      "partic": 3228,
      "hopefully": 3229,
      "taken": 3230,
      "cale": 3231,
      "shoes": 3232,
      "fancy": 3233,
      "lor": 3234,
      "lenny": 3235,
      "okey": 3236,
      "alf": 3237,
      "##oph": 3238,
      "##ille": 3239,
      "needed": 3240,
      "europe": 3241,
      "olga": 3242,
      "##mon": 3243,
      "##ua": 3244,
      "##iet": 3245,
      "##ata": 3246,
      "often": 3247,
      "sha": 3248,
      "donald": 3249,
      "roy": 3250,
      "arg": 3251,
      "traffic": 3252,
      "ticket": 3253,
      "boyfriend": 3254,
      "lindsay": 3255,
      "vac": 3256,
      "viv": 3257,
      "##ative": 3258,
      "##idge": 3259,
      "stacy": 3260,
      "jonathan": 3261,
      "##avier": 3262,
      "netf": 3263,
      "hay": 3264,
      "shar": 3265,
      "shame": 3266,
      "doc": 3267,
      "loved": 3268,
      "build": 3269,
      "match": 3270,
      "sched": 3271,
      "doub": 3272,
      "theresa": 3273,
      "netflix": 3274,
      "webs": 3275,
      "##idi": 3276,
      "sol": 3277,
      "stella": 3278,
      "##sel": 3279,
      "alison": 3280,
      "madison": 3281,
      "deliver": 3282,
      "laugh": 3283,
      "children": 3284,
      "kai": 3285,
      "lin": 3286,
      "##zz": 3287,
      "##ester": 3288,
      "##ster": 3289,
      "suit": 3290,
      "moving": 3291,
      "moved": 3292,
      "phoe": 3293,
      "bruce": 3294,
      "booked": 3295,
      "airport": 3296,
      "pleasure": 3297,
      "favourite": 3298,
      "jordan": 3299,
      "gem": 3300,
      "hil": 3301,
      "tem": 3302,
      "##rs": 3303,
      "##ides": 3304,
      "shut": 3305,
      "spot": 3306,
      "##ages": 3307,
      "accident": 3308,
      "phoebe": 3309,
      "gw": 3310,
      "hank": 3311,
      "mick": 3312,
      "penny": 3313,
      "throw": 3314,
      "save": 3315,
      "pract": 3316,
      "accept": 3317,
      "miles": 3318,
      "cooking": 3319,
      "option": 3320,
      "jasmine": 3321,
      "young": 3322,
      "dest": 3323,
      "hist": 3324,
      "heart": 3325,
      "heidi": 3326,
      "otherwise": 3327,
      "##ume": 3328,
      "##aking": 3329,
      "##ults": 3330,
      "congrats": 3331,
      "bloody": 3332,
      "epis": 3333,
      "congratulations": 3334,
      "40": 3335,
      "bank": 3336,
      "cec": 3337,
      "##da": 3338,
      "##que": 3339,
      "ital": 3340,
      "light": 3341,
      "##haps": 3342,
      "##iana": 3343,
      "evelyn": 3344,
      "connor": 3345,
      "caleb": 3346,
      "opp": 3347,
      "port": 3348,
      "sir": 3349,
      "tan": 3350,
      "zach": 3351,
      "ind": 3352,
      "wil": 3353,
      "sof": 3354,
      "##ters": 3355,
      "##ries": 3356,
      "wont": 3357,
      "perhaps": 3358,
      "appoint": 3359,
      "trave": 3360,
      "support": 3361,
      "follow": 3362,
      "colour": 3363,
      "woman": 3364,
      "figure": 3365,
      "catherine": 3366,
      "rad": 3367,
      "##nch": 3368,
      "inside": 3369,
      "##olas": 3370,
      "paper": 3371,
      "arnold": 3372,
      "joshua": 3373,
      "stephanie": 3374,
      "chicken": 3375,
      "disapp": 3376,
      "##ract": 3377,
      "##cc": 3378,
      "##ories": 3379,
      "##ows": 3380,
      "fight": 3381,
      "carmen": 3382,
      "elis": 3383,
      "nicky": 3384,
      "angry": 3385,
      "##ilda": 3386,
      "julian": 3387,
      "calm": 3388,
      "experience": 3389,
      "lara": 3390,
      "lang": 3391,
      "mist": 3392,
      "##ler": 3393,
      "##eez": 3394,
      "living": 3395,
      "clos": 3396,
      "seth": 3397,
      "##ecture": 3398,
      "poland": 3399,
      "impress": 3400,
      "sonia": 3401,
      "advice": 3402,
      "austin": 3403,
      "afford": 3404,
      "eh": 3405,
      "fat": 3406,
      "king": 3407,
      "sooo": 3408,
      "jude": 3409,
      "fire": 3410,
      "##ulous": 3411,
      "using": 3412,
      "board": 3413,
      "paulina": 3414,
      "lapt": 3415,
      "annoy": 3416,
      "wonderful": 3417,
      "turned": 3418,
      "hung": 3419,
      "surprised": 3420,
      "google": 3421,
      "laptop": 3422,
      "kas": 3423,
      "tat": 3424,
      "##aly": 3425,
      "worst": 3426,
      "lets": 3427,
      "arch": 3428,
      "##ection": 3429,
      "##umb": 3430,
      "swim": 3431,
      "##uba": 3432,
      "beach": 3433,
      "damian": 3434,
      "italian": 3435,
      "ka": 3436,
      "mis": 3437,
      "##cy": 3438,
      "##fast": 3439,
      "anton": 3440,
      "##stairs": 3441,
      "smart": 3442,
      "marta": 3443,
      "drinking": 3444,
      "##ference": 3445,
      "breakfast": 3446,
      "hill": 3447,
      "vic": 3448,
      "##vy": 3449,
      "anita": 3450,
      "didnt": 3451,
      "##ula": 3452,
      "girlf": 3453,
      "favor": 3454,
      "april": 3455,
      "posted": 3456,
      "carlos": 3457,
      "liter": 3458,
      "doubt": 3459,
      "gemma": 3460,
      "sitting": 3461,
      "tough": 3462,
      "##py": 3463,
      "##dle": 3464,
      "##rad": 3465,
      "##inc": 3466,
      "##ato": 3467,
      "##rious": 3468,
      "rosie": 3469,
      "pos": 3470,
      "french": 3471,
      "stef": 3472,
      "comput": 3473,
      "decis": 3474,
      "angie": 3475,
      "brill": 3476,
      "camer": 3477,
      "ronnie": 3478,
      "straight": 3479,
      "25": 3480,
      "lat": 3481,
      "mur": 3482,
      "pic": 3483,
      "riley": 3484,
      "##nis": 3485,
      "##col": 3486,
      "##rent": 3487,
      "##rik": 3488,
      "pls": 3489,
      "ages": 3490,
      "spl": 3491,
      "alexis": 3492,
      "starting": 3493,
      "appro": 3494,
      "foot": 3495,
      "naomi": 3496,
      "website": 3497,
      "19": 3498,
      "rand": 3499,
      "##mit": 3500,
      "hah": 3501,
      "report": 3502,
      "carter": 3503,
      "##rence": 3504,
      "isabel": 3505,
      "slow": 3506,
      "girlfriend": 3507,
      "aly": 3508,
      "mac": 3509,
      "##vi": 3510,
      "caro": 3511,
      "cover": 3512,
      "bitch": 3513,
      "christine": 3514,
      "sky": 3515,
      "studying": 3516,
      "father": 3517,
      "pur": 3518,
      "zara": 3519,
      "##nce": 3520,
      "##ient": 3521,
      "ofc": 3522,
      "clark": 3523,
      "box": 3524,
      "dana": 3525,
      "homework": 3526,
      "enter": 3527,
      "clear": 3528,
      "info": 3529,
      "felt": 3530,
      "grandma": 3531,
      "grow": 3532,
      "kris": 3533,
      "##use": 3534,
      "##uary": 3535,
      "##ror": 3536,
      "form": 3537,
      "libr": 3538,
      "convin": 3539,
      "mail": 3540,
      "harper": 3541,
      "uni": 3542,
      "contro": 3543,
      "polit": 3544,
      "centre": 3545,
      "elisabeth": 3546,
      "computer": 3547,
      "ahaha": 3548,
      "dist": 3549,
      "pan": 3550,
      "pity": 3551,
      "soooo": 3552,
      "tab": 3553,
      "##ones": 3554,
      "anyways": 3555,
      "sheila": 3556,
      "ups": 3557,
      "proud": 3558,
      "serv": 3559,
      "travel": 3560,
      "paris": 3561,
      "sleeping": 3562,
      "milk": 3563,
      "dominic": 3564,
      "mood": 3565,
      "pen": 3566,
      "xmas": 3567,
      "😂😂": 3568,
      "##cing": 3569,
      "##ants": 3570,
      "convers": 3571,
      "##akes": 3572,
      "univers": 3573,
      "##ggy": 3574,
      "wrote": 3575,
      "takes": 3576,
      "lady": 3577,
      "return": 3578,
      "neighbour": 3579,
      "fingers": 3580,
      "gorge": 3581,
      "ring": 3582,
      "randy": 3583,
      "tara": 3584,
      "xavier": 3585,
      "##vent": 3586,
      "##ges": 3587,
      "##iny": 3588,
      "italy": 3589,
      "howard": 3590,
      "whenever": 3591,
      "giving": 3592,
      "scared": 3593,
      "eyes": 3594,
      "opinion": 3595,
      "appointment": 3596,
      "hungry": 3597,
      "ollie": 3598,
      "piss": 3599,
      "##iant": 3600,
      "##lett": 3601,
      "bel": 3602,
      "amer": 3603,
      "press": 3604,
      "calling": 3605,
      "mrs": 3606,
      "correct": 3607,
      "lynn": 3608,
      "katy": 3609,
      "cream": 3610,
      "doug": 3611,
      "flying": 3612,
      "floor": 3613,
      "boo": 3614,
      "cash": 3615,
      "sab": 3616,
      "vo": 3617,
      "##enna": 3618,
      "##icious": 3619,
      "##vey": 3620,
      "beh": 3621,
      "##sey": 3622,
      "alb": 3623,
      "abby": 3624,
      "brit": 3625,
      "space": 3626,
      "dev": 3627,
      "frances": 3628,
      "presentation": 3629,
      "priv": 3630,
      "scarlett": 3631,
      "danielle": 3632,
      "beginning": 3633,
      "gwen": 3634,
      "band": 3635,
      "dy": 3636,
      "mer": 3637,
      "mall": 3638,
      "pal": 3639,
      "vio": 3640,
      "##thia": 3641,
      "##ada": 3642,
      "##uno": 3643,
      "feels": 3644,
      "flow": 3645,
      "eating": 3646,
      "cheers": 3647,
      "elect": 3648,
      "billy": 3649,
      "copy": 3650,
      "alexander": 3651,
      "history": 3652,
      "brilliant": 3653,
      "violet": 3654,
      "bert": 3655,
      "hit": 3656,
      "ms": 3657,
      "size": 3658,
      "##yle": 3659,
      "todd": 3660,
      "meant": 3661,
      "claudia": 3662,
      "spo": 3663,
      "##used": 3664,
      "interview": 3665,
      "christian": 3666,
      "missing": 3667,
      "hands": 3668,
      "teddy": 3669,
      "felix": 3670,
      "bryan": 3671,
      "library": 3672,
      "fail": 3673,
      "gill": 3674,
      "hes": 3675,
      "kay": 3676,
      "kayla": 3677,
      "kathy": 3678,
      "pink": 3679,
      "ram": 3680,
      "##over": 3681,
      "##tie": 3682,
      "##bi": 3683,
      "##ys": 3684,
      "lose": 3685,
      "anywhere": 3686,
      "greta": 3687,
      "conference": 3688,
      "##ucks": 3689,
      "court": 3690,
      "simple": 3691,
      "example": 3692,
      "poppy": 3693,
      "ivy": 3694,
      "uncle": 3695,
      "agreed": 3696,
      "gorgeous": 3697,
      "bes": 3698,
      "ign": 3699,
      "wo": 3700,
      "##pect": 3701,
      "##ots": 3702,
      "##ama": 3703,
      "notic": 3704,
      "spent": 3705,
      "emilia": 3706,
      "trou": 3707,
      "janice": 3708,
      "diet": 3709,
      "plane": 3710,
      "susie": 3711,
      "dark": 3712,
      "arrived": 3713,
      "single": 3714,
      "women": 3715,
      "confirm": 3716,
      "45": 3717,
      "ess": 3718,
      "fell": 3719,
      "layla": 3720,
      "##enty": 3721,
      "##ards": 3722,
      "faith": 3723,
      "type": 3724,
      "managed": 3725,
      "obviously": 3726,
      "bat": 3727,
      "lecture": 3728,
      "##ov": 3729,
      "##ipe": 3730,
      "##gust": 3731,
      "##con": 3732,
      "##ature": 3733,
      "beha": 3734,
      "##ational": 3735,
      "starts": 3736,
      "christina": 3737,
      "crap": 3738,
      "police": 3739,
      "regina": 3740,
      "shoot": 3741,
      "bottle": 3742,
      "schedule": 3743,
      "meal": 3744,
      "ten": 3745,
      "##rance": 3746,
      "##atha": 3747,
      "anim": 3748,
      "##ism": 3749,
      "##itive": 3750,
      "##ield": 3751,
      "brid": 3752,
      "##gram": 3753,
      "joanne": 3754,
      "gavin": 3755,
      "##saw": 3756,
      "judith": 3757,
      "kitty": 3758,
      "ahh": 3759,
      "iris": 3760,
      "troy": 3761,
      "##how": 3762,
      "##ility": 3763,
      "vegan": 3764,
      "const": 3765,
      "happening": 3766,
      "morgan": 3767,
      "glass": 3768,
      "201": 3769,
      "cheaper": 3770,
      "current": 3771,
      "produc": 3772,
      "recei": 3773,
      "langu": 3774,
      "crist": 3775,
      "ice": 3776,
      "##ted": 3777,
      "##ising": 3778,
      "requ": 3779,
      "mario": 3780,
      "reach": 3781,
      "mod": 3782,
      "upd": 3783,
      "died": 3784,
      "planned": 3785,
      "twice": 3786,
      "##ips": 3787,
      "possib": 3788,
      "deadline": 3789,
      "keys": 3790,
      "vanessa": 3791,
      "decision": 3792,
      "fut": 3793,
      "kick": 3794,
      "line": 3795,
      "ugh": 3796,
      "wanda": 3797,
      "##night": 3798,
      "##lene": 3799,
      "##ien": 3800,
      "##ige": 3801,
      "##rr": 3802,
      "loves": 3803,
      "jackson": 3804,
      "flore": 3805,
      "fault": 3806,
      "results": 3807,
      "warsaw": 3808,
      "sett": 3809,
      "valer": 3810,
      "entrance": 3811,
      "crossed": 3812,
      "dir": 3813,
      "eff": 3814,
      "gin": 3815,
      "kir": 3816,
      "ta": 3817,
      "##oss": 3818,
      "##aring": 3819,
      "mars": 3820,
      "##ional": 3821,
      "##elie": 3822,
      "timothy": 3823,
      "plenty": 3824,
      "clar": 3825,
      "treat": 3826,
      "strong": 3827,
      "kylie": 3828,
      "particular": 3829,
      "behind": 3830,
      "cathy": 3831,
      "gard": 3832,
      "kam": 3833,
      "nad": 3834,
      "##ode": 3835,
      "##ush": 3836,
      "##rina": 3837,
      "##erve": 3838,
      "meat": 3839,
      "##eee": 3840,
      "cheryl": 3841,
      "##lip": 3842,
      "idiot": 3843,
      "market": 3844,
      "urs": 3845,
      "natalia": 3846,
      "##ency": 3847,
      "leslie": 3848,
      "gil": 3849,
      "noooo": 3850,
      "##ral": 3851,
      "youre": 3852,
      "##amp": 3853,
      "somehow": 3854,
      "anytime": 3855,
      "brown": 3856,
      "##ument": 3857,
      "direct": 3858,
      "elena": 3859,
      "maddie": 3860,
      "teresa": 3861,
      "played": 3862,
      "polish": 3863,
      "hmmm": 3864,
      "lizzy": 3865,
      "training": 3866,
      "stressed": 3867,
      "##selves": 3868,
      "conversation": 3869,
      "university": 3870,
      "future": 3871,
      "crow": 3872,
      "power": 3873,
      "tit": 3874,
      "july": 3875,
      "##arely": 3876,
      "clare": 3877,
      "britt": 3878,
      "body": 3879,
      "emp": 3880,
      "grant": 3881,
      "rese": 3882,
      "mostly": 3883,
      "boys": 3884,
      "hunter": 3885,
      "middle": 3886,
      "brandon": 3887,
      "joyce": 3888,
      "renee": 3889,
      "ursula": 3890,
      "aun": 3891,
      "hea": 3892,
      "len": 3893,
      "##ality": 3894,
      "rock": 3895,
      "bruno": 3896,
      "everywhere": 3897,
      "pear": 3898,
      "hasn": 3899,
      "avo": 3900,
      "camp": 3901,
      "heading": 3902,
      "chocol": 3903,
      "piece": 3904,
      "episode": 3905,
      "travelling": 3906,
      "noticed": 3907,
      "hus": 3908,
      "##lan": 3909,
      "##vier": 3910,
      "##hm": 3911,
      "doll": 3912,
      "gosh": 3913,
      "##rib": 3914,
      "program": 3915,
      "worked": 3916,
      "russ": 3917,
      "glen": 3918,
      "urg": 3919,
      "delicious": 3920,
      "owe": 3921,
      "entire": 3922,
      "aiden": 3923,
      "research": 3924,
      "uk": 3925,
      "##ox": 3926,
      "##the": 3927,
      "##though": 3928,
      "##stem": 3929,
      "although": 3930,
      "asleep": 3931,
      "##pping": 3932,
      "muse": 3933,
      "arr": 3934,
      "colle": 3935,
      "awful": 3936,
      "exciting": 3937,
      "prepared": 3938,
      "shock": 3939,
      "system": 3940,
      "ladies": 3941,
      "eye": 3942,
      "ridic": 3943,
      "literally": 3944,
      "service": 3945,
      "besides": 3946,
      "ball": 3947,
      "dick": 3948,
      "jeal": 3949,
      "##zo": 3950,
      "##asc": 3951,
      "soc": 3952,
      "mob": 3953,
      "guest": 3954,
      "afterwards": 3955,
      "keith": 3956,
      "##ists": 3957,
      "unless": 3958,
      "shower": 3959,
      "wearing": 3960,
      "marcus": 3961,
      "##opher": 3962,
      "building": 3963,
      "jealous": 3964,
      "dee": 3965,
      "due": 3966,
      "kiss": 3967,
      "ori": 3968,
      "pea": 3969,
      "tax": 3970,
      "york": 3971,
      "##band": 3972,
      "island": 3973,
      "##iew": 3974,
      "area": 3975,
      "alicia": 3976,
      "marty": 3977,
      "##ilar": 3978,
      "harvey": 3979,
      "flu": 3980,
      "decent": 3981,
      "natasha": 3982,
      "joey": 3983,
      "mila": 3984,
      "erica": 3985,
      "sweetie": 3986,
      "cheese": 3987,
      "##ences": 3988,
      "dennis": 3989,
      "silly": 3990,
      "drew": 3991,
      "jesus": 3992,
      "kasia": 3993,
      "hillary": 3994,
      "garden": 3995,
      "cup": 3996,
      "egg": 3997,
      "fed": 3998,
      "kl": 3999,
      "mitch": 4000,
      "ny": 4001,
      "vote": 4002,
      "##ded": 4003,
      "hall": 4004,
      "brook": 4005,
      "cond": 4006,
      "dem": 4007,
      "luis": 4008,
      "hugo": 4009,
      "isabelle": 4010,
      "josephine": 4011,
      "gabrielle": 4012,
      "self": 4013,
      "celebrate": 4014,
      "bathroom": 4015,
      "trouble": 4016,
      "college": 4017,
      "hy": 4018,
      "nik": 4019,
      "rh": 4020,
      "wer": 4021,
      "##cus": 4022,
      "##bb": 4023,
      "##lda": 4024,
      "note": 4025,
      "##ads": 4026,
      "march": 4027,
      "spain": 4028,
      "hahahah": 4029,
      "downstairs": 4030,
      "darren": 4031,
      "edgar": 4032,
      "visiting": 4033,
      "walking": 4034,
      "hurt": 4035,
      "artic": 4036,
      "##uction": 4037,
      "sabrina": 4038,
      "coo": 4039,
      "cris": 4040,
      "katherine": 4041,
      "ooo": 4042,
      "squ": 4043,
      "tris": 4044,
      "##sing": 4045,
      "##rice": 4046,
      "ant": 4047,
      "##ask": 4048,
      "havent": 4049,
      "##alie": 4050,
      "bull": 4051,
      "page": 4052,
      "against": 4053,
      "olivier": 4054,
      "broken": 4055,
      "gregory": 4056,
      "daria": 4057,
      "famous": 4058,
      "feed": 4059,
      "options": 4060,
      "transl": 4061,
      "diego": 4062,
      "georgia": 4063,
      "annoying": 4064,
      "husband": 4065,
      "museum": 4066,
      "age": 4067,
      "bread": 4068,
      "mot": 4069,
      "nich": 4070,
      "pool": 4071,
      "ppl": 4072,
      "tess": 4073,
      "view": 4074,
      "##xx": 4075,
      "stick": 4076,
      "jum": 4077,
      "review": 4078,
      "atm": 4079,
      "joking": 4080,
      "timmy": 4081,
      "##ardo": 4082,
      "comfort": 4083,
      "agatha": 4084,
      "##ains": 4085,
      "emb": 4086,
      "grad": 4087,
      "matilda": 4088,
      "hoping": 4089,
      "awww": 4090,
      "recipe": 4091,
      "tech": 4092,
      "inclu": 4093,
      "certainly": 4094,
      "florence": 4095,
      "ridiculous": 4096,
      "four": 4097,
      "oct": 4098,
      "pill": 4099,
      "ride": 4100,
      "tiff": 4101,
      "##mond": 4102,
      "##orn": 4103,
      "##isha": 4104,
      "notice": 4105,
      "##neth": 4106,
      "cos": 4107,
      "camilla": 4108,
      "attend": 4109,
      "manager": 4110,
      "favorite": 4111,
      "cap": 4112,
      "rap": 4113,
      "##uit": 4114,
      "##gs": 4115,
      "##zie": 4116,
      "ham": 4117,
      "##oof": 4118,
      "fort": 4119,
      "chad": 4120,
      "marian": 4121,
      "keeps": 4122,
      "passed": 4123,
      "collect": 4124,
      "##ology": 4125,
      "marsha": 4126,
      "social": 4127,
      "bla": 4128,
      "gail": 4129,
      "ik": 4130,
      "wake": 4131,
      "##ius": 4132,
      "##ania": 4133,
      "style": 4134,
      "gold": 4135,
      "##rif": 4136,
      "##ural": 4137,
      "rosa": 4138,
      "carson": 4139,
      "pregn": 4140,
      "wayne": 4141,
      "charac": 4142,
      "scary": 4143,
      "bigger": 4144,
      "similar": 4145,
      "huh": 4146,
      "words": 4147,
      "mentioned": 4148,
      "isaac": 4149,
      "control": 4150,
      "flowers": 4151,
      "language": 4152,
      "chocolate": 4153,
      "mobile": 4154,
      "18": 4155,
      "aut": 4156,
      "bal": 4157,
      "cats": 4158,
      "dare": 4159,
      "dish": 4160,
      "jour": 4161,
      "mach": 4162,
      "mmm": 4163,
      "ris": 4164,
      "##ses": 4165,
      "##nthia": 4166,
      "##ds": 4167,
      "##hood": 4168,
      "tori": 4169,
      "chin": 4170,
      "fridge": 4171,
      "##acks": 4172,
      "##raph": 4173,
      "invit": 4174,
      "apart": 4175,
      "ricky": 4176,
      "jayden": 4177,
      "desk": 4178,
      "lesson": 4179,
      "curious": 4180,
      "swimming": 4181,
      "upset": 4182,
      "bast": 4183,
      "lend": 4184,
      "psy": 4185,
      "tb": 4186,
      "vir": 4187,
      "##ron": 4188,
      "##win": 4189,
      "shif": 4190,
      "juan": 4191,
      "marion": 4192,
      "pair": 4193,
      "level": 4194,
      "sport": 4195,
      "print": 4196,
      "checking": 4197,
      "term": 4198,
      "host": 4199,
      "delay": 4200,
      "regular": 4201,
      "typ": 4202,
      "lawrence": 4203,
      "draw": 4204,
      "professor": 4205,
      "hilary": 4206,
      "bridget": 4207,
      "tiffany": 4208,
      "geez": 4209,
      "rome": 4210,
      "sea": 4211,
      "##fa": 4212,
      "##arr": 4213,
      "sudd": 4214,
      "nev": 4215,
      "fresh": 4216,
      "prin": 4217,
      "jacqu": 4218,
      "stopped": 4219,
      "ski": 4220,
      "desc": 4221,
      "total": 4222,
      "karl": 4223,
      "beatrice": 4224,
      "shirt": 4225,
      "shirley": 4226,
      "respons": 4227,
      "client": 4228,
      "window": 4229,
      "pissed": 4230,
      "courtney": 4231,
      "brittany": 4232,
      "low": 4233,
      "ran": 4234,
      "san": 4235,
      "srs": 4236,
      "##mer": 4237,
      "##ury": 4238,
      "##ium": 4239,
      "##ez": 4240,
      "##ima": 4241,
      "lives": 4242,
      "cance": 4243,
      "##ript": 4244,
      "aria": 4245,
      "connie": 4246,
      "johnny": 4247,
      "kept": 4248,
      "xddd": 4249,
      "final": 4250,
      "serena": 4251,
      "brett": 4252,
      "evie": 4253,
      "craig": 4254,
      "department": 4255,
      "ahead": 4256,
      "assign": 4257,
      "imposs": 4258,
      "students": 4259,
      "yuri": 4260,
      "washing": 4261,
      "healthy": 4262,
      "sudden": 4263,
      "impossible": 4264,
      "2m": 4265,
      "macy": 4266,
      "nerv": 4267,
      "occ": 4268,
      "rac": 4269,
      "##xic": 4270,
      "##lee": 4271,
      "state": 4272,
      "chur": 4273,
      "chand": 4274,
      "filip": 4275,
      "##ope": 4276,
      "shelly": 4277,
      "surely": 4278,
      "prop": 4279,
      "arm": 4280,
      "sammy": 4281,
      "freder": 4282,
      "block": 4283,
      "lazy": 4284,
      "##itten": 4285,
      "harold": 4286,
      "secret": 4287,
      "listening": 4288,
      "debbie": 4289,
      "subject": 4290,
      "jesse": 4291,
      "screen": 4292,
      "practice": 4293,
      "products": 4294,
      "kamil": 4295,
      "psych": 4296,
      "tbh": 4297,
      "srsly": 4298,
      "8pm": 4299,
      "ally": 4300,
      "aver": 4301,
      "cab": 4302,
      "cast": 4303,
      "caught": 4304,
      "ive": 4305,
      "row": 4306,
      "sasha": 4307,
      "tessa": 4308,
      "##ube": 4309,
      "##ces": 4310,
      "weight": 4311,
      "chels": 4312,
      "##tern": 4313,
      "himself": 4314,
      "prec": 4315,
      "jenna": 4316,
      "become": 4317,
      "##box": 4318,
      "##aaa": 4319,
      "darcy": 4320,
      "flights": 4321,
      "suzanne": 4322,
      "transfer": 4323,
      "silvia": 4324,
      "information": 4325,
      "mistake": 4326,
      "archie": 4327,
      "private": 4328,
      "pregnant": 4329,
      "chandler": 4330,
      "chelsea": 4331,
      "cous": 4332,
      "dumb": 4333,
      "loo": 4334,
      "mount": 4335,
      "vers": 4336,
      "##cer": 4337,
      "##anish": 4338,
      "hailey": 4339,
      "stacey": 4340,
      "lila": 4341,
      "chap": 4342,
      "five": 4343,
      "##unity": 4344,
      "except": 4345,
      "dancing": 4346,
      "christopher": 4347,
      "careful": 4348,
      "cafe": 4349,
      "impro": 4350,
      "expected": 4351,
      "reply": 4352,
      "millie": 4353,
      "nervous": 4354,
      "church": 4355,
      "21": 4356,
      "jax": 4357,
      "ug": 4358,
      "vinc": 4359,
      "wes": 4360,
      "##ern": 4361,
      "##ano": 4362,
      "##res": 4363,
      "##reme": 4364,
      "ref": 4365,
      "##antic": 4366,
      "exerc": 4367,
      "spanish": 4368,
      "monika": 4369,
      "queen": 4370,
      "offic": 4371,
      "##istic": 4372,
      "fucked": 4373,
      "simone": 4374,
      "clem": 4375,
      "cora": 4376,
      "specific": 4377,
      "esme": 4378,
      "organiz": 4379,
      "topic": 4380,
      "alexandra": 4381,
      "##aughter": 4382,
      "tamara": 4383,
      "considering": 4384,
      "hayden": 4385,
      "opport": 4386,
      "tatiana": 4387,
      "urgent": 4388,
      "article": 4389,
      "vincent": 4390,
      "24": 4391,
      "barely": 4392,
      "dent": 4393,
      "kon": 4394,
      "merc": 4395,
      "ric": 4396,
      "sant": 4397,
      "##ram": 4398,
      "##ho": 4399,
      "##reen": 4400,
      "##stal": 4401,
      "nelly": 4402,
      "somebody": 4403,
      "##riet": 4404,
      "grey": 4405,
      "spare": 4406,
      "ada": 4407,
      "admit": 4408,
      "previous": 4409,
      "trick": 4410,
      "focus": 4411,
      "colin": 4412,
      "boris": 4413,
      "discount": 4414,
      "issues": 4415,
      "sofia": 4416,
      "football": 4417,
      "ay": 4418,
      "aha": 4419,
      "pi": 4420,
      "##din": 4421,
      "toile": 4422,
      "##ording": 4423,
      "##ution": 4424,
      "##ala": 4425,
      "##riam": 4426,
      "paige": 4427,
      "lex": 4428,
      "dance": 4429,
      "danger": 4430,
      "miriam": 4431,
      "helped": 4432,
      "prices": 4433,
      "luk": 4434,
      "paying": 4435,
      "regret": 4436,
      "cookies": 4437,
      "forever": 4438,
      "sidney": 4439,
      "general": 4440,
      "lori": 4441,
      "avoid": 4442,
      "arrange": 4443,
      "17": 4444,
      "dig": 4445,
      "ott": 4446,
      "ven": 4447,
      "##gue": 4448,
      "##zzy": 4449,
      "##idia": 4450,
      "sta": 4451,
      "##eethe": 4452,
      "rele": 4453,
      "reali": 4454,
      "quit": 4455,
      "quality": 4456,
      "charge": 4457,
      "gifts": 4458,
      "morris": 4459,
      "apple": 4460,
      "switch": 4461,
      "sweethe": 4462,
      "ellis": 4463,
      "franklin": 4464,
      "reserv": 4465,
      "##ustom": 4466,
      "simp": 4467,
      "seemed": 4468,
      "difference": 4469,
      "instr": 4470,
      "kenneth": 4471,
      "changes": 4472,
      "extreme": 4473,
      "ivan": 4474,
      "berlin": 4475,
      "mathew": 4476,
      "olaf": 4477,
      "south": 4478,
      "destroy": 4479,
      "##atoes": 4480,
      "americ": 4481,
      "received": 4482,
      "chinese": 4483,
      "sweetheart": 4484,
      "7pm": 4485,
      "ban": 4486,
      "cath": 4487,
      "jaz": 4488,
      "jade": 4489,
      "lim": 4490,
      "nut": 4491,
      "vince": 4492,
      "yay": 4493,
      "third": 4494,
      "##inn": 4495,
      "marge": 4496,
      "france": 4497,
      "##iring": 4498,
      "exce": 4499,
      "carly": 4500,
      "sooner": 4501,
      "frankie": 4502,
      "picking": 4503,
      "earth": 4504,
      "##anya": 4505,
      "dogs": 4506,
      "denise": 4507,
      "public": 4508,
      "cleaning": 4509,
      "bike": 4510,
      "insane": 4511,
      "truth": 4512,
      "cynthia": 4513,
      "wilson": 4514,
      "cameron": 4515,
      "cooper": 4516,
      "14": 4517,
      "16": 4518,
      "bf": 4519,
      "cass": 4520,
      "field": 4521,
      "hom": 4522,
      "hob": 4523,
      "jer": 4524,
      "jared": 4525,
      "kath": 4526,
      "nath": 4527,
      "oper": 4528,
      "rly": 4529,
      "sry": 4530,
      "soup": 4531,
      "vol": 4532,
      "##gress": 4533,
      "##atic": 4534,
      "theat": 4535,
      "##icy": 4536,
      "butter": 4537,
      "known": 4538,
      "jody": 4539,
      "react": 4540,
      "##ayson": 4541,
      "brought": 4542,
      "leila": 4543,
      "maur": 4544,
      "##iano": 4545,
      "johnson": 4546,
      "##ilyn": 4547,
      "luna": 4548,
      "nights": 4549,
      "apply": 4550,
      "perform": 4551,
      "##otten": 4552,
      "gabi": 4553,
      "push": 4554,
      "stephen": 4555,
      "buddy": 4556,
      "kristen": 4557,
      "vacation": 4558,
      "valerie": 4559,
      "bout": 4560,
      "cate": 4561,
      "custom": 4562,
      "fle": 4563,
      "kel": 4564,
      "none": 4565,
      "tro": 4566,
      "ul": 4567,
      "woke": 4568,
      "##ove": 4569,
      "##gy": 4570,
      "##gers": 4571,
      "##hib": 4572,
      "##ines": 4573,
      "##att": 4574,
      "##arious": 4575,
      "mexic": 4576,
      "sher": 4577,
      "cancel": 4578,
      "repl": 4579,
      "veget": 4580,
      "written": 4581,
      "pretend": 4582,
      "jeffrey": 4583,
      "accom": 4584,
      "texting": 4585,
      "corner": 4586,
      "color": 4587,
      "turns": 4588,
      "attention": 4589,
      "changing": 4590,
      "media": 4591,
      "crystal": 4592,
      "taste": 4593,
      "alfred": 4594,
      "nathalie": 4595,
      "cro": 4596,
      "daughter": 4597,
      "gf": 4598,
      "kk": 4599,
      "oo": 4600,
      "tanya": 4601,
      "vot": 4602,
      "##hol": 4603,
      "anette": 4604,
      "##iti": 4605,
      "sold": 4606,
      "##iah": 4607,
      "ate": 4608,
      "thinks": 4609,
      "maj": 4610,
      "cole": 4611,
      "january": 4612,
      "december": 4613,
      "##board": 4614,
      "driver": 4615,
      "skin": 4616,
      "promot": 4617,
      "vicki": 4618,
      "student": 4619,
      "magda": 4620,
      "casper": 4621,
      "pressure": 4622,
      "nadia": 4623,
      "pearl": 4624,
      "eggs": 4625,
      "ugly": 4626,
      "bunch": 4627,
      "esc": 4628,
      "eddie": 4629,
      "uber": 4630,
      "ula": 4631,
      "##pers": 4632,
      "##ria": 4633,
      "yout": 4634,
      "##arm": 4635,
      "##ghan": 4636,
      "allie": 4637,
      "exhib": 4638,
      "##shit": 4639,
      "freya": 4640,
      "kev": 4641,
      "luca": 4642,
      "scr": 4643,
      "##gger": 4644,
      "intro": 4645,
      "mindy": 4646,
      "swear": 4647,
      "common": 4648,
      "lindsey": 4649,
      "respect": 4650,
      "possibly": 4651,
      "trish": 4652,
      "toilet": 4653,
      "simply": 4654,
      "22": 4655,
      "cuba": 4656,
      "dry": 4657,
      "dating": 4658,
      "mass": 4659,
      "pad": 4660,
      "tal": 4661,
      "yann": 4662,
      "##ugg": 4663,
      "##ude": 4664,
      "##0s": 4665,
      "##jah": 4666,
      "tor": 4667,
      "##oming": 4668,
      "neil": 4669,
      "cand": 4670,
      "noel": 4671,
      "within": 4672,
      "justine": 4673,
      "waste": 4674,
      "allow": 4675,
      "arab": 4676,
      "spr": 4677,
      "que": 4678,
      "quiet": 4679,
      "gran": 4680,
      "mix": 4681,
      "prot": 4682,
      "flora": 4683,
      "record": 4684,
      "mickey": 4685,
      "contin": 4686,
      "apolog": 4687,
      "design": 4688,
      "depress": 4689,
      "songs": 4690,
      "member": 4691,
      "selling": 4692,
      "shawn": 4693,
      "delivery": 4694,
      "essay": 4695,
      "empty": 4696,
      "konrad": 4697,
      "dangerous": 4698,
      "gro": 4699,
      "het": 4700,
      "kend": 4701,
      "sess": 4702,
      "sau": 4703,
      "via": 4704,
      "yum": 4705,
      "##mare": 4706,
      "##ud": 4707,
      "##tain": 4708,
      "##di": 4709,
      "##word": 4710,
      "thea": 4711,
      "whe": 4712,
      "wild": 4713,
      "alive": 4714,
      "loads": 4715,
      "hiya": 4716,
      "spa": 4717,
      "##ores": 4718,
      "saving": 4719,
      "##uments": 4720,
      "##shop": 4721,
      "gr8": 4722,
      "perfectly": 4723,
      "access": 4724,
      "gaby": 4725,
      "##grid": 4726,
      "finishing": 4727,
      "elias": 4728,
      "lessons": 4729,
      "ordered": 4730,
      "valent": 4731,
      "speaking": 4732,
      "latest": 4733,
      "split": 4734,
      "random": 4735,
      "origin": 4736,
      "cancelled": 4737,
      "cousin": 4738,
      "aub": 4739,
      "econ": 4740,
      "kier": 4741,
      "nooo": 4742,
      "national": 4743,
      "ou": 4744,
      "##oc": 4745,
      "##ef": 4746,
      "##kward": 4747,
      "##ini": 4748,
      "##ator": 4749,
      "tobi": 4750,
      "##enter": 4751,
      "##ises": 4752,
      "##itter": 4753,
      "shel": 4754,
      "willow": 4755,
      "joke": 4756,
      "joel": 4757,
      "log": 4758,
      "##andra": 4759,
      "carla": 4760,
      "closed": 4761,
      "death": 4762,
      "compet": 4763,
      "nightmare": 4764,
      "rush": 4765,
      "stayed": 4766,
      "##agram": 4767,
      "elijah": 4768,
      "excuse": 4769,
      "personal": 4770,
      "instagram": 4771,
      "born": 4772,
      "bethany": 4773,
      "double": 4774,
      "singing": 4775,
      "quickly": 4776,
      "pasta": 4777,
      "roman": 4778,
      "brain": 4779,
      "relation": 4780,
      "disappoint": 4781,
      "closer": 4782,
      "muriel": 4783,
      "approach": 4784,
      "voice": 4785,
      "nicholas": 4786,
      "comfortable": 4787,
      "techn": 4788,
      "machine": 4789,
      "reservation": 4790,
      "excell": 4791,
      "youtube": 4792,
      "6pm": 4793,
      "cult": 4794,
      "hans": 4795,
      "lake": 4796,
      "ped": 4797,
      "yog": 4798,
      "##val": 4799,
      "##rd": 4800,
      "##zing": 4801,
      "ingrid": 4802,
      "meghan": 4803,
      "suc": 4804,
      "candy": 4805,
      "chase": 4806,
      "chuck": 4807,
      "marry": 4808,
      "##iler": 4809,
      "##lies": 4810,
      "pages": 4811,
      "sale": 4812,
      "jacket": 4813,
      "##aila": 4814,
      "awkward": 4815,
      "annette": 4816,
      "download": 4817,
      "older": 4818,
      "keeping": 4819,
      "luckily": 4820,
      "doris": 4821,
      "gabe": 4822,
      "eliza": 4823,
      "auth": 4824,
      "create": 4825,
      "karol": 4826,
      "mira": 4827,
      "german": 4828,
      "theres": 4829,
      "connect": 4830,
      "##uuuu": 4831,
      "package": 4832,
      "romantic": 4833,
      "local": 4834,
      "cristina": 4835,
      "title": 4836,
      "otto": 4837,
      "theatre": 4838,
      "bun": 4839,
      "fever": 4840,
      "jap": 4841,
      "pier": 4842,
      "site": 4843,
      "vet": 4844,
      "##ged": 4845,
      "shy": 4846,
      "suff": 4847,
      "##vern": 4848,
      "assh": 4849,
      "cars": 4850,
      "letting": 4851,
      "given": 4852,
      "dex": 4853,
      "helps": 4854,
      "##hhh": 4855,
      "##itional": 4856,
      "expecting": 4857,
      "denis": 4858,
      "sienna": 4859,
      "medic": 4860,
      "bern": 4861,
      "generally": 4862,
      "rodney": 4863,
      "arianna": 4864,
      "weren": 4865,
      "journey": 4866,
      "occas": 4867,
      "opportunity": 4868,
      "extremely": 4869,
      "excellent": 4870,
      "bake": 4871,
      "dina": 4872,
      "dust": 4873,
      "ela": 4874,
      "erik": 4875,
      "pab": 4876,
      "yell": 4877,
      "##ging": 4878,
      "##cast": 4879,
      "suits": 4880,
      "lib": 4881,
      "mari": 4882,
      "marilyn": 4883,
      "##ights": 4884,
      "##iling": 4885,
      "allerg": 4886,
      "emot": 4887,
      "sever": 4888,
      "everyday": 4889,
      "##shi": 4890,
      "helping": 4891,
      "pray": 4892,
      "##ache": 4893,
      "thoughts": 4894,
      "##ances": 4895,
      "olive": 4896,
      "decor": 4897,
      "##ustr": 4898,
      "camille": 4899,
      "parking": 4900,
      "opening": 4901,
      "horror": 4902,
      "costs": 4903,
      "incred": 4904,
      "sunny": 4905,
      "bonnie": 4906,
      "location": 4907,
      "failed": 4908,
      "risk": 4909,
      "staff": 4910,
      "relationship": 4911,
      "yoga": 4912,
      "2nd": 4913,
      "9pm": 4914,
      "center": 4915,
      "ez": 4916,
      "fro": 4917,
      "jar": 4918,
      "kuba": 4919,
      "lon": 4920,
      "lidia": 4921,
      "##mark": 4922,
      "##von": 4923,
      "##well": 4924,
      "##ering": 4925,
      "##lept": 4926,
      "##amed": 4927,
      "necess": 4928,
      "##urt": 4929,
      "carry": 4930,
      "paint": 4931,
      "sept": 4932,
      "track": 4933,
      "ida": 4934,
      "##phone": 4935,
      "##mmy": 4936,
      "smo": 4937,
      "omar": 4938,
      "ended": 4939,
      "helena": 4940,
      "presents": 4941,
      "surprising": 4942,
      "syd": 4943,
      "##medi": 4944,
      "budget": 4945,
      "marianne": 4946,
      "dentist": 4947,
      "hetty": 4948,
      "whether": 4949,
      "aur": 4950,
      "cred": 4951,
      "kian": 4952,
      "lora": 4953,
      "ner": 4954,
      "nig": 4955,
      "pump": 4956,
      "##off": 4957,
      "##to": 4958,
      "##graph": 4959,
      "##bon": 4960,
      "##xit": 4961,
      "##oul": 4962,
      "haz": 4963,
      "stun": 4964,
      "jules": 4965,
      "frustr": 4966,
      "however": 4967,
      "##inder": 4968,
      "rox": 4969,
      "deg": 4970,
      "trump": 4971,
      "##ians": 4972,
      "ground": 4973,
      "freaking": 4974,
      "mater": 4975,
      "peggy": 4976,
      "ruin": 4977,
      "breath": 4978,
      "200": 4979,
      "contract": 4980,
      "lying": 4981,
      "creep": 4982,
      "laund": 4983,
      "exams": 4984,
      "promised": 4985,
      "studies": 4986,
      "commun": 4987,
      "crying": 4988,
      "issue": 4989,
      "garry": 4990,
      "vivian": 4991,
      "brooklyn": 4992,
      "aubrey": 4993,
      "japan": 4994,
      "aurora": 4995,
      "dates": 4996,
      "ew": 4997,
      "est": 4998,
      "tend": 4999,
      "wy": 5000,
      "wood": 5001,
      "xox": 5002,
      "##ique": 5003,
      "##ko": 5004,
      "##gio": 5005,
      "##oro": 5006,
      "##oring": 5007,
      "##itar": 5008,
      "##ida": 5009,
      "soft": 5010,
      "stat": 5011,
      "stea": 5012,
      "nel": 5013,
      "govern": 5014,
      "alco": 5015,
      "##ppy": 5016,
      "letter": 5017,
      "search": 5018,
      "cody": 5019,
      "parties": 5020,
      "travis": 5021,
      "forgotten": 5022,
      "martina": 5023,
      "invol": 5024,
      "disco": 5025,
      "password": 5026,
      "##ival": 5027,
      "preparing": 5028,
      "cards": 5029,
      "insp": 5030,
      "##iffer": 5031,
      "complaining": 5032,
      "kinga": 5033,
      "update": 5034,
      "kirst": 5035,
      "guests": 5036,
      "bullshit": 5037,
      "invitation": 5038,
      "bastard": 5039,
      "assignment": 5040,
      "13": 5041,
      "ci": 5042,
      "dary": 5043,
      "fake": 5044,
      "fash": 5045,
      "gas": 5046,
      "laila": 5047,
      "np": 5048,
      "ps": 5049,
      "pc": 5050,
      "piot": 5051,
      "sens": 5052,
      "tes": 5053,
      "##mar": 5054,
      "##fy": 5055,
      "sugar": 5056,
      "##adays": 5057,
      "jodie": 5058,
      "##olf": 5059,
      "gig": 5060,
      "##ored": 5061,
      "sav": 5062,
      "miley": 5063,
      "helpful": 5064,
      "alexa": 5065,
      "elisa": 5066,
      "sergio": 5067,
      "bringing": 5068,
      "shows": 5069,
      "##ials": 5070,
      "shops": 5071,
      "shitty": 5072,
      "joining": 5073,
      "skyler": 5074,
      "killing": 5075,
      "profile": 5076,
      "##yyyy": 5077,
      "truly": 5078,
      "viola": 5079,
      "raining": 5080,
      "screw": 5081,
      "zachary": 5082,
      "position": 5083,
      "request": 5084,
      "typical": 5085,
      "frederick": 5086,
      "version": 5087,
      "introd": 5088,
      "several": 5089,
      "1st": 5090,
      "bow": 5091,
      "bak": 5092,
      "data": 5093,
      "gay": 5094,
      "river": 5095,
      "tm": 5096,
      "trist": 5097,
      "##ape": 5098,
      "##ives": 5099,
      "##bur": 5100,
      "ania": 5101,
      "shane": 5102,
      "neg": 5103,
      "jun": 5104,
      "##ched": 5105,
      "goss": 5106,
      "fill": 5107,
      "lock": 5108,
      "##pper": 5109,
      "mummy": 5110,
      "nowadays": 5111,
      "code": 5112,
      "janette": 5113,
      "keen": 5114,
      "meaning": 5115,
      "##osph": 5116,
      "step": 5117,
      "brexit": 5118,
      "smell": 5119,
      "##aged": 5120,
      "disgust": 5121,
      "messages": 5122,
      "fund": 5123,
      "popular": 5124,
      "calvin": 5125,
      "##ception": 5126,
      "central": 5127,
      "##iiii": 5128,
      "georgina": 5129,
      "graham": 5130,
      "laughing": 5131,
      "carolyn": 5132,
      "skype": 5133,
      "convinced": 5134,
      "settled": 5135,
      "dollars": 5136,
      "demand": 5137,
      "square": 5138,
      "atmosph": 5139,
      "embarr": 5140,
      "shift": 5141,
      "ezra": 5142,
      "sydney": 5143,
      "alcohol": 5144,
      "fashion": 5145,
      "piotr": 5146,
      "tristan": 5147,
      "bday": 5148,
      "bian": 5149,
      "gal": 5150,
      "nia": 5151,
      "vik": 5152,
      "vod": 5153,
      "yas": 5154,
      "zu": 5155,
      "##nest": 5156,
      "##do": 5157,
      "##rid": 5158,
      "##gery": 5159,
      "##oun": 5160,
      "sushi": 5161,
      "noon": 5162,
      "fruit": 5163,
      "moder": 5164,
      "##une": 5165,
      "##lied": 5166,
      "conor": 5167,
      "immedi": 5168,
      "harris": 5169,
      "harriet": 5170,
      "action": 5171,
      "##ify": 5172,
      "##ogn": 5173,
      "addison": 5174,
      "enjoying": 5175,
      "opened": 5176,
      "bradley": 5177,
      "spending": 5178,
      "##ploy": 5179,
      "advance": 5180,
      "cuz": 5181,
      "wallet": 5182,
      "throwing": 5183,
      "kale": 5184,
      "dying": 5185,
      "ginny": 5186,
      "raphael": 5187,
      "##ription": 5188,
      "rachael": 5189,
      "major": 5190,
      "laundry": 5191,
      "daryl": 5192,
      "disgusting": 5193,
      "cir": 5194,
      "ree": 5195,
      "##tle": 5196,
      "##ear": 5197,
      "##asy": 5198,
      "beers": 5199,
      "shes": 5200,
      "sup": 5201,
      "##eech": 5202,
      "marisa": 5203,
      "upload": 5204,
      "process": 5205,
      "workshop": 5206,
      "speech": 5207,
      "adele": 5208,
      "emil": 5209,
      "mak": 5210,
      "sem": 5211,
      "##umn": 5212,
      "keira": 5213,
      "calls": 5214,
      "aww": 5215,
      "perio": 5216,
      "elsie": 5217,
      "complic": 5218,
      "brig": 5219,
      "norma": 5220,
      "norman": 5221,
      "surgery": 5222,
      "##ground": 5223,
      "putting": 5224,
      "skill": 5225,
      "videos": 5226,
      "winston": 5227,
      "attack": 5228,
      "collea": 5229,
      "jasper": 5230,
      "properly": 5231,
      "human": 5232,
      "😂😂😂": 5233,
      "spoil": 5234,
      "animal": 5235,
      "peace": 5236,
      "sports": 5237,
      "exhibition": 5238,
      "session": 5239,
      "tobias": 5240,
      "september": 5241,
      "tesco": 5242,
      "embarrass": 5243,
      "bianca": 5244,
      "3pm": 5245,
      "bucks": 5246,
      "kerry": 5247,
      "ned": 5248,
      "noo": 5249,
      "pound": 5250,
      "tour": 5251,
      "##por": 5252,
      "##ples": 5253,
      "##tek": 5254,
      "##jtek": 5255,
      "##rett": 5256,
      "ing": 5257,
      "shout": 5258,
      "stories": 5259,
      "liv": 5260,
      "juice": 5261,
      "nove": 5262,
      "knock": 5263,
      "##eless": 5264,
      "##iram": 5265,
      "yesss": 5266,
      "amount": 5267,
      "spoke": 5268,
      "##ement": 5269,
      "charity": 5270,
      "couch": 5271,
      "##ized": 5272,
      "##dddd": 5273,
      "hardly": 5274,
      "invest": 5275,
      "easily": 5276,
      "useful": 5277,
      "enjoyed": 5278,
      "handle": 5279,
      "confused": 5280,
      "organise": 5281,
      "midnight": 5282,
      "angelina": 5283,
      "positive": 5284,
      "slowly": 5285,
      "british": 5286,
      "wojtek": 5287,
      "klaudia": 5288,
      "condition": 5289,
      "mountains": 5290,
      "ooh": 5291,
      "ba": 5292,
      "bb": 5293,
      "burn": 5294,
      "fri": 5295,
      "fla": 5296,
      "names": 5297,
      "rn": 5298,
      "une": 5299,
      "ze": 5300,
      "##nel": 5301,
      "##eed": 5302,
      "##gu": 5303,
      "##yer": 5304,
      "##ino": 5305,
      "##ister": 5306,
      "##aming": 5307,
      "stage": 5308,
      "reese": 5309,
      "##tery": 5310,
      "amelie": 5311,
      "allison": 5312,
      "roll": 5313,
      "herself": 5314,
      "##ssa": 5315,
      "conrad": 5316,
      "helm": 5317,
      "freak": 5318,
      "envy": 5319,
      "bless": 5320,
      "unb": 5321,
      "drug": 5322,
      "rude": 5323,
      "recogn": 5324,
      "natural": 5325,
      "according": 5326,
      "beauty": 5327,
      "cheer": 5328,
      "vera": 5329,
      "salad": 5330,
      "packed": 5331,
      "starving": 5332,
      "trudy": 5333,
      "album": 5334,
      "currently": 5335,
      "american": 5336,
      "disappointed": 5337,
      "credit": 5338,
      "government": 5339,
      "atmosphere": 5340,
      "vodka": 5341,
      "60": 5342,
      "ald": 5343,
      "fest": 5344,
      "gate": 5345,
      "gara": 5346,
      "izzy": 5347,
      "jorge": 5348,
      "lane": 5349,
      "nest": 5350,
      "rout": 5351,
      "##mie": 5352,
      "##mber": 5353,
      "##sis": 5354,
      "##ru": 5355,
      "##leen": 5356,
      "haird": 5357,
      "reception": 5358,
      "marika": 5359,
      "asia": 5360,
      "ros": 5361,
      "phill": 5362,
      "exch": 5363,
      "guitar": 5364,
      "papa": 5365,
      "emerg": 5366,
      "grou": 5367,
      "jenson": 5368,
      "annivers": 5369,
      "##gging": 5370,
      "apples": 5371,
      "events": 5372,
      "terrif": 5373,
      "trailer": 5374,
      "recover": 5375,
      "probs": 5376,
      "roberta": 5377,
      "surv": 5378,
      "postp": 5379,
      "advent": 5380,
      "gerald": 5381,
      "learning": 5382,
      "bartek": 5383,
      "sorted": 5384,
      "bernie": 5385,
      "beatri": 5386,
      "younger": 5387,
      "turkey": 5388,
      "politics": 5389,
      "handsome": 5390,
      "dirty": 5391,
      "effort": 5392,
      "heavy": 5393,
      "suddenly": 5394,
      "avery": 5395,
      "lexi": 5396,
      "immediately": 5397,
      "anniversary": 5398,
      "3rd": 5399,
      "bang": 5400,
      "bai": 5401,
      "dot": 5402,
      "dub": 5403,
      "dump": 5404,
      "fac": 5405,
      "fol": 5406,
      "fern": 5407,
      "kaz": 5408,
      "master": 5409,
      "pure": 5410,
      "rum": 5411,
      "tiny": 5412,
      "uh": 5413,
      "vill": 5414,
      "##non": 5415,
      "##uro": 5416,
      "##iest": 5417,
      "##vable": 5418,
      "##han": 5419,
      "##ero": 5420,
      "##anor": 5421,
      "##inger": 5422,
      "##ooth": 5423,
      "##ites": 5424,
      "hector": 5425,
      "shann": 5426,
      "rey": 5427,
      "nose": 5428,
      "orange": 5429,
      "##allen": 5430,
      "papers": 5431,
      "delete": 5432,
      "trad": 5433,
      "coco": 5434,
      "##ured": 5435,
      "jeniffer": 5436,
      "##ission": 5437,
      "activ": 5438,
      "drama": 5439,
      "across": 5440,
      "bills": 5441,
      "countries": 5442,
      "febr": 5443,
      "eleanor": 5444,
      "landed": 5445,
      "fanny": 5446,
      "effect": 5447,
      "2moro": 5448,
      "ricardo": 5449,
      "success": 5450,
      "asshole": 5451,
      "incredible": 5452,
      "period": 5453,
      "bailey": 5454,
      "shannon": 5455,
      "dia": 5456,
      "equ": 5457,
      "kira": 5458,
      "lie": 5459,
      "oooo": 5460,
      "soo": 5461,
      "slept": 5462,
      "tut": 5463,
      "##pack": 5464,
      "##ket": 5465,
      "##jo": 5466,
      "##ination": 5467,
      "##rest": 5468,
      "bever": 5469,
      "##idence": 5470,
      "shot": 5471,
      "##elope": 5472,
      "##ils": 5473,
      "allen": 5474,
      "phys": 5475,
      "progress": 5476,
      "ohhh": 5477,
      "spenc": 5478,
      "seats": 5479,
      "aware": 5480,
      "glo": 5481,
      "robbie": 5482,
      "jobs": 5483,
      "ashton": 5484,
      "##mod": 5485,
      "corn": 5486,
      "deserve": 5487,
      "august": 5488,
      "supermark": 5489,
      "juliet": 5490,
      "sometime": 5491,
      "slight": 5492,
      "felicia": 5493,
      "##velop": 5494,
      "medical": 5495,
      "transport": 5496,
      "gabriella": 5497,
      "hayley": 5498,
      "cecilia": 5499,
      "entertain": 5500,
      "penelope": 5501,
      "crowded": 5502,
      "taxi": 5503,
      "ikea": 5504,
      "chapter": 5505,
      "kieran": 5506,
      "occasion": 5507,
      "stunning": 5508,
      "complicated": 5509,
      "groups": 5510,
      "february": 5511,
      "spencer": 5512,
      "aisha": 5513,
      "bing": 5514,
      "east": 5515,
      "fur": 5516,
      "gri": 5517,
      "las": 5518,
      "lana": 5519,
      "pris": 5520,
      "rus": 5521,
      "sake": 5522,
      "tips": 5523,
      "uhm": 5524,
      "##pose": 5525,
      "##nite": 5526,
      "##ior": 5527,
      "##bu": 5528,
      "##😍😍": 5529,
      "thri": 5530,
      "towards": 5531,
      "##omy": 5532,
      "##asks": 5533,
      "hal": 5534,
      "##str": 5535,
      "lift": 5536,
      "relie": 5537,
      "marco": 5538,
      "allan": 5539,
      "##asty": 5540,
      "ohh": 5541,
      "comed": 5542,
      "boat": 5543,
      "themselves": 5544,
      "develop": 5545,
      "##annah": 5546,
      "elsa": 5547,
      "friendly": 5548,
      "picked": 5549,
      "freezing": 5550,
      "showed": 5551,
      "babes": 5552,
      "meetings": 5553,
      "michaela": 5554,
      "norm": 5555,
      "sweater": 5556,
      "deser": 5557,
      "teaching": 5558,
      "six": 5559,
      "organize": 5560,
      "nearby": 5561,
      "raymond": 5562,
      "suggestions": 5563,
      "fixed": 5564,
      "million": 5565,
      "portug": 5566,
      "splend": 5567,
      "convince": 5568,
      "electric": 5569,
      "model": 5570,
      "aunt": 5571,
      "marshall": 5572,
      "dishes": 5573,
      "original": 5574,
      "hazel": 5575,
      "creepy": 5576,
      "wyatt": 5577,
      "discover": 5578,
      "gossip": 5579,
      "november": 5580,
      "garage": 5581,
      "supermarket": 5582,
      "35": 5583,
      "cia": 5584,
      "erick": 5585,
      "hates": 5586,
      "lay": 5587,
      "mig": 5588,
      "obs": 5589,
      "rough": 5590,
      "sna": 5591,
      "task": 5592,
      "west": 5593,
      "##ders": 5594,
      "##fl": 5595,
      "thai": 5596,
      "##rees": 5597,
      "itself": 5598,
      "##omb": 5599,
      "##icity": 5600,
      "bear": 5601,
      "##iment": 5602,
      "reun": 5603,
      "refer": 5604,
      "reggie": 5605,
      "wasted": 5606,
      "##unte": 5607,
      "##oli": 5608,
      "comment": 5609,
      "##like": 5610,
      "clock": 5611,
      "offers": 5612,
      "ourselves": 5613,
      "alec": 5614,
      "parts": 5615,
      "lucia": 5616,
      "serge": 5617,
      "##gged": 5618,
      "##ires": 5619,
      "damon": 5620,
      "##quel": 5621,
      "skip": 5622,
      "milena": 5623,
      "numbers": 5624,
      "points": 5625,
      "jonah": 5626,
      "realised": 5627,
      "felicity": 5628,
      "recommended": 5629,
      "concer": 5630,
      "germ": 5631,
      "nearly": 5632,
      "dropped": 5633,
      "jeanette": 5634,
      "insur": 5635,
      "parker": 5636,
      "bryce": 5637,
      "aida": 5638,
      "irma": 5639,
      "tasty": 5640,
      "document": 5641,
      "radio": 5642,
      "purpose": 5643,
      "auntie": 5644,
      "jacqueline": 5645,
      "santa": 5646,
      "volunte": 5647,
      "arabella": 5648,
      "modern": 5649,
      "splendid": 5650,
      "aven": 5651,
      "base": 5652,
      "cory": 5653,
      "gather": 5654,
      "loose": 5655,
      "ment": 5656,
      "mort": 5657,
      "tree": 5658,
      "wolf": 5659,
      "##pend": 5660,
      "##gest": 5661,
      "##😂😂": 5662,
      "##inating": 5663,
      "##onso": 5664,
      "##orah": 5665,
      "##ety": 5666,
      "##itor": 5667,
      "shan": 5668,
      "lif": 5669,
      "chose": 5670,
      "challen": 5671,
      "##chester": 5672,
      "##vert": 5673,
      "##road": 5674,
      "##ander": 5675,
      "##ffy": 5676,
      "##lig": 5677,
      "clau": 5678,
      "manuel": 5679,
      "coz": 5680,
      "coat": 5681,
      "grayson": 5682,
      "divor": 5683,
      "blank": 5684,
      "lottie": 5685,
      "madeline": 5686,
      "channel": 5687,
      "##onda": 5688,
      "satis": 5689,
      "damien": 5690,
      "visited": 5691,
      "##oooooooo": 5692,
      "loud": 5693,
      "ernest": 5694,
      "strugg": 5695,
      "michal": 5696,
      "assume": 5697,
      "setting": 5698,
      "juliette": 5699,
      "projects": 5700,
      "smaller": 5701,
      "grandpa": 5702,
      "deborah": 5703,
      "borrowed": 5704,
      "clients": 5705,
      "angelica": 5706,
      "selma": 5707,
      "tania": 5708,
      "impressive": 5709,
      "booze": 5710,
      "britney": 5711,
      "behave": 5712,
      "animals": 5713,
      "directly": 5714,
      "lennon": 5715,
      "precise": 5716,
      "improve": 5717,
      "wesley": 5718,
      "instruct": 5719,
      "pablo": 5720,
      "emergency": 5721,
      "reunion": 5722,
      "insurance": 5723,
      "5pm": 5724,
      "cel": 5725,
      "dess": 5726,
      "deep": 5727,
      "ehh": 5728,
      "fasc": 5729,
      "ginger": 5730,
      "han": 5731,
      "hiram": 5732,
      "kee": 5733,
      "kent": 5734,
      "mc": 5735,
      "ot": 5736,
      "rash": 5737,
      "tight": 5738,
      "tty": 5739,
      "tiring": 5740,
      "##mb": 5741,
      "##ba": 5742,
      "##outh": 5743,
      "tow": 5744,
      "thesis": 5745,
      "##oned": 5746,
      "item": 5747,
      "whis": 5748,
      "##ased": 5749,
      "##asure": 5750,
      "##cha": 5751,
      "alvin": 5752,
      "files": 5753,
      "##ece": 5754,
      "##ops": 5755,
      "##ender": 5756,
      "mollie": 5757,
      "plays": 5758,
      "gus": 5759,
      "comments": 5760,
      "spir": 5761,
      "cock": 5762,
      "##mail": 5763,
      "hadn": 5764,
      "ours": 5765,
      "finding": 5766,
      "unf": 5767,
      "tonia": 5768,
      "booking": 5769,
      "smile": 5770,
      "eaten": 5771,
      "north": 5772,
      "holy": 5773,
      "invo": 5774,
      "dorian": 5775,
      "texted": 5776,
      "added": 5777,
      "breaking": 5778,
      "headache": 5779,
      "president": 5780,
      "casey": 5781,
      "basket": 5782,
      "studio": 5783,
      "killed": 5784,
      "subway": 5785,
      "standing": 5786,
      "graph": 5787,
      "eventually": 5788,
      "menu": 5789,
      "sexy": 5790,
      "particip": 5791,
      "hilarious": 5792,
      "accepted": 5793,
      "alyssa": 5794,
      "political": 5795,
      "tabby": 5796,
      "neighbours": 5797,
      "alba": 5798,
      "dirk": 5799,
      "character": 5800,
      "delayed": 5801,
      "mexico": 5802,
      "accommod": 5803,
      "culture": 5804,
      "communic": 5805,
      "savannah": 5806,
      "circ": 5807,
      "phillip": 5808,
      "beverly": 5809,
      "23": 5810,
      "dim": 5811,
      "gis": 5812,
      "gia": 5813,
      "gent": 5814,
      "jew": 5815,
      "mack": 5816,
      "merry": 5817,
      "nails": 5818,
      "pun": 5819,
      "w8": 5820,
      "##ev": 5821,
      "##vide": 5822,
      "##gues": 5823,
      "##bn": 5824,
      "##ban": 5825,
      "tory": 5826,
      "##rel": 5827,
      "##lect": 5828,
      "##lder": 5829,
      "canada": 5830,
      "reck": 5831,
      "role": 5832,
      "exa": 5833,
      "comfy": 5834,
      "gives": 5835,
      "photograph": 5836,
      "trash": 5837,
      "maddy": 5838,
      "badly": 5839,
      "smooth": 5840,
      "earn": 5841,
      "inviting": 5842,
      "rooms": 5843,
      "clair": 5844,
      "basic": 5845,
      "attract": 5846,
      "calend": 5847,
      "marcin": 5848,
      "connection": 5849,
      "reasonable": 5850,
      "hanging": 5851,
      "bottles": 5852,
      "neighbor": 5853,
      "ariana": 5854,
      "alfie": 5855,
      "neighbourhood": 5856,
      "america": 5857,
      "francesca": 5858,
      "kisses": 5859,
      "motiv": 5860,
      "characters": 5861,
      "replace": 5862,
      "libby": 5863,
      "degrees": 5864,
      "xoxo": 5865,
      "unbelie": 5866,
      "ciao": 5867,
      "germany": 5868,
      "dessert": 5869,
      "27": 5870,
      "aj": 5871,
      "cv": 5872,
      "nar": 5873,
      "nasty": 5874,
      "rice": 5875,
      "tar": 5876,
      "tall": 5877,
      "wat": 5878,
      "ways": 5879,
      "##mate": 5880,
      "##ias": 5881,
      "##eh": 5882,
      "##ees": 5883,
      "##rit": 5884,
      "##cr": 5885,
      "##form": 5886,
      "##rell": 5887,
      "##ari": 5888,
      "whom": 5889,
      "hallow": 5890,
      "##imate": 5891,
      "stom": 5892,
      "##alia": 5893,
      "abroad": 5894,
      "##haust": 5895,
      "lore": 5896,
      "amb": 5897,
      "moira": 5898,
      "moham": 5899,
      "##ables": 5900,
      "tooth": 5901,
      "greece": 5902,
      "exhaust": 5903,
      "agata": 5904,
      "click": 5905,
      "bray": 5906,
      "employ": 5907,
      "seat": 5908,
      "petra": 5909,
      "dale": 5910,
      "##itted": 5911,
      "##byn": 5912,
      "laurie": 5913,
      "payment": 5914,
      "famil": 5915,
      "useless": 5916,
      "katia": 5917,
      "claim": 5918,
      "creative": 5919,
      "jonas": 5920,
      "install": 5921,
      "border": 5922,
      "raul": 5923,
      "esther": 5924,
      "attach": 5925,
      "crash": 5926,
      "arriving": 5927,
      "confident": 5928,
      "eleon": 5929,
      "##odes": 5930,
      "signed": 5931,
      "dreams": 5932,
      "argu": 5933,
      "temper": 5934,
      "oppos": 5935,
      "##pected": 5936,
      "constant": 5937,
      "capital": 5938,
      "autumn": 5939,
      "neva": 5940,
      "nuts": 5941,
      "performance": 5942,
      "scratch": 5943,
      "yummy": 5944,
      "ouch": 5945,
      "author": 5946,
      "bunny": 5947,
      "nigel": 5948,
      "skills": 5949,
      "survive": 5950,
      "normally": 5951,
      "gentle": 5952,
      "exagger": 5953,
      "halloween": 5954,
      "26": 5955,
      "4pm": 5956,
      "cow": 5957,
      "jad": 5958,
      "kane": 5959,
      "lab": 5960,
      "sour": 5961,
      "woo": 5962,
      "##par": 5963,
      "##bing": 5964,
      "##wich": 5965,
      "thous": 5966,
      "##eral": 5967,
      "##ota": 5968,
      "##eared": 5969,
      "##itions": 5970,
      "refu": 5971,
      "cha": 5972,
      "china": 5973,
      "champ": 5974,
      "alain": 5975,
      "##ady": 5976,
      "marlene": 5977,
      "fifa": 5978,
      "##irt": 5979,
      "##uled": 5980,
      "robyn": 5981,
      "comb": 5982,
      "boj": 5983,
      "saved": 5984,
      "patience": 5985,
      "annab": 5986,
      "became": 5987,
      "luv": 5988,
      "compan": 5989,
      "##pei": 5990,
      "declan": 5991,
      "cares": 5992,
      "owner": 5993,
      "karin": 5994,
      "karina": 5995,
      "crit": 5996,
      "bedroom": 5997,
      "hurts": 5998,
      "artur": 5999,
      "nathaniel": 6000,
      "independ": 6001,
      "pull": 6002,
      "adrien": 6003,
      "answering": 6004,
      "painful": 6005,
      "memories": 6006,
      "maths": 6007,
      "pieces": 6008,
      "films": 6009,
      "related": 6010,
      "professional": 6011,
      "turning": 6012,
      "falling": 6013,
      "sharpei": 6014,
      "impression": 6015,
      "fortune": 6016,
      "virgin": 6017,
      "skiing": 6018,
      "responsible": 6019,
      "lukas": 6020,
      "voted": 6021,
      "continue": 6022,
      "competition": 6023,
      "pedro": 6024,
      "dustin": 6025,
      "involved": 6026,
      "helmut": 6027,
      "accommodation": 6028,
      "ble": 6029,
      "baking": 6030,
      "cya": 6031,
      "der": 6032,
      "dow": 6033,
      "fay": 6034,
      "gord": 6035,
      "kh": 6036,
      "pin": 6037,
      "sights": 6038,
      "##sed": 6039,
      "##ration": 6040,
      "##kin": 6041,
      "##cut": 6042,
      "##ered": 6043,
      "##enger": 6044,
      "##oma": 6045,
      "bey": 6046,
      "##itude": 6047,
      "chips": 6048,
      "##chan": 6049,
      "loren": 6050,
      "##ateful": 6051,
      "##ando": 6052,
      "goodby": 6053,
      "alle": 6054,
      "##ung": 6055,
      "outf": 6056,
      "carlie": 6057,
      "spread": 6058,
      "speed": 6059,
      "happiness": 6060,
      "quinn": 6061,
      "jacky": 6062,
      "##iction": 6063,
      "benny": 6064,
      "##ified": 6065,
      "##cks": 6066,
      "terrence": 6067,
      "smoke": 6068,
      "##ipes": 6069,
      "elliot": 6070,
      "resched": 6071,
      "ending": 6072,
      "sandwich": 6073,
      "##ierra": 6074,
      "##ogen": 6075,
      "reality": 6076,
      "dresses": 6077,
      "margot": 6078,
      "influ": 6079,
      "based": 6080,
      "nicolas": 6081,
      "value": 6082,
      "recommendations": 6083,
      "snacks": 6084,
      "curt": 6085,
      "legs": 6086,
      "judge": 6087,
      "confirmed": 6088,
      "receive": 6089,
      "argue": 6090,
      "lines": 6091,
      "cecil": 6092,
      "randall": 6093,
      "shocked": 6094,
      "pills": 6095,
      "yellow": 6096,
      "hairdress": 6097,
      "gordon": 6098,
      "goodbye": 6099,
      "ain": 6100,
      "celia": 6101,
      "faster": 6102,
      "hat": 6103,
      "ker": 6104,
      "mult": 6105,
      "nav": 6106,
      "pra": 6107,
      "pig": 6108,
      "uhh": 6109,
      "wise": 6110,
      "##can": 6111,
      "##here": 6112,
      "##hem": 6113,
      "##onse": 6114,
      "##isse": 6115,
      "##etch": 6116,
      "haley": 6117,
      "shona": 6118,
      "whatsa": 6119,
      "lili": 6120,
      "lived": 6121,
      "cancer": 6122,
      "ala": 6123,
      "##ndred": 6124,
      "##andez": 6125,
      "plant": 6126,
      "##raine": 6127,
      "hilda": 6128,
      "brie": 6129,
      "arnie": 6130,
      "boston": 6131,
      "semin": 6132,
      "manchester": 6133,
      "daily": 6134,
      "janek": 6135,
      "doesnt": 6136,
      "##uses": 6137,
      "scen": 6138,
      "score": 6139,
      "funeral": 6140,
      "##ggage": 6141,
      "moron": 6142,
      "players": 6143,
      "biggest": 6144,
      "teen": 6145,
      "hundred": 6146,
      "beau": 6147,
      "barbie": 6148,
      "understanding": 6149,
      "messenger": 6150,
      "richie": 6151,
      "heads": 6152,
      "depart": 6153,
      "crew": 6154,
      "cruel": 6155,
      "highly": 6156,
      "eug": 6157,
      "##000": 6158,
      "emails": 6159,
      "debra": 6160,
      "expert": 6161,
      "pleasant": 6162,
      "matters": 6163,
      "##eeeeeeee": 6164,
      "memory": 6165,
      "fishing": 6166,
      "tempt": 6167,
      "episodes": 6168,
      "wilma": 6169,
      "camera": 6170,
      "clearly": 6171,
      "grown": 6172,
      "glasses": 6173,
      "clarisse": 6174,
      "russian": 6175,
      "neville": 6176,
      "official": 6177,
      "escape": 6178,
      "talent": 6179,
      "granny": 6180,
      "necessary": 6181,
      "nestor": 6182,
      "exchange": 6183,
      "adventure": 6184,
      "keegan": 6185,
      "ttyl": 6186,
      "invoice": 6187,
      "unbelievable": 6188,
      "stomach": 6189,
      "thousand": 6190,
      "whatsapp": 6191,
      "1pm": 6192,
      "28": 6193,
      "cin": 6194,
      "cell": 6195,
      "cig": 6196,
      "dea": 6197,
      "jeez": 6198,
      "kara": 6199,
      "lack": 6200,
      "mama": 6201,
      "mouth": 6202,
      "ryl": 6203,
      "sven": 6204,
      "tasks": 6205,
      "##ody": 6206,
      "##rich": 6207,
      "##ying": 6208,
      "##fs": 6209,
      "##fi": 6210,
      "thn": 6211,
      "##enzie": 6212,
      "haw": 6213,
      "mechan": 6214,
      "formal": 6215,
      "ship": 6216,
      "suzy": 6217,
      "##che": 6218,
      "marvin": 6219,
      "jojo": 6220,
      "##ilian": 6221,
      "greet": 6222,
      "cara": 6223,
      "adm": 6224,
      "magn": 6225,
      "preston": 6226,
      "afr": 6227,
      "coach": 6228,
      "##itte": 6229,
      "harm": 6230,
      "drake": 6231,
      "applic": 6232,
      "rub": 6233,
      "hahahahaha": 6234,
      "weekends": 6235,
      "showing": 6236,
      "brianna": 6237,
      "amazon": 6238,
      "disaster": 6239,
      "ahmed": 6240,
      "kenny": 6241,
      "raf": 6242,
      "image": 6243,
      "gerard": 6244,
      "therap": 6245,
      "touris": 6246,
      "lawyer": 6247,
      "experi": 6248,
      "forest": 6249,
      "potatoes": 6250,
      "soul": 6251,
      "european": 6252,
      "argument": 6253,
      "destiny": 6254,
      "covered": 6255,
      "battery": 6256,
      "2019": 6257,
      "kirk": 6258,
      "##ribly": 6259,
      "reviews": 6260,
      "responsib": 6261,
      "organizing": 6262,
      "tricky": 6263,
      "croat": 6264,
      "brigitte": 6265,
      "pounds": 6266,
      "unex": 6267,
      "##rupt": 6268,
      "calendar": 6269,
      "opposite": 6270,
      "lorenzo": 6271,
      "aim": 6272,
      "bay": 6273,
      "cart": 6274,
      "cau": 6275,
      "fits": 6276,
      "gerry": 6277,
      "hr": 6278,
      "lona": 6279,
      "ole": 6280,
      "odd": 6281,
      "oops": 6282,
      "path": 6283,
      "pers": 6284,
      "##ms": 6285,
      "##nam": 6286,
      "##lus": 6287,
      "##gie": 6288,
      "##orable": 6289,
      "weak": 6290,
      "##itz": 6291,
      "doreen": 6292,
      "stock": 6293,
      "button": 6294,
      "rehe": 6295,
      "choo": 6296,
      "marla": 6297,
      "loss": 6298,
      "tomatoes": 6299,
      "##rage": 6300,
      "phew": 6301,
      "pharm": 6302,
      "nowhere": 6303,
      "hip": 6304,
      "ariel": 6305,
      "conven": 6306,
      "maps": 6307,
      "##umes": 6308,
      "##phne": 6309,
      "daphne": 6310,
      "leaves": 6311,
      "elise": 6312,
      "luggage": 6313,
      "geoff": 6314,
      "##oyd": 6315,
      "mariah": 6316,
      "ends": 6317,
      "babies": 6318,
      "##ension": 6319,
      "edith": 6320,
      "bird": 6321,
      "texts": 6322,
      "duh": 6323,
      "##iko": 6324,
      "dressed": 6325,
      "raoul": 6326,
      "raquel": 6327,
      "julianna": 6328,
      "airbn": 6329,
      "geri": 6330,
      "lawrie": 6331,
      "restaurants": 6332,
      "starb": 6333,
      "##leted": 6334,
      "sofa": 6335,
      "boarding": 6336,
      "stefano": 6337,
      "ramona": 6338,
      "jump": 6339,
      "princess": 6340,
      "realiz": 6341,
      "operation": 6342,
      "maurice": 6343,
      "valentine": 6344,
      "smoking": 6345,
      "material": 6346,
      "colleagues": 6347,
      "festival": 6348,
      "further": 6349,
      "miguel": 6350,
      "satisf": 6351,
      "downt": 6352,
      "hairdresser": 6353,
      "africa": 6354,
      "airbnb": 6355,
      "2pm": 6356,
      "celine": 6357,
      "furn": 6358,
      "hitting": 6359,
      "jem": 6360,
      "ler": 6361,
      "lis": 6362,
      "mica": 6363,
      "oven": 6364,
      "sli": 6365,
      "sla": 6366,
      "tel": 6367,
      "til": 6368,
      "wet": 6369,
      "##ober": 6370,
      "##case": 6371,
      "##back": 6372,
      "##ware": 6373,
      "thor": 6374,
      "anab": 6375,
      "inj": 6376,
      "sore": 6377,
      "lill": 6378,
      "repe": 6379,
      "##ryn": 6380,
      "knowing": 6381,
      "##adem": 6382,
      "jokes": 6383,
      "##entin": 6384,
      "lois": 6385,
      "losing": 6386,
      "moon": 6387,
      "##ability": 6388,
      "plat": 6389,
      "plot": 6390,
      "##asts": 6391,
      "##arding": 6392,
      "hero": 6393,
      "bum": 6394,
      "lemm": 6395,
      "adult": 6396,
      "pred": 6397,
      "whoa": 6398,
      "grateful": 6399,
      "jennie": 6400,
      "partner": 6401,
      "blind": 6402,
      "blame": 6403,
      "active": 6404,
      "benef": 6405,
      "frankly": 6406,
      "academ": 6407,
      "resign": 6408,
      "nicki": 6409,
      "maxine": 6410,
      "hugs": 6411,
      "sweets": 6412,
      "desper": 6413,
      "created": 6414,
      "deals": 6415,
      "tests": 6416,
      "genius": 6417,
      "repair": 6418,
      "fabian": 6419,
      "fabulous": 6420,
      "fantasy": 6421,
      "drag": 6422,
      "iron": 6423,
      "braz": 6424,
      "viol": 6425,
      "documents": 6426,
      "solve": 6427,
      "colours": 6428,
      "archit": 6429,
      "panic": 6430,
      "hesit": 6431,
      "meals": 6432,
      "october": 6433,
      "kathryn": 6434,
      "customer": 6435,
      "yannick": 6436,
      "spring": 6437,
      "depressed": 6438,
      "dexter": 6439,
      "folks": 6440,
      "slightly": 6441,
      "fascinating": 6442,
      "spirit": 6443,
      "sightsee": 6444,
      "unexpected": 6445,
      "downtown": 6446,
      "leroy": 6447,
      "4th": 6448,
      "80": 6449,
      "core": 6450,
      "dway": 6451,
      "flies": 6452,
      "hous": 6453,
      "mhm": 6454,
      "nite": 6455,
      "piano": 6456,
      "ri": 6457,
      "tinder": 6458,
      "ward": 6459,
      "xp": 6460,
      "yvon": 6461,
      "##mad": 6462,
      "##sen": 6463,
      "##ija": 6464,
      "##des": 6465,
      "thre": 6466,
      "thro": 6467,
      "thail": 6468,
      "##ouch": 6469,
      "##ining": 6470,
      "##eria": 6471,
      "##vet": 6472,
      "weed": 6473,
      "##otic": 6474,
      "measure": 6475,
      "##iture": 6476,
      "heh": 6477,
      "ish": 6478,
      "##ldon": 6479,
      "##tered": 6480,
      "marly": 6481,
      "##hah": 6482,
      "##ilt": 6483,
      "##ppe": 6484,
      "upstairs": 6485,
      "provide": 6486,
      "carr": 6487,
      "lemon": 6488,
      "sams": 6489,
      "samara": 6490,
      "##aint": 6491,
      "johny": 6492,
      "janine": 6493,
      "enc": 6494,
      "patient": 6495,
      "imogen": 6496,
      "##usz": 6497,
      "##mmm": 6498,
      "scan": 6499,
      "tonite": 6500,
      "luisa": 6501,
      "twitter": 6502,
      "gees": 6503,
      "express": 6504,
      "##ager": 6505,
      "clever": 6506,
      "register": 6507,
      "##lley": 6508,
      "ordering": 6509,
      "cru": 6510,
      "fear": 6511,
      "sadie": 6512,
      "##yyy": 6513,
      "stressful": 6514,
      "##ledge": 6515,
      "##aaaaa": 6516,
      "renov": 6517,
      "bags": 6518,
      "micky": 6519,
      "skye": 6520,
      "updated": 6521,
      "clarice": 6522,
      "rhonda": 6523,
      "destroyed": 6524,
      "##riage": 6525,
      "negot": 6526,
      "reckon": 6527,
      "starbucks": 6528,
      "lillian": 6529,
      "lemme": 6530,
      "dwayne": 6531,
      "thailand": 6532,
      "2nite": 6533,
      "5th": 6534,
      "70": 6535,
      "aa": 6536,
      "fool": 6537,
      "iphone": 6538,
      "jada": 6539,
      "l8": 6540,
      "lma": 6541,
      "lame": 6542,
      "mash": 6543,
      "panc": 6544,
      "pip": 6545,
      "ut": 6546,
      "##ao": 6547,
      "##gi": 6548,
      "anny": 6549,
      "##leine": 6550,
      "meh": 6551,
      "##aco": 6552,
      "noise": 6553,
      "##ribe": 6554,
      "##ential": 6555,
      "##ended": 6556,
      "##ilities": 6557,
      "sheldon": 6558,
      "plants": 6559,
      "bohem": 6560,
      "leigh": 6561,
      "spam": 6562,
      "theme": 6563,
      "backpack": 6564,
      "##phones": 6565,
      "matild": 6566,
      "callum": 6567,
      "##assy": 6568,
      "becoming": 6569,
      "blog": 6570,
      "xdd": 6571,
      "twins": 6572,
      "drum": 6573,
      "barcel": 6574,
      "brody": 6575,
      "recipes": 6576,
      "decl": 6577,
      "career": 6578,
      "fuckin": 6579,
      "result": 6580,
      "susp": 6581,
      "supper": 6582,
      "darrell": 6583,
      "bright": 6584,
      "barbra": 6585,
      "##quin": 6586,
      "wishes": 6587,
      "corin": 6588,
      "delight": 6589,
      "fox": 6590,
      "hotels": 6591,
      "assist": 6592,
      "imagin": 6593,
      "studied": 6594,
      "collection": 6595,
      "offered": 6596,
      "legal": 6597,
      "garlic": 6598,
      "burger": 6599,
      "lights": 6600,
      "mistakes": 6601,
      "antonia": 6602,
      "devast": 6603,
      "##ienne": 6604,
      "##ascal": 6605,
      "printer": 6606,
      "ahah": 6607,
      "realize": 6608,
      "jazz": 6609,
      "beatrix": 6610,
      "tutor": 6611,
      "concerned": 6612,
      "temperature": 6613,
      "nevaeh": 6614,
      "reschedule": 6615,
      "croatia": 6616,
      "realized": 6617,
      "platform": 6618,
      "bohemian": 6619,
      "matilde": 6620,
      "barcelona": 6621,
      "ary": 6622,
      "gim": 6623,
      "gert": 6624,
      "gang": 6625,
      "gross": 6626,
      "hub": 6627,
      "jet": 6628,
      "kurt": 6629,
      "lone": 6630,
      "moo": 6631,
      "nap": 6632,
      "os": 6633,
      "pants": 6634,
      "sierra": 6635,
      "tip": 6636,
      "tilda": 6637,
      "##mates": 6638,
      "##mission": 6639,
      "##oon": 6640,
      "##nan": 6641,
      "##light": 6642,
      "##tina": 6643,
      "##kk": 6644,
      "##ker": 6645,
      "##we": 6646,
      "##ford": 6647,
      "##ounce": 6648,
      "##ller": 6649,
      "##arian": 6650,
      "##edith": 6651,
      "bell": 6652,
      "soci": 6653,
      "dol": 6654,
      "stri": 6655,
      "##iek": 6656,
      "neck": 6657,
      "novel": 6658,
      "above": 6659,
      "likely": 6660,
      "##iran": 6661,
      "hows": 6662,
      "##thern": 6663,
      "tomek": 6664,
      "bran": 6665,
      "adop": 6666,
      "seven": 6667,
      "pock": 6668,
      "whoever": 6669,
      "gram": 6670,
      "priti": 6671,
      "harsh": 6672,
      "flash": 6673,
      "rule": 6674,
      "partying": 6675,
      "classic": 6676,
      "##while": 6677,
      "parad": 6678,
      "madeleine": 6679,
      "delia": 6680,
      "wondered": 6681,
      "cooked": 6682,
      "supervis": 6683,
      "lars": 6684,
      "furious": 6685,
      "choices": 6686,
      "engine": 6687,
      "mirror": 6688,
      "learned": 6689,
      "answers": 6690,
      "##lines": 6691,
      "object": 6692,
      "doctors": 6693,
      "jasna": 6694,
      "pleased": 6695,
      "magic": 6696,
      "painting": 6697,
      "bottom": 6698,
      "forecast": 6699,
      "reminding": 6700,
      "issac": 6701,
      "product": 6702,
      "opinions": 6703,
      "sharp": 6704,
      "solution": 6705,
      "induction": 6706,
      "fighting": 6707,
      "impressed": 6708,
      "kaja": 6709,
      "murder": 6710,
      "reports": 6711,
      "ahahah": 6712,
      "distance": 6713,
      "meredith": 6714,
      "ignore": 6715,
      "notebook": 6716,
      "blocked": 6717,
      "precious": 6718,
      "exercise": 6719,
      "mercy": 6720,
      "lukass": 6721,
      "cathie": 6722,
      "vegetables": 6723,
      "members": 6724,
      "surprisingly": 6725,
      "pumpkin": 6726,
      "kirsten": 6727,
      "##ounced": 6728,
      "postpone": 6729,
      "village": 6730,
      "activities": 6731,
      "cornelia": 6732,
      "celest": 6733,
      "furniture": 6734,
      "sightseeing": 6735,
      "throat": 6736,
      "samsung": 6737,
      "elie": 6738,
      "jor": 6739,
      "lic": 6740,
      "pascal": 6741,
      "sash": 6742,
      "section": 6743,
      "tag": 6744,
      "wra": 6745,
      "witch": 6746,
      "wade": 6747,
      "##ave": 6748,
      "##met": 6749,
      "##ners": 6750,
      "##ls": 6751,
      "##lay": 6752,
      "##las": 6753,
      "##illy": 6754,
      "##com": 6755,
      "##bed": 6756,
      "##inity": 6757,
      "##rella": 6758,
      "##onde": 6759,
      "socks": 6760,
      "shared": 6761,
      "dope": 6762,
      "stro": 6763,
      "storm": 6764,
      "chip": 6765,
      "marriage": 6766,
      "abe": 6767,
      "willing": 6768,
      "joce": 6769,
      "joona": 6770,
      "##urity": 6771,
      "goodness": 6772,
      "##ppa": 6773,
      "##ules": 6774,
      "tomas": 6775,
      "bubb": 6776,
      "gib": 6777,
      "arlo": 6778,
      "ads": 6779,
      "adults": 6780,
      "adorable": 6781,
      "emman": 6782,
      "separ": 6783,
      "saf": 6784,
      "quiz": 6785,
      "quentin": 6786,
      "chrissy": 6787,
      "keiran": 6788,
      "hopeless": 6789,
      "proof": 6790,
      "charger": 6791,
      "science": 6792,
      "##anca": 6793,
      "remembered": 6794,
      "appear": 6795,
      "rubb": 6796,
      "bret": 6797,
      "player": 6798,
      "recall": 6799,
      "jeans": 6800,
      "reserve": 6801,
      "daddy": 6802,
      "300": 6803,
      "##aaat": 6804,
      "hubert": 6805,
      "stops": 6806,
      "trey": 6807,
      "warren": 6808,
      "additional": 6809,
      "posts": 6810,
      "personally": 6811,
      "zoey": 6812,
      "##bridge": 6813,
      "cait": 6814,
      "margo": 6815,
      "rafa": 6816,
      "franco": 6817,
      "babys": 6818,
      "feet": 6819,
      "streets": 6820,
      "reasons": 6821,
      "reminder": 6822,
      "casual": 6823,
      "windows": 6824,
      "agreement": 6825,
      "malia": 6826,
      "tanner": 6827,
      "following": 6828,
      "figured": 6829,
      "misty": 6830,
      "stefan": 6831,
      "spoken": 6832,
      "gillian": 6833,
      "ahhh": 6834,
      "islands": 6835,
      "nyc": 6836,
      "translate": 6837,
      "included": 6838,
      "blah": 6839,
      "jacqui": 6840,
      "2morrow": 6841,
      "released": 6842,
      "jerk": 6843,
      "apologize": 6844,
      "allergic": 6845,
      "ewa": 6846,
      "ciara": 6847,
      "tmr": 6848,
      "semester": 6849,
      "portugal": 6850,
      "mackenzie": 6851,
      "brayden": 6852,
      "lisbon": 6853,
      "yvonne": 6854,
      "lmao": 6855,
      "jocelyn": 6856,
      "emmanuel": 6857,
      "34": 6858,
      "buck": 6859,
      "bald": 6860,
      "dw": 6861,
      "dut": 6862,
      "ec": 6863,
      "fem": 6864,
      "gall": 6865,
      "hide": 6866,
      "kore": 6867,
      "lower": 6868,
      "meryl": 6869,
      "odin": 6870,
      "rate": 6871,
      "sb": 6872,
      "sig": 6873,
      "vouch": 6874,
      "yr": 6875,
      "##mary": 6876,
      "##pr": 6877,
      "##uits": 6878,
      "##dal": 6879,
      "##rom": 6880,
      "##rict": 6881,
      "##bit": 6882,
      "##yah": 6883,
      "##llo": 6884,
      "##omfort": 6885,
      "##etic": 6886,
      "hamm": 6887,
      "force": 6888,
      "##ids": 6889,
      "##eev": 6890,
      "lip": 6891,
      "relig": 6892,
      "knee": 6893,
      "goin": 6894,
      "##adette": 6895,
      "abd": 6896,
      "theyre": 6897,
      "yess": 6898,
      "##endum": 6899,
      "##ilty": 6900,
      "among": 6901,
      "exist": 6902,
      "##berry": 6903,
      "##ssy": 6904,
      "brb": 6905,
      "adding": 6906,
      "advert": 6907,
      "ema": 6908,
      "emmy": 6909,
      "maure": 6910,
      "maja": 6911,
      "safer": 6912,
      "dak": 6913,
      "daw": 6914,
      "pepper": 6915,
      "aleks": 6916,
      "blonde": 6917,
      "launch": 6918,
      "unus": 6919,
      "funct": 6920,
      "##ggies": 6921,
      "twist": 6922,
      "coun": 6923,
      "elli": 6924,
      "mattie": 6925,
      "payton": 6926,
      "sweat": 6927,
      "cambridge": 6928,
      "security": 6929,
      "understood": 6930,
      "##ooooo": 6931,
      "sleepy": 6932,
      "rosemary": 6933,
      "breaks": 6934,
      "regarding": 6935,
      "depos": 6936,
      "passion": 6937,
      "strang": 6938,
      "karla": 6939,
      "crack": 6940,
      "julius": 6941,
      "sales": 6942,
      "salary": 6943,
      "meds": 6944,
      "collin": 6945,
      "hangover": 6946,
      "##ologist": 6947,
      "walt": 6948,
      "magdal": 6949,
      "fisher": 6950,
      "renting": 6951,
      "holding": 6952,
      "sharing": 6953,
      "scheduled": 6954,
      "closing": 6955,
      "miser": 6956,
      "confirmation": 6957,
      "behavi": 6958,
      "settle": 6959,
      "russia": 6960,
      "including": 6961,
      "golden": 6962,
      "castle": 6963,
      "officially": 6964,
      "kathleen": 6965,
      "ulrich": 6966,
      "bernadette": 6967,
      "emotional": 6968,
      "decorations": 6969,
      "jarod": 6970,
      "frustrating": 6971,
      "embarrassing": 6972,
      "rolls": 6973,
      "traditional": 6974,
      "referendum": 6975,
      "bojana": 6976,
      "curtis": 6977,
      "cinthia": 6978,
      "choosing": 6979,
      "convenient": 6980,
      "micah": 6981,
      "houses": 6982,
      "cruise": 6983,
      "maureen": 6984,
      "cough": 6985,
      "caz": 6986,
      "hid": 6987,
      "hook": 6988,
      "kra": 6989,
      "mm": 6990,
      "non": 6991,
      "oil": 6992,
      "ria": 6993,
      "roof": 6994,
      "vin": 6995,
      "var": 6996,
      "##ale": 6997,
      "##mp": 6998,
      "##list": 6999,
      "##ients": 7000,
      "##rim": 7001,
      "##cery": 7002,
      "##bell": 7003,
      "##bles": 7004,
      "##zen": 7005,
      "##zem": 7006,
      "youll": 7007,
      "##orter": 7008,
      "##ases": 7009,
      "##uts": 7010,
      "india": 7011,
      "wifi": 7012,
      "##stand": 7013,
      "##sters": 7014,
      "heat": 7015,
      "heating": 7016,
      "stink": 7017,
      "rev": 7018,
      "##sell": 7019,
      "chos": 7020,
      "cherry": 7021,
      "knowledge": 7022,
      "##ado": 7023,
      "marina": 7024,
      "abi": 7025,
      "jos": 7026,
      "jolene": 7027,
      "##robe": 7028,
      "##inkill": 7029,
      "##ecue": 7030,
      "plastic": 7031,
      "##cey": 7032,
      "phones": 7033,
      "veg": 7034,
      "hiking": 7035,
      "painkill": 7036,
      "clue": 7037,
      "bru": 7038,
      "leanne": 7039,
      "spider": 7040,
      "deleted": 7041,
      "select": 7042,
      "background": 7043,
      "coke": 7044,
      "coast": 7045,
      "##uming": 7046,
      "poll": 7047,
      "poly": 7048,
      "grac": 7049,
      "imm": 7050,
      "pric": 7051,
      "przem": 7052,
      "blow": 7053,
      "announced": 7054,
      "acting": 7055,
      "actual": 7056,
      "1000": 7057,
      "glob": 7058,
      "trips": 7059,
      "30pm": 7060,
      "hug": 7061,
      "darcey": 7062,
      "helene": 7063,
      "edna": 7064,
      "educ": 7065,
      "diner": 7066,
      "damage": 7067,
      "barbecue": 7068,
      "##whel": 7069,
      "content": 7070,
      "trees": 7071,
      "lyric": 7072,
      "cheating": 7073,
      "attitude": 7074,
      "crush": 7075,
      "higher": 7076,
      "##play": 7077,
      "salt": 7078,
      "salmon": 7079,
      "tourist": 7080,
      "cleaner": 7081,
      "cleaned": 7082,
      "replied": 7083,
      "packing": 7084,
      "century": 7085,
      "management": 7086,
      "brave": 7087,
      "shape": 7088,
      "tatum": 7089,
      "boxes": 7090,
      "distur": 7091,
      "panick": 7092,
      "sooooo": 7093,
      "douglas": 7094,
      "paloma": 7095,
      "require": 7096,
      "direction": 7097,
      "campus": 7098,
      "programme": 7099,
      "nikki": 7100,
      "oooh": 7101,
      "views": 7102,
      "gradu": 7103,
      "darek": 7104,
      "description": 7105,
      "homer": 7106,
      "kelsey": 7107,
      "promotion": 7108,
      "allowed": 7109,
      "grocery": 7110,
      "medicine": 7111,
      "lonya": 7112,
      "nerd": 7113,
      "nelson": 7114,
      "kaleigh": 7115,
      "ingred": 7116,
      "dublin": 7117,
      "russell": 7118,
      "unfair": 7119,
      "companies": 7120,
      "faye": 7121,
      "oleg": 7122,
      "pharmacy": 7123,
      "lonely": 7124,
      "celeste": 7125,
      "unusual": 7126,
      "deposit": 7127,
      "chosen": 7128,
      "przemek": 7129,
      "29": 7130,
      "55": 7131,
      "ach": 7132,
      "cities": 7133,
      "della": 7134,
      "gam": 7135,
      "gain": 7136,
      "hint": 7137,
      "hated": 7138,
      "javier": 7139,
      "km": 7140,
      "lina": 7141,
      "nail": 7142,
      "pil": 7143,
      "piet": 7144,
      "rise": 7145,
      "sask": 7146,
      "tu": 7147,
      "##avia": 7148,
      "##mus": 7149,
      "##kla": 7150,
      "##kah": 7151,
      "##kins": 7152,
      "##gth": 7153,
      "##cony": 7154,
      "##bab": 7155,
      "##bour": 7156,
      "##just": 7157,
      "##inic": 7158,
      "theory": 7159,
      "thekla": 7160,
      "ange": 7161,
      "##isine": 7162,
      "whaaaa": 7163,
      "whaaat": 7164,
      "hav": 7165,
      "##storm": 7166,
      "shots": 7167,
      "stor": 7168,
      "stone": 7169,
      "chant": 7170,
      "chair": 7171,
      "##alog": 7172,
      "donnie": 7173,
      "alarm": 7174,
      "marissa": 7175,
      "josie": 7176,
      "wasnt": 7177,
      "##ros": 7178,
      "fruits": 7179,
      "mush": 7180,
      "musc": 7181,
      "provid": 7182,
      "thanksgi": 7183,
      "##liff": 7184,
      "aggie": 7185,
      "buba": 7186,
      "clinic": 7187,
      "gotten": 7188,
      "bridge": 7189,
      "spect": 7190,
      "map": 7191,
      "prem": 7192,
      "mont": 7193,
      "tracey": 7194,
      "hoped": 7195,
      "meanwhile": 7196,
      "overwhel": 7197,
      "announce": 7198,
      "league": 7199,
      "##sody": 7200,
      "scare": 7201,
      "evil": 7202,
      "terribly": 7203,
      "recent": 7204,
      "##aging": 7205,
      "carolina": 7206,
      "camila": 7207,
      "susanne": 7208,
      "joined": 7209,
      "parcel": 7210,
      "milan": 7211,
      "lizzie": 7212,
      "freda": 7213,
      "posting": 7214,
      "counting": 7215,
      "sisi": 7216,
      "caf": 7217,
      "capt": 7218,
      "large": 7219,
      "raven": 7220,
      "metal": 7221,
      "england": 7222,
      "engaged": 7223,
      "##enced": 7224,
      "sadly": 7225,
      "audience": 7226,
      "organising": 7227,
      "submit": 7228,
      "haircut": 7229,
      "##mins": 7230,
      "contacting": 7231,
      "curry": 7232,
      "fabio": 7233,
      "clubs": 7234,
      "prior": 7235,
      "affect": 7236,
      "foreign": 7237,
      "silent": 7238,
      "##ergy": 7239,
      "roads": 7240,
      "garrett": 7241,
      "finger": 7242,
      "linn": 7243,
      "ignoring": 7244,
      "tennis": 7245,
      "possibility": 7246,
      "##eeey": 7247,
      "nooooo": 7248,
      "hyp": 7249,
      "octavia": 7250,
      "balcony": 7251,
      "shifts": 7252,
      "terms": 7253,
      "drawer": 7254,
      "sanaz": 7255,
      "propose": 7256,
      "limit": 7257,
      "hobbs": 7258,
      "flex": 7259,
      "kelvin": 7260,
      "paddy": 7261,
      "sauce": 7262,
      "shelf": 7263,
      "lonnie": 7264,
      "japanese": 7265,
      "sensitive": 7266,
      "introduce": 7267,
      "gloves": 7268,
      "comedy": 7269,
      "struggling": 7270,
      "precisely": 7271,
      "dimit": 7272,
      "ambul": 7273,
      "attached": 7274,
      "influence": 7275,
      "application": 7276,
      "rehears": 7277,
      "satisfied": 7278,
      "predict": 7279,
      "desperate": 7280,
      "l8r": 7281,
      "devastated": 7282,
      "paradise": 7283,
      "magdalene": 7284,
      "thanksgiving": 7285,
      "000": 7286,
      "2day": 7287,
      "500": 7288,
      "aaa": 7289,
      "bac": 7290,
      "bol": 7291,
      "cit": 7292,
      "eg": 7293,
      "gun": 7294,
      "ki": 7295,
      "lam": 7296,
      "lance": 7297,
      "nurs": 7298,
      "poo": 7299,
      "rail": 7300,
      "rip": 7301,
      "sink": 7302,
      "szy": 7303,
      "una": 7304,
      "wester": 7305,
      "##pet": 7306,
      "##ser": 7307,
      "##under": 7308,
      "##eber": 7309,
      "##wia": 7310,
      "##yton": 7311,
      "##11": 7312,
      "##xie": 7313,
      "##arily": 7314,
      "anca": 7315,
      "##isol": 7316,
      "##icja": 7317,
      "##eta": 7318,
      "hallie": 7319,
      "web": 7320,
      "willy": 7321,
      "##store": 7322,
      "##acow": 7323,
      "stays": 7324,
      "stole": 7325,
      "states": 7326,
      "chores": 7327,
      "alicja": 7328,
      "marvel": 7329,
      "marisol": 7330,
      "load": 7331,
      "##ending": 7332,
      "##ilo": 7333,
      "plumber": 7334,
      "muff": 7335,
      "hers": 7336,
      "veggies": 7337,
      "workers": 7338,
      "##beth": 7339,
      "usa": 7340,
      "brows": 7341,
      "boots": 7342,
      "spell": 7343,
      "demo": 7344,
      "##athon": 7345,
      "male": 7346,
      "presc": 7347,
      "tram": 7348,
      "##ctic": 7349,
      "##ished": 7350,
      "janny": 7351,
      "nicely": 7352,
      "tells": 7353,
      "peyton": 7354,
      "env": 7355,
      "patt": 7356,
      "patrik": 7357,
      "##issy": 7358,
      "remeber": 7359,
      "##using": 7360,
      "courses": 7361,
      "lucie": 7362,
      "scene": 7363,
      "##ife": 7364,
      "madrid": 7365,
      "10am": 7366,
      "forgive": 7367,
      "brings": 7368,
      "melvin": 7369,
      "melinda": 7370,
      "nature": 7371,
      "jacek": 7372,
      "campa": 7373,
      "##anged": 7374,
      "ashamed": 7375,
      "pola": 7376,
      "tonya": 7377,
      "freddy": 7378,
      "desp": 7379,
      "region": 7380,
      "regards": 7381,
      "passing": 7382,
      "150": 7383,
      "laurel": 7384,
      "trains": 7385,
      "colors": 7386,
      "walked": 7387,
      "realise": 7388,
      "chees": 7389,
      "cheated": 7390,
      "francine": 7391,
      "crime": 7392,
      "cracow": 7393,
      "juliana": 7394,
      "##place": 7395,
      "nicola": 7396,
      "mirac": 7397,
      "marcel": 7398,
      "commerc": 7399,
      "cuisine": 7400,
      "brendon": 7401,
      "landon": 7402,
      "cutie": 7403,
      "scarf": 7404,
      "tammy": 7405,
      "silver": 7406,
      "gabriela": 7407,
      "snowing": 7408,
      "informed": 7409,
      "tastes": 7410,
      "disag": 7411,
      "burgers": 7412,
      "##etti": 7413,
      "##sels": 7414,
      "suitcase": 7415,
      "spots": 7416,
      "disappeared": 7417,
      "hahha": 7418,
      "maciek": 7419,
      "growing": 7420,
      "belg": 7421,
      "receipt": 7422,
      "entirely": 7423,
      "fedora": 7424,
      "translation": 7425,
      "jumping": 7426,
      "##ceries": 7427,
      "lilah": 7428,
      "21st": 7429,
      "banana": 7430,
      "cassie": 7431,
      "protect": 7432,
      "groceries": 7433,
      "saus": 7434,
      "karolina": 7435,
      "kirsty": 7436,
      "screwed": 7437,
      "bowling": 7438,
      "viki": 7439,
      "zuri": 7440,
      "makayla": 7441,
      "communicate": 7442,
      "families": 7443,
      "seminar": 7444,
      "tempting": 7445,
      "greetings": 7446,
      "repeat": 7447,
      "negoti": 7448,
      "pancakes": 7449,
      "bubbles": 7450,
      "rubbish": 7451,
      "dakota": 7452,
      "angella": 7453,
      "spectac": 7454,
      "szymon": 7455,
      "7th": 7456,
      "bite": 7457,
      "bomb": 7458,
      "cried": 7459,
      "cmon": 7460,
      "dum": 7461,
      "diss": 7462,
      "gene": 7463,
      "lord": 7464,
      "mas": 7465,
      "mck": 7466,
      "py": 7467,
      "pow": 7468,
      "rs": 7469,
      "rot": 7470,
      "race": 7471,
      "rene": 7472,
      "sissy": 7473,
      "vl": 7474,
      "vom": 7475,
      "various": 7476,
      "yt": 7477,
      "##pri": 7478,
      "##sup": 7479,
      "##nandez": 7480,
      "##iar": 7481,
      "##kers": 7482,
      "##coming": 7483,
      "##yi": 7484,
      "##head": 7485,
      "thin": 7486,
      "theod": 7487,
      "##aro": 7488,
      "##esh": 7489,
      "##thy": 7490,
      "##oms": 7491,
      "##asing": 7492,
      "##utions": 7493,
      "##iter": 7494,
      "onto": 7495,
      "heels": 7496,
      "##idy": 7497,
      "doable": 7498,
      "lion": 7499,
      "liqu": 7500,
      "chem": 7501,
      "nov": 7502,
      "nola": 7503,
      "nolan": 7504,
      "##ryl": 7505,
      "abra": 7506,
      "##roc": 7507,
      "##elin": 7508,
      "guilty": 7509,
      "hernandez": 7510,
      "agency": 7511,
      "aron": 7512,
      "couldnt": 7513,
      "mae": 7514,
      "##dyn": 7515,
      "qual": 7516,
      "christy": 7517,
      "##male": 7518,
      "grrr": 7519,
      "mats": 7520,
      "##action": 7521,
      "beck": 7522,
      "remain": 7523,
      "remote": 7524,
      "blast": 7525,
      "sci": 7526,
      "serve": 7527,
      "##mentine": 7528,
      "lux": 7529,
      "minnie": 7530,
      "swing": 7531,
      "##agne": 7532,
      "carefully": 7533,
      "intense": 7534,
      "darryl": 7535,
      "easter": 7536,
      "surf": 7537,
      "parked": 7538,
      "skirt": 7539,
      "##ograph": 7540,
      "apo": 7541,
      "treating": 7542,
      "##lings": 7543,
      "strate": 7544,
      "strict": 7545,
      "sweety": 7546,
      "jones": 7547,
      "gladly": 7548,
      "dressing": 7549,
      "julien": 7550,
      "arrival": 7551,
      "pizz": 7552,
      "female": 7553,
      "speaks": 7554,
      "xxxx": 7555,
      "##hehe": 7556,
      "conserv": 7557,
      "optim": 7558,
      "collins": 7559,
      "seasons": 7560,
      "links": 7561,
      "factory": 7562,
      "##umpy": 7563,
      "fairly": 7564,
      "austral": 7565,
      "ireland": 7566,
      "appreciated": 7567,
      "goog": 7568,
      "relaxing": 7569,
      "leonard": 7570,
      "potter": 7571,
      "celebrating": 7572,
      "isaiah": 7573,
      "delivered": 7574,
      "literature": 7575,
      "199": 7576,
      "purch": 7577,
      "purple": 7578,
      "boobs": 7579,
      "lectures": 7580,
      "tessy": 7581,
      "awwww": 7582,
      "fortunately": 7583,
      "regularly": 7584,
      "exercises": 7585,
      "venus": 7586,
      "candid": 7587,
      "mixed": 7588,
      "protest": 7589,
      "economy": 7590,
      "pierce": 7591,
      "prayers": 7592,
      "searching": 7593,
      "ps4": 7594,
      "##burg": 7595,
      "zuza": 7596,
      "shouting": 7597,
      "ooooh": 7598,
      "relieved": 7599,
      "deserves": 7600,
      "avengers": 7601,
      "virginia": 7602,
      "kerri": 7603,
      "multip": 7604,
      "magnus": 7605,
      "responsibility": 7606,
      "academic": 7607,
      "hesitate": 7608,
      "encou": 7609,
      "elliott": 7610,
      "miserable": 7611,
      "painkillers": 7612,
      "global": 7613,
      "western": 7614,
      "spectacular": 7615,
      "abraham": 7616,
      "1h": 7617,
      "6th": 7618,
      "bible": 7619,
      "bib": 7620,
      "ded": 7621,
      "drow": 7622,
      "dread": 7623,
      "elly": 7624,
      "fee": 7625,
      "fans": 7626,
      "fetch": 7627,
      "jayson": 7628,
      "ost": 7629,
      "rarely": 7630,
      "tia": 7631,
      "umm": 7632,
      "umb": 7633,
      "yi": 7634,
      "yee": 7635,
      "##oise": 7636,
      "##nal": 7637,
      "##und": 7638,
      "##tr": 7639,
      "##itha": 7640,
      "##vo": 7641,
      "##fish": 7642,
      "##20": 7643,
      "##erved": 7644,
      "##atan": 7645,
      "##onven": 7646,
      "##onment": 7647,
      "##aries": 7648,
      "##ician": 7649,
      "beef": 7650,
      "mell": 7651,
      "sober": 7652,
      "shad": 7653,
      "shite": 7654,
      "##ghetti": 7655,
      "stalk": 7656,
      "##eek": 7657,
      "neat": 7658,
      "chet": 7659,
      "##aline": 7660,
      "##iago": 7661,
      "alene": 7662,
      "abort": 7663,
      "jodi": 7664,
      "fired": 7665,
      "loving": 7666,
      "##ironment": 7667,
      "##essed": 7668,
      "tomato": 7669,
      "##ceed": 7670,
      "prove": 7671,
      "##olo": 7672,
      "gust": 7673,
      "comin": 7674,
      "##sss": 7675,
      "##bey": 7676,
      "clim": 7677,
      "monkey": 7678,
      "trous": 7679,
      "manual": 7680,
      "wag": 7681,
      "pets": 7682,
      "grade": 7683,
      "grumpy": 7684,
      "matte": 7685,
      "enzo": 7686,
      "energy": 7687,
      "remove": 7688,
      "marks": 7689,
      "financ": 7690,
      "##teen": 7691,
      "drank": 7692,
      "applied": 7693,
      "recording": 7694,
      "##iza": 7695,
      "##ileen": 7696,
      "natty": 7697,
      "maxim": 7698,
      "hearing": 7699,
      "henning": 7700,
      "dianne": 7701,
      "norah": 7702,
      "farm": 7703,
      "foundation": 7704,
      "trent": 7705,
      "roommate": 7706,
      "warning": 7707,
      "err": 7708,
      "pointless": 7709,
      "15th": 7710,
      "superh": 7711,
      "instit": 7712,
      "raise": 7713,
      "popul": 7714,
      "feelings": 7715,
      "metro": 7716,
      "teachers": 7717,
      "nicer": 7718,
      "detail": 7719,
      "12th": 7720,
      "marciano": 7721,
      "xxxxx": 7722,
      "situ": 7723,
      "costume": 7724,
      "drove": 7725,
      "publish": 7726,
      "inconven": 7727,
      "##uuu": 7728,
      "##ological": 7729,
      "shirts": 7730,
      "prize": 7731,
      "miller": 7732,
      "legend": 7733,
      "irwin": 7734,
      "relaxed": 7735,
      "uncomfort": 7736,
      "bothered": 7737,
      "alfonso": 7738,
      "shaun": 7739,
      "cecily": 7740,
      "indian": 7741,
      "annoyed": 7742,
      "19th": 7743,
      "tabitha": 7744,
      "belong": 7745,
      "reached": 7746,
      "models": 7747,
      "kicked": 7748,
      "glenn": 7749,
      "motor": 7750,
      "include": 7751,
      "mmmm": 7752,
      "propos": 7753,
      "refused": 7754,
      "reaction": 7755,
      "massage": 7756,
      "spaghetti": 7757,
      "suffering": 7758,
      "baked": 7759,
      "discovered": 7760,
      "items": 7761,
      "exhausted": 7762,
      "constantly": 7763,
      "independent": 7764,
      "thnx": 7765,
      "tourists": 7766,
      "architecture": 7767,
      "jordyn": 7768,
      "femin": 7769,
      "gracie": 7770,
      "ingredients": 7771,
      "storage": 7772,
      "mushroom": 7773,
      "democr": 7774,
      "environment": 7775,
      "campaign": 7776,
      "civ": 7777,
      "dal": 7778,
      "hed": 7779,
      "ja": 7780,
      "led": 7781,
      "mim": 7782,
      "rha": 7783,
      "range": 7784,
      "sen": 7785,
      "tx": 7786,
      "tee": 7787,
      "tank": 7788,
      "ute": 7789,
      "windy": 7790,
      "😊😊": 7791,
      "##psody": 7792,
      "##nia": 7793,
      "##iola": 7794,
      "##donald": 7795,
      "##round": 7796,
      "##bre": 7797,
      "##bage": 7798,
      "##burn": 7799,
      "##bille": 7800,
      "##wor": 7801,
      "##wash": 7802,
      "##45": 7803,
      "##inting": 7804,
      "##atives": 7805,
      "##real": 7806,
      "##ington": 7807,
      "##orate": 7808,
      "##eday": 7809,
      "wha": 7810,
      "##eable": 7811,
      "##sty": 7812,
      "held": 7813,
      "##idan": 7814,
      "socc": 7815,
      "isis": 7816,
      "isnt": 7817,
      "##aced": 7818,
      "suic": 7819,
      "##eem": 7820,
      "nell": 7821,
      "reed": 7822,
      "chic": 7823,
      "chances": 7824,
      "donte": 7825,
      "altern": 7826,
      "willie": 7827,
      "jogging": 7828,
      "##enda": 7829,
      "##ilah": 7830,
      "shelley": 7831,
      "mode": 7832,
      "plz": 7833,
      "wanting": 7834,
      "orch": 7835,
      "pros": 7836,
      "proced": 7837,
      "##olen": 7838,
      "workout": 7839,
      "aga": 7840,
      "brus": 7841,
      "arlene": 7842,
      "rights": 7843,
      "adjust": 7844,
      "devin": 7845,
      "sees": 7846,
      "##empt": 7847,
      "talks": 7848,
      "daki": 7849,
      "mates": 7850,
      "milly": 7851,
      "##istration": 7852,
      "awake": 7853,
      "prim": 7854,
      "##isson": 7855,
      "overs": 7856,
      "lead": 7857,
      "scot": 7858,
      "univer": 7859,
      "##gggg": 7860,
      "tons": 7861,
      "comple": 7862,
      "hellen": 7863,
      "explo": 7864,
      "brock": 7865,
      "10pm": 7866,
      "perfume": 7867,
      "mission": 7868,
      "classy": 7869,
      "eastern": 7870,
      "20th": 7871,
      "dislike": 7872,
      "birds": 7873,
      "eveline": 7874,
      "hmmmm": 7875,
      "understandable": 7876,
      "philos": 7877,
      "addict": 7878,
      "corpor": 7879,
      "delilah": 7880,
      "lynd": 7881,
      "headphones": 7882,
      "passport": 7883,
      "folder": 7884,
      "kenzie": 7885,
      "gale": 7886,
      "recommendation": 7887,
      "preferences": 7888,
      "advise": 7889,
      "snea": 7890,
      "commit": 7891,
      "consult": 7892,
      "organised": 7893,
      "sybille": 7894,
      "singer": 7895,
      "contacts": 7896,
      "##anni": 7897,
      "copies": 7898,
      "international": 7899,
      "mainly": 7900,
      "landing": 7901,
      "respond": 7902,
      "alien": 7903,
      "cases": 7904,
      "yuki": 7905,
      "kristel": 7906,
      "alberto": 7907,
      "bonny": 7908,
      "chatting": 7909,
      "##zzzz": 7910,
      "indust": 7911,
      "traveling": 7912,
      "affordable": 7913,
      "below": 7914,
      "election": 7915,
      "ignored": 7916,
      "batman": 7917,
      "gino": 7918,
      "nadine": 7919,
      "giles": 7920,
      "##ribed": 7921,
      "shocking": 7922,
      "crisis": 7923,
      "trisha": 7924,
      "grades": 7925,
      "cosmet": 7926,
      "collecting": 7927,
      "blair": 7928,
      "journal": 7929,
      "hostel": 7930,
      "describe": 7931,
      "xdddd": 7932,
      "lexie": 7933,
      "sheridan": 7934,
      "vegetarian": 7935,
      "candles": 7936,
      "recorded": 7937,
      "savings": 7938,
      "econom": 7939,
      "shelter": 7940,
      "connected": 7941,
      "frustrated": 7942,
      "ruined": 7943,
      "##kok": 7944,
      "gigi": 7945,
      "demanding": 7946,
      "zelda": 7947,
      "drugs": 7948,
      "bangkok": 7949,
      "equip": 7950,
      "binge": 7951,
      "challenge": 7952,
      "circum": 7953,
      "derrick": 7954,
      "eugene": 7955,
      "talented": 7956,
      "delighted": 7957,
      "gimme": 7958,
      "hubby": 7959,
      "society": 7960,
      "supervisor": 7961,
      "cafet": 7962,
      "flexible": 7963,
      "railway": 7964,
      "muffins": 7965,
      "conservative": 7966,
      "matteo": 7967,
      "uncomfortable": 7968,
      "rhapsody": 7969,
      "soccer": 7970,
      "cosmetics": 7971,
      "33": 7972,
      "bess": 7973,
      "dies": 7974,
      "ester": 7975,
      "gho": 7976,
      "gaming": 7977,
      "gmail": 7978,
      "hrs": 7979,
      "ira": 7980,
      "icel": 7981,
      "kour": 7982,
      "lent": 7983,
      "lacey": 7984,
      "nons": 7985,
      "named": 7986,
      "oce": 7987,
      "pd": 7988,
      "rou": 7989,
      "rio": 7990,
      "riv": 7991,
      "rules": 7992,
      "tun": 7993,
      "uma": 7994,
      "wank": 7995,
      "yoli": 7996,
      "zac": 7997,
      "😍😍😍": 7998,
      "##parent": 7999,
      "##tney": 8000,
      "##ray": 8001,
      "##rome": 8002,
      "##rated": 8003,
      "##gic": 8004,
      "##cent": 8005,
      "##bra": 8006,
      "##ws": 8007,
      "##wr": 8008,
      "##her": 8009,
      "##fus": 8010,
      "##field": 8011,
      "##❤❤": 8012,
      "##ators": 8013,
      "toy": 8014,
      "anast": 8015,
      "##thod": 8016,
      "##asp": 8017,
      "##asia": 8018,
      "belle": 8019,
      "ina": 8020,
      "meggy": 8021,
      "##ste": 8022,
      "##stick": 8023,
      "forced": 8024,
      "shi": 8025,
      "dod": 8026,
      "##ami": 8027,
      "canteen": 8028,
      "reve": 8029,
      "rebe": 8030,
      "alonso": 8031,
      "##riett": 8032,
      "lloyd": 8033,
      "##roid": 8034,
      "##iles": 8035,
      "sheet": 8036,
      "amka": 8037,
      "grew": 8038,
      "exotic": 8039,
      "##ours": 8040,
      "built": 8041,
      "hired": 8042,
      "brat": 8043,
      "admin": 8044,
      "newest": 8045,
      "deird": 8046,
      "tricia": 8047,
      "##phis": 8048,
      "waited": 8049,
      "offended": 8050,
      "pean": 8051,
      "##istics": 8052,
      "##aked": 8053,
      "dixie": 8054,
      "blond": 8055,
      "overall": 8056,
      "permission": 8057,
      "harriett": 8058,
      "elton": 8059,
      "scand": 8060,
      "mommy": 8061,
      "unbe": 8062,
      "watches": 8063,
      "dram": 8064,
      "compare": 8065,
      "barney": 8066,
      "bree": 8067,
      "expl": 8068,
      "terence": 8069,
      "melody": 8070,
      "resist": 8071,
      "kindle": 8072,
      "babs": 8073,
      "surround": 8074,
      "clementine": 8075,
      "trend": 8076,
      "louie": 8077,
      "thru": 8078,
      "thrones": 8079,
      "creature": 8080,
      "horace": 8081,
      "hola": 8082,
      "someday": 8083,
      "francie": 8084,
      "jenni": 8085,
      "lilyana": 8086,
      "julio": 8087,
      "engage": 8088,
      "arturo": 8089,
      "concent": 8090,
      "therese": 8091,
      "organis": 8092,
      "medium": 8093,
      "puppy": 8094,
      "pussy": 8095,
      "matthias": 8096,
      "teams": 8097,
      "experiment": 8098,
      "euros": 8099,
      "cope": 8100,
      "rebeca": 8101,
      "countryside": 8102,
      "aidan": 8103,
      "##vision": 8104,
      "vienna": 8105,
      "kristina": 8106,
      "potential": 8107,
      "##ification": 8108,
      "chilling": 8109,
      "explained": 8110,
      "warmer": 8111,
      "royal": 8112,
      "vacc": 8113,
      "histor": 8114,
      "fatima": 8115,
      "misha": 8116,
      "devil": 8117,
      "kaylee": 8118,
      "ramon": 8119,
      "irish": 8120,
      "valerio": 8121,
      "gilbert": 8122,
      "heaven": 8123,
      "ukraine": 8124,
      "klara": 8125,
      "rhys": 8126,
      "proposed": 8127,
      "frederic": 8128,
      "rowan": 8129,
      "hobby": 8130,
      "fleur": 8131,
      "promoted": 8132,
      "massive": 8133,
      "queue": 8134,
      "bernard": 8135,
      "elaine": 8136,
      "frozen": 8137,
      "materials": 8138,
      "ewan": 8139,
      "steam": 8140,
      "introduc": 8141,
      "yasmin": 8142,
      "recognize": 8143,
      "route": 8144,
      "griff": 8145,
      "deserved": 8146,
      "obsessed": 8147,
      "morton": 8148,
      "lifesa": 8149,
      "divorce": 8150,
      "basketball": 8151,
      "jewel": 8152,
      "eleonor": 8153,
      "arguing": 8154,
      "beyond": 8155,
      "deacon": 8156,
      "rylen": 8157,
      "corey": 8158,
      "wardrobe": 8159,
      "moore": 8160,
      "dolores": 8161,
      "gibson": 8162,
      "gustav": 8163,
      "trousers": 8164,
      "procedure": 8165,
      "brussels": 8166,
      "universe": 8167,
      "philosoph": 8168,
      "ghost": 8169,
      "iceland": 8170,
      "kourtney": 8171,
      "nonsense": 8172,
      "ocean": 8173,
      "anastasia": 8174,
      "rebekah": 8175,
      "deirdre": 8176,
      "43": 8177,
      "7am": 8178,
      "aure": 8179,
      "ack": 8180,
      "aqu": 8181,
      "aaaa": 8182,
      "bam": 8183,
      "bul": 8184,
      "ce": 8185,
      "cad": 8186,
      "cott": 8187,
      "dus": 8188,
      "iona": 8189,
      "jak": 8190,
      "kad": 8191,
      "kitt": 8192,
      "kels": 8193,
      "kett": 8194,
      "lact": 8195,
      "lamp": 8196,
      "mare": 8197,
      "pit": 8198,
      "pia": 8199,
      "punch": 8200,
      "rings": 8201,
      "sar": 8202,
      "sac": 8203,
      "sang": 8204,
      "tent": 8205,
      "vit": 8206,
      "##pes": 8207,
      "##pir": 8208,
      "##lim": 8209,
      "##too": 8210,
      "##iqu": 8211,
      "##eet": 8212,
      "##va": 8213,
      "##vant": 8214,
      "##kt": 8215,
      "##gant": 8216,
      "##cle": 8217,
      "##cul": 8218,
      "##corn": 8219,
      "##cliff": 8220,
      "##wny": 8221,
      "##jon": 8222,
      "##😙😙": 8223,
      "thum": 8224,
      "##ined": 8225,
      "##resh": 8226,
      "##ario": 8227,
      "anime": 8228,
      "anka": 8229,
      "##eds": 8230,
      "##edes": 8231,
      "##uten": 8232,
      "beg": 8233,
      "wid": 8234,
      "dolly": 8235,
      "doors": 8236,
      "steal": 8237,
      "butt": 8238,
      "neomi": 8239,
      "cher": 8240,
      "chica": 8241,
      "alot": 8242,
      "alph": 8243,
      "marl": 8244,
      "abdi": 8245,
      "##rore": 8246,
      "aside": 8247,
      "loan": 8248,
      "##eland": 8249,
      "##ili": 8250,
      "##ilton": 8251,
      "goodnight": 8252,
      "mock": 8253,
      "mun": 8254,
      "##arten": 8255,
      "herbert": 8256,
      "bush": 8257,
      "budd": 8258,
      "giov": 8259,
      "brush": 8260,
      "spice": 8261,
      "spicy": 8262,
      "adeline": 8263,
      "emi": 8264,
      "everytime": 8265,
      "monster": 8266,
      "trade": 8267,
      "posh": 8268,
      "ident": 8269,
      "gray": 8270,
      "asks": 8271,
      "patri": 8272,
      "##aki": 8273,
      "maryann": 8274,
      "jensen": 8275,
      "prince": 8276,
      "diary": 8277,
      "blanca": 8278,
      "lavin": 8279,
      "steps": 8280,
      "eloise": 8281,
      "actress": 8282,
      "flor": 8283,
      "scient": 8284,
      "moments": 8285,
      "unp": 8286,
      "unlike": 8287,
      "morty": 8288,
      "mini": 8289,
      "minim": 8290,
      "minny": 8291,
      "madd": 8292,
      "bars": 8293,
      "barg": 8294,
      "rufus": 8295,
      "brent": 8296,
      "brenn": 8297,
      "broad": 8298,
      "glitter": 8299,
      "elle": 8300,
      "nickie": 8301,
      "ears": 8302,
      "kinderg": 8303,
      "henriet": 8304,
      "worrying": 8305,
      "eddy": 8306,
      "dinny": 8307,
      "cleo": 8308,
      "policy": 8309,
      "phili": 8310,
      "milo": 8311,
      "15min": 8312,
      "aurore": 8313,
      "superb": 8314,
      "horses": 8315,
      "fully": 8316,
      "rae": 8317,
      "prepar": 8318,
      "popcorn": 8319,
      "karine": 8320,
      "basics": 8321,
      "listened": 8322,
      "expectations": 8323,
      "deter": 8324,
      "childhood": 8325,
      "debby": 8326,
      "biology": 8327,
      "subm": 8328,
      "subsc": 8329,
      "cheapest": 8330,
      "keyboard": 8331,
      "coping": 8332,
      "##iii": 8333,
      "facts": 8334,
      "landsc": 8335,
      "austria": 8336,
      "stores": 8337,
      "analy": 8338,
      "memphis": 8339,
      "viet": 8340,
      "tamar": 8341,
      "rodger": 8342,
      "complaint": 8343,
      "yuval": 8344,
      "profession": 8345,
      "burnt": 8346,
      "lorna": 8347,
      "suitable": 8348,
      "practical": 8349,
      "tattoo": 8350,
      "misunder": 8351,
      "approved": 8352,
      "alyson": 8353,
      "panel": 8354,
      "tables": 8355,
      "palm": 8356,
      "meantime": 8357,
      "##pects": 8358,
      "languages": 8359,
      "treatment": 8360,
      "crowd": 8361,
      "avoc": 8362,
      "autom": 8363,
      "romeo": 8364,
      "loool": 8365,
      "refresh": 8366,
      "organized": 8367,
      "ayla": 8368,
      "piper": 8369,
      "release": 8370,
      "applying": 8371,
      "mexican": 8372,
      "tort": 8373,
      "kendrick": 8374,
      "pierre": 8375,
      "roxy": 8376,
      "junk": 8377,
      "locked": 8378,
      "niall": 8379,
      "bbc": 8380,
      "dotty": 8381,
      "prison": 8382,
      "relief": 8383,
      "claude": 8384,
      "divorced": 8385,
      "blanket": 8386,
      "settings": 8387,
      "instructor": 8388,
      "instructions": 8389,
      "mcdonald": 8390,
      "eleonore": 8391,
      "source": 8392,
      "alaina": 8393,
      "outfit": 8394,
      "therapy": 8395,
      "experienced": 8396,
      "telma": 8397,
      "injured": 8398,
      "brazil": 8399,
      "pocket": 8400,
      "license": 8401,
      "rafael": 8402,
      "tmrw": 8403,
      "##standing": 8404,
      "ambulance": 8405,
      "citiz": 8406,
      "disagree": 8407,
      "vlad": 8408,
      "theodore": 8409,
      "australia": 8410,
      "purchase": 8411,
      "multiple": 8412,
      "yikes": 8413,
      "superhero": 8414,
      "civil": 8415,
      "equipment": 8416,
      "cafeteria": 8417,
      "reveal": 8418,
      "lifesaver": 8419,
      "lactose": 8420,
      "chicago": 8421,
      "alphonse": 8422,
      "lavinia": 8423,
      "brennan": 8424,
      "henrietta": 8425,
      "bs": 8426,
      "b4": 8427,
      "bach": 8428,
      "berry": 8429,
      "cater": 8430,
      "cage": 8431,
      "dat": 8432,
      "ditch": 8433,
      "eb": 8434,
      "elder": 8435,
      "fal": 8436,
      "fart": 8437,
      "hp": 8438,
      "ip": 8439,
      "ic": 8440,
      "iggy": 8441,
      "jk": 8442,
      "jed": 8443,
      "kg": 8444,
      "lg": 8445,
      "loooo": 8446,
      "leland": 8447,
      "mut": 8448,
      "mous": 8449,
      "macey": 8450,
      "nach": 8451,
      "sack": 8452,
      "slo": 8453,
      "tac": 8454,
      "tie": 8455,
      "tate": 8456,
      "tack": 8457,
      "tail": 8458,
      "tires": 8459,
      "und": 8460,
      "vs": 8461,
      "wre": 8462,
      "wit": 8463,
      "wore": 8464,
      "yrs": 8465,
      "zay": 8466,
      "zero": 8467,
      "🤣🤣": 8468,
      "##made": 8469,
      "##sin": 8470,
      "##oot": 8471,
      "##ointing": 8472,
      "##now": 8473,
      "##name": 8474,
      "##tch": 8475,
      "##down": 8476,
      "##ey": 8477,
      "##ring": 8478,
      "##rate": 8479,
      "##bet": 8480,
      "##wa": 8481,
      "##wood": 8482,
      "##yush": 8483,
      "##hi": 8484,
      "##xd": 8485,
      "##je": 8486,
      "##ani": 8487,
      "##anza": 8488,
      "toll": 8489,
      "toys": 8490,
      "##rek": 8491,
      "##react": 8492,
      "##ori": 8493,
      "##thin": 8494,
      "##think": 8495,
      "##iser": 8496,
      "##isie": 8497,
      "bev": 8498,
      "hem": 8499,
      "hectic": 8500,
      "shayla": 8501,
      "shakes": 8502,
      "shiny": 8503,
      "shrim": 8504,
      "shorter": 8505,
      "doin": 8506,
      "stood": 8507,
      "stairs": 8508,
      "stones": 8509,
      "##ieve": 8510,
      "##iece": 8511,
      "lil": 8512,
      "##sec": 8513,
      "chest": 8514,
      "donate": 8515,
      "goal": 8516,
      "godd": 8517,
      "alina": 8518,
      "marin": 8519,
      "marathon": 8520,
      "##rien": 8521,
      "##rigu": 8522,
      "abbey": 8523,
      "##ante": 8524,
      "##naby": 8525,
      "##pple": 8526,
      "##ppers": 8527,
      "orders": 8528,
      "phd": 8529,
      "##olution": 8530,
      "guill": 8531,
      "wouldnt": 8532,
      "comic": 8533,
      "shouldnt": 8534,
      "uses": 8535,
      "bron": 8536,
      "brunch": 8537,
      "arrest": 8538,
      "leop": 8539,
      "adela": 8540,
      "deed": 8541,
      "maia": 8542,
      "maisie": 8543,
      "##oret": 8544,
      "johnathan": 8545,
      "saga": 8546,
      "quid": 8547,
      "##phy": 8548,
      "jana": 8549,
      "jann": 8550,
      "kebab": 8551,
      "lasts": 8552,
      "##law": 8553,
      "##osa": 8554,
      "dire": 8555,
      "overreact": 8556,
      "bits": 8557,
      "perry": 8558,
      "charming": 8559,
      "actor": 8560,
      "##iforn": 8561,
      "luka": 8562,
      "compared": 8563,
      "barnaby": 8564,
      "gear": 8565,
      "termin": 8566,
      "jessy": 8567,
      "kiddin": 8568,
      "resc": 8569,
      "intrigu": 8570,
      "##apes": 8571,
      "##enses": 8572,
      "northern": 8573,
      "drill": 8574,
      "##ottie": 8575,
      "urgh": 8576,
      "polite": 8577,
      "lyla": 8578,
      "laurien": 8579,
      "colby": 8580,
      "walks": 8581,
      "horse": 8582,
      "cheat": 8583,
      "fuss": 8584,
      "surprises": 8585,
      "promising": 8586,
      "karan": 8587,
      "attempt": 8588,
      "crim": 8589,
      "californ": 8590,
      "jillian": 8591,
      "feb": 8592,
      "confusing": 8593,
      "artist": 8594,
      "preferably": 8595,
      "salv": 8596,
      "salon": 8597,
      "suzan": 8598,
      "organic": 8599,
      "costa": 8600,
      "midday": 8601,
      "standard": 8602,
      "insist": 8603,
      "catching": 8604,
      "safely": 8605,
      "shortly": 8606,
      "11am": 8607,
      "##axy": 8608,
      "riding": 8609,
      "magical": 8610,
      "romy": 8611,
      "dominique": 8612,
      "clip": 8613,
      "rainy": 8614,
      "leonardo": 8615,
      "lesley": 8616,
      "potato": 8617,
      "hehehe": 8618,
      "##iety": 8619,
      "shuttle": 8620,
      "tanvi": 8621,
      "followed": 8622,
      "decisions": 8623,
      "ahahaha": 8624,
      "fellow": 8625,
      "battle": 8626,
      "constr": 8627,
      "constanza": 8628,
      "cristian": 8629,
      "tawny": 8630,
      "kamren": 8631,
      "rocky": 8632,
      "mitchell": 8633,
      "bastards": 8634,
      "subjects": 8635,
      "mercedes": 8636,
      "piyush": 8637,
      "customers": 8638,
      "troll": 8639,
      "suffer": 8640,
      "necessarily": 8641,
      "galaxy": 8642,
      "bbq": 8643,
      "routine": 8644,
      "fernando": 8645,
      "reyna": 8646,
      "effects": 8647,
      "successful": 8648,
      "entertaining": 8649,
      "thrilled": 8650,
      "electricity": 8651,
      "documentary": 8652,
      "volunteers": 8653,
      "graphics": 8654,
      "motivation": 8655,
      "narc": 8656,
      "mohamed": 8657,
      "refuse": 8658,
      "critic": 8659,
      "hundreds": 8660,
      "departure": 8661,
      "grammar": 8662,
      "education": 8663,
      "saskia": 8664,
      "captain": 8665,
      "##ography": 8666,
      "googled": 8667,
      "umbrella": 8668,
      "mimi": 8669,
      "circumst": 8670,
      "dusan": 8671,
      "kettle": 8672,
      "thumbs": 8673,
      "california": 8674,
      "90": 8675,
      "ace": 8676,
      "aston": 8677,
      "bent": 8678,
      "bail": 8679,
      "cort": 8680,
      "dough": 8681,
      "eq": 8682,
      "fond": 8683,
      "fries": 8684,
      "gp": 8685,
      "gise": 8686,
      "gles": 8687,
      "hoo": 8688,
      "hort": 8689,
      "hett": 8690,
      "jail": 8691,
      "kiko": 8692,
      "ooooo": 8693,
      "peel": 8694,
      "pitt": 8695,
      "tig": 8696,
      "woof": 8697,
      "zen": 8698,
      "😁😁": 8699,
      "##mart": 8700,
      "##mother": 8701,
      "##ns": 8702,
      "##nge": 8703,
      "##lord": 8704,
      "##log": 8705,
      "##don": 8706,
      "##dam": 8707,
      "##earing": 8708,
      "##ran": 8709,
      "##ruit": 8710,
      "##bel": 8711,
      "##wig": 8712,
      "##hand": 8713,
      "##fers": 8714,
      "##zer": 8715,
      "##10": 8716,
      "##👏👏": 8717,
      "##😻😻": 8718,
      "##oured": 8719,
      "##once": 8720,
      "##arter": 8721,
      "aneta": 8722,
      "##thus": 8723,
      "##eding": 8724,
      "##edom": 8725,
      "wheel": 8726,
      "##icio": 8727,
      "beans": 8728,
      "ines": 8729,
      "inno": 8730,
      "method": 8731,
      "wire": 8732,
      "wide": 8733,
      "onion": 8734,
      "##sten": 8735,
      "soap": 8736,
      "neph": 8737,
      "rex": 8738,
      "relia": 8739,
      "noelle": 8740,
      "almond": 8741,
      "##rika": 8742,
      "abel": 8743,
      "loser": 8744,
      "timing": 8745,
      "##ulia": 8746,
      "plain": 8747,
      "##rael": 8748,
      "ordin": 8749,
      "##areth": 8750,
      "##berries": 8751,
      "herm": 8752,
      "##allao": 8753,
      "bugger": 8754,
      "giulia": 8755,
      "clo": 8756,
      "clay": 8757,
      "gotcha": 8758,
      "bore": 8759,
      "sammie": 8760,
      "greatest": 8761,
      "spons": 8762,
      "##aus": 8763,
      "monique": 8764,
      "trinity": 8765,
      "wherever": 8766,
      "##pher": 8767,
      "##shine": 8768,
      "dai": 8769,
      "davis": 8770,
      "davon": 8771,
      "mature": 8772,
      "mild": 8773,
      "mika": 8774,
      "enthus": 8775,
      "##aken": 8776,
      "marylin": 8777,
      "##lai": 8778,
      "prick": 8779,
      "prud": 8780,
      "dialog": 8781,
      "leader": 8782,
      "steff": 8783,
      "harass": 8784,
      "finlay": 8785,
      "scam": 8786,
      "served": 8787,
      "finds": 8788,
      "rug": 8789,
      "buses": 8790,
      "terr": 8791,
      "recon": 8792,
      "smash": 8793,
      "melania": 8794,
      "##obhan": 8795,
      "reserved": 8796,
      "simona": 8797,
      "missy": 8798,
      "intend": 8799,
      "intell": 8800,
      "monthly": 8801,
      "##ylar": 8802,
      "darline": 8803,
      "classroom": 8804,
      "hoc": 8805,
      "##anges": 8806,
      "vision": 8807,
      "##ordin": 8808,
      "gabby": 8809,
      "skating": 8810,
      "skylar": 8811,
      "lounge": 8812,
      "wars": 8813,
      "corina": 8814,
      "fredrik": 8815,
      "richmond": 8816,
      "desig": 8817,
      "ersin": 8818,
      "##anair": 8819,
      "throughout": 8820,
      "realistic": 8821,
      "##lock": 8822,
      "larissa": 8823,
      "fuel": 8824,
      "hunting": 8825,
      "ryanair": 8826,
      "##ibly": 8827,
      "##hahaha": 8828,
      "conclus": 8829,
      "##onto": 8830,
      "grandmother": 8831,
      "siobhan": 8832,
      "dropping": 8833,
      "sym": 8834,
      "debate": 8835,
      "subst": 8836,
      "stretch": 8837,
      "repub": 8838,
      "brands": 8839,
      "offering": 8840,
      "topics": 8841,
      "fabric": 8842,
      "depending": 8843,
      "pricey": 8844,
      "response": 8845,
      "kimberley": 8846,
      "##jamas": 8847,
      "sunshine": 8848,
      "frannie": 8849,
      "whatsup": 8850,
      "neighbors": 8851,
      "vibe": 8852,
      "kristle": 8853,
      "fitz": 8854,
      "discussed": 8855,
      "##ships": 8856,
      "vacu": 8857,
      "supportive": 8858,
      "antonio": 8859,
      "district": 8860,
      "pinkie": 8861,
      "constance": 8862,
      "2018": 8863,
      "marketing": 8864,
      "crowds": 8865,
      "length": 8866,
      "campbell": 8867,
      "urgently": 8868,
      "orion": 8869,
      "fluffy": 8870,
      "antib": 8871,
      "feeding": 8872,
      "attending": 8873,
      "ikr": 8874,
      "balt": 8875,
      "pairs": 8876,
      "levels": 8877,
      "drawing": 8878,
      "rani": 8879,
      "psychology": 8880,
      "averi": 8881,
      "mercury": 8882,
      "digital": 8883,
      "mauricio": 8884,
      "pretending": 8885,
      "technical": 8886,
      "technology": 8887,
      "dinah": 8888,
      "nerves": 8889,
      "bakery": 8890,
      "negative": 8891,
      "funding": 8892,
      "reece": 8893,
      "uploaded": 8894,
      "terrified": 8895,
      "geraldine": 8896,
      "beatriz": 8897,
      "snap": 8898,
      "mental": 8899,
      "shanon": 8900,
      "whiskey": 8901,
      "cockt": 8902,
      "giselle": 8903,
      "narrow": 8904,
      "installed": 8905,
      "prague": 8906,
      "karaoke": 8907,
      "hawai": 8908,
      "hammond": 8909,
      "rehearsal": 8910,
      "bacallao": 8911,
      "belgium": 8912,
      "##priate": 8913,
      "apollo": 8914,
      "wagner": 8915,
      "inconvenience": 8916,
      "suicide": 8917,
      "scotland": 8918,
      "complex": 8919,
      "industry": 8920,
      "router": 8921,
      "unbear": 8922,
      "jewelry": 8923,
      "maddison": 8924,
      "bachel": 8925,
      "leopold": 8926,
      "narcos": 8927,
      "equally": 8928,
      "gisele": 8929,
      "glesny": 8930,
      "hettie": 8931,
      "nephew": 8932,
      "reliable": 8933,
      "ordinary": 8934,
      "38": 8935,
      "39": 8936,
      "75": 8937,
      "80s": 8938,
      "aaaaa": 8939,
      "bc": 8940,
      "bond": 8941,
      "cd": 8942,
      "dj": 8943,
      "dalia": 8944,
      "egy": 8945,
      "fer": 8946,
      "gut": 8947,
      "gur": 8948,
      "gender": 8949,
      "kle": 8950,
      "ld": 8951,
      "ling": 8952,
      "masha": 8953,
      "nan": 8954,
      "nom": 8955,
      "oy": 8956,
      "oak": 8957,
      "osw": 8958,
      "pint": 8959,
      "sed": 8960,
      "sall": 8961,
      "tang": 8962,
      "um": 8963,
      "uff": 8964,
      "vent": 8965,
      "vitor": 8966,
      "wings": 8967,
      "wroc": 8968,
      "xo": 8969,
      "zane": 8970,
      "##aah": 8971,
      "##pot": 8972,
      "##pea": 8973,
      "##sm": 8974,
      "##oine": 8975,
      "##uous": 8976,
      "##lict": 8977,
      "##kow": 8978,
      "##kle": 8979,
      "##core": 8980,
      "##bin": 8981,
      "##bag": 8982,
      "##house": 8983,
      "##zes": 8984,
      "##ji": 8985,
      "##😠😠": 8986,
      "thiago": 8987,
      "##aniel": 8988,
      "youve": 8989,
      "theories": 8990,
      "##rets": 8991,
      "##aran": 8992,
      "##arison": 8993,
      "anx": 8994,
      "ankle": 8995,
      "##esha": 8996,
      "##omes": 8997,
      "##leigh": 8998,
      "##oop": 8999,
      "##itius": 9000,
      "heck": 9001,
      "shed": 9002,
      "stall": 9003,
      "sum": 9004,
      "liver": 9005,
      "liking": 9006,
      "regan": 9007,
      "reub": 9008,
      "reject": 9009,
      "chilly": 9010,
      "nobu": 9011,
      "donov": 9012,
      "goals": 9013,
      "alv": 9014,
      "filly": 9015,
      "lover": 9016,
      "##iration": 9017,
      "howie": 9018,
      "amalia": 9019,
      "##ppies": 9020,
      "##esty": 9021,
      "muham": 9022,
      "##rah": 9023,
      "roch": 9024,
      "##arett": 9025,
      "exit": 9026,
      "##arded": 9027,
      "##lize": 9028,
      "agenda": 9029,
      "hike": 9030,
      "letters": 9031,
      "paola": 9032,
      "giant": 9033,
      "gilda": 9034,
      "clint": 9035,
      "arse": 9036,
      "boot": 9037,
      "spin": 9038,
      "spar": 9039,
      "spill": 9040,
      "spud": 9041,
      "hahaa": 9042,
      "addy": 9043,
      "eman": 9044,
      "mauro": 9045,
      "sew": 9046,
      "truck": 9047,
      "helga": 9048,
      "sak": 9049,
      "sailing": 9050,
      "##xton": 9051,
      "coinc": 9052,
      "dani": 9053,
      "whose": 9054,
      "dag": 9055,
      "dawn": 9056,
      "peggie": 9057,
      "makeup": 9058,
      "envious": 9059,
      "##istry": 9060,
      "maryam": 9061,
      "##lav": 9062,
      "becomes": 9063,
      "remy": 9064,
      "overnight": 9065,
      "##ittee": 9066,
      "planet": 9067,
      "benson": 9068,
      "jamal": 9069,
      "uns": 9070,
      "interrupt": 9071,
      "comparison": 9072,
      "madness": 9073,
      "traum": 9074,
      "tragic": 9075,
      "10min": 9076,
      "jelly": 9077,
      "##obia": 9078,
      "trial": 9079,
      "susy": 9080,
      "30min": 9081,
      "nata": 9082,
      "tele": 9083,
      "telly": 9084,
      "nickolas": 9085,
      "martine": 9086,
      "##oya": 9087,
      "stuffed": 9088,
      "mums": 9089,
      "theirs": 9090,
      "harder": 9091,
      "hole": 9092,
      "hollie": 9093,
      "edit": 9094,
      "editing": 9095,
      "doroth": 9096,
      "housew": 9097,
      "2000": 9098,
      "20min": 9099,
      "defo": 9100,
      "urban": 9101,
      "##ups": 9102,
      "parano": 9103,
      "evenings": 9104,
      "warn": 9105,
      "warming": 9106,
      "differently": 9107,
      "registration": 9108,
      "honor": 9109,
      "winnie": 9110,
      "runs": 9111,
      "examples": 9112,
      "assure": 9113,
      "basis": 9114,
      "douche": 9115,
      "slides": 9116,
      "fees": 9117,
      "conflict": 9118,
      "airlines": 9119,
      "tyre": 9120,
      "salsa": 9121,
      "marcia": 9122,
      "sisters": 9123,
      "costumes": 9124,
      "pulled": 9125,
      "midter": 9126,
      "branden": 9127,
      "##books": 9128,
      "quicker": 9129,
      "brothers": 9130,
      "duncan": 9131,
      "stars": 9132,
      "##wwww": 9133,
      "flattered": 9134,
      "landlord": 9135,
      "speaker": 9136,
      "austen": 9137,
      "reminds": 9138,
      "certific": 9139,
      "angelo": 9140,
      "washed": 9141,
      "ronaldo": 9142,
      "lorrie": 9143,
      "kailey": 9144,
      "tempor": 9145,
      "practically": 9146,
      "tanja": 9147,
      "paperwork": 9148,
      "disappointing": 9149,
      "closet": 9150,
      "25th": 9151,
      "latin": 9152,
      "convincing": 9153,
      "unique": 9154,
      "distract": 9155,
      "soooooo": 9156,
      "belinda": 9157,
      "dye": 9158,
      "palace": 9159,
      "stronger": 9160,
      "idiots": 9161,
      "arranged": 9162,
      "conditions": 9163,
      "selfish": 9164,
      "anti": 9165,
      "antoine": 9166,
      "mmmmm": 9167,
      "virt": 9168,
      "assignments": 9169,
      "allyn": 9170,
      "24th": 9171,
      "mauritius": 9172,
      "pushing": 9173,
      "pushed": 9174,
      "queens": 9175,
      "kendra": 9176,
      "technically": 9177,
      "cultural": 9178,
      "connections": 9179,
      "medication": 9180,
      "degree": 9181,
      "inspired": 9182,
      "keenan": 9183,
      "vikt": 9184,
      "harrison": 9185,
      "colleague": 9186,
      "spoilers": 9187,
      "investig": 9188,
      "flav": 9189,
      "terrifying": 9190,
      "baseball": 9191,
      "participate": 9192,
      "exhausting": 9193,
      "argued": 9194,
      "exaggerating": 9195,
      "jaden": 9196,
      "wooow": 9197,
      "beyonce": 9198,
      "outfits": 9199,
      "brief": 9200,
      "scenes": 9201,
      "persu": 9202,
      "threw": 9203,
      "carrot": 9204,
      "korean": 9205,
      "voucher": 9206,
      "lipstick": 9207,
      "function": 9208,
      "stranger": 9209,
      "muscles": 9210,
      "despite": 9211,
      "commercial": 9212,
      "rotfl": 9213,
      "pizzas": 9214,
      "stalker": 9215,
      "abortion": 9216,
      "situations": 9217,
      "lynda": 9218,
      "pdf": 9219,
      "kelsie": 9220,
      "marek": 9221,
      "vitam": 9222,
      "kindergarten": 9223,
      "mousie": 9224,
      "tacos": 9225,
      "deedee": 9226,
      "republic": 9227,
      "reuben": 9228,
      "donovan": 9229,
      "muhammad": 9230,
      "01": 9231,
      "56": 9232,
      "65": 9233,
      "bin": 9234,
      "bio": 9235,
      "cere": 9236,
      "cah": 9237,
      "dottie": 9238,
      "ely": 9239,
      "eager": 9240,
      "fiction": 9241,
      "hut": 9242,
      "il": 9243,
      "jool": 9244,
      "lass": 9245,
      "mit": 9246,
      "nea": 9247,
      "niam": 9248,
      "nala": 9249,
      "pour": 9250,
      "pitch": 9251,
      "rat": 9252,
      "rare": 9253,
      "sark": 9254,
      "tin": 9255,
      "tasha": 9256,
      "ulla": 9257,
      "xander": 9258,
      "zoo": 9259,
      "😘😘": 9260,
      "##aw": 9261,
      "##mony": 9262,
      "##sch": 9263,
      "##ok": 9264,
      "##of": 9265,
      "##och": 9266,
      "##nic": 9267,
      "##ued": 9268,
      "##uana": 9269,
      "##lace": 9270,
      "##dcast": 9271,
      "##ears": 9272,
      "##rant": 9273,
      "##rze": 9274,
      "##kie": 9275,
      "##gl": 9276,
      "##gal": 9277,
      "##gos": 9278,
      "##card": 9279,
      "##cilla": 9280,
      "##bl": 9281,
      "##wind": 9282,
      "##hoo": 9283,
      "##hold": 9284,
      "##zza": 9285,
      "##jandra": 9286,
      "##juana": 9287,
      "##😱😱": 9288,
      "##🎉🎉": 9289,
      "##😳😳": 9290,
      "thir": 9291,
      "##inated": 9292,
      "##inho": 9293,
      "tops": 9294,
      "##llll": 9295,
      "##onzo": 9296,
      "##ening": 9297,
      "##ened": 9298,
      "wher": 9299,
      "whaaa": 9300,
      "##lem": 9301,
      "##icate": 9302,
      "##etown": 9303,
      "android": 9304,
      "##uting": 9305,
      "##utter": 9306,
      "beasts": 9307,
      "inga": 9308,
      "initi": 9309,
      "ontina": 9310,
      "heeeey": 9311,
      "##idents": 9312,
      "shee": 9313,
      "shake": 9314,
      "shaz": 9315,
      "shade": 9316,
      "##aman": 9317,
      "##ament": 9318,
      "reference": 9319,
      "chairs": 9320,
      "##ali": 9321,
      "noted": 9322,
      "alisha": 9323,
      "alisson": 9324,
      "alonzo": 9325,
      "##verse": 9326,
      "##ades": 9327,
      "##rianna": 9328,
      "##riona": 9329,
      "filled": 9330,
      "asha": 9331,
      "##ighton": 9332,
      "##antly": 9333,
      "fritz": 9334,
      "worn": 9335,
      "##iled": 9336,
      "##ilie": 9337,
      "##andi": 9338,
      "amster": 9339,
      "##abas": 9340,
      "##abel": 9341,
      "##ulce": 9342,
      "tool": 9343,
      "##berg": 9344,
      "herbs": 9345,
      "carm": 9346,
      "carib": 9347,
      "carbon": 9348,
      "bumm": 9349,
      "hire": 9350,
      "leticia": 9351,
      "pap": 9352,
      "gio": 9353,
      "giuse": 9354,
      "clown": 9355,
      "cloud": 9356,
      "climate": 9357,
      "leona": 9358,
      "leighton": 9359,
      "adnan": 9360,
      "heyyy": 9361,
      "maisy": 9362,
      "sev": 9363,
      "bettina": 9364,
      "johns": 9365,
      "wave": 9366,
      "##maine": 9367,
      "podcast": 9368,
      "talkin": 9369,
      "##ucky": 9370,
      "##ucker": 9371,
      "janelle": 9372,
      "##istan": 9373,
      "patsy": 9374,
      "stubb": 9375,
      "alejandra": 9376,
      "blush": 9377,
      "marked": 9378,
      "percy": 9379,
      "harvie": 9380,
      "elen": 9381,
      "guessing": 9382,
      "flower": 9383,
      "finals": 9384,
      "scra": 9385,
      "scale": 9386,
      "jama": 9387,
      "moris": 9388,
      "appeal": 9389,
      "chanel": 9390,
      "expenses": 9391,
      "coup": 9392,
      "couples": 9393,
      "recruit": 9394,
      "jessa": 9395,
      "gluten": 9396,
      "andres": 9397,
      "schol": 9398,
      "fave": 9399,
      "resa": 9400,
      "resort": 9401,
      "resume": 9402,
      "underground": 9403,
      "freeze": 9404,
      "micro": 9405,
      "omer": 9406,
      "minds": 9407,
      "##vester": 9408,
      "billie": 9409,
      "payten": 9410,
      "damar": 9411,
      "barbabas": 9412,
      "treated": 9413,
      "wishing": 9414,
      "messy": 9415,
      "messaged": 9416,
      "messaging": 9417,
      "lyman": 9418,
      "excel": 9419,
      "excuses": 9420,
      "katelin": 9421,
      "error": 9422,
      "struct": 9423,
      "##bron": 9424,
      "wins": 9425,
      "##uese": 9426,
      "gael": 9427,
      "raised": 9428,
      "raiola": 9429,
      "williams": 9430,
      "basia": 9431,
      "redec": 9432,
      "highway": 9433,
      "forgetting": 9434,
      "nico": 9435,
      "slot": 9436,
      "halfway": 9437,
[...]
