{
  "version": "1.0",
  "truncation": null,
  "padding": null,
  "added_tokens": [
    {
      "id": 0,
      "content": "[START]",
      "single_word": false,
      "lstrip": false,
      "rstrip": false,
      "normalized": false,
      "special": true
    },
    {
      "id": 1,
      "content": "[END]",
      "single_word": false,
      "lstrip": false,
      "rstrip": false,
      "normalized": false,
      "special": true
    },
    {
      "id": 2,
      "content": "[SEP]",
      "single_word": false,
      "lstrip": false,
      "rstrip": false,
      "normalized": false,
      "special": true
    },
    {
      "id": 3,
      "content": "[UNK]",
      "single_word": false,
      "lstrip": false,
      "rstrip": false,
      "normalized": false,
      "special": true
    },
    {
      "id": 4,
      "content": "[FILL]",
      "single_word": false,
      "lstrip": false,
      "rstrip": false,
      "normalized": false,
      "special": true
    }
  ],
  "normalizer": {
    "type": "BertNormalizer",
    "clean_text": true,
    "handle_chinese_chars": true,
    "strip_accents": null,
    "lowercase": true
  },
  "pre_tokenizer": {
    "type": "BertPreTokenizer"
  },
  "post_processor": {
    "type": "TemplateProcessing",
    "single": [
      {
        "SpecialToken": {
          "id": "[START]",
          "type_id": 0
        }
      },
      {
        "Sequence": {
          "id": "A",
          "type_id": 0
        }
      },
      {
        "SpecialToken": {
          "id": "[END]",
          "type_id": 0
        }
      }
    ],
    "pair": [
      {
        "SpecialToken": {
          "id": "[START]",
          "type_id": 0
        }
      },
      {
        "Sequence": {
          "id": "A",
          "type_id": 0
        }
      },
      {
        "SpecialToken": {
          "id": "[SEP]",
          "type_id": 0
        }
      },
      {
        "Sequence": {
          "id": "B",
          "type_id": 1
        }
      },
      {
        "SpecialToken": {
          "id": "[END]",
          "type_id": 1
        }
      }
    ],
    "special_tokens": {
      "[END]": {
        "id": "[END]",
        "ids": [
          1
        ],
        "tokens": [
          "[END]"
        ]
      },
      "[SEP]": {
        "id": "[SEP]",
        "ids": [
          2
        ],
        "tokens": [
          "[SEP]"
        ]
      },
      "[START]": {
        "id": "[START]",
        "ids": [
          0
        ],
        "tokens": [
          "[START]"
        ]
      }
    }
  },
  "decoder": {
    "type": "WordPiece",
    "prefix": "##",
    "cleanup": true
  },
  "model": {
    "type": "WordPiece",
    "unk_token": "[UNK]",
    "continuing_subword_prefix": "##",
    "max_input_chars_per_word": 100,
    "vocab": {
      "[START]": 0,
      "[END]": 1,
      "[SEP]": 2,
      "[UNK]": 3,
      "[FILL]": 4,
      "!": 5,
      "\"": 6,
      "#": 7,
      "$": 8,
      "%": 9,
      "&": 10,
      "'": 11,
      "(": 12,
      ")": 13,
      "*": 14,
      "+": 15,
      ",": 16,
      "-": 17,
      ".": 18,
      "/": 19,
      "0": 20,
      "1": 21,
      "2": 22,
      "3": 23,
      "4": 24,
      "5": 25,
      "6": 26,
      "7": 27,
      "8": 28,
      "9": 29,
      ":": 30,
      ";": 31,
      "<": 32,
      "=": 33,
      ">": 34,
      "?": 35,
      "@": 36,
      "[": 37,
      "\\": 38,
      "]": 39,
      "_": 40,
      "`": 41,
      "a": 42,
      "b": 43,
      "c": 44,
      "d": 45,
      "e": 46,
      "f": 47,
      "g": 48,
      "h": 49,
      "i": 50,
      "j": 51,
      "k": 52,
      "l": 53,
      "m": 54,
      "n": 55,
      "o": 56,
      "p": 57,
      "q": 58,
      "r": 59,
      "s": 60,
      "t": 61,
      "u": 62,
      "v": 63,
      "w": 64,
      "x": 65,
      "y": 66,
      "z": 67,
      "{": 68,
      "|": 69,
      "}": 70,
      "~": 71,
      "¡": 72,
      "¢": 73,
      "£": 74,
      "¥": 75,
      "¨": 76,
      "©": 77,
      "«": 78,
      "¬": 79,
      "¯": 80,
      "°": 81,
      "±": 82,
      "²": 83,
      "³": 84,
      "´": 85,
      "¹": 86,
      "º": 87,
      "¼": 88,
      "½": 89,
      "¾": 90,
      "×": 91,
      "ß": 92,
      "æ": 93,
      "ð": 94,
      "ø": 95,
      "ı": 96,
      "ł": 97,
      "œ": 98,
      "˚": 99,
      "λ": 100,
      "π": 101,
      "а": 102,
      "е": 103,
      "и": 104,
      "к": 105,
      "н": 106,
      "о": 107,
      "п": 108,
      "р": 109,
      "т": 110,
      "у": 111,
      "я": 112,
      "і": 113,
      "ћ": 114,
      "‑": 115,
      "–": 116,
      "—": 117,
      "‘": 118,
      "’": 119,
      "‚": 120,
      "“": 121,
      "”": 122,
      "•": 123,
      "…": 124,
      "′": 125,
      "″": 126,
      "€": 127,
      "™": 128,
      "☆": 129,
      "松": 130,
      "石": 131,
      "紅": 132,
      "綠": 133,
      "藍": 134,
      "鮭": 135,
      "##h": 136,
      "##y": 137,
      "##n": 138,
      "##a": 139,
      "##r": 140,
      "##e": 141,
      "##w": 142,
      "##t": 143,
      "##l": 144,
      "##i": 145,
      "##o": 146,
      "##c": 147,
      "##s": 148,
      "##z": 149,
      "##k": 150,
      "##v": 151,
      "##d": 152,
      "##m": 153,
      "##g": 154,
      "##8": 155,
      "##u": 156,
      "##f": 157,
      "##b": 158,
      "##x": 159,
      "##p": 160,
      "##9": 161,
      "##2": 162,
      "##1": 163,
      "##0": 164,
      "##j": 165,
      "##q": 166,
      "##6": 167,
      "##3": 168,
      "##4": 169,
      "##7": 170,
      "##5": 171,
      "##°": 172,
      "##ø": 173,
      "##½": 174,
      "##ł": 175,
      "##˚": 176,
      "##¾": 177,
      "##£": 178,
      "##€": 179,
      "##™": 180,
      "##а": 181,
      "##©": 182,
      "##λ": 183,
      "##н": 184,
      "##т": 185,
      "##е": 186,
      "##р": 187,
      "##¯": 188,
      "##´": 189,
      "##³": 190,
      "##☆": 191,
      "##¹": 192,
      "##¼": 193,
      "##º": 194,
      "##²": 195,
      "##к": 196,
      "##і": 197,
      "##и": 198,
      "##ð": 199,
      "##±": 200,
      "##ı": 201,
      "##¨": 202,
      "##œ": 203,
      "##ß": 204,
      "##×": 205,
      "##¢": 206,
      "##я": 207,
      "##æ": 208,
      "##¥": 209,
      "##er": 210,
      "th": 211,
      "##in": 212,
      "##ed": 213,
      "##en": 214,
      "the": 215,
      "##on": 216,
      "##es": 217,
      "##or": 218,
      "##an": 219,
      "##ar": 220,
      "in": 221,
      "##at": 222,
      "##ing": 223,
      "to": 224,
      "##as": 225,
      "##al": 226,
      "##it": 227,
      "##is": 228,
      "##ou": 229,
      "##nd": 230,
      "of": 231,
      "##il": 232,
      "##ic": 233,
      "##re": 234,
      "##om": 235,
      "##ay": 236,
      "and": 237,
      "##el": 238,
      "##ion": 239,
      "##ent": 240,
      "##id": 241,
      "##le": 242,
      "##am": 243,
      "be": 244,
      "on": 245,
      "##ur": 246,
      "##ot": 247,
      "##ol": 248,
      "##ac": 249,
      "##ter": 250,
      "for": 251,
      "##ad": 252,
      "st": 253,
      "##st": 254,
      "re": 255,
      "##ve": 256,
      "##ut": 257,
      "##ir": 258,
      "##ow": 259,
      "##ig": 260,
      "was": 261,
      "sh": 262,
      "he": 263,
      "##et": 264,
      "is": 265,
      "##im": 266,
      "##ill": 267,
      "##ers": 268,
      "ch": 269,
      "at": 270,
      "pr": 271,
      "##ec": 272,
      "##ear": 273,
      "fr": 274,
      "##ch": 275,
      "##us": 276,
      "##ith": 277,
      "##ld": 278,
      "##th": 279,
      "##os": 280,
      "##ts": 281,
      "##ly": 282,
      "##ver": 283,
      "wh": 284,
      "with": 285,
      "al": 286,
      "##est": 287,
      "##and": 288,
      "say": 289,
      "##op": 290,
      "##ag": 291,
      "his": 292,
      "##ce": 293,
      "an": 294,
      "de": 295,
      "##ri": 296,
      "as": 297,
      "ne": 298,
      "##ation": 299,
      "has": 300,
      "##ul": 301,
      "##ain": 302,
      "con": 303,
      "##ak": 304,
      "ha": 305,
      "af": 306,
      "##igh": 307,
      "her": 308,
      "le": 309,
      "from": 310,
      "##ess": 311,
      "su": 312,
      "year": 313,
      "##our": 314,
      "by": 315,
      "it": 316,
      "says": 317,
      "se": 318,
      "##od": 319,
      "##ted": 320,
      "##ere": 321,
      "##pp": 322,
      "##un": 323,
      "com": 324,
      "br": 325,
      "sp": 326,
      "cl": 327,
      "##ack": 328,
      "##iv": 329,
      "after": 330,
      "are": 331,
      "##00": 332,
      "##em": 333,
      "tr": 334,
      "##if": 335,
      "she": 336,
      "##oc": 337,
      "sa": 338,
      "have": 339,
      "##ast": 340,
      "##all": 341,
      "new": 342,
      "##ore": 343,
      "ex": 344,
      "ar": 345,
      "pl": 346,
      "will": 347,
      "##ice": 348,
      "##ok": 349,
      "##her": 350,
      "##ap": 351,
      "##ie": 352,
      "##ate": 353,
      "##ab": 354,
      "##ist": 355,
      "##end": 356,
      "##ies": 357,
      "ac": 358,
      "off": 359,
      "un": 360,
      "##um": 361,
      "wor": 362,
      "##ud": 363,
      "##ity": 364,
      "##ound": 365,
      "##ard": 366,
      "cou": 367,
      "that": 368,
      "##gh": 369,
      "##ia": 370,
      "##se": 371,
      "##art": 372,
      "but": 373,
      "##ive": 374,
      "##ust": 375,
      "##ost": 376,
      "##ell": 377,
      "cr": 378,
      "##ight": 379,
      "man": 380,
      "##ge": 381,
      "tw": 382,
      "we": 383,
      "ab": 384,
      "pol": 385,
      "been": 386,
      "##ome": 387,
      "##ian": 388,
      "not": 389,
      "were": 390,
      "said": 391,
      "##ment": 392,
      "gr": 393,
      "had": 394,
      "##og": 395,
      "go": 396,
      "they": 397,
      "##ial": 398,
      "out": 399,
      "##day": 400,
      "ag": 401,
      "##av": 402,
      "##ort": 403,
      "##ue": 404,
      "##ob": 405,
      "mon": 406,
      "##ide": 407,
      "##mer": 408,
      "up": 409,
      "##ine": 410,
      "en": 411,
      "sc": 412,
      "car": 413,
      "mar": 414,
      "ad": 415,
      "##ace": 416,
      "their": 417,
      "##ail": 418,
      "dr": 419,
      "##out": 420,
      "##ov": 421,
      "##ans": 422,
      "##tion": 423,
      "##uc": 424,
      "20": 425,
      "or": 426,
      "##ant": 427,
      "##ub": 428,
      "##own": 429,
      "two": 430,
      "##age": 431,
      "##ish": 432,
      "##ff": 433,
      "##ey": 434,
      "rep": 435,
      "##ree": 436,
      "old": 437,
      "##ous": 438,
      "##tr": 439,
      "can": 440,
      "over": 441,
      "one": 442,
      "##ong": 443,
      "##ber": 444,
      "res": 445,
      "police": 446,
      "dis": 447,
      "##ip": 448,
      "##ich": 449,
      "fir": 450,
      "pe": 451,
      "##ild": 452,
      "##ated": 453,
      "##oy": 454,
      "bl": 455,
      "##ond": 456,
      "##ary": 457,
      "##ks": 458,
      "##tor": 459,
      "inc": 460,
      "##ign": 461,
      "exp": 462,
      "us": 463,
      "##ach": 464,
      "##ident": 465,
      "##aw": 466,
      "te": 467,
      "comp": 468,
      "who": 469,
      "##ord": 470,
      "##ame": 471,
      "int": 472,
      "##ake": 473,
      "##so": 474,
      "more": 475,
      "##ass": 476,
      "##ath": 477,
      "##ough": 478,
      "li": 479,
      "##amp": 480,
      "fl": 481,
      "app": 482,
      "##ime": 483,
      "##ook": 484,
      "##ire": 485,
      "him": 486,
      "##man": 487,
      "##ould": 488,
      "also": 489,
      "##ged": 490,
      "##ied": 491,
      "att": 492,
      "##ure": 493,
      "##ick": 494,
      "char": 495,
      "found": 496,
      "sec": 497,
      "par": 498,
      "##land": 499,
      "##other": 500,
      "rec": 501,
      "this": 502,
      "000": 503,
      "years": 504,
      "last": 505,
      "##ence": 506,
      "all": 507,
      "acc": 508,
      "first": 509,
      "when": 510,
      "ph": 511,
      "than": 512,
      "##oun": 513,
      "##mp": 514,
      "201": 515,
      "##ind": 516,
      "##ents": 517,
      "cla": 518,
      "##ite": 519,
      "pre": 520,
      "##ug": 521,
      "##urn": 522,
      "##one": 523,
      "offic": 524,
      "me": 525,
      "##ople": 526,
      "##ens": 527,
      "people": 528,
      "day": 529,
      "per": 530,
      "##qu": 531,
      "##ep": 532,
      "##iz": 533,
      "no": 534,
      "##iss": 535,
      "hel": 536,
      "claim": 537,
      "about": 538,
      "##ife": 539,
      "into": 540,
      "could": 541,
      "show": 542,
      "##oll": 543,
      "##ile": 544,
      "##oss": 545,
      "19": 546,
      "play": 547,
      "co": 548,
      "##ect": 549,
      "##illion": 550,
      "ser": 551,
      "now": 552,
      "three": 553,
      "##ict": 554,
      "##ry": 555,
      "##ade": 556,
      "home": 557,
      "wee": 558,
      "rel": 559,
      "call": 560,
      "##ood": 561,
      "##ton": 562,
      "child": 563,
      "##ra": 564,
      "##ash": 565,
      "##ool": 566,
      "coun": 567,
      "ev": 568,
      "world": 569,
      "kill": 570,
      "part": 571,
      "##ft": 572,
      "##old": 573,
      "min": 574,
      "work": 575,
      "fam": 576,
      "op": 577,
      "wom": 578,
      "inv": 579,
      "##ke": 580,
      "##als": 581,
      "##ose": 582,
      "inter": 583,
      "fe": 584,
      "##ib": 585,
      "pres": 586,
      "##ations": 587,
      "jo": 588,
      "sch": 589,
      "##reat": 590,
      "month": 591,
      "##ase": 592,
      "##ting": 593,
      "des": 594,
      "##ical": 595,
      "##ther": 596,
      "##orn": 597,
      "##ions": 598,
      "am": 599,
      "##ance": 600,
      "again": 601,
      "##ters": 602,
      "##ang": 603,
      "##ily": 604,
      "##der": 605,
      "back": 606,
      "##ors": 607,
      "dec": 608,
      "bec": 609,
      "war": 610,
      "##ty": 611,
      "##nder": 612,
      "##up": 613,
      "##ock": 614,
      "win": 615,
      "##ater": 616,
      "##au": 617,
      "##ince": 618,
      "str": 619,
      "##oot": 620,
      "##use": 621,
      "200": 622,
      "qu": 623,
      "bef": 624,
      "being": 625,
      "bel": 626,
      "tri": 627,
      "do": 628,
      "just": 629,
      "before": 630,
      "time": 631,
      "##ier": 632,
      "would": 633,
      "ob": 634,
      "##son": 635,
      "##ove": 636,
      "sur": 637,
      "star": 638,
      "cour": 639,
      "kn": 640,
      "##wn": 641,
      "four": 642,
      "##ren": 643,
      "##ited": 644,
      "##able": 645,
      "##ather": 646,
      "##ix": 647,
      "under": 648,
      "##used": 649,
      "week": 650,
      "##orm": 651,
      "##ition": 652,
      "##enc": 653,
      "attack": 654,
      "##lud": 655,
      "fin": 656,
      "may": 657,
      "def": 658,
      "ro": 659,
      "##ely": 660,
      "##ital": 661,
      "against": 662,
      "##ates": 663,
      "##uring": 664,
      "##anc": 665,
      "gu": 666,
      "##ious": 667,
      "##atch": 668,
      "air": 669,
      "rem": 670,
      "family": 671,
      "##air": 672,
      "sy": 673,
      "eng": 674,
      "so": 675,
      "comm": 676,
      "##ings": 677,
      "##ally": 678,
      "##ah": 679,
      "##ons": 680,
      "##lic": 681,
      "includ": 682,
      "its": 683,
      "cent": 684,
      "ind": 685,
      "mil": 686,
      "bar": 687,
      "made": 688,
      "##az": 689,
      "death": 690,
      "cont": 691,
      "lead": 692,
      "##augh": 693,
      "tak": 694,
      "ins": 695,
      "##ved": 696,
      "col": 697,
      "them": 698,
      "down": 699,
      "##ester": 700,
      "ear": 701,
      "stud": 702,
      "former": 703,
      "law": 704,
      "##outh": 705,
      "high": 706,
      "help": 707,
      "president": 708,
      "brit": 709,
      "##are": 710,
      "ret": 711,
      "court": 712,
      "##ann": 713,
      "some": 714,
      "sm": 715,
      "##ger": 716,
      "##ists": 717,
      "##ult": 718,
      "##ets": 719,
      "##osp": 720,
      "which": 721,
      "since": 722,
      "##br": 723,
      "##we": 724,
      "face": 725,
      "##hn": 726,
      "##ouse": 727,
      "during": 728,
      "##ama": 729,
      "other": 730,
      "official": 731,
      "bo": 732,
      "arr": 733,
      "##oth": 734,
      "##les": 735,
      "med": 736,
      "##ected": 737,
      "##way": 738,
      "##ating": 739,
      "bu": 740,
      "city": 741,
      "##ues": 742,
      "##ull": 743,
      "##ked": 744,
      "thr": 745,
      "##atur": 746,
      "miss": 747,
      "alle": 748,
      "mur": 749,
      "children": 750,
      "cap": 751,
      "died": 752,
      "##ested": 753,
      "ass": 754,
      "##ational": 755,
      "sus": 756,
      "school": 757,
      "nor": 758,
      "own": 759,
      "##ities": 760,
      "mother": 761,
      "there": 762,
      "##ased": 763,
      "set": 764,
      "ter": 765,
      "##act": 766,
      "##lec": 767,
      "##ants": 768,
      "##ress": 769,
      "only": 770,
      "##co": 771,
      "##iel": 772,
      "##ames": 773,
      "10": 774,
      "##oup": 775,
      "hosp": 776,
      "inj": 777,
      "told": 778,
      "##ale": 779,
      "##vern": 780,
      "##irl": 781,
      "if": 782,
      "po": 783,
      "im": 784,
      "##ise": 785,
      "aut": 786,
      "bet": 787,
      "wr": 788,
      "belie": 789,
      "##ave": 790,
      "group": 791,
      "##ina": 792,
      "imp": 793,
      "govern": 794,
      "million": 795,
      "conf": 796,
      "mr": 797,
      "invest": 798,
      "sw": 799,
      "##ges": 800,
      "house": 801,
      "five": 802,
      "sent": 803,
      "##ered": 804,
      "killed": 805,
      "repor": 806,
      "##pt": 807,
      "while": 808,
      "sl": 809,
      "##ric": 810,
      "##king": 811,
      "ever": 812,
      "##ope": 813,
      "amer": 814,
      "sex": 815,
      "##ro": 816,
      "cons": 817,
      "americ": 818,
      "get": 819,
      "team": 820,
      "hospital": 821,
      "##ving": 822,
      "##uss": 823,
      "##ublic": 824,
      "susp": 825,
      "##its": 826,
      "second": 827,
      "dri": 828,
      "##ause": 829,
      "claims": 830,
      "left": 831,
      "##ven": 832,
      "girl": 833,
      "near": 834,
      "women": 835,
      "south": 836,
      "fil": 837,
      "bre": 838,
      "##ward": 839,
      "injur": 840,
      "##ought": 841,
      "uk": 842,
      "head": 843,
      "sign": 844,
      "contr": 845,
      "ref": 846,
      "la": 847,
      "##med": 848,
      "pro": 849,
      "##led": 850,
      "supp": 851,
      "life": 852,
      "##ague": 853,
      "##ene": 854,
      "##cc": 855,
      "##ley": 856,
      "##io": 857,
      "most": 858,
      "chr": 859,
      "##ert": 860,
      "obama": 861,
      "##ney": 862,
      "##ason": 863,
      "ann": 864,
      "##ning": 865,
      "how": 866,
      "six": 867,
      "fac": 868,
      "inf": 869,
      "##ott": 870,
      "##ollow": 871,
      "##ised": 872,
      "men": 873,
      "fri": 874,
      "leg": 875,
      "used": 876,
      "##ody": 877,
      "phot": 878,
      "friend": 879,
      "open": 880,
      "har": 881,
      "##elf": 882,
      "ra": 883,
      "camp": 884,
      "##ral": 885,
      "##ogr": 886,
      "prot": 887,
      "##ane": 888,
      "follow": 889,
      "take": 890,
      "dev": 891,
      "##ison": 892,
      "##ham": 893,
      "##ced": 894,
      "##ister": 895,
      "dep": 896,
      "end": 897,
      "##aff": 898,
      "investig": 899,
      "##und": 900,
      "run": 901,
      "mem": 902,
      "##earch": 903,
      "adm": 904,
      "united": 905,
      "did": 906,
      "ed": 907,
      "boy": 908,
      "##ner": 909,
      "##ives": 910,
      "look": 911,
      "##te": 912,
      "em": 913,
      "##ork": 914,
      "state": 915,
      "##els": 916,
      "hour": 917,
      "##xt": 918,
      "rob": 919,
      "league": 920,
      "##alth": 921,
      "wal": 922,
      "ap": 923,
      "##enn": 924,
      "government": 925,
      "reg": 926,
      "bus": 927,
      "pass": 928,
      "ke": 929,
      "##ms": 930,
      "called": 931,
      "vis": 932,
      "##ory": 933,
      "##ual": 934,
      "rele": 935,
      "hand": 936,
      "##ages": 937,
      "##iew": 938,
      "cup": 939,
      "lond": 940,
      "##iff": 941,
      "dav": 942,
      "london": 943,
      "make": 944,
      "##per": 945,
      "##att": 946,
      "##urs": 947,
      "##ying": 948,
      "doc": 949,
      "dead": 950,
      "##app": 951,
      "took": 952,
      "months": 953,
      "top": 954,
      "alleged": 955,
      "long": 956,
      "##hip": 957,
      "gl": 958,
      "wife": 959,
      "murder": 960,
      "##get": 961,
      "foot": 962,
      "through": 963,
      "dem": 964,
      "##ines": 965,
      "suff": 966,
      "##cer": 967,
      "##ax": 968,
      "cam": 969,
      "don": 970,
      "##ling": 971,
      "##ics": 972,
      "should": 973,
      "##ank": 974,
      "auth": 975,
      "##iday": 976,
      "##ures": 977,
      "##ivers": 978,
      "see": 979,
      "like": 980,
      "sk": 981,
      "pa": 982,
      "father": 983,
      "you": 984,
      "##line": 985,
      "son": 986,
      "##ins": 987,
      "ste": 988,
      "night": 989,
      "still": 990,
      "john": 991,
      "england": 992,
      "##olog": 993,
      "15": 994,
      "##gan": 995,
      "vict": 996,
      "hit": 997,
      "victim": 998,
      "intern": 999,
      "shot": 1000,
      "##red": 1001,
      "cond": 1002,
      "appear": 1003,
      "##ph": 1004,
      "mid": 1005,
      "woman": 1006,
      "return": 1007,
      "arrested": 1008,
      "cre": 1009,
      "pat": 1010,
      "aust": 1011,
      "##by": 1012,
      "##ves": 1013,
      "##erson": 1014,
      "tim": 1015,
      "el": 1016,
      "around": 1017,
      "cur": 1018,
      "vide": 1019,
      "ve": 1020,
      "##iam": 1021,
      "put": 1022,
      "days": 1023,
      "need": 1024,
      "then": 1025,
      "youn": 1026,
      "post": 1027,
      "reve": 1028,
      "author": 1029,
      "next": 1030,
      "12": 1031,
      "red": 1032,
      "west": 1033,
      "del": 1034,
      "##aughter": 1035,
      "champ": 1036,
      "##ween": 1037,
      "pay": 1038,
      "##unch": 1039,
      "trans": 1040,
      "because": 1041,
      "any": 1042,
      "between": 1043,
      "##ecut": 1044,
      "cost": 1045,
      "met": 1046,
      "30": 1047,
      "##oke": 1048,
      "##ailed": 1049,
      "##ently": 1050,
      "##ful": 1051,
      "det": 1052,
      "##ird": 1053,
      "##chester": 1054,
      "season": 1055,
      "stri": 1056,
      "##uck": 1057,
      "club": 1058,
      "won": 1059,
      "hal": 1060,
      "north": 1061,
      "eur": 1062,
      "##rib": 1063,
      "mich": 1064,
      "fire": 1065,
      "##ange": 1066,
      "##ret": 1067,
      "spe": 1068,
      "£1": 1069,
      "record": 1070,
      "real": 1071,
      "18": 1072,
      "loc": 1073,
      "ca": 1074,
      "##osed": 1075,
      "ger": 1076,
      "health": 1077,
      "tal": 1078,
      "accused": 1079,
      "##opp": 1080,
      "##ights": 1081,
      "##tions": 1082,
      "compan": 1083,
      "id": 1084,
      "many": 1085,
      "##ady": 1086,
      "wed": 1087,
      "christ": 1088,
      "##ness": 1089,
      "way": 1090,
      "sn": 1091,
      "cle": 1092,
      "ma": 1093,
      "later": 1094,
      "both": 1095,
      "public": 1096,
      "manchester": 1097,
      "jud": 1098,
      "act": 1099,
      "drug": 1100,
      "train": 1101,
      "sund": 1102,
      "##ct": 1103,
      "vi": 1104,
      "##oved": 1105,
      "beat": 1106,
      "##ony": 1107,
      "11": 1108,
      "serv": 1109,
      "beh": 1110,
      "taken": 1111,
      "sunday": 1112,
      "prop": 1113,
      "hol": 1114,
      "gun": 1115,
      "far": 1116,
      "di": 1117,
      "##ple": 1118,
      "den": 1119,
      "young": 1120,
      "care": 1121,
      "##ember": 1122,
      "##ele": 1123,
      "austral": 1124,
      "add": 1125,
      "david": 1126,
      "prob": 1127,
      "##ink": 1128,
      "gre": 1129,
      "##try": 1130,
      "##uch": 1131,
      "find": 1132,
      "where": 1133,
      "mark": 1134,
      "charged": 1135,
      "move": 1136,
      "turn": 1137,
      "##ived": 1138,
      "##ury": 1139,
      "##vered": 1140,
      "officials": 1141,
      "news": 1142,
      "exper": 1143,
      "##ower": 1144,
      "video": 1145,
      "giv": 1146,
      "body": 1147,
      "##nes": 1148,
      "resp": 1149,
      "##ient": 1150,
      "milit": 1151,
      "##ead": 1152,
      "cal": 1153,
      "gen": 1154,
      "report": 1155,
      "use": 1156,
      "crit": 1157,
      "##ute": 1158,
      "british": 1159,
      "##ned": 1160,
      "scor": 1161,
      "##amed": 1162,
      "satur": 1163,
      "mak": 1164,
      "##eral": 1165,
      "saturday": 1166,
      "big": 1167,
      "inst": 1168,
      "prev": 1169,
      "##tain": 1170,
      "##itt": 1171,
      "##ands": 1172,
      "##bs": 1173,
      "another": 1174,
      "##hing": 1175,
      "##bers": 1176,
      "trav": 1177,
      "##ery": 1178,
      "elec": 1179,
      "16": 1180,
      "hours": 1181,
      "sold": 1182,
      "today": 1183,
      "what": 1184,
      "##int": 1185,
      "york": 1186,
      "conv": 1187,
      "##ible": 1188,
      "##oduc": 1189,
      "##sh": 1190,
      "rece": 1191,
      "daughter": 1192,
      "##itted": 1193,
      "soc": 1194,
      "25": 1195,
      "sen": 1196,
      "il": 1197,
      "game": 1198,
      "##ker": 1199,
      "##enal": 1200,
      "ir": 1201,
      "num": 1202,
      "country": 1203,
      "mc": 1204,
      "hum": 1205,
      "went": 1206,
      "##ared": 1207,
      "black": 1208,
      "russ": 1209,
      "reported": 1210,
      "side": 1211,
      "##ael": 1212,
      "##ones": 1213,
      "every": 1214,
      "##ield": 1215,
      "prison": 1216,
      "##tory": 1217,
      "##ular": 1218,
      "manag": 1219,
      "##uary": 1220,
      "##ests": 1221,
      "##ments": 1222,
      "##ys": 1223,
      "mus": 1224,
      "##ried": 1225,
      "place": 1226,
      "mod": 1227,
      "deal": 1228,
      "hus": 1229,
      "seen": 1230,
      "cor": 1231,
      "##ne": 1232,
      "##ended": 1233,
      "##ote": 1234,
      "lost": 1235,
      "half": 1236,
      "ge": 1237,
      "es": 1238,
      "match": 1239,
      "av": 1240,
      "iss": 1241,
      "times": 1242,
      "##side": 1243,
      "##sea": 1244,
      "remain": 1245,
      "including": 1246,
      "even": 1247,
      "let": 1248,
      "monday": 1249,
      "camer": 1250,
      "parents": 1251,
      "national": 1252,
      "aff": 1253,
      "##ark": 1254,
      "##ew": 1255,
      "##aign": 1256,
      "##ices": 1257,
      "##ured": 1258,
      "##ision": 1259,
      "rest": 1260,
      "campaign": 1261,
      "reveal": 1262,
      "sim": 1263,
      "##ball": 1264,
      "##band": 1265,
      "case": 1266,
      "##ened": 1267,
      "money": 1268,
      "bab": 1269,
      "##ats": 1270,
      "away": 1271,
      "final": 1272,
      "##ik": 1273,
      "##ined": 1274,
      "univers": 1275,
      "charges": 1276,
      "friday": 1277,
      "##ograp": 1278,
      "stre": 1279,
      "##pl": 1280,
      "lar": 1281,
      "##ces": 1282,
      "white": 1283,
      "##ont": 1284,
      "fight": 1285,
      "viol": 1286,
      "shows": 1287,
      "incident": 1288,
      "##ency": 1289,
      "prem": 1290,
      "good": 1291,
      "##uesday": 1292,
      "tuesday": 1293,
      "threat": 1294,
      "sal": 1295,
      "##ror": 1296,
      "sever": 1297,
      "hot": 1298,
      "sing": 1299,
      "rul": 1300,
      "grand": 1301,
      "hom": 1302,
      "company": 1303,
      "spec": 1304,
      "13": 1305,
      "17": 1306,
      "14": 1307,
      "art": 1308,
      "person": 1309,
      "##tors": 1310,
      "##ism": 1311,
      "allow": 1312,
      "test": 1313,
      "husband": 1314,
      "##ops": 1315,
      "comes": 1316,
      "third": 1317,
      "minister": 1318,
      "liver": 1319,
      "adv": 1320,
      "##orts": 1321,
      "crash": 1322,
      "##nn": 1323,
      "##pool": 1324,
      "pict": 1325,
      "bill": 1326,
      "##let": 1327,
      "ham": 1328,
      "50": 1329,
      "authorities": 1330,
      "sub": 1331,
      "job": 1332,
      "couple": 1333,
      "prov": 1334,
      "##ative": 1335,
      "pop": 1336,
      "launch": 1337,
      "cut": 1338,
      "vic": 1339,
      "##con": 1340,
      "europe": 1341,
      "##eng": 1342,
      "bir": 1343,
      "##ipp": 1344,
      "released": 1345,
      "prom": 1346,
      "park": 1347,
      "##ects": 1348,
      "water": 1349,
      "support": 1350,
      "rev": 1351,
      "secret": 1352,
      "party": 1353,
      "##ump": 1354,
      "##ior": 1355,
      "2012": 1356,
      "dog": 1357,
      "given": 1358,
      "unt": 1359,
      "deb": 1360,
      "oper": 1361,
      "##ief": 1362,
      "came": 1363,
      "##ering": 1364,
      "lab": 1365,
      "book": 1366,
      "shoot": 1367,
      "happ": 1368,
      "##gr": 1369,
      "same": 1370,
      "##ement": 1371,
      "judge": 1372,
      "visit": 1373,
      "build": 1374,
      "est": 1375,
      "expected": 1376,
      "champions": 1377,
      "ris": 1378,
      "free": 1379,
      "host": 1380,
      "##ee": 1381,
      "chel": 1382,
      "##million": 1383,
      "##urity": 1384,
      "lo": 1385,
      "perf": 1386,
      "##utes": 1387,
      "##res": 1388,
      "american": 1389,
      "due": 1390,
      "desc": 1391,
      "ju": 1392,
      "mess": 1393,
      "best": 1394,
      "international": 1395,
      "staff": 1396,
      "100": 1397,
      "seven": 1398,
      "held": 1399,
      "##eal": 1400,
      "##ized": 1401,
      "##gest": 1402,
      "research": 1403,
      "treat": 1404,
      "tar": 1405,
      "produc": 1406,
      "mad": 1407,
      "plan": 1408,
      "tell": 1409,
      "security": 1410,
      "##ility": 1411,
      "watch": 1412,
      "german": 1413,
      "sum": 1414,
      "design": 1415,
      "expl": 1416,
      "bur": 1417,
      "polit": 1418,
      "##lish": 1419,
      "##port": 1420,
      "ago": 1421,
      "afric": 1422,
      "eight": 1423,
      "weeks": 1424,
      "saf": 1425,
      "michael": 1426,
      "university": 1427,
      "allegedly": 1428,
      "until": 1429,
      "##book": 1430,
      "liverpool": 1431,
      "without": 1432,
      "ang": 1433,
      "film": 1434,
      "chelsea": 1435,
      "##ald": 1436,
      "using": 1437,
      "disc": 1438,
      "wednes": 1439,
      "##ush": 1440,
      "wednesday": 1441,
      "claimed": 1442,
      "##omb": 1443,
      "prof": 1444,
      "##ending": 1445,
      "must": 1446,
      "well": 1447,
      "##iness": 1448,
      "##itch": 1449,
      "##my": 1450,
      "officers": 1451,
      "land": 1452,
      "##ians": 1453,
      "among": 1454,
      "start": 1455,
      "##aster": 1456,
      "those": 1457,
      "##anted": 1458,
      "dist": 1459,
      "mo": 1460,
      "24": 1461,
      "eff": 1462,
      "##ona": 1463,
      "my": 1464,
      "invol": 1465,
      "food": 1466,
      "tour": 1467,
      "199": 1468,
      "guil": 1469,
      "curr": 1470,
      "each": 1471,
      "emp": 1472,
      "military": 1473,
      "rap": 1474,
      "following": 1475,
      "##ued": 1476,
      "##ns": 1477,
      "van": 1478,
      "want": 1479,
      "pal": 1480,
      "##inal": 1481,
      "##oub": 1482,
      "##ize": 1483,
      "diff": 1484,
      "arg": 1485,
      "tax": 1486,
      "##ern": 1487,
      "friends": 1488,
      "never": 1489,
      "40": 1490,
      "thurs": 1491,
      "order": 1492,
      "thursday": 1493,
      "break": 1494,
      "dire": 1495,
      "##ired": 1496,
      "ars": 1497,
      "keep": 1498,
      "cust": 1499,
      "##itter": 1500,
      "does": 1501,
      "announ": 1502,
      "##fri": 1503,
      "least": 1504,
      "##gy": 1505,
      "cele": 1506,
      "super": 1507,
      "spent": 1508,
      "##iving": 1509,
      "calls": 1510,
      "##lex": 1511,
      "quest": 1512,
      "online": 1513,
      "disco": 1514,
      "meet": 1515,
      "premier": 1516,
      "jan": 1517,
      "##ench": 1518,
      "dam": 1519,
      "lu": 1520,
      "fed": 1521,
      "fear": 1522,
      "##ai": 1523,
      "##str": 1524,
      "##istan": 1525,
      "##friend": 1526,
      "cnn": 1527,
      "media": 1528,
      "lik": 1529,
      "number": 1530,
      "william": 1531,
      "guilty": 1532,
      "china": 1533,
      "ur": 1534,
      "teen": 1535,
      "##ety": 1536,
      "21": 1537,
      "ple": 1538,
      "maj": 1539,
      "jun": 1540,
      "great": 1541,
      "stand": 1542,
      "contin": 1543,
      "too": 1544,
      "known": 1545,
      "##ross": 1546,
      "roy": 1547,
      "geor": 1548,
      "desp": 1549,
      "wants": 1550,
      "ant": 1551,
      "jack": 1552,
      "ext": 1553,
      "opp": 1554,
      "assa": 1555,
      "facebook": 1556,
      "celebr": 1557,
      "##ler": 1558,
      "service": 1559,
      "come": 1560,
      "describ": 1561,
      "hold": 1562,
      "sam": 1563,
      "baby": 1564,
      "##aly": 1565,
      "behind": 1566,
      "fell": 1567,
      "##ech": 1568,
      "##loy": 1569,
      "fall": 1570,
      "##ified": 1571,
      "event": 1572,
      "games": 1573,
      "##stem": 1574,
      "##artment": 1575,
      "across": 1576,
      "vir": 1577,
      "boss": 1578,
      "##ico": 1579,
      "tre": 1580,
      "22": 1581,
      "##ps": 1582,
      "britain": 1583,
      "business": 1584,
      "got": 1585,
      "##rid": 1586,
      "##ided": 1587,
      "know": 1588,
      "players": 1589,
      "##ites": 1590,
      "terror": 1591,
      "suffered": 1592,
      "spot": 1593,
      "search": 1594,
      "val": 1595,
      "system": 1596,
      "##elop": 1597,
      "£2": 1598,
      "##ett": 1599,
      "power": 1600,
      "despite": 1601,
      "proble": 1602,
      "ban": 1603,
      "photograp": 1604,
      "step": 1605,
      "##ained": 1606,
      "##ually": 1607,
      "james": 1608,
      "thought": 1609,
      "##go": 1610,
      "lin": 1611,
      "##ugg": 1612,
      "##icted": 1613,
      "mag": 1614,
      "chief": 1615,
      "local": 1616,
      "anim": 1617,
      "ah": 1618,
      "mart": 1619,
      "kid": 1620,
      "paul": 1621,
      "football": 1622,
      "earl": 1623,
      "cancer": 1624,
      "##ards": 1625,
      "fund": 1626,
      "syri": 1627,
      "##ready": 1628,
      "##idence": 1629,
      "social": 1630,
      "fans": 1631,
      "##ution": 1632,
      "sug": 1633,
      "past": 1634,
      "##cel": 1635,
      "hop": 1636,
      "##ford": 1637,
      "##ases": 1638,
      "squ": 1639,
      "##ium": 1640,
      "develop": 1641,
      "incre": 1642,
      "already": 1643,
      "members": 1644,
      "tot": 1645,
      "previous": 1646,
      "##opped": 1647,
      "##par": 1648,
      "##ten": 1649,
      "##rew": 1650,
      "leader": 1651,
      "mov": 1652,
      "pros": 1653,
      "revealed": 1654,
      "major": 1655,
      "##ection": 1656,
      "commun": 1657,
      "##okes": 1658,
      "minutes": 1659,
      "early": 1660,
      "students": 1661,
      "rom": 1662,
      "class": 1663,
      "tv": 1664,
      "rich": 1665,
      "##uel": 1666,
      "##ention": 1667,
      "##bed": 1668,
      "##ator": 1669,
      "pair": 1670,
      "trial": 1671,
      "##pr": 1672,
      "lat": 1673,
      "coll": 1674,
      "hear": 1675,
      "scored": 1676,
      "net": 1677,
      "office": 1678,
      "taking": 1679,
      "plans": 1680,
      "prosecut": 1681,
      "lev": 1682,
      "##cl": 1683,
      "##hic": 1684,
      "##ana": 1685,
      "##thers": 1686,
      "mass": 1687,
      "your": 1688,
      "birth": 1689,
      "started": 1690,
      "##anned": 1691,
      "less": 1692,
      "##iting": 1693,
      "pain": 1694,
      "mal": 1695,
      "stay": 1696,
      "##aged": 1697,
      "che": 1698,
      "view": 1699,
      "stat": 1700,
      "mor": 1701,
      "others": 1702,
      "2011": 1703,
      "hun": 1704,
      "##ries": 1705,
      "23": 1706,
      "officer": 1707,
      "pos": 1708,
      "##ators": 1709,
      "port": 1710,
      "asked": 1711,
      "##acy": 1712,
      "poss": 1713,
      "form": 1714,
      "counc": 1715,
      "road": 1716,
      "##iver": 1717,
      "arsenal": 1718,
      "##ific": 1719,
      "right": 1720,
      "compet": 1721,
      "investigation": 1722,
      "emer": 1723,
      "tit": 1724,
      "live": 1725,
      "crim": 1726,
      "##que": 1727,
      "arri": 1728,
      "##ails": 1729,
      "##urch": 1730,
      "tried": 1731,
      "##lin": 1732,
      "admitted": 1733,
      "##emp": 1734,
      "area": 1735,
      "human": 1736,
      "earlier": 1737,
      "sell": 1738,
      "include": 1739,
      "hu": 1740,
      "travel": 1741,
      "rac": 1742,
      "believed": 1743,
      "states": 1744,
      "east": 1745,
      "rad": 1746,
      "outside": 1747,
      "flor": 1748,
      "##ida": 1749,
      "##self": 1750,
      "several": 1751,
      "list": 1752,
      "mot": 1753,
      "such": 1754,
      "bed": 1755,
      "working": 1756,
      "trying": 1757,
      "reach": 1758,
      "become": 1759,
      "press": 1760,
      "town": 1761,
      "going": 1762,
      "goal": 1763,
      "##ogram": 1764,
      "heart": 1765,
      "believe": 1766,
      "ident": 1767,
      "manager": 1768,
      "ty": 1769,
      "victims": 1770,
      "wind": 1771,
      "much": 1772,
      "wanted": 1773,
      "batt": 1774,
      "capt": 1775,
      "twitter": 1776,
      "##ount": 1777,
      "having": 1778,
      "##igr": 1779,
      "##gn": 1780,
      "injured": 1781,
      "lawy": 1782,
      "##ense": 1783,
      "##rem": 1784,
      "based": 1785,
      "##aught": 1786,
      "missing": 1787,
      "priv": 1788,
      "experts": 1789,
      "australia": 1790,
      "##itness": 1791,
      "morn": 1792,
      "study": 1793,
      "fa": 1794,
      "clin": 1795,
      "26": 1796,
      "flight": 1797,
      "gave": 1798,
      "##ming": 1799,
      "student": 1800,
      "site": 1801,
      "##atic": 1802,
      "calif": 1803,
      "californ": 1804,
      "morning": 1805,
      "vill": 1806,
      "braz": 1807,
      "stop": 1808,
      "##aded": 1809,
      "ira": 1810,
      "##ocked": 1811,
      "que": 1812,
      "##ides": 1813,
      "##ject": 1814,
      "leave": 1815,
      "##ession": 1816,
      "room": 1817,
      "didn": 1818,
      "27": 1819,
      "##ender": 1820,
      "##ints": 1821,
      "french": 1822,
      "saying": 1823,
      "sol": 1824,
      "##bc": 1825,
      "sentenc": 1826,
      "##aced": 1827,
      "street": 1828,
      "himself": 1829,
      "reports": 1830,
      "direc": 1831,
      "council": 1832,
      "forced": 1833,
      "born": 1834,
      "killing": 1835,
      "gold": 1836,
      "confir": 1837,
      "change": 1838,
      "tex": 1839,
      "target": 1840,
      "lou": 1841,
      "requ": 1842,
      "decision": 1843,
      "shar": 1844,
      "doctors": 1845,
      "january": 1846,
      "grow": 1847,
      "surv": 1848,
      "summer": 1849,
      "rights": 1850,
      "read": 1851,
      "age": 1852,
      "driver": 1853,
      "compl": 1854,
      "california": 1855,
      "insp": 1856,
      "mat": 1857,
      "kore": 1858,
      "round": 1859,
      "phone": 1860,
      "2010": 1861,
      "full": 1862,
      "pet": 1863,
      "wear": 1864,
      "give": 1865,
      "nine": 1866,
      "critic": 1867,
      "played": 1868,
      "march": 1869,
      "jailed": 1870,
      "succ": 1871,
      "program": 1872,
      "likely": 1873,
      "iraq": 1874,
      "##idge": 1875,
      "gar": 1876,
      "island": 1877,
      "very": 1878,
      "2013": 1879,
      "##oon": 1880,
      "##gin": 1881,
      "##aine": 1882,
      "named": 1883,
      "dan": 1884,
      "##50": 1885,
      "vot": 1886,
      "imm": 1887,
      "##erv": 1888,
      "##inc": 1889,
      "wa": 1890,
      "conn": 1891,
      "econ": 1892,
      "received": 1893,
      "econom": 1894,
      "tom": 1895,
      "alex": 1896,
      "28": 1897,
      "control": 1898,
      "##eck": 1899,
      "scient": 1900,
      "saw": 1901,
      "republic": 1902,
      "colle": 1903,
      "injuries": 1904,
      "jail": 1905,
      "front": 1906,
      "count": 1907,
      "##ocr": 1908,
      "speak": 1909,
      "500": 1910,
      "leaders": 1911,
      "##den": 1912,
      "condition": 1913,
      "##bour": 1914,
      "striker": 1915,
      "led": 1916,
      "series": 1917,
      "short": 1918,
      "organ": 1919,
      "brazil": 1920,
      "##echn": 1921,
      "ber": 1922,
      "concer": 1923,
      "##ival": 1924,
      "##af": 1925,
      "polic": 1926,
      "fre": 1927,
      "phil": 1928,
      "##ising": 1929,
      "pot": 1930,
      "alm": 1931,
      "##thern": 1932,
      "ran": 1933,
      "medical": 1934,
      "resident": 1935,
      "faces": 1936,
      "fer": 1937,
      "accident": 1938,
      "##ology": 1939,
      "our": 1940,
      "images": 1941,
      "brother": 1942,
      "bal": 1943,
      "thous": 1944,
      "burn": 1945,
      "race": 1946,
      "plane": 1947,
      "late": 1948,
      "som": 1949,
      "sept": 1950,
      "ground": 1951,
      "consid": 1952,
      "##ole": 1953,
      "fore": 1954,
      "ahead": 1955,
      "##less": 1956,
      "owner": 1957,
      "nearly": 1958,
      "hotel": 1959,
      "discovered": 1960,
      "doub": 1961,
      "close": 1962,
      "small": 1963,
      "became": 1964,
      "inform": 1965,
      "success": 1966,
      "key": 1967,
      "collec": 1968,
      "paid": 1969,
      "techn": 1970,
      "france": 1971,
      "spokes": 1972,
      "failed": 1973,
      "##ike": 1974,
      "##ises": 1975,
      "madrid": 1976,
      "##ature": 1977,
      "##over": 1978,
      "neigh": 1979,
      "##wards": 1980,
      "##gress": 1981,
      "along": 1982,
      "bank": 1983,
      "er": 1984,
      "name": 1985,
      "injury": 1986,
      "employ": 1987,
      "los": 1988,
      "##na": 1989,
      "interv": 1990,
      "low": 1991,
      "esc": 1992,
      "fem": 1993,
      "san": 1994,
      "hor": 1995,
      "ball": 1996,
      "leav": 1997,
      "execut": 1998,
      "iran": 1999,
      "##uction": 2000,
      "player": 2001,
      "##uses": 2002,
      "proper": 2003,
      "occ": 2004,
      "ey": 2005,
      "relations": 2006,
      "legal": 2007,
      "activ": 2008,
      "evidence": 2009,
      "blood": 2010,
      "##fer": 2011,
      "##rael": 2012,
      "##ox": 2013,
      "royal": 2014,
      "bomb": 2015,
      "##ished": 2016,
      "resc": 2017,
      "##iers": 2018,
      "israel": 2019,
      "##hs": 2020,
      "sexual": 2021,
      "florida": 2022,
      "abuse": 2023,
      "##atures": 2024,
      "##ients": 2025,
      "tur": 2026,
      "making": 2027,
      "##ows": 2028,
      "june": 2029,
      "coach": 2030,
      "198": 2031,
      "term": 2032,
      "prime": 2033,
      "surger": 2034,
      "caused": 2035,
      "reb": 2036,
      "special": 2037,
      "differ": 2038,
      "looking": 2039,
      "thousands": 2040,
      "equ": 2041,
      "mex": 2042,
      "treatment": 2043,
      "##eth": 2044,
      "draw": 2045,
      "accord": 2046,
      "attacks": 2047,
      "mom": 2048,
      "brown": 2049,
      "card": 2050,
      "##uit": 2051,
      "heard": 2052,
      "fig": 2053,
      "almost": 2054,
      "##uct": 2055,
      "workers": 2056,
      "##ril": 2057,
      "docum": 2058,
      "ill": 2059,
      "convicted": 2060,
      "september": 2061,
      "##ission": 2062,
      "##anger": 2063,
      "secretary": 2064,
      "hard": 2065,
      "line": 2066,
      "##ience": 2067,
      "##yle": 2068,
      "action": 2069,
      "democr": 2070,
      "girls": 2071,
      "believes": 2072,
      "##0s": 2073,
      "##uty": 2074,
      "shooting": 2075,
      "proc": 2076,
      "##oph": 2077,
      "photos": 2078,
      "##ically": 2079,
      "sour": 2080,
      "caught": 2081,
      "fun": 2082,
      "coast": 2083,
      "billion": 2084,
      "suspect": 2085,
      "##overs": 2086,
      "##mber": 2087,
      "bad": 2088,
      "aug": 2089,
      "jour": 2090,
      "##lam": 2091,
      "##ots": 2092,
      "training": 2093,
      "according": 2094,
      "popular": 2095,
      "lim": 2096,
      "wil": 2097,
      "pull": 2098,
      "##ances": 2099,
      "king": 2100,
      "force": 2101,
      "cy": 2102,
      "oct": 2103,
      "ben": 2104,
      "##ola": 2105,
      "began": 2106,
      "bid": 2107,
      "wood": 2108,
      "married": 2109,
      "posted": 2110,
      "custom": 2111,
      "defe": 2112,
      "##ether": 2113,
      "afgh": 2114,
      "##row": 2115,
      "assault": 2116,
      "civ": 2117,
      "miles": 2118,
      "july": 2119,
      "##verage": 2120,
      "##ray": 2121,
      "turned": 2122,
      "##icide": 2123,
      "##vers": 2124,
      "##ults": 2125,
      "chall": 2126,
      "light": 2127,
      "laws": 2128,
      "april": 2129,
      "##cent": 2130,
      "charge": 2131,
      "department": 2132,
      "george": 2133,
      "nove": 2134,
      "##ij": 2135,
      "##mas": 2136,
      "november": 2137,
      "##room": 2138,
      "£3": 2139,
      "##dle": 2140,
      "##ories": 2141,
      "##apan": 2142,
      "few": 2143,
      "main": 2144,
      "latest": 2145,
      "africa": 2146,
      "##oo": 2147,
      "fif": 2148,
      "december": 2149,
      "surgery": 2150,
      "america": 2151,
      "anti": 2152,
      "japan": 2153,
      "##ober": 2154,
      "29": 2155,
      "august": 2156,
      "rod": 2157,
      "dress": 2158,
      "serious": 2159,
      "fly": 2160,
      "##ease": 2161,
      "##yl": 2162,
      "appeared": 2163,
      "##ese": 2164,
      "fav": 2165,
      "attor": 2166,
      "attorney": 2167,
      "drugs": 2168,
      "traff": 2169,
      "##field": 2170,
      "impr": 2171,
      "enter": 2172,
      "##ittle": 2173,
      "##ners": 2174,
      "dom": 2175,
      "track": 2176,
      "die": 2177,
      "tro": 2178,
      "angel": 2179,
      "once": 2180,
      "strugg": 2181,
      "repl": 2182,
      "##ino": 2183,
      "60": 2184,
      "##uce": 2185,
      "afghan": 2186,
      "currently": 2187,
      "interview": 2188,
      "whether": 2189,
      "twe": 2190,
      "mel": 2191,
      "os": 2192,
      "fur": 2193,
      "pub": 2194,
      "civil": 2195,
      "##ring": 2196,
      "australian": 2197,
      "fel": 2198,
      "described": 2199,
      "foreign": 2200,
      "##using": 2201,
      "history": 2202,
      "inside": 2203,
      "##aps": 2204,
      "role": 2205,
      "driving": 2206,
      "involved": 2207,
      "crime": 2208,
      "little": 2209,
      "##oid": 2210,
      "extr": 2211,
      "love": 2212,
      "brain": 2213,
      "users": 2214,
      "##ensive": 2215,
      "##ka": 2216,
      "##oken": 2217,
      "risk": 2218,
      "##order": 2219,
      "ms": 2220,
      "captain": 2221,
      "sil": 2222,
      "remains": 2223,
      "thom": 2224,
      "je": 2225,
      "pick": 2226,
      "hon": 2227,
      "oly": 2228,
      "pil": 2229,
      "olymp": 2230,
      "##ds": 2231,
      "cross": 2232,
      "russia": 2233,
      "vehic": 2234,
      "violence": 2235,
      "syria": 2236,
      "mer": 2237,
      "trip": 2238,
      "living": 2239,
      "bene": 2240,
      "october": 2241,
      "european": 2242,
      "div": 2243,
      "##ially": 2244,
      "points": 2245,
      "germany": 2246,
      "christmas": 2247,
      "##ding": 2248,
      "ron": 2249,
      "board": 2250,
      "##ars": 2251,
      "church": 2252,
      "witness": 2253,
      "box": 2254,
      "brand": 2255,
      "mis": 2256,
      "##wood": 2257,
      "2009": 2258,
      "##ston": 2259,
      "fat": 2260,
      "mcc": 2261,
      "##cast": 2262,
      "sit": 2263,
      "ten": 2264,
      "##ca": 2265,
      "32": 2266,
      "##han": 2267,
      "building": 2268,
      "self": 2269,
      "worth": 2270,
      "2014": 2271,
      "green": 2272,
      "##avy": 2273,
      "storm": 2274,
      "aged": 2275,
      "##ays": 2276,
      "created": 2277,
      "##oad": 2278,
      "##ips": 2279,
      "bag": 2280,
      "question": 2281,
      "washing": 2282,
      "rock": 2283,
      "##ma": 2284,
      "dest": 2285,
      "martin": 2286,
      "better": 2287,
      "tells": 2288,
      "##istr": 2289,
      "hur": 2290,
      "labour": 2291,
      "qual": 2292,
      "##esh": 2293,
      "disapp": 2294,
      "90": 2295,
      "title": 2296,
      "texas": 2297,
      "political": 2298,
      "##ape": 2299,
      "victory": 2300,
      "31": 2301,
      "hill": 2302,
      "ver": 2303,
      "scre": 2304,
      "cameron": 2305,
      "launched": 2306,
      "prince": 2307,
      "bul": 2308,
      "pictures": 2309,
      "agre": 2310,
      "information": 2311,
      "weekend": 2312,
      "appeal": 2313,
      "challen": 2314,
      "##itions": 2315,
      "##agn": 2316,
      "recent": 2317,
      "holiday": 2318,
      "airport": 2319,
      "##anged": 2320,
      "##ented": 2321,
      "general": 2322,
      "fut": 2323,
      "attacked": 2324,
      "reportedly": 2325,
      "sentenced": 2326,
      "bott": 2327,
      "announced": 2328,
      "islam": 2329,
      "goals": 2330,
      "robert": 2331,
      "safety": 2332,
      "page": 2333,
      "35": 2334,
      "##ef": 2335,
      "federal": 2336,
      "##ung": 2337,
      "##aper": 2338,
      "carry": 2339,
      "sand": 2340,
      "yet": 2341,
      "louis": 2342,
      "sle": 2343,
      "space": 2344,
      "join": 2345,
      "snow": 2346,
      "scene": 2347,
      "scientists": 2348,
      "##elled": 2349,
      "lif": 2350,
      "scot": 2351,
      "scott": 2352,
      "russian": 2353,
      "market": 2354,
      "##ica": 2355,
      "clear": 2356,
      "bay": 2357,
      "able": 2358,
      "barcel": 2359,
      "##acher": 2360,
      "americans": 2361,
      "famil": 2362,
      "##lim": 2363,
      "barcelona": 2364,
      "playing": 2365,
      "##ilar": 2366,
      "attemp": 2367,
      "vol": 2368,
      "##mar": 2369,
      "##ately": 2370,
      "alleg": 2371,
      "##ences": 2372,
      "smith": 2373,
      "lawyer": 2374,
      "county": 2375,
      "private": 2376,
      "aw": 2377,
      "hope": 2378,
      "marri": 2379,
      "election": 2380,
      "lives": 2381,
      "store": 2382,
      "arrest": 2383,
      "relationship": 2384,
      "toget": 2385,
      "fail": 2386,
      "together": 2387,
      "##ounds": 2388,
      "##inese": 2389,
      "quar": 2390,
      "##ata": 2391,
      "cause": 2392,
      "stab": 2393,
      "##ening": 2394,
      "orig": 2395,
      "helped": 2396,
      "##ez": 2397,
      "strong": 2398,
      "congress": 2399,
      "bas": 2400,
      "creat": 2401,
      "pan": 2402,
      "release": 2403,
      "music": 2404,
      "197": 2405,
      "washington": 2406,
      "bbc": 2407,
      "property": 2408,
      "surve": 2409,
      "female": 2410,
      "feel": 2411,
      "pak": 2412,
      "trad": 2413,
      "##ends": 2414,
      "emb": 2415,
      "lear": 2416,
      "nation": 2417,
      "signed": 2418,
      "hund": 2419,
      "firm": 2420,
      "girlfriend": 2421,
      "##nal": 2422,
      "wall": 2423,
      "aid": 2424,
      "ash": 2425,
      "station": 2426,
      "weap": 2427,
      "##engers": 2428,
      "amb": 2429,
      "vote": 2430,
      "recently": 2431,
      "wrong": 2432,
      "returned": 2433,
      "neg": 2434,
      "sentence": 2435,
      "williams": 2436,
      "cand": 2437,
      "beach": 2438,
      "residents": 2439,
      "moved": 2440,
      "takes": 2441,
      "##bi": 2442,
      "middle": 2443,
      "director": 2444,
      "span": 2445,
      "chinese": 2446,
      "##ept": 2447,
      "##ams": 2448,
      "disease": 2449,
      "homes": 2450,
      "hundred": 2451,
      "##ilt": 2452,
      "future": 2453,
      "##ental": 2454,
      "forces": 2455,
      "##bo": 2456,
      "here": 2457,
      "comple": 2458,
      "worked": 2459,
      "pakistan": 2460,
      "cat": 2461,
      "##leg": 2462,
      "commit": 2463,
      "passengers": 2464,
      "isis": 2465,
      "story": 2466,
      "pregn": 2467,
      "problems": 2468,
      "spokesman": 2469,
      "unc": 2470,
      "patients": 2471,
      "##oming": 2472,
      "##yan": 2473,
      "##roy": 2474,
      "##ored": 2475,
      "career": 2476,
      "refused": 2477,
      "think": 2478,
      "cann": 2479,
      "immigr": 2480,
      "benef": 2481,
      "##ination": 2482,
      "model": 2483,
      "33": 2484,
      "##ille": 2485,
      "chang": 2486,
      "charity": 2487,
      "2008": 2488,
      "fle": 2489,
      "diagn": 2490,
      "##acked": 2491,
      "##apped": 2492,
      "clinton": 2493,
      "running": 2494,
      "suicide": 2495,
      "##ension": 2496,
      "arm": 2497,
      "ent": 2498,
      "countries": 2499,
      "##iation": 2500,
      "buy": 2501,
      "families": 2502,
      "sir": 2503,
      "battle": 2504,
      "danger": 2505,
      "##hire": 2506,
      "##aur": 2507,
      "##umb": 2508,
      "##ains": 2509,
      "webs": 2510,
      "includes": 2511,
      "cell": 2512,
      "joined": 2513,
      "cash": 2514,
      "apple": 2515,
      "trib": 2516,
      "within": 2517,
      "respons": 2518,
      "##ho": 2519,
      "##work": 2520,
      "##bur": 2521,
      "enc": 2522,
      "price": 2523,
      "doesn": 2524,
      "##pped": 2525,
      "glob": 2526,
      "sports": 2527,
      "centre": 2528,
      "poll": 2529,
      "##read": 2530,
      "##ielder": 2531,
      "cast": 2532,
      "##iger": 2533,
      "india": 2534,
      "clim": 2535,
      "penal": 2536,
      "wild": 2537,
      "capital": 2538,
      "##shire": 2539,
      "mrs": 2540,
      "##enger": 2541,
      "sister": 2542,
      "##fielder": 2543,
      "bring": 2544,
      "previously": 2545,
      "agency": 2546,
      "perform": 2547,
      "mob": 2548,
      "community": 2549,
      "army": 2550,
      "deg": 2551,
      "clash": 2552,
      "##ara": 2553,
      "stars": 2554,
      "forward": 2555,
      "earth": 2556,
      "midfielder": 2557,
      "comments": 2558,
      "##ways": 2559,
      "##ada": 2560,
      "twice": 2561,
      "similar": 2562,
      "photo": 2563,
      "defense": 2564,
      "justice": 2565,
      "teenag": 2566,
      "leaving": 2567,
      "footage": 2568,
      "broke": 2569,
      "english": 2570,
      "different": 2571,
      "exc": 2572,
      "these": 2573,
      "troops": 2574,
      "febr": 2575,
      "february": 2576,
      "##isted": 2577,
      "researchers": 2578,
      "##rup": 2579,
      "spain": 2580,
      "##ging": 2581,
      "tem": 2582,
      "point": 2583,
      "##oz": 2584,
      "educ": 2585,
      "large": 2586,
      "aim": 2587,
      "##hol": 2588,
      "happened": 2589,
      "45": 2590,
      "bought": 2591,
      "fourth": 2592,
      "mill": 2593,
      "groups": 2594,
      "average": 2595,
      "chris": 2596,
      "##ever": 2597,
      "rules": 2598,
      "cho": 2599,
      "operation": 2600,
      "du": 2601,
      "hero": 2602,
      "makes": 2603,
      "##ushed": 2604,
      "access": 2605,
      "ps": 2606,
      "##ulation": 2607,
      "squad": 2608,
      "decl": 2609,
      "##ev": 2610,
      "award": 2611,
      "minute": 2612,
      "crew": 2613,
      "row": 2614,
      "wales": 2615,
      "##ogle": 2616,
      "hundreds": 2617,
      "mayor": 2618,
      "percent": 2619,
      "mail": 2620,
      "kick": 2621,
      "mexico": 2622,
      "peter": 2623,
      "personal": 2624,
      "built": 2625,
      "victor": 2626,
      "##unt": 2627,
      "##ena": 2628,
      "extrem": 2629,
      "richard": 2630,
      "##ado": 2631,
      "hopes": 2632,
      "gang": 2633,
      "demand": 2634,
      "bri": 2635,
      "eb": 2636,
      "huge": 2637,
      "complain": 2638,
      "sale": 2639,
      "policy": 2640,
      "apolog": 2641,
      "##elle": 2642,
      "cover": 2643,
      "getting": 2644,
      "##bor": 2645,
      "region": 2646,
      "pred": 2647,
      "google": 2648,
      "meas": 2649,
      "animal": 2650,
      "korea": 2651,
      "sun": 2652,
      "center": 2653,
      "scotland": 2654,
      "bail": 2655,
      "abd": 2656,
      "poor": 2657,
      "issue": 2658,
      "marriage": 2659,
      "carol": 2660,
      "loss": 2661,
      "##to": 2662,
      "franc": 2663,
      "banned": 2664,
      "allowed": 2665,
      "queen": 2666,
      "bod": 2667,
      "muslim": 2668,
      "member": 2669,
      "##iled": 2670,
      "##ades": 2671,
      "##berg": 2672,
      "34": 2673,
      "##atter": 2674,
      "##ari": 2675,
      "cases": 2676,
      "gian": 2677,
      "##ky": 2678,
      "##atives": 2679,
      "der": 2680,
      "fighting": 2681,
      "talks": 2682,
      "speed": 2683,
      "linked": 2684,
      "ordered": 2685,
      "foc": 2686,
      "enough": 2687,
      "daniel": 2688,
      "##elling": 2689,
      "rape": 2690,
      "##ify": 2691,
      "champion": 2692,
      "jackson": 2693,
      "winning": 2694,
      "flo": 2695,
      "36": 2696,
      "##lear": 2697,
      "syd": 2698,
      "##itive": 2699,
      "##ential": 2700,
      "##iter": 2701,
      "##ece": 2702,
      "illeg": 2703,
      "meeting": 2704,
      "hall": 2705,
      "ga": 2706,
      "gas": 2707,
      "clos": 2708,
      "crown": 2709,
      "championship": 2710,
      "suspended": 2711,
      "project": 2712,
      "electr": 2713,
      "avail": 2714,
      "discuss": 2715,
      "sydney": 2716,
      "allegations": 2717,
      "##acted": 2718,
      "disp": 2719,
      "internet": 2720,
      "letter": 2721,
      "gay": 2722,
      "recover": 2723,
      "needed": 2724,
      "journal": 2725,
      "ide": 2726,
      "mult": 2727,
      "##aked": 2728,
      "wins": 2729,
      "##yn": 2730,
      "sat": 2731,
      "init": 2732,
      "italy": 2733,
      "##inking": 2734,
      "arrived": 2735,
      "wat": 2736,
      "fal": 2737,
      "##itor": 2738,
      "reveals": 2739,
      "mist": 2740,
      "cop": 2741,
      "deaths": 2742,
      "##gency": 2743,
      "yester": 2744,
      "indust": 2745,
      "boyfriend": 2746,
      "issues": 2747,
      "denies": 2748,
      "bow": 2749,
      "lee": 2750,
      "yesterday": 2751,
      "##ander": 2752,
      "##ems": 2753,
      "hearing": 2754,
      "dar": 2755,
      "services": 2756,
      "controvers": 2757,
      "confirmed": 2758,
      "##ih": 2759,
      "displ": 2760,
      "##ini": 2761,
      "##ba": 2762,
      "suppor": 2763,
      "cars": 2764,
      "brought": 2765,
      "appr": 2766,
      "camera": 2767,
      "share": 2768,
      "showed": 2769,
      "pm": 2770,
      "offer": 2771,
      "mos": 2772,
      "denied": 2773,
      "bud": 2774,
      "range": 2775,
      "##be": 2776,
      "broad": 2777,
      "costs": 2778,
      "soldiers": 2779,
      "african": 2780,
      "data": 2781,
      "oppos": 2782,
      "spotted": 2783,
      "warned": 2784,
      "##pm": 2785,
      "available": 2786,
      "hair": 2787,
      "##vin": 2788,
      "##olf": 2789,
      "arch": 2790,
      "##key": 2791,
      "restaur": 2792,
      "fired": 2793,
      "ital": 2794,
      "##ampton": 2795,
      "weight": 2796,
      "##wh": 2797,
      "##pe": 2798,
      "##ils": 2799,
      "doctor": 2800,
      "##wor": 2801,
      "mean": 2802,
      "sem": 2803,
      "hands": 2804,
      "jones": 2805,
      "offered": 2806,
      "opened": 2807,
      "intr": 2808,
      "chair": 2809,
      "guard": 2810,
      "separ": 2811,
      "nick": 2812,
      "chance": 2813,
      "kar": 2814,
      "196": 2815,
      "ep": 2816,
      "needs": 2817,
      "##lo": 2818,
      "ship": 2819,
      "college": 2820,
      "possible": 2821,
      "##iding": 2822,
      "expert": 2823,
      "gard": 2824,
      "kim": 2825,
      "##raft": 2826,
      "cas": 2827,
      "winner": 2828,
      "criminal": 2829,
      "contract": 2830,
      "argent": 2831,
      "##ris": 2832,
      "inqu": 2833,
      "jos": 2834,
      "tor": 2835,
      "why": 2836,
      "northern": 2837,
      "patr": 2838,
      "commission": 2839,
      "##inger": 2840,
      "details": 2841,
      "300": 2842,
      "table": 2843,
      "ukr": 2844,
      "estim": 2845,
      "##ram": 2846,
      "protect": 2847,
      "johnson": 2848,
      "ronald": 2849,
      "cook": 2850,
      "cir": 2851,
      "£4": 2852,
      "sea": 2853,
      "thomas": 2854,
      "gop": 2855,
      "instead": 2856,
      "captured": 2857,
      "##ipped": 2858,
      "river": 2859,
      "##cep": 2860,
      "however": 2861,
      "mas": 2862,
      "##aces": 2863,
      "##ersey": 2864,
      "border": 2865,
      "partner": 2866,
      "##ressed": 2867,
      "##ster": 2868,
      "non": 2869,
      "account": 2870,
      "included": 2871,
      "indian": 2872,
      "biggest": 2873,
      "continue": 2874,
      "deter": 2875,
      "often": 2876,
      "conc": 2877,
      "crow": 2878,
      "weather": 2879,
      "admin": 2880,
      "emergency": 2881,
      "dropped": 2882,
      "diagnosed": 2883,
      "pi": 2884,
      "ice": 2885,
      "insists": 2886,
      "sleep": 2887,
      "union": 2888,
      "raised": 2889,
      "total": 2890,
      "afghanistan": 2891,
      "##ll": 2892,
      "rise": 2893,
      "size": 2894,
      "##itz": 2895,
      "present": 2896,
      "boys": 2897,
      "hy": 2898,
      "##orce": 2899,
      "oil": 2900,
      "sou": 2901,
      "wrote": 2902,
      "gener": 2903,
      "cult": 2904,
      "jump": 2905,
      "##eted": 2906,
      "ru": 2907,
      "defeat": 2908,
      "ire": 2909,
      "candid": 2910,
      "speech": 2911,
      "2007": 2912,
      "message": 2913,
      "technology": 2914,
      "infl": 2915,
      "conserv": 2916,
      "flood": 2917,
      "damage": 2918,
      "##ych": 2919,
      "picture": 2920,
      "trust": 2921,
      "problem": 2922,
      "mour": 2923,
      "andrew": 2924,
      "review": 2925,
      "##ider": 2926,
      "quarter": 2927,
      "##ube": 2928,
      "removed": 2929,
      "loan": 2930,
      "##castle": 2931,
      "famous": 2932,
      "cred": 2933,
      "##itten": 2934,
      "stopped": 2935,
      "singer": 2936,
      "pleaded": 2937,
      "##oud": 2938,
      "newcastle": 2939,
      "image": 2940,
      "try": 2941,
      "##ift": 2942,
      "repres": 2943,
      "lew": 2944,
      "mans": 2945,
      "italian": 2946,
      "##sw": 2947,
      "##thing": 2948,
      "photographer": 2949,
      "prosecutors": 2950,
      "cab": 2951,
      "##aud": 2952,
      "##eme": 2953,
      "##reg": 2954,
      "##fl": 2955,
      "current": 2956,
      "customers": 2957,
      "stad": 2958,
      "treated": 2959,
      "##ees": 2960,
      "##anda": 2961,
      "##aker": 2962,
      "actor": 2963,
      "opening": 2964,
      "field": 2965,
      "admits": 2966,
      "##cohol": 2967,
      "roll": 2968,
      "walk": 2969,
      "ros": 2970,
      "single": 2971,
      "teach": 2972,
      "70": 2973,
      "teacher": 2974,
      "##sel": 2975,
      "central": 2976,
      "website": 2977,
      "alcohol": 2978,
      "dail": 2979,
      "pressure": 2980,
      "base": 2981,
      "save": 2982,
      "##joy": 2983,
      "##akes": 2984,
      "sher": 2985,
      "##unk": 2986,
      "##ergy": 2987,
      "paris": 2988,
      "sport": 2989,
      "cris": 2990,
      "daily": 2991,
      "jobs": 2992,
      "bor": 2993,
      "bull": 2994,
      "jury": 2995,
      "disappear": 2996,
      "80": 2997,
      "##iction": 2998,
      "wedding": 2999,
      "##inated": 3000,
      "harry": 3001,
      "investigating": 3002,
      "##cept": 3003,
      "pack": 3004,
      "##anning": 3005,
      "kept": 3006,
      "##off": 3007,
      "##tress": 3008,
      "common": 3009,
      "level": 3010,
      "means": 3011,
      "vehicle": 3012,
      "interest": 3013,
      "palace": 3014,
      "##tenham": 3015,
      "stra": 3016,
      "avoid": 3017,
      "circ": 3018,
      "##vert": 3019,
      "comment": 3020,
      "##back": 3021,
      "decided": 3022,
      "struck": 3023,
      "owners": 3024,
      "tick": 3025,
      "soon": 3026,
      "process": 3027,
      "suffering": 3028,
      "murray": 3029,
      "ruled": 3030,
      "engine": 3031,
      "##ode": 3032,
      "stadium": 3033,
      "behav": 3034,
      "wel": 3035,
      "distr": 3036,
      "features": 3037,
      "motor": 3038,
      "37": 3039,
      "transfer": 3040,
      "##rif": 3041,
      "##opping": 3042,
      "cere": 3043,
      "##kn": 3044,
      "##ament": 3045,
      "fast": 3046,
      "##utch": 3047,
      "bush": 3048,
      "##others": 3049,
      "touch": 3050,
      "jew": 3051,
      "penalty": 3052,
      "##lor": 3053,
      "##eds": 3054,
      "##men": 3055,
      "chem": 3056,
      "peace": 3057,
      "defender": 3058,
      "ele": 3059,
      "##aped": 3060,
      "effect": 3061,
      "ol": 3062,
      "##bert": 3063,
      "dism": 3064,
      "fbi": 3065,
      "##esters": 3066,
      "clean": 3067,
      "wound": 3068,
      "designed": 3069,
      "respond": 3070,
      "hers": 3071,
      "schools": 3072,
      "##oned": 3073,
      "dub": 3074,
      "bea": 3075,
      "feet": 3076,
      "animals": 3077,
      "##of": 3078,
      "##ibility": 3079,
      "moun": 3080,
      "pulled": 3081,
      "eu": 3082,
      "##hood": 3083,
      "vers": 3084,
      "questions": 3085,
      "wearing": 3086,
      "extra": 3087,
      "attend": 3088,
      "song": 3089,
      "rub": 3090,
      "warning": 3091,
      "aud": 3092,
      "enjoy": 3093,
      "gaal": 3094,
      "pow": 3095,
      "##iest": 3096,
      "##rey": 3097,
      "pract": 3098,
      "create": 3099,
      "jon": 3100,
      "##asing": 3101,
      "somet": 3102,
      "cit": 3103,
      "tests": 3104,
      "##phone": 3105,
      "sar": 3106,
      "financ": 3107,
      "ce": 3108,
      "protest": 3109,
      "hous": 3110,
      "£5": 3111,
      "##ville": 3112,
      "deep": 3113,
      "rare": 3114,
      "bodies": 3115,
      "works": 3116,
      "style": 3117,
      "sales": 3118,
      "increase": 3119,
      "##gl": 3120,
      "carried": 3121,
      "result": 3122,
      "administr": 3123,
      "din": 3124,
      "jul": 3125,
      "veter": 3126,
      "temper": 3127,
      "appro": 3128,
      "suspic": 3129,
      "explos": 3130,
      "corn": 3131,
      "fish": 3132,
      "##me": 3133,
      "##gg": 3134,
      "protesters": 3135,
      "occur": 3136,
      "warn": 3137,
      "##inted": 3138,
      "##ovic": 3139,
      "rain": 3140,
      "##lines": 3141,
      "publish": 3142,
      "##dr": 3143,
      "fash": 3144,
      "ath": 3145,
      "broken": 3146,
      "attr": 3147,
      "const": 3148,
      "##ashed": 3149,
      "counts": 3150,
      "eye": 3151,
      "lack": 3152,
      "ster": 3153,
      "assoc": 3154,
      "resign": 3155,
      "fears": 3156,
      "further": 3157,
      "nhs": 3158,
      "##por": 3159,
      "jersey": 3160,
      "mp": 3161,
      "##ador": 3162,
      "perfor": 3163,
      "kids": 3164,
      "##ki": 3165,
      "calling": 3166,
      "dogs": 3167,
      "fest": 3168,
      "comb": 3169,
      "senior": 3170,
      "charl": 3171,
      "##acter": 3172,
      "##icks": 3173,
      "mir": 3174,
      "partic": 3175,
      "figures": 3176,
      "dangerous": 3177,
      "##ago": 3178,
      "leading": 3179,
      "pregnant": 3180,
      "assist": 3181,
      "weapons": 3182,
      "rout": 3183,
      "##ighters": 3184,
      "##ny": 3185,
      "##asts": 3186,
      "raise": 3187,
      "mary": 3188,
      "lot": 3189,
      "cloth": 3190,
      "doz": 3191,
      "skin": 3192,
      "##gypt": 3193,
      "tottenham": 3194,
      "source": 3195,
      "shut": 3196,
      "compu": 3197,
      "38": 3198,
      "egypt": 3199,
      "longer": 3200,
      "passed": 3201,
      "favour": 3202,
      "42": 3203,
      "double": 3204,
      "global": 3205,
      "spanish": 3206,
      "bath": 3207,
      "ord": 3208,
      "##edy": 3209,
      "##oper": 3210,
      "nations": 3211,
      "custody": 3212,
      "virgin": 3213,
      "##hen": 3214,
      "movie": 3215,
      "sel": 3216,
      "ts": 3217,
      "suspected": 3218,
      "##za": 3219,
      "pers": 3220,
      "##car": 3221,
      "actress": 3222,
      "frank": 3223,
      "fashion": 3224,
      "crisis": 3225,
      "pilot": 3226,
      "uses": 3227,
      "kenn": 3228,
      "##erence": 3229,
      "##inho": 3230,
      "handed": 3231,
      "princ": 3232,
      "teenager": 3233,
      "iv": 3234,
      "largest": 3235,
      "tourn": 3236,
      "env": 3237,
      "shop": 3238,
      "education": 3239,
      "planned": 3240,
      "##ancy": 3241,
      "stage": 3242,
      "##andal": 3243,
      "dre": 3244,
      "##down": 3245,
      "bi": 3246,
      "##la": 3247,
      "affair": 3248,
      "mach": 3249,
      "swim": 3250,
      "companies": 3251,
      "##ude": 3252,
      "francis": 3253,
      "penn": 3254,
      "kidn": 3255,
      "##gers": 3256,
      "##hy": 3257,
      "##rec": 3258,
      "jose": 3259,
      "degree": 3260,
      "male": 3261,
      "energy": 3262,
      "sky": 3263,
      "##inson": 3264,
      "lived": 3265,
      "growing": 3266,
      "43": 3267,
      "nov": 3268,
      "areas": 3269,
      "senate": 3270,
      "freed": 3271,
      "weigh": 3272,
      "survey": 3273,
      "ari": 3274,
      "bob": 3275,
      "mobile": 3276,
      "##lant": 3277,
      "ebola": 3278,
      "##uation": 3279,
      "web": 3280,
      "parts": 3281,
      "44": 3282,
      "vac": 3283,
      "insur": 3284,
      "neighbour": 3285,
      "ram": 3286,
      "inn": 3287,
      "identified": 3288,
      "strike": 3289,
      "herself": 3290,
      "sav": 3291,
      "bridge": 3292,
      "illegal": 3293,
      "bird": 3294,
      "offers": 3295,
      "debut": 3296,
      "added": 3297,
      "##ores": 3298,
      "import": 3299,
      "quick": 3300,
      "critics": 3301,
      "challenge": 3302,
      "spar": 3303,
      "anth": 3304,
      "##well": 3305,
      "##ogn": 3306,
      "##estern": 3307,
      "alb": 3308,
      "nat": 3309,
      "gone": 3310,
      "bol": 3311,
      "eas": 3312,
      "warns": 3313,
      "##uff": 3314,
      "##igan": 3315,
      "statement": 3316,
      "48": 3317,
      "rescue": 3318,
      "might": 3319,
      "spoke": 3320,
      "maria": 3321,
      "##stand": 3322,
      "done": 3323,
      "##anch": 3324,
      "filmed": 3325,
      "##craft": 3326,
      "spl": 3327,
      "highest": 3328,
      "##mark": 3329,
      "fraud": 3330,
      "##mit": 3331,
      "lose": 3332,
      "nuc": 3333,
      "##etic": 3334,
      "##any": 3335,
      "spread": 3336,
      "surf": 3337,
      "cannot": 3338,
      "display": 3339,
      "performan": 3340,
      "##oney": 3341,
      "##ano": 3342,
      "##elly": 3343,
      "##empt": 3344,
      "artist": 3345,
      "##arez": 3346,
      "safe": 3347,
      "##bing": 3348,
      "beg": 3349,
      "talk": 3350,
      "lam": 3351,
      "obs": 3352,
      "always": 3353,
      "##isters": 3354,
      "competition": 3355,
      "spending": 3356,
      "door": 3357,
      "destroy": 3358,
      "fan": 3359,
      "expect": 3360,
      "doing": 3361,
      "drive": 3362,
      "investigators": 3363,
      "network": 3364,
      "auction": 3365,
      "lord": 3366,
      "ut": 3367,
      "£6": 3368,
      "indep": 3369,
      "nuclear": 3370,
      "muse": 3371,
      "abs": 3372,
      "##itional": 3373,
      "brook": 3374,
      "georg": 3375,
      "fine": 3376,
      "##ania": 3377,
      "restaurant": 3378,
      "fort": 3379,
      "conditions": 3380,
      "independ": 3381,
      "fix": 3382,
      "##eless": 3383,
      "coming": 3384,
      "collection": 3385,
      "changes": 3386,
      "las": 3387,
      "gh": 3388,
      "closed": 3389,
      "industry": 3390,
      "rate": 3391,
      "though": 3392,
      "ton": 3393,
      "##eda": 3394,
      "device": 3395,
      "radio": 3396,
      "cerem": 3397,
      "heavy": 3398,
      "results": 3399,
      "norm": 3400,
      "ryan": 3401,
      "tay": 3402,
      "economic": 3403,
      "whe": 3404,
      "served": 3405,
      "follows": 3406,
      "bedroom": 3407,
      "document": 3408,
      "41": 3409,
      "nothing": 3410,
      "##born": 3411,
      "finish": 3412,
      "gal": 3413,
      "farm": 3414,
      "agreed": 3415,
      "fit": 3416,
      "##action": 3417,
      "mission": 3418,
      "idea": 3419,
      "threatened": 3420,
      "selling": 3421,
      "approach": 3422,
      "cru": 3423,
      "##omm": 3424,
      "records": 3425,
      "citiz": 3426,
      "##tee": 3427,
      "ox": 3428,
      "prices": 3429,
      "reform": 3430,
      "opposition": 3431,
      "filed": 3432,
      "looked": 3433,
      "giant": 3434,
      "39": 3435,
      "adop": 3436,
      "##bridge": 3437,
      "lux": 3438,
      "ended": 3439,
      "histor": 3440,
      "##ength": 3441,
      "nas": 3442,
      "rog": 3443,
      "##ilton": 3444,
      "phys": 3445,
      "2015": 3446,
      "financial": 3447,
      "minor": 3448,
      "governor": 3449,
      "messages": 3450,
      "tournament": 3451,
      "##iety": 3452,
      "begin": 3453,
      "liber": 3454,
      "##ga": 3455,
      "diffic": 3456,
      "tenn": 3457,
      "cub": 3458,
      "tony": 3459,
      "olympic": 3460,
      "repe": 3461,
      "surr": 3462,
      "facing": 3463,
      "sens": 3464,
      "##tery": 3465,
      "shir": 3466,
      "click": 3467,
      "placed": 3468,
      "ker": 3469,
      "##cri": 3470,
      "detect": 3471,
      "##aging": 3472,
      "psych": 3473,
      "pun": 3474,
      "andy": 3475,
      "spend": 3476,
      "blue": 3477,
      "happy": 3478,
      "protests": 3479,
      "looks": 3480,
      "arab": 3481,
      "visited": 3482,
      "##cy": 3483,
      "##ively": 3484,
      "unl": 3485,
      "##onstr": 3486,
      "##ani": 3487,
      "jim": 3488,
      "ll": 3489,
      "worker": 3490,
      "apartment": 3491,
      "drink": 3492,
      "suit": 3493,
      "exam": 3494,
      "##iano": 3495,
      "charles": 3496,
      "sant": 3497,
      "##tle": 3498,
      "##cher": 3499,
      "400": 3500,
      "gri": 3501,
      "attempted": 3502,
      "##gar": 3503,
      "##ero": 3504,
      "giving": 3505,
      "economy": 3506,
      "executive": 3507,
      "##ural": 3508,
      "uns": 3509,
      "milan": 3510,
      "vo": 3511,
      "##angers": 3512,
      "determ": 3513,
      "##uled": 3514,
      "scr": 3515,
      "concerns": 3516,
      "46": 3517,
      "hen": 3518,
      "band": 3519,
      "shock": 3520,
      "##ocks": 3521,
      "block": 3522,
      "smart": 3523,
      "mic": 3524,
      "benefits": 3525,
      "##ze": 3526,
      "##inks": 3527,
      "presidential": 3528,
      "committee": 3529,
      "qa": 3530,
      "immigration": 3531,
      "issued": 3532,
      "fifth": 3533,
      "inch": 3534,
      "worst": 3535,
      "millions": 3536,
      "events": 3537,
      "address": 3538,
      "##otion": 3539,
      "museum": 3540,
      "boat": 3541,
      "##don": 3542,
      "fled": 3543,
      "nom": 3544,
      "##iate": 3545,
      "date": 3546,
      "aircraft": 3547,
      "ronaldo": 3548,
      "##jected": 3549,
      "##ugh": 3550,
      "47": 3551,
      "eric": 3552,
      "fill": 3553,
      "##uk": 3554,
      "brad": 3555,
      "parl": 3556,
      "related": 3557,
      "wid": 3558,
      "steve": 3559,
      "##iban": 3560,
      "2016": 3561,
      "western": 3562,
      "##emb": 3563,
      "cry": 3564,
      "supporters": 3565,
      "doll": 3566,
      "##hib": 3567,
      "stone": 3568,
      "analy": 3569,
      "course": 3570,
      "inspired": 3571,
      "ray": 3572,
      "appears": 3573,
      "##bre": 3574,
      "##ela": 3575,
      "successful": 3576,
      "##uted": 3577,
      "taliban": 3578,
      "documents": 3579,
      "changed": 3580,
      "romney": 3581,
      "jord": 3582,
      "##rop": 3583,
      "suggest": 3584,
      "##onse": 3585,
      "sup": 3586,
      "refer": 3587,
      "crashed": 3588,
      "scandal": 3589,
      "##jects": 3590,
      "ruling": 3591,
      "steven": 3592,
      "wasn": 3593,
      "##athan": 3594,
      "pra": 3595,
      "suspects": 3596,
      "nearby": 3597,
      "carrying": 3598,
      "regular": 3599,
      "yout": 3600,
      "##ires": 3601,
      "atlant": 3602,
      "annual": 3603,
      "kevin": 3604,
      "tow": 3605,
      "ali": 3606,
      "ukraine": 3607,
      "sched": 3608,
      "signs": 3609,
      "potential": 3610,
      "fair": 3611,
      "##selves": 3612,
      "ken": 3613,
      "kent": 3614,
      "mun": 3615,
      "##dd": 3616,
      "hack": 3617,
      "conference": 3618,
      "encour": 3619,
      "2006": 3620,
      "youtube": 3621,
      "##ha": 3622,
      "appar": 3623,
      "response": 3624,
      "##ta": 3625,
      "district": 3626,
      "prevent": 3627,
      "dig": 3628,
      "joe": 3629,
      "taylor": 3630,
      "##olution": 3631,
      "republican": 3632,
      "fab": 3633,
      "##aves": 3634,
      "themselves": 3635,
      "color": 3636,
      "southern": 3637,
      "bom": 3638,
      "cold": 3639,
      "##kes": 3640,
      "levels": 3641,
      "floor": 3642,
      "occurred": 3643,
      "ok": 3644,
      "##sex": 3645,
      "experience": 3646,
      "cuts": 3647,
      "christian": 3648,
      "49": 3649,
      "armed": 3650,
      "causing": 3651,
      "villa": 3652,
      "qaeda": 3653,
      "##iles": 3654,
      "birthday": 3655,
      "ring": 3656,
      "eat": 3657,
      "pup": 3658,
      "##itution": 3659,
      "bost": 3660,
      "feature": 3661,
      "immed": 3662,
      "mountain": 3663,
      "natur": 3664,
      "##he": 3665,
      "##vent": 3666,
      "beaten": 3667,
      "considered": 3668,
      "mater": 3669,
      "fellow": 3670,
      "##oms": 3671,
      "##ban": 3672,
      "medic": 3673,
      "angeles": 3674,
      "argentina": 3675,
      "ly": 3676,
      "everton": 3677,
      "##lands": 3678,
      "improve": 3679,
      "stabbed": 3680,
      "lewis": 3681,
      "mps": 3682,
      "##form": 3683,
      "jam": 3684,
      "##ya": 3685,
      "provide": 3686,
      "chann": 3687,
      "amid": 3688,
      "drivers": 3689,
      "signing": 3690,
      "ireland": 3691,
      "##ique": 3692,
      "shared": 3693,
      "amaz": 3694,
      "alone": 3695,
      "##ounts": 3696,
      "memor": 3697,
      "republicans": 3698,
      "parliam": 3699,
      "mand": 3700,
      "moment": 3701,
      "##kins": 3702,
      "##ills": 3703,
      "##mond": 3704,
      "teams": 3705,
      "laur": 3706,
      "glass": 3707,
      "##olen": 3708,
      "boston": 3709,
      "55": 3710,
      "followed": 3711,
      "announce": 3712,
      "traffic": 3713,
      "discover": 3714,
      "ceremony": 3715,
      "##iance": 3716,
      "written": 3717,
      "parliament": 3718,
      "deli": 3719,
      "##aming": 3720,
      "above": 3721,
      "mourinho": 3722,
      "##erc": 3723,
      "islamic": 3724,
      "winter": 3725,
      "names": 3726,
      "check": 3727,
      "violent": 3728,
      "mac": 3729,
      "##igence": 3730,
      "unve": 3731,
      "##iple": 3732,
      "relig": 3733,
      "village": 3734,
      "felt": 3735,
      "dismiss": 3736,
      "##wide": 3737,
      "underw": 3738,
      "##elli": 3739,
      "severe": 3740,
      "eating": 3741,
      "ful": 3742,
      "adam": 3743,
      "magaz": 3744,
      "easter": 3745,
      "##astic": 3746,
      "southampton": 3747,
      "represent": 3748,
      "stun": 3749,
      "luc": 3750,
      "items": 3751,
      "planning": 3752,
      "difficult": 3753,
      "defend": 3754,
      "century": 3755,
      "raid": 3756,
      "influ": 3757,
      "anthony": 3758,
      "chic": 3759,
      "showing": 3760,
      "send": 3761,
      "ups": 3762,
      "eth": 3763,
      "missed": 3764,
      "chairman": 3765,
      "slam": 3766,
      "estate": 3767,
      "impact": 3768,
      "serving": 3769,
      "gets": 3770,
      "gives": 3771,
      "mental": 3772,
      "##aking": 3773,
      "drinking": 3774,
      "rooney": 3775,
      "troub": 3776,
      "contain": 3777,
      "defence": 3778,
      "zeal": 3779,
      "politic": 3780,
      "lov": 3781,
      "##ae": 3782,
      "thanks": 3783,
      "swe": 3784,
      "unf": 3785,
      "garden": 3786,
      "kind": 3787,
      "abb": 3788,
      "walking": 3789,
      "suprem": 3790,
      "##isc": 3791,
      "surpr": 3792,
      "debate": 3793,
      "jordan": 3794,
      "dj": 3795,
      "moving": 3796,
      "scores": 3797,
      "turkey": 3798,
      "someone": 3799,
      "holly": 3800,
      "lake": 3801,
      "intell": 3802,
      "##mph": 3803,
      "complete": 3804,
      "onto": 3805,
      "##essed": 3806,
      "canada": 3807,
      "controversial": 3808,
      "##anny": 3809,
      "targeted": 3810,
      "advert": 3811,
      "stolen": 3812,
      "georgia": 3813,
      "crimes": 3814,
      "budget": 3815,
      "administration": 3816,
      "bond": 3817,
      "suarez": 3818,
      "contact": 3819,
      "cart": 3820,
      "god": 3821,
      "##erts": 3822,
      "shown": 3823,
      "##akers": 3824,
      "peri": 3825,
      "##bourne": 3826,
      "syrian": 3827,
      "lang": 3828,
      "overs": 3829,
      "##ican": 3830,
      "organiz": 3831,
      "max": 3832,
      "##oma": 3833,
      "moham": 3834,
      "holland": 3835,
      "tory": 3836,
      "propos": 3837,
      "aftern": 3838,
      "position": 3839,
      "recorded": 3840,
      "matches": 3841,
      "profession": 3842,
      "nav": 3843,
      "things": 3844,
      "dun": 3845,
      "##iron": 3846,
      "appearance": 3847,
      "losing": 3848,
      "costa": 3849,
      "agent": 3850,
      "ther": 3851,
      "victoria": 3852,
      "period": 3853,
      "##oes": 3854,
      "##bury": 3855,
      "##ula": 3856,
      "plot": 3857,
      "##ova": 3858,
      "flag": 3859,
      "##elt": 3860,
      "recogn": 3861,
      "lawsuit": 3862,
      "##oe": 3863,
      "wilson": 3864,
      "kate": 3865,
      "##ron": 3866,
      "afternoon": 3867,
      "niger": 3868,
      "sick": 3869,
      "##usive": 3870,
      "straight": 3871,
      "products": 3872,
      "haw": 3873,
      "goes": 3874,
      "consum": 3875,
      "neck": 3876,
      "##pper": 3877,
      "unable": 3878,
      "carl": 3879,
      "alter": 3880,
      "developed": 3881,
      "bottom": 3882,
      "##ex": 3883,
      "covered": 3884,
      "raf": 3885,
      "witnesses": 3886,
      "performance": 3887,
      "dutch": 3888,
      "prost": 3889,
      "##ucted": 3890,
      "##kshire": 3891,
      "couldn": 3892,
      "jet": 3893,
      "##omp": 3894,
      "##ella": 3895,
      "passenger": 3896,
      "sources": 3897,
      "hurt": 3898,
      "carolina": 3899,
      "##eding": 3900,
      "alan": 3901,
      "coron": 3902,
      "illness": 3903,
      "##istic": 3904,
      "diet": 3905,
      "affected": 3906,
      "ceo": 3907,
      "square": 3908,
      "coc": 3909,
      "pool": 3910,
      "##night": 3911,
      "##ota": 3912,
      "##alled": 3913,
      "##aze": 3914,
      "higher": 3915,
      "annivers": 3916,
      "claiming": 3917,
      "critical": 3918,
      "ny": 3919,
      "pen": 3920,
      "##atory": 3921,
      "important": 3922,
      "£7": 3923,
      "shel": 3924,
      "##ably": 3925,
      "flying": 3926,
      "older": 3927,
      "lady": 3928,
      "pur": 3929,
      "##sey": 3930,
      "finds": 3931,
      "crowd": 3932,
      "truck": 3933,
      "subst": 3934,
      "kat": 3935,
      "flights": 3936,
      "anniversary": 3937,
      "52": 3938,
      "65": 3939,
      "##adem": 3940,
      "##estic": 3941,
      "assaul": 3942,
      "zealand": 3943,
      "kh": 3944,
      "prim": 3945,
      "cert": 3946,
      "kr": 3947,
      "jess": 3948,
      "attended": 3949,
      "rose": 3950,
      "##oul": 3951,
      "delay": 3952,
      "streets": 3953,
      "views": 3954,
      "ign": 3955,
      "militants": 3956,
      "focus": 3957,
      "computer": 3958,
      "youth": 3959,
      "##iga": 3960,
      "anyone": 3961,
      "reading": 3962,
      "pac": 3963,
      "messi": 3964,
      "hid": 3965,
      "jenn": 3966,
      "attempt": 3967,
      "seeking": 3968,
      "reached": 3969,
      "voters": 3970,
      "75": 3971,
      "lower": 3972,
      "multiple": 3973,
      "bon": 3974,
      "gall": 3975,
      "seat": 3976,
      "attention": 3977,
      "lic": 3978,
      "version": 3979,
      "hamilton": 3980,
      "receive": 3981,
      "figure": 3982,
      "##iana": 3983,
      "visitors": 3984,
      "oh": 3985,
      "tele": 3986,
      "##iny": 3987,
      "sud": 3988,
      "flat": 3989,
      "##essor": 3990,
      "academ": 3991,
      "ii": 3992,
      "killer": 3993,
      "airlines": 3994,
      "##ression": 3995,
      "hunt": 3996,
      "environ": 3997,
      "##arm": 3998,
      "runs": 3999,
      "demonstr": 4000,
      "emerged": 4001,
      "estimated": 4002,
      "meth": 4003,
      "belg": 4004,
      "funeral": 4005,
      "wheel": 4006,
      "lion": 4007,
      "##iot": 4008,
      "2005": 4009,
      "deliver": 4010,
      "israeli": 4011,
      "jeff": 4012,
      "chicago": 4013,
      "prepar": 4014,
      "cities": 4015,
      "magazine": 4016,
      "##gen": 4017,
      "neighbor": 4018,
      "##ois": 4019,
      "aband": 4020,
      "punch": 4021,
      "korean": 4022,
      "tun": 4023,
      "feder": 4024,
      "##itute": 4025,
      "##imb": 4026,
      "fox": 4027,
      "ip": 4028,
      "##ihad": 4029,
      "rid": 4030,
      "watched": 4031,
      "compared": 4032,
      "##keep": 4033,
      "confident": 4034,
      "lawyers": 4035,
      "sarah": 4036,
      "eld": 4037,
      "##isl": 4038,
      "exch": 4039,
      "horse": 4040,
      "democrats": 4041,
      "##eland": 4042,
      "something": 4043,
      "pounds": 4044,
      "drop": 4045,
      "##ius": 4046,
      "crist": 4047,
      "population": 4048,
      "barack": 4049,
      "stephen": 4050,
      "diego": 4051,
      "answ": 4052,
      "analyst": 4053,
      "published": 4054,
      "gather": 4055,
      "##umour": 4056,
      "collaps": 4057,
      "temperatures": 4058,
      "luis": 4059,
      "survived": 4060,
      "plant": 4061,
      "harm": 4062,
      "##bit": 4063,
      "prep": 4064,
      "soldier": 4065,
      "woods": 4066,
      "migr": 4067,
      "matth": 4068,
      "gary": 4069,
      "iphone": 4070,
      "##do": 4071,
      "dip": 4072,
      "navy": 4073,
      "employees": 4074,
      "mike": 4075,
      "grad": 4076,
      "boost": 4077,
      "150": 4078,
      "liby": 4079,
      "ferg": 4080,
      "##iced": 4081,
      "golf": 4082,
      "##icop": 4083,
      "clar": 4084,
      "cath": 4085,
      "##ros": 4086,
      "##istry": 4087,
      "ul": 4088,
      "alive": 4089,
      "##burg": 4090,
      "luxury": 4091,
      "##oked": 4092,
      "##oking": 4093,
      "equal": 4094,
      "channel": 4095,
      "51": 4096,
      "mix": 4097,
      "breath": 4098,
      "##wich": 4099,
      "firef": 4100,
      "lad": 4101,
      "ven": 4102,
      "##oint": 4103,
      "drunk": 4104,
      "batter": 4105,
      "wore": 4106,
      "split": 4107,
      "##iling": 4108,
      "screen": 4109,
      "##iser": 4110,
      "##ortun": 4111,
      "festival": 4112,
      "ready": 4113,
      "supreme": 4114,
      "##oom": 4115,
      "##tim": 4116,
      "condem": 4117,
      "ow": 4118,
      "knew": 4119,
      "natural": 4120,
      "800": 4121,
      "##gests": 4122,
      "##pir": 4123,
      "starting": 4124,
      "sites": 4125,
      "holding": 4126,
      "dark": 4127,
      "mys": 4128,
      "##rim": 4129,
      "##pson": 4130,
      "blog": 4131,
      "suggests": 4132,
      "domestic": 4133,
      "environment": 4134,
      "wayne": 4135,
      "##izes": 4136,
      "cambridge": 4137,
      "bin": 4138,
      "spir": 4139,
      "fuel": 4140,
      "##fe": 4141,
      "sanc": 4142,
      "decades": 4143,
      "exerc": 4144,
      "2004": 4145,
      "managed": 4146,
      "fifa": 4147,
      "bayern": 4148,
      "culture": 4149,
      "ariz": 4150,
      "99": 4151,
      "##ette": 4152,
      "crack": 4153,
      "virginia": 4154,
      "##hab": 4155,
      "manh": 4156,
      "cra": 4157,
      "remove": 4158,
      "photograph": 4159,
      "##house": 4160,
      "##erve": 4161,
      "bear": 4162,
      "outr": 4163,
      "original": 4164,
      "danc": 4165,
      "duty": 4166,
      "angry": 4167,
      "entire": 4168,
      "##gu": 4169,
      "##apy": 4170,
      "legend": 4171,
      "newsp": 4172,
      "responsible": 4173,
      "arizona": 4174,
      "nurs": 4175,
      "healthy": 4176,
      "##mingham": 4177,
      "coup": 4178,
      "putin": 4179,
      "birmingham": 4180,
      "rebels": 4181,
      "intelligence": 4182,
      "prog": 4183,
      "breast": 4184,
      "numbers": 4185,
      "hay": 4186,
      "##arr": 4187,
      "helicop": 4188,
      "matthew": 4189,
      "##aren": 4190,
      "##eman": 4191,
      "##ipe": 4192,
      "increased": 4193,
      "##uth": 4194,
      "repeated": 4195,
      "##ither": 4196,
      "colour": 4197,
      "##inals": 4198,
      "und": 4199,
      "£8": 4200,
      "dna": 4201,
      "pope": 4202,
      "words": 4203,
      "helping": 4204,
      "porn": 4205,
      "##mate": 4206,
      "designer": 4207,
      "fergus": 4208,
      "##owed": 4209,
      "wait": 4210,
      "od": 4211,
      "##ighter": 4212,
      "patient": 4213,
      "via": 4214,
      "really": 4215,
      "shots": 4216,
      "lay": 4217,
      "##owing": 4218,
      "##alys": 4219,
      "society": 4220,
      "melbourne": 4221,
      "dating": 4222,
      "character": 4223,
      "dad": 4224,
      "soft": 4225,
      "walked": 4226,
      "massive": 4227,
      "seconds": 4228,
      "##apping": 4229,
      "##ym": 4230,
      "##eph": 4231,
      "##board": 4232,
      "portug": 4233,
      "##sp": 4234,
      "owned": 4235,
      "oce": 4236,
      "transport": 4237,
      "spring": 4238,
      "suffer": 4239,
      "54": 4240,
      "et": 4241,
      "rival": 4242,
      "##mates": 4243,
      "##20": 4244,
      "drag": 4245,
      "##ground": 4246,
      "53": 4247,
      "faced": 4248,
      "japanese": 4249,
      "tree": 4250,
      "mile": 4251,
      "##stal": 4252,
      "experi": 4253,
      "##hold": 4254,
      "window": 4255,
      "tas": 4256,
      "surge": 4257,
      "nfl": 4258,
      "escaped": 4259,
      "paper": 4260,
      "hod": 4261,
      "telev": 4262,
      "stories": 4263,
      "virus": 4264,
      "blamed": 4265,
      "eventually": 4266,
      "waiting": 4267,
      "founder": 4268,
      "gad": 4269,
      "##ability": 4270,
      "rather": 4271,
      "##iet": 4272,
      "##iated": 4273,
      "ferguson": 4274,
      "blame": 4275,
      "sexually": 4276,
      "signific": 4277,
      "legs": 4278,
      "breach": 4279,
      "causes": 4280,
      "modern": 4281,
      "hull": 4282,
      "asking": 4283,
      "videos": 4284,
      "tribute": 4285,
      "material": 4286,
      "aston": 4287,
      "fake": 4288,
      "isn": 4289,
      "prior": 4290,
      "trade": 4291,
      "beating": 4292,
      "retired": 4293,
      "swan": 4294,
      "scottish": 4295,
      "sheriff": 4296,
      "insurance": 4297,
      "probe": 4298,
      "wounded": 4299,
      "yor": 4300,
      "chec": 4301,
      "professor": 4302,
      "##gets": 4303,
      "##ble": 4304,
      "##mother": 4305,
      "##aling": 4306,
      "ohio": 4307,
      "text": 4308,
      "finished": 4309,
      "##cious": 4310,
      "introduc": 4311,
      "ho": 4312,
      "dozens": 4313,
      "##uana": 4314,
      "spr": 4315,
      "wealth": 4316,
      "deputy": 4317,
      "pitch": 4318,
      "##ala": 4319,
      "actions": 4320,
      "origin": 4321,
      "rh": 4322,
      "##oles": 4323,
      "evac": 4324,
      "##going": 4325,
      "jer": 4326,
      "##cle": 4327,
      "##onic": 4328,
      "cooper": 4329,
      "perfect": 4330,
      "pap": 4331,
      "sets": 4332,
      "canc": 4333,
      "600": 4334,
      "efforts": 4335,
      "morgan": 4336,
      "ford": 4337,
      "##ological": 4338,
      "##come": 4339,
      "##zz": 4340,
      "rescued": 4341,
      "##lict": 4342,
      "evening": 4343,
      "##ijuana": 4344,
      "cos": 4345,
      "tear": 4346,
      "##atured": 4347,
      "fatal": 4348,
      "describes": 4349,
      "terrorist": 4350,
      "56": 4351,
      "##gas": 4352,
      "##ption": 4353,
      "##imum": 4354,
      "mort": 4355,
      "separate": 4356,
      "dream": 4357,
      "rail": 4358,
      "##icester": 4359,
      "finally": 4360,
      "writes": 4361,
      "mont": 4362,
      "picked": 4363,
      "citizens": 4364,
      "admit": 4365,
      "ens": 4366,
      "conflict": 4367,
      "robber": 4368,
      "queens": 4369,
      "democratic": 4370,
      "nasa": 4371,
      "langu": 4372,
      "ble": 4373,
      "sad": 4374,
      "##sa": 4375,
      "samar": 4376,
      "sparked": 4377,
      "##awn": 4378,
      "decade": 4379,
      "breaking": 4380,
      "tweeted": 4381,
      "var": 4382,
      "symp": 4383,
      "direct": 4384,
      "majority": 4385,
      "##billion": 4386,
      "##itis": 4387,
      "ask": 4388,
      "simon": 4389,
      "eastern": 4390,
      "##uge": 4391,
      "pu": 4392,
      "todd": 4393,
      "counter": 4394,
      "alongside": 4395,
      "zoo": 4396,
      "arms": 4397,
      "medal": 4398,
      "tough": 4399,
      "prize": 4400,
      "##aughters": 4401,
      "devast": 4402,
      "criticised": 4403,
      "##oat": 4404,
      "##ua": 4405,
      "##asons": 4406,
      "request": 4407,
      "kelly": 4408,
      "meant": 4409,
      "deadly": 4410,
      "memorial": 4411,
      "leicester": 4412,
      "##ivid": 4413,
      "coal": 4414,
      "featured": 4415,
      "escape": 4416,
      "hat": 4417,
      "lind": 4418,
      "##ols": 4419,
      "connect": 4420,
      "concerned": 4421,
      "miller": 4422,
      "lor": 4423,
      "##illa": 4424,
      "rick": 4425,
      "##ucky": 4426,
      "continues": 4427,
      "association": 4428,
      "##outs": 4429,
      "verd": 4430,
      "anc": 4431,
      "situation": 4432,
      "athlet": 4433,
      "sterling": 4434,
      "hollywood": 4435,
      "fern": 4436,
      "##uf": 4437,
      "scen": 4438,
      "ward": 4439,
      "tra": 4440,
      "olympics": 4441,
      "91": 4442,
      "stock": 4443,
      "sunder": 4444,
      "score": 4445,
      "hugh": 4446,
      "marc": 4447,
      "eyes": 4448,
      "tack": 4449,
      "heat": 4450,
      "bright": 4451,
      "abused": 4452,
      "murdered": 4453,
      "rule": 4454,
      "behavi": 4455,
      "##da": 4456,
      "##opher": 4457,
      "##agram": 4458,
      "committed": 4459,
      "ell": 4460,
      "ach": 4461,
      "rushed": 4462,
      "scheduled": 4463,
      "favor": 4464,
      "ko": 4465,
      "##nel": 4466,
      "stole": 4467,
      "sunderland": 4468,
      "development": 4469,
      "growth": 4470,
      "cow": 4471,
      "##igg": 4472,
      "blind": 4473,
      "scheme": 4474,
      "friendly": 4475,
      "credit": 4476,
      "marijuana": 4477,
      "eliz": 4478,
      "electric": 4479,
      "inquir": 4480,
      "disappeared": 4481,
      "duch": 4482,
      "##igue": 4483,
      "##andez": 4484,
      "saved": 4485,
      "cole": 4486,
      "becoming": 4487,
      "winds": 4488,
      "shopping": 4489,
      "grab": 4490,
      "relatives": 4491,
      "riv": 4492,
      "tort": 4493,
      "silver": 4494,
      "ec": 4495,
      "log": 4496,
      "towards": 4497,
      "##fort": 4498,
      "seek": 4499,
      "threatening": 4500,
      "rates": 4501,
      "parties": 4502,
      "clubs": 4503,
      "##omes": 4504,
      "contest": 4505,
      "significant": 4506,
      "##oman": 4507,
      "davis": 4508,
      "threats": 4509,
      "cabin": 4510,
      "progress": 4511,
      "miam": 4512,
      "tech": 4513,
      "michelle": 4514,
      "daughters": 4515,
      "ren": 4516,
      "coroner": 4517,
      "miami": 4518,
      "##bon": 4519,
      "##ument": 4520,
      "effort": 4521,
      "mind": 4522,
      "belong": 4523,
      "highl": 4524,
      "reduc": 4525,
      "crystal": 4526,
      "hart": 4527,
      "lis": 4528,
      "##oduce": 4529,
      "tourists": 4530,
      "hoping": 4531,
      "carr": 4532,
      "knife": 4533,
      "questioned": 4534,
      "nur": 4535,
      "reason": 4536,
      "pled": 4537,
      "colomb": 4538,
      "controll": 4539,
      "seeing": 4540,
      "colorado": 4541,
      "palest": 4542,
      "qpr": 4543,
      "wenger": 4544,
      "##inary": 4545,
      "else": 4546,
      "euro": 4547,
      "##unte": 4548,
      "##apt": 4549,
      "expensive": 4550,
      "returning": 4551,
      "hits": 4552,
      "connection": 4553,
      "yorkshire": 4554,
      "raped": 4555,
      "consider": 4556,
      "behaviour": 4557,
      "##ched": 4558,
      "roberts": 4559,
      "volunte": 4560,
      "rug": 4561,
      "constr": 4562,
      "christopher": 4563,
      "complained": 4564,
      "##ste": 4565,
      "overt": 4566,
      "##ections": 4567,
      "instagram": 4568,
      "munich": 4569,
      "collapsed": 4570,
      "catch": 4571,
      "brothers": 4572,
      "professional": 4573,
      "tens": 4574,
      "##arian": 4575,
      "emotion": 4576,
      "candidate": 4577,
      "##ilities": 4578,
      "guests": 4579,
      "divorce": 4580,
      "ocean": 4581,
      "hamp": 4582,
      "##abeth": 4583,
      "quit": 4584,
      "responsibility": 4585,
      "##makers": 4586,
      "coff": 4587,
      "terr": 4588,
      "initially": 4589,
      "unp": 4590,
      "struggling": 4591,
      "57": 4592,
      "ministry": 4593,
      "celebrity": 4594,
      "##ume": 4595,
      "##azi": 4596,
      "guns": 4597,
      "understand": 4598,
      "album": 4599,
      "push": 4600,
      "exhib": 4601,
      "qualif": 4602,
      "destroyed": 4603,
      "nad": 4604,
      "##ware": 4605,
      "blast": 4606,
      "esp": 4607,
      "positive": 4608,
      "climate": 4609,
      "adults": 4610,
      "normal": 4611,
      "operations": 4612,
      "samarit": 4613,
      "##cow": 4614,
      "fresh": 4615,
      "jr": 4616,
      "legisl": 4617,
      "##va": 4618,
      "194": 4619,
      "barb": 4620,
      "prosecutor": 4621,
      "##aries": 4622,
      "marks": 4623,
      "journalist": 4624,
      "dipl": 4625,
      "hasn": 4626,
      "##ortion": 4627,
      "bell": 4628,
      "swed": 4629,
      "conservative": 4630,
      "reality": 4631,
      "awards": 4632,
      "lanc": 4633,
      "##dy": 4634,
      "accep": 4635,
      "books": 4636,
      "bey": 4637,
      "watching": 4638,
      "speaking": 4639,
      "proced": 4640,
      "boot": 4641,
      "##force": 4642,
      "word": 4643,
      "drove": 4644,
      "recr": 4645,
      "instr": 4646,
      "babies": 4647,
      "promot": 4648,
      "derby": 4649,
      "suspicion": 4650,
      "purch": 4651,
      "vice": 4652,
      "clothes": 4653,
      "seem": 4654,
      "##uts": 4655,
      "2003": 4656,
      "##lad": 4657,
      "duchess": 4658,
      "earn": 4659,
      "models": 4660,
      "allows": 4661,
      "false": 4662,
      "airline": 4663,
      "magn": 4664,
      "province": 4665,
      "##gested": 4666,
      "##uing": 4667,
      "saud": 4668,
      "jay": 4669,
      "learn": 4670,
      "##iband": 4671,
      "criticism": 4672,
      "swansea": 4673,
      "individ": 4674,
      "grandmother": 4675,
      "increasing": 4676,
      "complaints": 4677,
      "recovery": 4678,
      "semi": 4679,
      "kennedy": 4680,
      "quickly": 4681,
      "surround": 4682,
      "keen": 4683,
      "opportun": 4684,
      "##eing": 4685,
      "##ointed": 4686,
      "note": 4687,
      "indic": 4688,
      "buried": 4689,
      "oscar": 4690,
      "temp": 4691,
      "phones": 4692,
      "traditional": 4693,
      "measures": 4694,
      "##itals": 4695,
      "stan": 4696,
      "shocked": 4697,
      "regime": 4698,
      "hong": 4699,
      "##rier": 4700,
      "commer": 4701,
      "foundation": 4702,
      "plays": 4703,
      "##break": 4704,
      "miliband": 4705,
      "settle": 4706,
      "falling": 4707,
      "practice": 4708,
      "photographs": 4709,
      "failure": 4710,
      "nic": 4711,
      "forec": 4712,
      "##ateg": 4713,
      "recomm": 4714,
      "pictured": 4715,
      "communic": 4716,
      "##where": 4717,
      "unit": 4718,
      "declared": 4719,
      "kong": 4720,
      "ped": 4721,
      "accounts": 4722,
      "rodgers": 4723,
      "bern": 4724,
      "pension": 4725,
      "heav": 4726,
      "anything": 4727,
      "moon": 4728,
      "elizabeth": 4729,
      "sons": 4730,
      "path": 4731,
      "##emen": 4732,
      "refuge": 4733,
      "corrup": 4734,
      "movement": 4735,
      "damaged": 4736,
      "particip": 4737,
      "bang": 4738,
      "agents": 4739,
      "flu": 4740,
      "urged": 4741,
      "religious": 4742,
      "sides": 4743,
      "whose": 4744,
      "perm": 4745,
      "banks": 4746,
      "tested": 4747,
      "##aza": 4748,
      "##ctv": 4749,
      "funding": 4750,
      "ian": 4751,
      "bron": 4752,
      "limit": 4753,
      "wine": 4754,
      "content": 4755,
      "everything": 4756,
      "stores": 4757,
      "leads": 4758,
      "surviv": 4759,
      "inquest": 4760,
      "letters": 4761,
      "maintain": 4762,
      "veteran": 4763,
      "cctv": 4764,
      "icon": 4765,
      "regul": 4766,
      "##har": 4767,
      "anderson": 4768,
      "branch": 4769,
      "beck": 4770,
      "##aham": 4771,
      "trafford": 4772,
      "sain": 4773,
      "elections": 4774,
      "assistant": 4775,
      "television": 4776,
      "diplom": 4777,
      "dump": 4778,
      "##orted": 4779,
      "##cript": 4780,
      "kir": 4781,
      "##col": 4782,
      "##ales": 4783,
      "withdr": 4784,
      "canad": 4785,
      "250": 4786,
      "backed": 4787,
      "suppl": 4788,
      "devices": 4789,
      "negot": 4790,
      "jason": 4791,
      "##anna": 4792,
      "£10": 4793,
      "##ko": 4794,
      "##rie": 4795,
      "##une": 4796,
      "switch": 4797,
      "choice": 4798,
      "##acts": 4799,
      "protection": 4800,
      "danny": 4801,
      "##lying": 4802,
      "feared": 4803,
      "ambass": 4804,
      "rand": 4805,
      "tall": 4806,
      "grap": 4807,
      "leaves": 4808,
      "drew": 4809,
      "##uated": 4810,
      "princess": 4811,
      "tennis": 4812,
      "reco": 4813,
      "serve": 4814,
      "retail": 4815,
      "activists": 4816,
      "vehicles": 4817,
      "cocaine": 4818,
      "chest": 4819,
      "##weight": 4820,
      "finding": 4821,
      "corpor": 4822,
      "roger": 4823,
      "andre": 4824,
      "crick": 4825,
      "##icken": 4826,
      "debt": 4827,
      "cristiano": 4828,
      "##woman": 4829,
      "below": 4830,
      "finals": 4831,
      "irish": 4832,
      "gam": 4833,
      "torn": 4834,
      "resort": 4835,
      "voice": 4836,
      "vess": 4837,
      "##ements": 4838,
      "suggested": 4839,
      "completed": 4840,
      "brian": 4841,
      "meat": 4842,
      "viewers": 4843,
      "elder": 4844,
      "places": 4845,
      "marine": 4846,
      "phill": 4847,
      "##enced": 4848,
      "oppon": 4849,
      "struggled": 4850,
      "epis": 4851,
      "##hi": 4852,
      "cham": 4853,
      "cameras": 4854,
      "newspaper": 4855,
      "jac": 4856,
      "thing": 4857,
      "##ologist": 4858,
      "typ": 4859,
      "ambul": 4860,
      "58": 4861,
      "bit": 4862,
      "harris": 4863,
      "recovered": 4864,
      "##mo": 4865,
      "alexander": 4866,
      "celt": 4867,
      "jur": 4868,
      "##ties": 4869,
      "##eces": 4870,
      "joseph": 4871,
      "apparently": 4872,
      "##kin": 4873,
      "detained": 4874,
      "landed": 4875,
      "##val": 4876,
      "##otelli": 4877,
      "stoke": 4878,
      "plus": 4879,
      "express": 4880,
      "contrib": 4881,
      "##attan": 4882,
      "abandoned": 4883,
      "palestin": 4884,
      "sound": 4885,
      "heads": 4886,
      "awarded": 4887,
      "hern": 4888,
      "trail": 4889,
      "domin": 4890,
      "repeatedly": 4891,
      "balotelli": 4892,
      "journey": 4893,
      "beauty": 4894,
      "samaritans": 4895,
      "##life": 4896,
      "##idel": 4897,
      "embass": 4898,
      "64": 4899,
      "paying": 4900,
      "asks": 4901,
      "pret": 4902,
      "stress": 4903,
      "confirm": 4904,
      "machine": 4905,
      "anger": 4906,
      "##ulf": 4907,
      "younger": 4908,
      "landing": 4909,
      "performed": 4910,
      "matt": 4911,
      "##tha": 4912,
      "amount": 4913,
      "funds": 4914,
      "tel": 4915,
      "panel": 4916,
      "gov": 4917,
      "slow": 4918,
      "scoring": 4919,
      "helicopter": 4920,
      "##iately": 4921,
      "matter": 4922,
      "favourite": 4923,
      "immediately": 4924,
      "seal": 4925,
      "saudi": 4926,
      "kur": 4927,
      "lock": 4928,
      "films": 4929,
      "mexican": 4930,
      "##lyn": 4931,
      "##itzer": 4932,
      "ba": 4933,
      "henry": 4934,
      "inquiry": 4935,
      "dram": 4936,
      "advice": 4937,
      "tweets": 4938,
      "manhattan": 4939,
      "hang": 4940,
      "mu": 4941,
      "brend": 4942,
      "reven": 4943,
      "disaster": 4944,
      "piece": 4945,
      "shirt": 4946,
      "certain": 4947,
      "##west": 4948,
      "##anded": 4949,
      "haz": 4950,
      "##istol": 4951,
      "##ansas": 4952,
      "compens": 4953,
      "profile": 4954,
      "rejected": 4955,
      "appl": 4956,
      "transcript": 4957,
      "failing": 4958,
      "700": 4959,
      "rangers": 4960,
      "fined": 4961,
      "facility": 4962,
      "naked": 4963,
      "##umn": 4964,
      "monitor": 4965,
      "standing": 4966,
      "horrif": 4967,
      "teachers": 4968,
      "rivals": 4969,
      "khan": 4970,
      "##gio": 4971,
      "##ifer": 4972,
      "knee": 4973,
      "value": 4974,
      "racist": 4975,
      "threw": 4976,
      "species": 4977,
      "ticket": 4978,
      "rat": 4979,
      "##rian": 4980,
      "wish": 4981,
      "equip": 4982,
      "##keeper": 4983,
      "toll": 4984,
      "complet": 4985,
      "jamie": 4986,
      "59": 4987,
      "##enders": 4988,
      "mario": 4989,
      "evans": 4990,
      "pupils": 4991,
      "ib": 4992,
      "##orrow": 4993,
      "excl": 4994,
      "cleared": 4995,
      "ross": 4996,
      "##rard": 4997,
      "true": 4998,
      "voted": 4999,
      "canadian": 5000,
      "##can": 5001,
      "adult": 5002,
      "register": 5003,
      "reduce": 5004,
      "terrorism": 5005,
      "rugby": 5006,
      "conduct": 5007,
      "dou": 5008,
      "loved": 5009,
      "conspir": 5010,
      "gunman": 5011,
      "67": 5012,
      "##ushing": 5013,
      "2002": 5014,
      "product": 5015,
      "unveiled": 5016,
      "firefighters": 5017,
      "ambassador": 5018,
      "kl": 5019,
      "##ction": 5020,
      "##mad": 5021,
      "##aire": 5022,
      "remar": 5023,
      "edward": 5024,
      "authority": 5025,
      "somal": 5026,
      "##works": 5027,
      "patrick": 5028,
      "celtic": 5029,
      "decide": 5030,
      "production": 5031,
      "dinner": 5032,
      "independent": 5033,
      "wide": 5034,
      "ukip": 5035,
      "##attle": 5036,
      "michigan": 5037,
      "josh": 5038,
      "language": 5039,
      "aar": 5040,
      "sees": 5041,
      "##ablish": 5042,
      "tied": 5043,
      "replace": 5044,
      "francisco": 5045,
      "##head": 5046,
      "##ando": 5047,
      "lines": 5048,
      "rio": 5049,
      "##illance": 5050,
      "plastic": 5051,
      "worldwide": 5052,
      "everyone": 5053,
      "hillary": 5054,
      "theft": 5055,
      "verdict": 5056,
      "equipment": 5057,
      "63": 5058,
      "atlet": 5059,
      "exist": 5060,
      "vegas": 5061,
      "##ylv": 5062,
      "surveillance": 5063,
      "jihad": 5064,
      "les": 5065,
      "incred": 5066,
      "bombing": 5067,
      "offences": 5068,
      "establish": 5069,
      "activity": 5070,
      "##ios": 5071,
      "disorder": 5072,
      "bars": 5073,
      "cards": 5074,
      "##win": 5075,
      "hodg": 5076,
      "spurs": 5077,
      "christie": 5078,
      "orders": 5079,
      "freedom": 5080,
      "##een": 5081,
      "employee": 5082,
      "nurse": 5083,
      "##iring": 5084,
      "tea": 5085,
      "ministers": 5086,
      "arrests": 5087,
      "terms": 5088,
      "poison": 5089,
      "viral": 5090,
      "penns": 5091,
      "documentary": 5092,
      "sending": 5093,
      "##ading": 5094,
      "##oval": 5095,
      "teens": 5096,
      "painting": 5097,
      "achie": 5098,
      "##cing": 5099,
      "##rah": 5100,
      "ashley": 5101,
      "##ylvania": 5102,
      "da": 5103,
      "wake": 5104,
      "##rome": 5105,
      "##ceed": 5106,
      "gerrard": 5107,
      "greater": 5108,
      "hou": 5109,
      "##father": 5110,
      "terry": 5111,
      "##dog": 5112,
      "abu": 5113,
      "proposed": 5114,
      "mansl": 5115,
      "tomorrow": 5116,
      "fought": 5117,
      "##ls": 5118,
      "##olic": 5119,
      "unn": 5120,
      "secure": 5121,
      "agreement": 5122,
      "originally": 5123,
      "astr": 5124,
      "whole": 5125,
      "wars": 5126,
      "##onym": 5127,
      "programme": 5128,
      "flew": 5129,
      "manslaughter": 5130,
      "##pay": 5131,
      "##ita": 5132,
      "trick": 5133,
      "interested": 5134,
      "mol": 5135,
      "##sters": 5136,
      "##ders": 5137,
      "brut": 5138,
      "historic": 5139,
      "##fit": 5140,
      "synd": 5141,
      "retire": 5142,
      "shortly": 5143,
      "fighters": 5144,
      "powerful": 5145,
      "chemical": 5146,
      "hernandez": 5147,
      "atletico": 5148,
      "pennsylvania": 5149,
      "seized": 5150,
      "lib": 5151,
      "entered": 5152,
      "moscow": 5153,
      "##isher": 5154,
      "mars": 5155,
      "warm": 5156,
      "chef": 5157,
      "##agues": 5158,
      "mcdon": 5159,
      "visiting": 5160,
      "rising": 5161,
      "neighbours": 5162,
      "62": 5163,
      "egg": 5164,
      "lie": 5165,
      "tiger": 5166,
      "##wart": 5167,
      "feed": 5168,
      "thrown": 5169,
      "buildings": 5170,
      "continued": 5171,
      "tweet": 5172,
      "gain": 5173,
      "##arre": 5174,
      "##itation": 5175,
      "robin": 5176,
      "testing": 5177,
      "produced": 5178,
      "candidates": 5179,
      "kil": 5180,
      "nico": 5181,
      "ride": 5182,
      "sacked": 5183,
      "suffers": 5184,
      "complex": 5185,
      "posts": 5186,
      "na": 5187,
      "##rant": 5188,
      "##uay": 5189,
      "##jo": 5190,
      "trapped": 5191,
      "##fully": 5192,
      "tickets": 5193,
      "py": 5194,
      "essex": 5195,
      "organis": 5196,
      "atlanta": 5197,
      "##mail": 5198,
      "##irates": 5199,
      "##oster": 5200,
      "weapon": 5201,
      "##ustr": 5202,
      "##bell": 5203,
      "firms": 5204,
      "##ounced": 5205,
      "hosts": 5206,
      "jumped": 5207,
      "discovery": 5208,
      "federer": 5209,
      "commerc": 5210,
      "mate": 5211,
      "respect": 5212,
      "innoc": 5213,
      "punish": 5214,
      "lung": 5215,
      "prove": 5216,
      "applic": 5217,
      "##icts": 5218,
      "##olk": 5219,
      "helps": 5220,
      "bat": 5221,
      "nar": 5222,
      "##ouri": 5223,
      "wouldn": 5224,
      "exercise": 5225,
      "jere": 5226,
      "nob": 5227,
      "brazilian": 5228,
      "recall": 5229,
      "remember": 5230,
      "harass": 5231,
      "charlie": 5232,
      "##usion": 5233,
      "talking": 5234,
      "labor": 5235,
      "measure": 5236,
      "aims": 5237,
      "ta": 5238,
      "anton": 5239,
      "factor": 5240,
      "advoc": 5241,
      "promp": 5242,
      "fitness": 5243,
      "##ares": 5244,
      "##ira": 5245,
      "pard": 5246,
      "leeds": 5247,
      "##ibly": 5248,
      "burgl": 5249,
      "iraqi": 5250,
      "##lb": 5251,
      "strength": 5252,
      "taxpay": 5253,
      "cardiff": 5254,
      "lionel": 5255,
      "##iner": 5256,
      "trained": 5257,
      "malays": 5258,
      "type": 5259,
      "dismissed": 5260,
      "mothers": 5261,
      "tatt": 5262,
      "acting": 5263,
      "drone": 5264,
      "##lect": 5265,
      "marry": 5266,
      "parent": 5267,
      "learned": 5268,
      "dispute": 5269,
      "explosion": 5270,
      "tie": 5271,
      "wing": 5272,
      "zone": 5273,
      "affect": 5274,
      "kicked": 5275,
      "##iat": 5276,
      "whit": 5277,
      "2001": 5278,
      "moore": 5279,
      "iranian": 5280,
      "houses": 5281,
      "##mon": 5282,
      "##aska": 5283,
      "##iti": 5284,
      "outbreak": 5285,
      "usa": 5286,
      "apart": 5287,
      "fallen": 5288,
      "##com": 5289,
      "##etts": 5290,
      "planet": 5291,
      "##lets": 5292,
      "##worth": 5293,
      "pit": 5294,
      "##ads": 5295,
      "bosses": 5296,
      "aaron": 5297,
      "66": 5298,
      "link": 5299,
      "analys": 5300,
      "pear": 5301,
      "purs": 5302,
      "##burgh": 5303,
      "nigeria": 5304,
      "hole": 5305,
      "mouth": 5306,
      "##ously": 5307,
      "jonathan": 5308,
      "couples": 5309,
      "lands": 5310,
      "##otic": 5311,
      "##ecess": 5312,
      "travelling": 5313,
      "rodr": 5314,
      "68": 5315,
      "fiance": 5316,
      "##asc": 5317,
      "manuf": 5318,
      "knocked": 5319,
      "considering": 5320,
      "academy": 5321,
      "justin": 5322,
      "hospitals": 5323,
      "metal": 5324,
      "telling": 5325,
      "honor": 5326,
      "ambulance": 5327,
      "remarks": 5328,
      "manufact": 5329,
      "##lah": 5330,
      "seriously": 5331,
      "##wall": 5332,
      "##oves": 5333,
      "infection": 5334,
      "strikes": 5335,
      "elderly": 5336,
      "gord": 5337,
      "kitch": 5338,
      "##bn": 5339,
      "72": 5340,
      "kiss": 5341,
      "##oli": 5342,
      "##allas": 5343,
      "flow": 5344,
      "teenage": 5345,
      "craig": 5346,
      "introduced": 5347,
      "pin": 5348,
      "yell": 5349,
      "chain": 5350,
      "user": 5351,
      "investigated": 5352,
      "location": 5353,
      "actually": 5354,
      "##ography": 5355,
      "terrorists": 5356,
      "replaced": 5357,
      "coalition": 5358,
      "embassy": 5359,
      "unkn": 5360,
      "##izing": 5361,
      "writer": 5362,
      "politics": 5363,
      "presenter": 5364,
      "politicians": 5365,
      "exchange": 5366,
      "cia": 5367,
      "sor": 5368,
      "traged": 5369,
      "grant": 5370,
      "graham": 5371,
      "walker": 5372,
      "humans": 5373,
      "afford": 5374,
      "plea": 5375,
      "prosecution": 5376,
      "djok": 5377,
      "ww": 5378,
      "brom": 5379,
      "surface": 5380,
      "djokovic": 5381,
      "##asion": 5382,
      "suing": 5383,
      "britons": 5384,
      "investigate": 5385,
      "compete": 5386,
      "inches": 5387,
      "##oft": 5388,
      "toil": 5389,
      "planes": 5390,
      "pent": 5391,
      "##eline": 5392,
      "offering": 5393,
      "##achus": 5394,
      "luke": 5395,
      "route": 5396,
      "houston": 5397,
      "##boy": 5398,
      "partners": 5399,
      "homeless": 5400,
      "standards": 5401,
      "abbott": 5402,
      "plat": 5403,
      "unus": 5404,
      "allen": 5405,
      "accus": 5406,
      "195": 5407,
      "senator": 5408,
      "mcil": 5409,
      "##achusetts": 5410,
      "tiny": 5411,
      "##iment": 5412,
      "towns": 5413,
      "quality": 5414,
      "mansion": 5415,
      "sympt": 5416,
      "traum": 5417,
      "compensation": 5418,
      "massachusetts": 5419,
      "waters": 5420,
      "income": 5421,
      "dressed": 5422,
      "cock": 5423,
      "##rect": 5424,
      "##olas": 5425,
      "trig": 5426,
      "involve": 5427,
      "magistr": 5428,
      "scenes": 5429,
      "vul": 5430,
      "joint": 5431,
      "sixth": 5432,
      "##cedes": 5433,
      "##resp": 5434,
      "commercial": 5435,
      "diam": 5436,
      "tam": 5437,
      "##enz": 5438,
      "##elson": 5439,
      "offensive": 5440,
      "smoke": 5441,
      "beaut": 5442,
      "swimming": 5443,
      "primary": 5444,
      "##agon": 5445,
      "accept": 5446,
      "incidents": 5447,
      "promised": 5448,
      "targets": 5449,
      "##online": 5450,
      "acqu": 5451,
      "businesses": 5452,
      "brendan": 5453,
      "61": 5454,
      "celebrate": 5455,
      "muslims": 5456,
      "##ila": 5457,
      "forest": 5458,
      "nich": 5459,
      "##igar": 5460,
      "parking": 5461,
      "capture": 5462,
      "islands": 5463,
      "duke": 5464,
      "mitch": 5465,
      "master": 5466,
      "rene": 5467,
      "corruption": 5468,
      "burns": 5469,
      "honour": 5470,
      "nato": 5471,
      "upset": 5472,
      "##ington": 5473,
      "keeping": 5474,
      "approved": 5475,
      "##maker": 5476,
      "cliff": 5477,
      "lying": 5478,
      "##cia": 5479,
      "##coming": 5480,
      "##xic": 5481,
      "stu": 5482,
      "science": 5483,
      "celebrities": 5484,
      "hidden": 5485,
      "##osis": 5486,
      "##aks": 5487,
      "solar": 5488,
      "philipp": 5489,
      "robbery": 5490,
      "hughes": 5491,
      "lane": 5492,
      "mall": 5493,
      "##empl": 5494,
      "##iful": 5495,
      "throughout": 5496,
      "identity": 5497,
      "wildlife": 5498,
      "##met": 5499,
      "benefit": 5500,
      "mailonline": 5501,
      "diamond": 5502,
      "pig": 5503,
      "stuck": 5504,
      "depression": 5505,
      "branded": 5506,
      "anonym": 5507,
      "##ellor": 5508,
      "adds": 5509,
      "thinks": 5510,
      "perman": 5511,
      "indones": 5512,
      "ways": 5513,
      "changing": 5514,
      "hodgson": 5515,
      "lights": 5516,
      "##reh": 5517,
      "beij": 5518,
      "worried": 5519,
      "physical": 5520,
      "jessica": 5521,
      "##ria": 5522,
      "marath": 5523,
      "watson": 5524,
      "portugal": 5525,
      "mcilroy": 5526,
      "samp": 5527,
      "##eb": 5528,
      "asia": 5529,
      "grew": 5530,
      "beijing": 5531,
      "native": 5532,
      "pad": 5533,
      "toy": 5534,
      "##isions": 5535,
      "feels": 5536,
      "filled": 5537,
      "qat": 5538,
      "##mb": 5539,
      "##imes": 5540,
      "neil": 5541,
      "leon": 5542,
      "delivered": 5543,
      "jennifer": 5544,
      "syndrome": 5545,
      "either": 5546,
      "disab": 5547,
      "insisted": 5548,
      "summit": 5549,
      "hug": 5550,
      "wond": 5551,
      "cool": 5552,
      "followers": 5553,
      "bills": 5554,
      "jane": 5555,
      "prix": 5556,
      "scar": 5557,
      "policies": 5558,
      "wimb": 5559,
      "org": 5560,
      "effects": 5561,
      "housing": 5562,
      "preparing": 5563,
      "outrage": 5564,
      "unknown": 5565,
      "tab": 5566,
      "upd": 5567,
      "apology": 5568,
      "putting": 5569,
      "prisoners": 5570,
      "sanctions": 5571,
      "##hal": 5572,
      "##ques": 5573,
      "struct": 5574,
      "email": 5575,
      "murdering": 5576,
      "involving": 5577,
      "turk": 5578,
      "seats": 5579,
      "comed": 5580,
      "##reek": 5581,
      "mistake": 5582,
      "emotional": 5583,
      "symptoms": 5584,
      "completely": 5585,
      "##era": 5586,
      "reun": 5587,
      "agree": 5588,
      "juan": 5589,
      "libya": 5590,
      "77": 5591,
      "nose": 5592,
      "fee": 5593,
      "status": 5594,
      "yard": 5595,
      "deny": 5596,
      "##ipping": 5597,
      "extreme": 5598,
      "listed": 5599,
      "##ja": 5600,
      "##immer": 5601,
      "##ishop": 5602,
      "killings": 5603,
      "restr": 5604,
      "concern": 5605,
      "##iguez": 5606,
      "dol": 5607,
      "dance": 5608,
      "mack": 5609,
      "pushed": 5610,
      "stret": 5611,
      "comfort": 5612,
      "perry": 5613,
      "##ledon": 5614,
      "leadership": 5615,
      "bathroom": 5616,
      "vacc": 5617,
      "cruise": 5618,
      "detectives": 5619,
      "tempor": 5620,
      "gordon": 5621,
      "stick": 5622,
      "sust": 5623,
      "enforce": 5624,
      "setting": 5625,
      "ferr": 5626,
      "bowl": 5627,
      "oklah": 5628,
      "assaulted": 5629,
      "chanc": 5630,
      "greg": 5631,
      "wimbledon": 5632,
      "##ports": 5633,
      "aggress": 5634,
      "marsh": 5635,
      "entertain": 5636,
      "session": 5637,
      "wrec": 5638,
      "##ket": 5639,
      "holds": 5640,
      "valley": 5641,
      "faith": 5642,
      "digital": 5643,
      "oklahoma": 5644,
      "sin": 5645,
      "2000": 5646,
      "smoking": 5647,
      "##ledge": 5648,
      "receiving": 5649,
      "shares": 5650,
      "ancient": 5651,
      "wounds": 5652,
      "##riate": 5653,
      "bottle": 5654,
      "kerry": 5655,
      "math": 5656,
      "stands": 5657,
      "missouri": 5658,
      "rice": 5659,
      "##rial": 5660,
      "identify": 5661,
      "votes": 5662,
      "dubai": 5663,
      "trouble": 5664,
      "belgium": 5665,
      "£9": 5666,
      "sure": 5667,
      "locals": 5668,
      "rodriguez": 5669,
      "desper": 5670,
      "erup": 5671,
      "##borne": 5672,
      "tragedy": 5673,
      "##road": 5674,
      "urug": 5675,
      "golden": 5676,
      "##encies": 5677,
      "journalists": 5678,
      "stuart": 5679,
      "##mers": 5680,
      "##uster": 5681,
      "##ulum": 5682,
      "accuses": 5683,
      "discrim": 5684,
      "petition": 5685,
      "hate": 5686,
      "mention": 5687,
      "vs": 5688,
      "##hd": 5689,
      "impress": 5690,
      "gym": 5691,
      "##ront": 5692,
      "sharp": 5693,
      "uruguay": 5694,
      "amp": 5695,
      "##inations": 5696,
      "##atherine": 5697,
      "driven": 5698,
      "editor": 5699,
      "roma": 5700,
      "##asted": 5701,
      "##adel": 5702,
      "memory": 5703,
      "satell": 5704,
      "determined": 5705,
      "beautiful": 5706,
      "dallas": 5707,
      "greece": 5708,
      "revolution": 5709,
      "cells": 5710,
      "complaint": 5711,
      "oxford": 5712,
      "fact": 5713,
      "nap": 5714,
      "posed": 5715,
      "##itude": 5716,
      "refere": 5717,
      "subur": 5718,
      "announcement": 5719,
      "911": 5720,
      "lav": 5721,
      "##ule": 5722,
      "influence": 5723,
      "kitchen": 5724,
      "smugg": 5725,
      "turning": 5726,
      "bags": 5727,
      "yellow": 5728,
      "f1": 5729,
      "##here": 5730,
      "lit": 5731,
      "pray": 5732,
      "blaze": 5733,
      "starts": 5734,
      "campaigners": 5735,
      "privacy": 5736,
      "##ifts": 5737,
      "curric": 5738,
      "treas": 5739,
      "roman": 5740,
      "dal": 5741,
      "easy": 5742,
      "cricket": 5743,
      "##fall": 5744,
      "##pping": 5745,
      "##ocol": 5746,
      "management": 5747,
      "fo": 5748,
      "forg": 5749,
      "shark": 5750,
      "##illing": 5751,
      "chap": 5752,
      "##enses": 5753,
      "##izz": 5754,
      "convers": 5755,
      "urges": 5756,
      "method": 5757,
      "##fire": 5758,
      "stom": 5759,
      "##stone": 5760,
      "waste": 5761,
      "##enez": 5762,
      "campbell": 5763,
      "colleagues": 5764,
      "az": 5765,
      "bike": 5766,
      "cigar": 5767,
      "193": 5768,
      "clinic": 5769,
      "birds": 5770,
      "chancellor": 5771,
      "##rison": 5772,
      "soph": 5773,
      "transform": 5774,
      "conviction": 5775,
      "possession": 5776,
      "civilians": 5777,
      "brief": 5778,
      "combat": 5779,
      "gab": 5780,
      "##vis": 5781,
      "spect": 5782,
      "granted": 5783,
      "searching": 5784,
      "jeremy": 5785,
      "##gow": 5786,
      "arsene": 5787,
      "length": 5788,
      "map": 5789,
      "suspicious": 5790,
      "curriculum": 5791,
      "dur": 5792,
      "##etch": 5793,
      "trend": 5794,
      "mercedes": 5795,
      "pakistani": 5796,
      "bombs": 5797,
      "stomach": 5798,
      "lunch": 5799,
      "locked": 5800,
      "supermark": 5801,
      "replac": 5802,
      "graphic": 5803,
      "tan": 5804,
      "##ucks": 5805,
      "earned": 5806,
      "philip": 5807,
      "74": 5808,
      "##oring": 5809,
      "weak": 5810,
      "string": 5811,
      "deploy": 5812,
      "asian": 5813,
      "spons": 5814,
      "nadal": 5815,
      "dies": 5816,
      "##ffield": 5817,
      "£100": 5818,
      "subject": 5819,
      "immigrants": 5820,
      "proposal": 5821,
      "##nell": 5822,
      "resigned": 5823,
      "73": 5824,
      "sought": 5825,
      "##esty": 5826,
      "attacking": 5827,
      "reaction": 5828,
      "##osure": 5829,
      "glas": 5830,
      "returns": 5831,
      "likes": 5832,
      "recovering": 5833,
      "bes": 5834,
      "mum": 5835,
      "roof": 5836,
      "racing": 5837,
      "veterans": 5838,
      "stunning": 5839,
      "episode": 5840,
      "brooklyn": 5841,
      "hampshire": 5842,
      "69": 5843,
      "kay": 5844,
      "sheffield": 5845,
      "highly": 5846,
      "wright": 5847,
      "gulf": 5848,
      "##abul": 5849,
      "transpl": 5850,
      "struggle": 5851,
      "slammed": 5852,
      "altern": 5853,
      "##apse": 5854,
      "reporter": 5855,
      "hunting": 5856,
      "yemen": 5857,
      "beer": 5858,
      "manuel": 5859,
      "buying": 5860,
      "##ridge": 5861,
      "vulner": 5862,
      "##mes": 5863,
      "chile": 5864,
      "##char": 5865,
      "acts": 5866,
      "apologised": 5867,
      "prest": 5868,
      "sean": 5869,
      "bristol": 5870,
      "embarr": 5871,
      "rig": 5872,
      "examp": 5873,
      "remote": 5874,
      "beats": 5875,
      "lisa": 5876,
      "dying": 5877,
      "divers": 5878,
      "liga": 5879,
      "##eg": 5880,
      "##under": 5881,
      "##eld": 5882,
      "##child": 5883,
      "##antly": 5884,
      "cancel": 5885,
      "require": 5886,
      "laugh": 5887,
      "##ran": 5888,
      "##rep": 5889,
      "restric": 5890,
      "formula": 5891,
      "fully": 5892,
      "software": 5893,
      "embarrass": 5894,
      "cats": 5895,
      "##ivity": 5896,
      "cous": 5897,
      "guards": 5898,
      "travelled": 5899,
      "artic": 5900,
      "steps": 5901,
      "moy": 5902,
      "ties": 5903,
      "##iant": 5904,
      "controversy": 5905,
      "dim": 5906,
      "##aco": 5907,
      "##ardo": 5908,
      "juvent": 5909,
      "moments": 5910,
      "withdraw": 5911,
      "trigger": 5912,
      "mah": 5913,
      "seed": 5914,
      "jean": 5915,
      "tower": 5916,
      "juventus": 5917,
      "nig": 5918,
      "rooms": 5919,
      "sanch": 5920,
      "hurric": 5921,
      "broadcast": 5922,
      "utah": 5923,
      "buck": 5924,
      "produce": 5925,
      "bruce": 5926,
      "worse": 5927,
      "##usted": 5928,
      "moves": 5929,
      "burned": 5930,
      "occup": 5931,
      "##esc": 5932,
      "spoken": 5933,
      "swiss": 5934,
      "provided": 5935,
      "battery": 5936,
      "gaza": 5937,
      "lamp": 5938,
      "raising": 5939,
      "survive": 5940,
      "aimed": 5941,
      "tonight": 5942,
      "##phia": 5943,
      "permission": 5944,
      "ends": 5945,
      "goalkeeper": 5946,
      "turkish": 5947,
      "##nam": 5948,
      "##anced": 5949,
      "unusual": 5950,
      "bound": 5951,
      "cav": 5952,
      "##amin": 5953,
      "alab": 5954,
      "##ulate": 5955,
      "##ulated": 5956,
      "allowing": 5957,
      "commissioner": 5958,
      "micros": 5959,
      "marathon": 5960,
      "##rell": 5961,
      "chase": 5962,
      "founded": 5963,
      "explain": 5964,
      "boxing": 5965,
      "pregnancy": 5966,
      "coffee": 5967,
      "##mund": 5968,
      "notes": 5969,
      "hitting": 5970,
      "defeated": 5971,
      "traffick": 5972,
      "pieces": 5973,
      "sanchez": 5974,
      "joining": 5975,
      "rah": 5976,
      "##erved": 5977,
      "findings": 5978,
      "philadel": 5979,
      "philadelphia": 5980,
      "reasons": 5981,
      "trag": 5982,
      "appearances": 5983,
      "thompson": 5984,
      "darren": 5985,
      "behavior": 5986,
      "ski": 5987,
      "cutting": 5988,
      "developing": 5989,
      "delayed": 5990,
      "construction": 5991,
      "wels": 5992,
      "##bl": 5993,
      "shr": 5994,
      "78": 5995,
      "bru": 5996,
      "aren": 5997,
      "puts": 5998,
      "##oppers": 5999,
      "winners": 6000,
      "bund": 6001,
      "caps": 6002,
      "discip": 6003,
      "kidnapping": 6004,
      "beyond": 6005,
      "tank": 6006,
      "##achel": 6007,
      "write": 6008,
      "sugar": 6009,
      "##ification": 6010,
      "demanded": 6011,
      "glasgow": 6012,
      "##din": 6013,
      "##izer": 6014,
      "depart": 6015,
      "##eas": 6016,
      "##inez": 6017,
      "blow": 6018,
      "serb": 6019,
      "emails": 6020,
      "##grav": 6021,
      "£20": 6022,
      "generation": 6023,
      "71": 6024,
      "ay": 6025,
      "cops": 6026,
      "ones": 6027,
      "##estyle": 6028,
      "seb": 6029,
      "fred": 6030,
      "disney": 6031,
      "alabama": 6032,
      "##time": 6033,
      "##och": 6034,
      "##ids": 6035,
      "extremely": 6036,
      "rafael": 6037,
      "magistrates": 6038,
      "mut": 6039,
      "ted": 6040,
      "fract": 6041,
      "bris": 6042,
      "prefer": 6043,
      "judges": 6044,
      "unlik": 6045,
      "jimmy": 6046,
      "welsh": 6047,
      "cd": 6048,
      "dy": 6049,
      "##ek": 6050,
      "rehab": 6051,
      "coverage": 6052,
      "contains": 6053,
      "##ologists": 6054,
      "active": 6055,
      "adopted": 6056,
      "ded": 6057,
      "haven": 6058,
      "##ema": 6059,
      "windows": 6060,
      "activist": 6061,
      "sandy": 6062,
      "teenagers": 6063,
      "praised": 6064,
      "hawai": 6065,
      "ry": 6066,
      "##active": 6067,
      "garcia": 6068,
      "santa": 6069,
      "unlikely": 6070,
      "85": 6071,
      "abroad": 6072,
      "feeling": 6073,
      "amazon": 6074,
      "toddler": 6075,
      "lions": 6076,
      "cruel": 6077,
      "encoun": 6078,
      "colombia": 6079,
      "nba": 6080,
      "##town": 6081,
      "suc": 6082,
      "illin": 6083,
      "argued": 6084,
      "classic": 6085,
      "required": 6086,
      "negoti": 6087,
      "code": 6088,
      "intim": 6089,
      "systems": 6090,
      "cycl": 6091,
      "conspiracy": 6092,
      "illinois": 6093,
      "hors": 6094,
      "##icut": 6095,
      "stunt": 6096,
      "skull": 6097,
      "sense": 6098,
      "##afi": 6099,
      "spirit": 6100,
      "##ni": 6101,
      "autom": 6102,
      "winger": 6103,
      "zimmer": 6104,
      "clothing": 6105,
      "organization": 6106,
      "pist": 6107,
      "exposed": 6108,
      "##ached": 6109,
      "##away": 6110,
      "ensure": 6111,
      "ability": 6112,
      "argument": 6113,
      "snowden": 6114,
      "brutal": 6115,
      "##anne": 6116,
      "assad": 6117,
      "heading": 6118,
      "edin": 6119,
      "gunners": 6120,
      "galax": 6121,
      "laden": 6122,
      "shaw": 6123,
      "obam": 6124,
      "donald": 6125,
      "standard": 6126,
      "awa": 6127,
      "connecticut": 6128,
      "accepted": 6129,
      "gill": 6130,
      "joy": 6131,
      "pound": 6132,
      "##enty": 6133,
      "seattle": 6134,
      "##odes": 6135,
      "switzer": 6136,
      "execution": 6137,
      "dor": 6138,
      "foster": 6139,
      "ment": 6140,
      "##war": 6141,
      "##lbs": 6142,
      "command": 6143,
      "rocket": 6144,
      "responded": 6145,
      "migrants": 6146,
      "tackle": 6147,
      "switzerland": 6148,
      "repair": 6149,
      "speaker": 6150,
      "rally": 6151,
      "ess": 6152,
      "trees": 6153,
      "martinez": 6154,
      "hung": 6155,
      "limited": 6156,
      "##inting": 6157,
      "##annah": 6158,
      "fernando": 6159,
      "pc": 6160,
      "stewart": 6161,
      "burnley": 6162,
      "##ecessary": 6163,
      "heath": 6164,
      "##ector": 6165,
      "unif": 6166,
      "prepared": 6167,
      "legislation": 6168,
      "sight": 6169,
      "##uate": 6170,
      "stood": 6171,
      "##ighted": 6172,
      "indec": 6173,
      "household": 6174,
      "collect": 6175,
      "reduced": 6176,
      "bone": 6177,
      "peters": 6178,
      "begins": 6179,
      "punched": 6180,
      "##stein": 6181,
      "voc": 6182,
      "cruc": 6183,
      "mini": 6184,
      "headed": 6185,
      "clegg": 6186,
      "mccain": 6187,
      "rush": 6188,
      "##rees": 6189,
      "##aya": 6190,
      "##agan": 6191,
      "blair": 6192,
      "itself": 6193,
      "sporting": 6194,
      "audience": 6195,
      "cabinet": 6196,
      "iconic": 6197,
      "enforcement": 6198,
      "mount": 6199,
      "tories": 6200,
      "twin": 6201,
      "191": 6202,
      "confirms": 6203,
      "devastated": 6204,
      "beckham": 6205,
      "##employ": 6206,
      "stable": 6207,
      "unemploy": 6208,
      "grave": 6209,
      "##ogue": 6210,
      "links": 6211,
      "eleph": 6212,
      "rein": 6213,
      "newly": 6214,
      "emma": 6215,
      "visits": 6216,
      "revel": 6217,
      "fame": 6218,
      "##load": 6219,
      "##bie": 6220,
      "button": 6221,
      "agu": 6222,
      "##ailand": 6223,
      "investment": 6224,
      "mohammed": 6225,
      "queensland": 6226,
      "vessel": 6227,
      "gil": 6228,
      "gene": 6229,
      "thailand": 6230,
      "blues": 6231,
      "amanda": 6232,
      "located": 6233,
      "doubt": 6234,
      "challenges": 6235,
      "dubbed": 6236,
      "enjoyed": 6237,
      "ipad": 6238,
      "82": 6239,
      "biz": 6240,
      "hired": 6241,
      "overall": 6242,
      "flooding": 6243,
      "gap": 6244,
      "tips": 6245,
      "vet": 6246,
      "##die": 6247,
      "subs": 6248,
      "strict": 6249,
      "skills": 6250,
      "reds": 6251,
      "promises": 6252,
      "titles": 6253,
      "arrive": 6254,
      "sleeping": 6255,
      "mcdonald": 6256,
      "welf": 6257,
      "sha": 6258,
      "shoes": 6259,
      "hears": 6260,
      "attempts": 6261,
      "cha": 6262,
      "##verted": 6263,
      "leaked": 6264,
      "institute": 6265,
      "pilots": 6266,
      "basket": 6267,
      "gear": 6268,
      "##esco": 6269,
      "##vey": 6270,
      "anfield": 6271,
      "clark": 6272,
      "sitting": 6273,
      "internal": 6274,
      "tradition": 6275,
      "amazing": 6276,
      "mitchell": 6277,
      "tact": 6278,
      "shape": 6279,
      "section": 6280,
      "becomes": 6281,
      "devon": 6282,
      "mcl": 6283,
      "controlled": 6284,
      "uniform": 6285,
      "gib": 6286,
      "sac": 6287,
      "##burn": 6288,
      "alth": 6289,
      "sail": 6290,
      "happen": 6291,
      "bos": 6292,
      "lob": 6293,
      "pelle": 6294,
      "tumour": 6295,
      "##wr": 6296,
      "##aken": 6297,
      "sergio": 6298,
      "stealing": 6299,
      "knowledge": 6300,
      "regularly": 6301,
      "kit": 6302,
      "vinc": 6303,
      "##otherapy": 6304,
      "strip": 6305,
      "cornwall": 6306,
      "liter": 6307,
      "##oard": 6308,
      "brid": 6309,
      "contrac": 6310,
      "tourist": 6311,
      "athletes": 6312,
      "##aid": 6313,
      "smashed": 6314,
      "confidence": 6315,
      "grandfather": 6316,
      "racial": 6317,
      "spokeswoman": 6318,
      "opportunity": 6319,
      "hud": 6320,
      "gareth": 6321,
      "bullet": 6322,
      "catholic": 6323,
      "hurricane": 6324,
      "##essions": 6325,
      "troph": 6326,
      "embr": 6327,
      "furious": 6328,
      "procedure": 6329,
      "clip": 6330,
      "##eller": 6331,
      "aggrav": 6332,
      "insist": 6333,
      "studies": 6334,
      "terrif": 6335,
      "producer": 6336,
      "roads": 6337,
      "petr": 6338,
      "dramatic": 6339,
      "bart": 6340,
      "rif": 6341,
      "pron": 6342,
      "dean": 6343,
      "jewish": 6344,
      "bizarre": 6345,
      "although": 6346,
      "russell": 6347,
      "learning": 6348,
      "kidnapped": 6349,
      "dollars": 6350,
      "pacific": 6351,
      "sudden": 6352,
      "vulnerable": 6353,
      "welfare": 6354,
      "pul": 6355,
      "£50": 6356,
      "##esa": 6357,
      "busy": 6358,
      "probation": 6359,
      "lincol": 6360,
      "incredible": 6361,
      "lincoln": 6362,
      "rav": 6363,
      "tast": 6364,
      "##cott": 6365,
      "usually": 6366,
      "staying": 6367,
      "patrol": 6368,
      "zimmerman": 6369,
      "##arth": 6370,
      "abortion": 6371,
      "joins": 6372,
      "strang": 6373,
      "defending": 6374,
      "warnings": 6375,
      "weighed": 6376,
      "independence": 6377,
      "rumour": 6378,
      "##light": 6379,
      "##gun": 6380,
      "##ining": 6381,
      "tries": 6382,
      "lawmakers": 6383,
      "unique": 6384,
      "blames": 6385,
      "minimum": 6386,
      "contacted": 6387,
      "writing": 6388,
      "youngster": 6389,
      "cuba": 6390,
      "palestinian": 6391,
      "finger": 6392,
      "fighter": 6393,
      "##pass": 6394,
      "ing": 6395,
      "comedy": 6396,
      "filming": 6397,
      "wick": 6398,
      "wolf": 6399,
      "factory": 6400,
      "determine": 6401,
      "##iac": 6402,
      "milk": 6403,
      "demands": 6404,
      "promote": 6405,
      "ax": 6406,
      "##arily": 6407,
      "atm": 6408,
      "announces": 6409,
      "dir": 6410,
      "alert": 6411,
      "sue": 6412,
      "adams": 6413,
      "amy": 6414,
      "davies": 6415,
      "bigger": 6416,
      "battling": 6417,
      "rebel": 6418,
      "underwent": 6419,
      "##ii": 6420,
      "noticed": 6421,
      "fees": 6422,
      "drawn": 6423,
      "earthqu": 6424,
      "hiv": 6425,
      "##rest": 6426,
      "##bane": 6427,
      "##utions": 6428,
      "##iro": 6429,
      "prosp": 6430,
      "sevent": 6431,
      "defended": 6432,
      "falls": 6433,
      "bench": 6434,
      "hook": 6435,
      "lan": 6436,
      "infected": 6437,
      "donated": 6438,
      "maur": 6439,
      "uncle": 6440,
      "novel": 6441,
      "eag": 6442,
      "tag": 6443,
      "spell": 6444,
      "twins": 6445,
      "anne": 6446,
      "hotels": 6447,
      "cheap": 6448,
      "£30": 6449,
      "surprise": 6450,
      "gp": 6451,
      "nathan": 6452,
      "oreg": 6453,
      "##mouth": 6454,
      "proud": 6455,
      "grown": 6456,
      "scale": 6457,
      "taxi": 6458,
      "dozen": 6459,
      "shocking": 6460,
      "dancing": 6461,
      "oregon": 6462,
      "##wick": 6463,
      "##rel": 6464,
      "aboard": 6465,
      "carter": 6466,
      "intended": 6467,
      "harv": 6468,
      "##while": 6469,
      "toilet": 6470,
      "##uits": 6471,
      "reward": 6472,
      "isol": 6473,
      "upon": 6474,
      "confessed": 6475,
      "stepped": 6476,
      "felony": 6477,
      "exhibition": 6478,
      "wreck": 6479,
      "tight": 6480,
      "tip": 6481,
      "##dale": 6482,
      "##inn": 6483,
      "##ictions": 6484,
      "engaged": 6485,
      "commander": 6486,
      "murders": 6487,
      "comedian": 6488,
      "rab": 6489,
      "sri": 6490,
      "##eals": 6491,
      "froz": 6492,
      "unh": 6493,
      "##mann": 6494,
      "youngest": 6495,
      "tensions": 6496,
      "moyes": 6497,
      "##fast": 6498,
      "inmates": 6499,
      "##atically": 6500,
      "##aga": 6501,
      "distrib": 6502,
      "excess": 6503,
      "constitution": 6504,
      "particular": 6505,
      "por": 6506,
      "##issa": 6507,
      "knock": 6508,
      "guide": 6509,
      "larger": 6510,
      "evacuated": 6511,
      "satellite": 6512,
      "aggravated": 6513,
      "taught": 6514,
      "frustr": 6515,
      "itv": 6516,
      "##owned": 6517,
      "options": 6518,
      "negative": 6519,
      "disappearance": 6520,
      "rent": 6521,
      "chocol": 6522,
      "teeth": 6523,
      "simp": 6524,
      "##loaded": 6525,
      "sudan": 6526,
      "answer": 6527,
      "mystery": 6528,
      "gift": 6529,
      "jen": 6530,
      "##anic": 6531,
      "deals": 6532,
      "apps": 6533,
      "approached": 6534,
      "kenya": 6535,
      "cancelled": 6536,
      "overturn": 6537,
      "nature": 6538,
      "##oses": 6539,
      "impressed": 6540,
      "howard": 6541,
      "criticized": 6542,
      "##rupt": 6543,
      "confidential": 6544,
      "experienced": 6545,
      "exclusive": 6546,
      "pardew": 6547,
      "08": 6548,
      "fisher": 6549,
      "pink": 6550,
      "wave": 6551,
      "##iber": 6552,
      "spray": 6553,
      "unclear": 6554,
      "archit": 6555,
      "brisbane": 6556,
      "gor": 6557,
      "nut": 6558,
      "rural": 6559,
      "##illed": 6560,
      "ank": 6561,
      "##antage": 6562,
      "diab": 6563,
      "businessman": 6564,
      "pupp": 6565,
      "heavily": 6566,
      "qatar": 6567,
      "drinks": 6568,
      "surrey": 6569,
      "1999": 6570,
      "76": 6571,
      "##ighth": 6572,
      "doors": 6573,
      "soccer": 6574,
      "remaining": 6575,
      "artists": 6576,
      "biden": 6577,
      "dave": 6578,
      "fu": 6579,
      "pip": 6580,
      "wash": 6581,
      "highway": 6582,
      "edge": 6583,
      "metres": 6584,
      "atlantic": 6585,
      "disabled": 6586,
      "supply": 6587,
      "lank": 6588,
      "##greg": 6589,
      "##asters": 6590,
      "##oving": 6591,
      "appeals": 6592,
      "stev": 6593,
      "austin": 6594,
      "virt": 6595,
      "ukrain": 6596,
      "dougl": 6597,
      "wonder": 6598,
      "fant": 6599,
      "mick": 6600,
      "nsw": 6601,
      "##east": 6602,
      "##lers": 6603,
      "##erous": 6604,
      "sty": 6605,
      "appoint": 6606,
      "remained": 6607,
      "castle": 6608,
      "##rence": 6609,
      "##agger": 6610,
      "warrant": 6611,
      "damages": 6612,
      "clashes": 6613,
      "egyptian": 6614,
      "novak": 6615,
      "individual": 6616,
      "##kel": 6617,
      "##ami": 6618,
      "spy": 6619,
      "oldest": 6620,
      "resist": 6621,
      "expressed": 6622,
      "##enson": 6623,
      "option": 6624,
      "consult": 6625,
      "alexis": 6626,
      "osborne": 6627,
      "castro": 6628,
      "tornado": 6629,
      "nigel": 6630,
      "benn": 6631,
      "eve": 6632,
      "era": 6633,
      "##lif": 6634,
      "##oop": 6635,
      "##ora": 6636,
      "campus": 6637,
      "turns": 6638,
      "analysts": 6639,
      "pentagon": 6640,
      "bones": 6641,
      "toward": 6642,
      "##actions": 6643,
      "ney": 6644,
      "coma": 6645,
      "plants": 6646,
      "invited": 6647,
      "burst": 6648,
      "aware": 6649,
      "awaren": 6650,
      "powers": 6651,
      "awareness": 6652,
      "##uals": 6653,
      "conce": 6654,
      "willing": 6655,
      "anna": 6656,
      "initial": 6657,
      "meanwhile": 6658,
      "dort": 6659,
      "pel": 6660,
      "##roid": 6661,
      "regard": 6662,
      "payments": 6663,
      "label": 6664,
      "duncan": 6665,
      "gates": 6666,
      "sed": 6667,
      "zel": 6668,
      "##arch": 6669,
      "notting": 6670,
      "gathered": 6671,
      "##onia": 6672,
      "shad": 6673,
      "saving": 6674,
      "compreh": 6675,
      "minnes": 6676,
      "robinson": 6677,
      "probably": 6678,
      "demanding": 6679,
      "rosberg": 6680,
      "lambert": 6681,
      "transplant": 6682,
      "dortmund": 6683,
      "bug": 6684,
      "##stri": 6685,
      "feat": 6686,
      "susan": 6687,
      "1998": 6688,
      "stayed": 6689,
      "princip": 6690,
      "laura": 6691,
      "krist": 6692,
      "joke": 6693,
      "vent": 6694,
      "##itors": 6695,
      "##rene": 6696,
      "##onscious": 6697,
      "dish": 6698,
      "##look": 6699,
      "##mins": 6700,
      "chose": 6701,
      "complic": 6702,
      "paramed": 6703,
      "accidentally": 6704,
      "lift": 6705,
      "neymar": 6706,
      "##wal": 6707,
      "##osen": 6708,
      "##acht": 6709,
      "guy": 6710,
      "pole": 6711,
      "watchdog": 6712,
      "papers": 6713,
      "anonymous": 6714,
      "##ci": 6715,
      "overnight": 6716,
      "risks": 6717,
      "fewer": 6718,
      "article": 6719,
      "hawaii": 6720,
      "gender": 6721,
      "##owa": 6722,
      "diss": 6723,
      "##azz": 6724,
      "##ippi": 6725,
      "fundra": 6726,
      "deliber": 6727,
      "settlement": 6728,
      "minnesota": 6729,
      "95": 6730,
      "kath": 6731,
      "nazi": 6732,
      "wol": 6733,
      "##ouch": 6734,
      "stal": 6735,
      "meal": 6736,
      "##approp": 6737,
      "profit": 6738,
      "hoped": 6739,
      "radical": 6740,
      "choose": 6741,
      "neighborhood": 6742,
      "##rets": 6743,
      "alaska": 6744,
      "##rapped": 6745,
      "opin": 6746,
      "opens": 6747,
      "contained": 6748,
      "races": 6749,
      "bringing": 6750,
      "masters": 6751,
      "mandela": 6752,
      "kyle": 6753,
      "sisters": 6754,
      "venez": 6755,
      "##wa": 6756,
      "##more": 6757,
      "shoppers": 6758,
      "worry": 6759,
      "£15": 6760,
      "searched": 6761,
      "err": 6762,
      "hyp": 6763,
      "overseas": 6764,
      "horn": 6765,
      "##45": 6766,
      "##lement": 6767,
      "dry": 6768,
      "flash": 6769,
      "serie": 6770,
      "relax": 6771,
      "underst": 6772,
      "mississ": 6773,
      "edwards": 6774,
      "customer": 6775,
      "shelter": 6776,
      "permanent": 6777,
      "thinking": 6778,
      "object": 6779,
      "provides": 6780,
      "empty": 6781,
      "speaks": 6782,
      "extrad": 6783,
      "concert": 6784,
      "galaxy": 6785,
      "ale": 6786,
      "boun": 6787,
      "bash": 6788,
      "oz": 6789,
      "sut": 6790,
      "##care": 6791,
      "##entially": 6792,
      "ongoing": 6793,
      "##ello": 6794,
      "##ellers": 6795,
      "grade": 6796,
      "flown": 6797,
      "iron": 6798,
      "meaning": 6799,
      "julian": 6800,
      "microsoft": 6801,
      "venezuel": 6802,
      "bot": 6803,
      "##antha": 6804,
      "##arret": 6805,
      "libr": 6806,
      "relief": 6807,
      "sony": 6808,
      "frequ": 6809,
      "horrific": 6810,
      "simply": 6811,
      "mississippi": 6812,
      "##box": 6813,
      "obtain": 6814,
      "##otte": 6815,
      "opponents": 6816,
      "tattoo": 6817,
      "pronounced": 6818,
      "nbc": 6819,
      "##yc": 6820,
      "##ables": 6821,
      "##phones": 6822,
      "observ": 6823,
      "involvement": 6824,
      "serge": 6825,
      "symb": 6826,
      "barr": 6827,
      "##erties": 6828,
      "launches": 6829,
      "massac": 6830,
      "sharing": 6831,
      "burning": 6832,
      "heroin": 6833,
      "bailey": 6834,
      "absol": 6835,
      "tenness": 6836,
      "rough": 6837,
      "##wan": 6838,
      "##inate": 6839,
      "##acare": 6840,
      "parole": 6841,
      "collision": 6842,
      "giants": 6843,
      "katie": 6844,
      "dumped": 6845,
      "root": 6846,
      "##eem": 6847,
      "##tar": 6848,
      "##cond": 6849,
      "##orious": 6850,
      "##ito": 6851,
      "##acle": 6852,
      "formed": 6853,
      "disgr": 6854,
      "donations": 6855,
      "grey": 6856,
      "inspir": 6857,
      "badly": 6858,
      "lifestyle": 6859,
      "condemned": 6860,
      "example": 6861,
      "cdc": 6862,
      "dates": 6863,
      "jong": 6864,
      "vows": 6865,
      "##imp": 6866,
      "##illy": 6867,
      "barry": 6868,
      "£12": 6869,
      "properties": 6870,
      "lover": 6871,
      "distur": 6872,
      "celebrated": 6873,
      "grounds": 6874,
      "attempting": 6875,
      "creating": 6876,
      "unconscious": 6877,
      "stretch": 6878,
      "tragic": 6879,
      "edinburgh": 6880,
      "douglas": 6881,
      "cord": 6882,
      "lloy": 6883,
      "##rog": 6884,
      "exact": 6885,
      "childhood": 6886,
      "undergo": 6887,
      "obamacare": 6888,
      "tennessee": 6889,
      "vital": 6890,
      "##inent": 6891,
      "##apore": 6892,
      "##ategy": 6893,
      "gross": 6894,
      "charac": 6895,
      "quiet": 6896,
      "ak": 6897,
      "bik": 6898,
      "##omy": 6899,
      "stur": 6900,
      "##phy": 6901,
      "singapore": 6902,
      "duo": 6903,
      "widow": 6904,
      "various": 6905,
      "characters": 6906,
      "categ": 6907,
      "##water": 6908,
      "chat": 6909,
      "##osing": 6910,
      "drama": 6911,
      "strategy": 6912,
      "hostage": 6913,
      "raping": 6914,
      "anch": 6915,
      "throat": 6916,
      "hospitalized": 6917,
      "passing": 6918,
      "advantage": 6919,
      "holder": 6920,
      "portra": 6921,
      "ranked": 6922,
      "survivors": 6923,
      "lod": 6924,
      "margar": 6925,
      "samantha": 6926,
      "referee": 6927,
      "fitted": 6928,
      "inapprop": 6929,
      "##itage": 6930,
      "##astr": 6931,
      "monaco": 6932,
      "decor": 6933,
      "revers": 6934,
      "taxes": 6935,
      "roberto": 6936,
      "oliv": 6937,
      "sometimes": 6938,
      "persie": 6939,
      "environmental": 6940,
      "platform": 6941,
      "ukrainian": 6942,
      "stem": 6943,
      "##berry": 6944,
      "warren": 6945,
      "laid": 6946,
      "##beat": 6947,
      "##embley": 6948,
      "dust": 6949,
      "vowed": 6950,
      "wembley": 6951,
      "##chair": 6952,
      "##inder": 6953,
      "kidney": 6954,
      "bacter": 6955,
      "hend": 6956,
      "iowa": 6957,
      "pock": 6958,
      "va": 6959,
      "fruit": 6960,
      "##opsy": 6961,
      "##strong": 6962,
      "tape": 6963,
      "##erted": 6964,
      "weekly": 6965,
      "remark": 6966,
      "##weather": 6967,
      "explo": 6968,
      "celebrating": 6969,
      "louisiana": 6970,
      "assaulting": 6971,
      "torture": 6972,
      "dedic": 6973,
      "bale": 6974,
      "cher": 6975,
      "##ization": 6976,
      "desert": 6977,
      "##roit": 6978,
      "cafe": 6979,
      "homicide": 6980,
      "executed": 6981,
      "armstrong": 6982,
      "indiana": 6983,
      "achieve": 6984,
      "kansas": 6985,
      "##chi": 6986,
      "##abis": 6987,
      "carbon": 6988,
      "meals": 6989,
      "trains": 6990,
      "greene": 6991,
      "collapse": 6992,
      "polls": 6993,
      "bolton": 6994,
      "checks": 6995,
      "##rahim": 6996,
      "antonio": 6997,
      "sebast": 6998,
      "rud": 6999,
      "##lan": 7000,
      "ferdin": 7001,
      "attracted": 7002,
      "rum": 7003,
      "rory": 7004,
      "sib": 7005,
      "shops": 7006,
      "gray": 7007,
      "detroit": 7008,
      "movies": 7009,
      "criminals": 7010,
      "targeting": 7011,
      "voting": 7012,
      "activities": 7013,
      "admitting": 7014,
      "prompted": 7015,
      "ferdinand": 7016,
      "sued": 7017,
      "##acking": 7018,
      "120": 7019,
      "package": 7020,
      "loves": 7021,
      "favorite": 7022,
      "chocolate": 7023,
      "##onso": 7024,
      "##uties": 7025,
      "##verty": 7026,
      "##apes": 7027,
      "stroke": 7028,
      "poverty": 7029,
      "ivan": 7030,
      "mull": 7031,
      "pushing": 7032,
      "##esus": 7033,
      "supposed": 7034,
      "£16": 7035,
      "goods": 7036,
      "operating": 7037,
      "hills": 7038,
      "bullying": 7039,
      "predict": 7040,
      "mam": 7041,
      "##utation": 7042,
      "seems": 7043,
      "##quar": 7044,
      "motiv": 7045,
      "##knapp": 7046,
      "maryland": 7047,
      "tsar": 7048,
      "clarke": 7049,
      "frozen": 7050,
      "rib": 7051,
      "blocked": 7052,
      "closer": 7053,
      "ultim": 7054,
      "nelson": 7055,
      "##ima": 7056,
      "##ishing": 7057,
      "redknapp": 7058,
      "numerous": 7059,
      "hosted": 7060,
      "balls": 7061,
      "hide": 7062,
      "lap": 7063,
      "##km": 7064,
      "interior": 7065,
      "guest": 7066,
      "commons": 7067,
      "posting": 7068,
      "##ikh": 7069,
      "cyber": 7070,
      "tracks": 7071,
      "supplies": 7072,
      "desperate": 7073,
      "##aver": 7074,
      "##jan": 7075,
      "poland": 7076,
      "talent": 7077,
      "lets": 7078,
      "##nic": 7079,
      "##nie": 7080,
      "shell": 7081,
      "chances": 7082,
      "notice": 7083,
      "patri": 7084,
      "cannabis": 7085,
      "wealthy": 7086,
      "discrimination": 7087,
      "basketball": 7088,
      "gon": 7089,
      "riot": 7090,
      "##issions": 7091,
      "columb": 7092,
      "sussex": 7093,
      "shoulder": 7094,
      "stabbing": 7095,
      "bradley": 7096,
      "nottingham": 7097,
      "stamp": 7098,
      "chosen": 7099,
      "##abor": 7100,
      "mayweather": 7101,
      "owns": 7102,
      "##cover": 7103,
      "vanished": 7104,
      "welcome": 7105,
      "immediate": 7106,
      "vig": 7107,
      "##obi": 7108,
      "knox": 7109,
      "sams": 7110,
      "footballer": 7111,
      "performing": 7112,
      "championships": 7113,
      "unnamed": 7114,
      "cz": 7115,
      "pod": 7116,
      "asyl": 7117,
      "##sequ": 7118,
      "croat": 7119,
      "fires": 7120,
      "##shot": 7121,
      "somers": 7122,
      "baseball": 7123,
      "circum": 7124,
      "grabbed": 7125,
      "asylum": 7126,
      "##orius": 7127,
      "trace": 7128,
      "##ucking": 7129,
      "attending": 7130,
      "quake": 7131,
      "dod": 7132,
      "pill": 7133,
      "reid": 7134,
      "shift": 7135,
      "ferrari": 7136,
      "pistorius": 7137,
      "cu": 7138,
      "##gt": 7139,
      "unac": 7140,
      "outfit": 7141,
      "reporters": 7142,
      "keith": 7143,
      "baghd": 7144,
      "sportsmail": 7145,
      "##regas": 7146,
      "mixed": 7147,
      "samsung": 7148,
      "ky": 7149,
      "mitt": 7150,
      "tail": 7151,
      "deem": 7152,
      "agencies": 7153,
      "mostly": 7154,
      "fabregas": 7155,
      "pier": 7156,
      "##ional": 7157,
      "knight": 7158,
      "airstri": 7159,
      "alleges": 7160,
      "funded": 7161,
      "##heim": 7162,
      "pump": 7163,
      "##pd": 7164,
      "delays": 7165,
      "clev": 7166,
      "##etta": 7167,
      "morris": 7168,
      "spani": 7169,
      "discussion": 7170,
      "cousin": 7171,
      "encounter": 7172,
      "##erves": 7173,
      "worn": 7174,
      "attacker": 7175,
      "airports": 7176,
      "simpson": 7177,
      "aer": 7178,
      "hiding": 7179,
      "##aled": 7180,
      "ships": 7181,
      "acted": 7182,
      "appointed": 7183,
      "elected": 7184,
      "breaks": 7185,
      "##cao": 7186,
      "multi": 7187,
      "songs": 7188,
      "encourage": 7189,
      "therapy": 7190,
      "volunteers": 7191,
      "83": 7192,
      "gained": 7193,
      "none": 7194,
      "wer": 7195,
      "##iders": 7196,
      "unident": 7197,
      "##umes": 7198,
      "##aved": 7199,
      "bloom": 7200,
      "1994": 7201,
      "falcao": 7202,
      "arabia": 7203,
      "bm": 7204,
      "gifts": 7205,
      "rang": 7206,
      "wire": 7207,
      "theat": 7208,
      "##endum": 7209,
      "youngsters": 7210,
      "rises": 7211,
      "colleague": 7212,
      "1970s": 7213,
      "caroline": 7214,
      "approval": 7215,
      "conservatives": 7216,
      "politician": 7217,
      "tears": 7218,
      "ibrahim": 7219,
      "cleveland": 7220,
      "lucky": 7221,
      "ug": 7222,
      "bears": 7223,
      "alarm": 7224,
      "accomp": 7225,
      "presented": 7226,
      "writ": 7227,
      "opener": 7228,
      "treating": 7229,
      "greatest": 7230,
      "sentences": 7231,
      "psychiat": 7232,
      "punishment": 7233,
      "accusations": 7234,
      "rome": 7235,
      "ramp": 7236,
      "##cot": 7237,
      "exit": 7238,
      "enr": 7239,
      "courts": 7240,
      "##luded": 7241,
      "slim": 7242,
      "affects": 7243,
      "salv": 7244,
      "1980s": 7245,
      "##efa": 7246,
      "apologized": 7247,
      "referendum": 7248,
      "hob": 7249,
      "nin": 7250,
      "##abe": 7251,
      "enem": 7252,
      "speculation": 7253,
      "chiefs": 7254,
      "sentencing": 7255,
      "unidentified": 7256,
      "brands": 7257,
      "##orders": 7258,
      "cream": 7259,
      "1997": 7260,
      "casual": 7261,
      "increasingly": 7262,
      "##idelines": 7263,
      "hond": 7264,
      "uefa": 7265,
      "##oty": 7266,
      "chicken": 7267,
      "truth": 7268,
      "##oko": 7269,
      "garage": 7270,
      "bottles": 7271,
      "##rom": 7272,
      "stam": 7273,
      "reign": 7274,
      "boasts": 7275,
      "heroes": 7276,
      "initi": 7277,
      "reforms": 7278,
      "temporary": 7279,
      "atmosp": 7280,
      "baghdad": 7281,
      "3d": 7282,
      "##for": 7283,
      "##inos": 7284,
      "offenders": 7285,
      "missile": 7286,
      "veget": 7287,
      "personnel": 7288,
      "ignored": 7289,
      "photographed": 7290,
      "narrow": 7291,
      "pets": 7292,
      "##ecca": 7293,
      "liqu": 7294,
      "locations": 7295,
      "supporting": 7296,
      "junior": 7297,
      "julie": 7298,
      "refugees": 7299,
      "dolph": 7300,
      "ald": 7301,
      "riding": 7302,
      "android": 7303,
      "neur": 7304,
      "##oded": 7305,
      "confron": 7306,
      "brew": 7307,
      "shooter": 7308,
      "classes": 7309,
      "error": 7310,
      "harassment": 7311,
      "earthquake": 7312,
      "toys": 7313,
      "leban": 7314,
      "##essing": 7315,
      "##acks": 7316,
      "salt": 7317,
      "crossing": 7318,
      "illegally": 7319,
      "barbara": 7320,
      "malaysia": 7321,
      "lampard": 7322,
      "horses": 7323,
      "cul": 7324,
      "tend": 7325,
      "##bors": 7326,
      "theory": 7327,
      "##ulted": 7328,
      "resour": 7329,
      "backs": 7330,
      "lowest": 7331,
      "fastest": 7332,
      "fishing": 7333,
      "routine": 7334,
      "aggressive": 7335,
      "crucial": 7336,
      "lag": 7337,
      "shed": 7338,
      "arth": 7339,
      "emirates": 7340,
      "trainer": 7341,
      "berlin": 7342,
      "crews": 7343,
      "supermarket": 7344,
      "alternative": 7345,
      "bent": 7346,
      "bishop": 7347,
      "greek": 7348,
      "pie": 7349,
      "##acting": 7350,
      "##opa": 7351,
      "studio": 7352,
      "correct": 7353,
      "powell": 7354,
      "margaret": 7355,
      "##ardy": 7356,
      "oliver": 7357,
      "nypd": 7358,
      "5m": 7359,
      "cable": 7360,
      "jav": 7361,
      "vlad": 7362,
      "trio": 7363,
      "advent": 7364,
      "please": 7365,
      "charlotte": 7366,
      "somalia": 7367,
      "taxpayers": 7368,
      "indecent": 7369,
      "bour": 7370,
      "dict": 7371,
      "lyn": 7372,
      "nsa": 7373,
      "##ias": 7374,
      "##de": 7375,
      "grace": 7376,
      "buff": 7377,
      "projects": 7378,
      "ending": 7379,
      "germ": 7380,
      "argues": 7381,
      "collins": 7382,
      "belgian": 7383,
      "##lon": 7384,
      "##star": 7385,
      "predicted": 7386,
      "restaurants": 7387,
      "liberal": 7388,
      "carlos": 7389,
      "dragged": 7390,
      "indonesia": 7391,
      "##ati": 7392,
      "##ears": 7393,
      "##ashire": 7394,
      "obes": 7395,
      "imag": 7396,
      "affairs": 7397,
      "hacking": 7398,
      "maximum": 7399,
      "height": 7400,
      "##iev": 7401,
      "##othy": 7402,
      "nicole": 7403,
      "seventh": 7404,
      "foul": 7405,
      "tesco": 7406,
      "craw": 7407,
      "abusing": 7408,
      "trium": 7409,
      "sweden": 7410,
      "lancashire": 7411,
      "flowers": 7412,
      "massacre": 7413,
      "##ien": 7414,
      "##imir": 7415,
      "orange": 7416,
      "publicly": 7417,
      "hamas": 7418,
      "connected": 7419,
      "smaller": 7420,
      "retirement": 7421,
      "triumph": 7422,
      "lau": 7423,
      "##istle": 7424,
      "helen": 7425,
      "##atched": 7426,
      "##ahl": 7427,
      "suspension": 7428,
      "tourism": 7429,
      "semif": 7430,
      "bomber": 7431,
      "innocent": 7432,
      "79": 7433,
      "cin": 7434,
      "zero": 7435,
      "##oir": 7436,
      "firing": 7437,
      "colon": 7438,
      "deadline": 7439,
      "##rible": 7440,
      "australians": 7441,
      "neighbors": 7442,
      "difference": 7443,
      "effective": 7444,
      "detective": 7445,
      "toxic": 7446,
      "overd": 7447,
      "flames": 7448,
      "##ockey": 7449,
      "lawrence": 7450,
      "##ettino": 7451,
      "focused": 7452,
      "computers": 7453,
      "obesity": 7454,
      "denn": 7455,
      "##iar": 7456,
      "##omen": 7457,
      "##aining": 7458,
      "paraly": 7459,
      "boeing": 7460,
      "autopsy": 7461,
      "##ussia": 7462,
      "##otten": 7463,
      "conducted": 7464,
      "##naev": 7465,
      "closing": 7466,
      "tsarnaev": 7467,
      "gps": 7468,
      "rachel": 7469,
      "##tt": 7470,
      "palin": 7471,
      "communities": 7472,
      "texts": 7473,
      "##nity": 7474,
      "##caster": 7475,
      "##beck": 7476,
      "stations": 7477,
      "##etes": 7478,
      "cler": 7479,
      "studied": 7480,
      "##ctic": 7481,
      "profits": 7482,
      "81": 7483,
      "xi": 7484,
      "##urer": 7485,
      "sett": 7486,
      "deport": 7487,
      "tracked": 7488,
      "architect": 7489,
      "hub": 7490,
      "##iece": 7491,
      "##oos": 7492,
      "##aware": 7493,
      "assass": 7494,
      "luk": 7495,
      "divor": 7496,
      "prepare": 7497,
      "nurses": 7498,
      "sorry": 7499,
      "##abulary": 7500,
      "vincent": 7501,
      "##minster": 7502,
      "88": 7503,
      "##opez": 7504,
      "midlands": 7505,
      "reporting": 7506,
      "simple": 7507,
      "storms": 7508,
      "teaching": 7509,
      "citizen": 7510,
      "consumers": 7511,
      "deemed": 7512,
      "##uild": 7513,
      "alonso": 7514,
      "shouldn": 7515,
      "paed": 7516,
      "maker": 7517,
      "booked": 7518,
      "designs": 7519,
      "##kyo": 7520,
      "owen": 7521,
      "ast": 7522,
      "##body": 7523,
      "tokyo": 7524,
      "haiti": 7525,
      "scam": 7526,
      "##encia": 7527,
      "viet": 7528,
      "calm": 7529,
      "describe": 7530,
      "estimates": 7531,
      "beginning": 7532,
      "saints": 7533,
      "mine": 7534,
      "##eid": 7535,
      "##kg": 7536,
      "##ierra": 7537,
      "involves": 7538,
      "1996": 7539,
      "miscond": 7540,
      "espec": 7541,
      "hazard": 7542,
      "trafficking": 7543,
      "misconduct": 7544,
      "##lings": 7545,
      "##pro": 7546,
      "suv": 7547,
      "resolution": 7548,
      "expand": 7549,
      "ordeal": 7550,
      "widely": 7551,
      "analysis": 7552,
      "mug": 7553,
      "##oen": 7554,
      "##fa": 7555,
      "##elet": 7556,
      "raises": 7557,
      "advis": 7558,
      "arrival": 7559,
      "programs": 7560,
      "bombings": 7561,
      "deeply": 7562,
      "griff": 7563,
      "breathing": 7564,
      "renew": 7565,
      "inappropriate": 7566,
      "especially": 7567,
      "hannah": 7568,
      "##umed": 7569,
      "##appy": 7570,
      "snap": 7571,
      "freez": 7572,
      "nether": 7573,
      "##olved": 7574,
      "##covered": 7575,
      "patter": 7576,
      "keeper": 7577,
      "knows": 7578,
      "honey": 7579,
      "wheelchair": 7580,
      "clients": 7581,
      "arena": 7582,
      "apply": 7583,
      "objects": 7584,
      "traveling": 7585,
      "democracy": 7586,
      "##ception": 7587,
      "gadh": 7588,
      "chamber": 7589,
      "pellegr": 7590,
      "core": 7591,
      "rocks": 7592,
      "waves": 7593,
      "##estone": 7594,
      "notorious": 7595,
      "##ante": 7596,
      "reputation": 7597,
      "downing": 7598,
      "collected": 7599,
      "£500": 7600,
      "kentucky": 7601,
      "diana": 7602,
      "sgt": 7603,
      "##lete": 7604,
      "runner": 7605,
      "division": 7606,
      "holidays": 7607,
      "##acing": 7608,
      "presence": 7609,
      "reflec": 7610,
      "advance": 7611,
      "£200": 7612,
      "shab": 7613,
      "decisions": 7614,
      "jets": 7615,
      "rot": 7616,
      "rivers": 7617,
      "##girl": 7618,
      "##ality": 7619,
      "peak": 7620,
      "hunter": 7621,
      "abducted": 7622,
      "unfair": 7623,
      "spaniard": 7624,
      "gadhafi": 7625,
      "pellegrini": 7626,
      "pose": 7627,
      "##lu": 7628,
      "##oa": 7629,
      "##ectors": 7630,
      "##istics": 7631,
      "##licit": 7632,
      "recording": 7633,
      "denver": 7634,
      "territ": 7635,
      "instruc": 7636,
      "pere": 7637,
      "##ture": 7638,
      "reop": 7639,
      "grass": 7640,
      "entry": 7641,
      "disg": 7642,
      "officially": 7643,
      "congressional": 7644,
      "ivory": 7645,
      "cair": 7646,
      "##itarian": 7647,
      "##amo": 7648,
      "ark": 7649,
      "potentially": 7650,
      "doubled": 7651,
      "argentine": 7652,
      "savile": 7653,
      "replacement": 7654,
      "shadow": 7655,
      "sebastian": 7656,
      "87": 7657,
      "gir": 7658,
      "oak": 7659,
      "##idal": 7660,
      "##che": 7661,
      "peru": 7662,
      "infant": 7663,
      "##place": 7664,
      "valencia": 7665,
      "temperature": 7666,
      "advertising": 7667,
      "applied": 7668,
      "gest": 7669,
      "sierra": 7670,
      "tool": 7671,
      "##icient": 7672,
      "192": 7673,
      "promise": 7674,
      "##club": 7675,
      "racism": 7676,
      "cyc": 7677,
      "surprised": 7678,
      "cosby": 7679,
      "86": 7680,
      "maps": 7681,
      "abc": 7682,
      "syn": 7683,
      "norway": 7684,
      "specialist": 7685,
      "nickn": 7686,
      "weighs": 7687,
      "##uffed": 7688,
      "farmers": 7689,
      "recruit": 7690,
      "84": 7691,
      "piz": 7692,
      "anx": 7693,
      "offence": 7694,
      "medication": 7695,
      "delivery": 7696,
      "astrona": 7697,
      "eggs": 7698,
      "trophy": 7699,
      "hell": 7700,
      "mh": 7701,
      "nancy": 7702,
      "murphy": 7703,
      "turner": 7704,
      "hammer": 7705,
      "foods": 7706,
      "psg": 7707,
      "corner": 7708,
      "consumer": 7709,
      "phillips": 7710,
      "dors": 7711,
      "wides": 7712,
      "vision": 7713,
      "detention": 7714,
      "catal": 7715,
      "brighton": 7716,
      "registered": 7717,
      "##arrette": 7718,
      "cope": 7719,
      "sie": 7720,
      "client": 7721,
      "##ective": 7722,
      "triple": 7723,
      "horror": 7724,
      "##borough": 7725,
      "fortune": 7726,
      "##iggs": 7727,
      "aguero": 7728,
      "5million": 7729,
      "jaw": 7730,
      "laz": 7731,
      "tamp": 7732,
      "##eter": 7733,
      "##gent": 7734,
      "##aring": 7735,
      "background": 7736,
      "medals": 7737,
      "degrees": 7738,
      "crowds": 7739,
      "referred": 7740,
      "navarrette": 7741,
      "jacob": 7742,
      "joshua": 7743,
      "paramedics": 7744,
      "lopez": 7745,
      "chan": 7746,
      "debr": 7747,
      "habit": 7748,
      "polish": 7749,
      "amn": 7750,
      "backl": 7751,
      "nightclub": 7752,
      "install": 7753,
      "##atican": 7754,
      "angela": 7755,
      "penalties": 7756,
      "lanka": 7757,
      "file": 7758,
      "##ded": 7759,
      "##bling": 7760,
      "##point": 7761,
      "##ulty": 7762,
      "plun": 7763,
      "ages": 7764,
      "##ords": 7765,
      "indict": 7766,
      "releases": 7767,
      "additional": 7768,
      "scientist": 7769,
      "smartphone": 7770,
      "licence": 7771,
      "fiancee": 7772,
      "atmosphere": 7773,
      "netherlands": 7774,
      "loy": 7775,
      "mates": 7776,
      "vari": 7777,
      "vatican": 7778,
      "##inct": 7779,
      "##asy": 7780,
      "##igible": 7781,
      "clay": 7782,
      "upcoming": 7783,
      "boe": 7784,
      "impl": 7785,
      "reaching": 7786,
      "berg": 7787,
      "imprison": 7788,
      "fatally": 7789,
      "element": 7790,
      "bub": 7791,
      "catherine": 7792,
      "ditch": 7793,
      "dawn": 7794,
      "gate": 7795,
      "mud": 7796,
      "cloud": 7797,
      "passion": 7798,
      "handling": 7799,
      "advised": 7800,
      "islamist": 7801,
      "explosives": 7802,
      "burglary": 7803,
      "impressive": 7804,
      "yacht": 7805,
      "##pread": 7806,
      "##amel": 7807,
      "ads": 7808,
      "salary": 7809,
      "distance": 7810,
      "statements": 7811,
      "traveled": 7812,
      "interviewed": 7813,
      "medicine": 7814,
      "##erg": 7815,
      "proved": 7816,
      "spin": 7817,
      "starred": 7818,
      "underground": 7819,
      "files": 7820,
      "facial": 7821,
      "mete": 7822,
      "balance": 7823,
      "flags": 7824,
      "purp": 7825,
      "license": 7826,
      "stanley": 7827,
      "monitoring": 7828,
      "olds": 7829,
      "reck": 7830,
      "attackers": 7831,
      "##onsin": 7832,
      "##hner": 7833,
      "robot": 7834,
      "rebecca": 7835,
      "walls": 7836,
      "chaos": 7837,
      "widespread": 7838,
      "ri": 7839,
      "yes": 7840,
      "##icals": 7841,
      "chee": 7842,
      "passport": 7843,
      "##ettes": 7844,
      "nationwide": 7845,
      "mountains": 7846,
      "vocabulary": 7847,
      "library": 7848,
      "somerset": 7849,
      "ric": 7850,
      "wisc": 7851,
      "##erate": 7852,
      "##esl": 7853,
      "shield": 7854,
      "rounds": 7855,
      "qualify": 7856,
      "regional": 7857,
      "bradford": 7858,
      "directly": 7859,
      "organisation": 7860,
      "inspiration": 7861,
      "debris": 7862,
      "jesus": 7863,
      "##ifies": 7864,
      "slov": 7865,
      "maid": 7866,
      "testim": 7867,
      "torres": 7868,
      "ryder": 7869,
      "wisconsin": 7870,
      "nik": 7871,
      "pending": 7872,
      "##aint": 7873,
      "##iao": 7874,
      "carri": 7875,
      "passes": 7876,
      "ankle": 7877,
      "bie": 7878,
      "thin": 7879,
      "thie": 7880,
      "endang": 7881,
      "survival": 7882,
      "apparent": 7883,
      "lauren": 7884,
      "wage": 7885,
      "##bag": 7886,
      "brun": 7887,
      "smell": 7888,
      "westminster": 7889,
      "europa": 7890,
      "convention": 7891,
      "stephan": 7892,
      "properly": 7893,
      "selfie": 7894,
      "lifted": 7895,
      "philippines": 7896,
      "sustained": 7897,
      "vast": 7898,
      "##rick": 7899,
      "##kinson": 7900,
      "##eness": 7901,
      "rapper": 7902,
      "adding": 7903,
      "billionaire": 7904,
      "czech": 7905,
      "writers": 7906,
      "stamford": 7907,
      "eighth": 7908,
      "furn": 7909,
      "##dam": 7910,
      "##ogba": 7911,
      "blank": 7912,
      "trips": 7913,
      "assess": 7914,
      "ahmed": 7915,
      "pastor": 7916,
      "rolling": 7917,
      "##know": 7918,
      "ghana": 7919,
      "canceled": 7920,
      "pizza": 7921,
      "bucking": 7922,
      "barn": 7923,
      "refuses": 7924,
      "lethal": 7925,
      "1995": 7926,
      "samuel": 7927,
      "networks": 7928,
      "viewed": 7929,
      "declined": 7930,
      "##laim": 7931,
      "saint": 7932,
      "kurd": 7933,
      "nice": 7934,
      "meets": 7935,
      "guine": 7936,
      "tyler": 7937,
      "benj": 7938,
      "natal": 7939,
      "surrounding": 7940,
      "structure": 7941,
      "sturridge": 7942,
      "cites": 7943,
      "rank": 7944,
      "##von": 7945,
      "heritage": 7946,
      "brings": 7947,
      "##osex": 7948,
      "##wealth": 7949,
      "detail": 7950,
      "argue": 7951,
      "hollande": 7952,
      "highlights": 7953,
      "jurors": 7954,
      "diabetes": 7955,
      "vladimir": 7956,
      "fier": 7957,
      "gi": 7958,
      "yards": 7959,
      "##ulting": 7960,
      "bride": 7961,
      "acres": 7962,
      "marie": 7963,
      "##ashing": 7964,
      "kills": 7965,
      "shootings": 7966,
      "entering": 7967,
      "boxer": 7968,
      "nominated": 7969,
      "hind": 7970,
      "##olis": 7971,
      "scul": 7972,
      "attached": 7973,
      "##ullah": 7974,
      "holmes": 7975,
      "corp": 7976,
      "discl": 7977,
      "commonwealth": 7978,
      "dollar": 7979,
      "encouraged": 7980,
      "electricity": 7981,
      "bieber": 7982,
      "faster": 7983,
      "pour": 7984,
      "##ixon": 7985,
      "finance": 7986,
      "refusing": 7987,
      "gunmen": 7988,
      "militant": 7989,
      "1993": 7990,
      "readers": 7991,
      "ridic": 7992,
      "bleeding": 7993,
      "necessary": 7994,
      "##pet": 7995,
      "unw": 7996,
      "unless": 7997,
      "striking": 7998,
      "##ucker": 7999,
      "markets": 8000,
      "extend": 8001,
      "democrat": 8002,
      "improved": 8003,
      "disappointed": 8004,
      "flee": 8005,
      "tribun": 8006,
      "tsa": 8007,
      "mohamed": 8008,
      "comprehension": 8009,
      "baker": 8010,
      "mi": 8011,
      "chen": 8012,
      "##encer": 8013,
      "genetic": 8014,
      "dealing": 8015,
      "adviser": 8016,
      "aids": 8017,
      "supported": 8018,
      "shan": 8019,
      "acknow": 8020,
      "gro": 8021,
      "marked": 8022,
      "addiction": 8023,
      "stafford": 8024,
      "creates": 8025,
      "odds": 8026,
      "swedish": 8027,
      "paedoph": 8028,
      "boehner": 8029,
      "##usting": 8030,
      "decline": 8031,
      "paint": 8032,
      "shirts": 8033,
      "##dles": 8034,
      "##bul": 8035,
      "##olit": 8036,
      "neville": 8037,
      "##akh": 8038,
      "##ivan": 8039,
      "##oker": 8040,
      "##ensions": 8041,
      "##ahu": 8042,
      "camps": 8043,
      "##onto": 8044,
      "terminal": 8045,
      "restrictions": 8046,
      "bennett": 8047,
      "anchor": 8048,
      "##gate": 8049,
      "##70": 8050,
      "##isf": 8051,
      "##stan": 8052,
      "albert": 8053,
      "nev": 8054,
      "##tershire": 8055,
      "confront": 8056,
      "larg": 8057,
      "rapid": 8058,
      "direction": 8059,
      "rolled": 8060,
      "thieves": 8061,
      "cass": 8062,
      "lun": 8063,
      "roles": 8064,
      "wy": 8065,
      "wool": 8066,
      "##ione": 8067,
      "stages": 8068,
      "whom": 8069,
      "resignation": 8070,
      "mood": 8071,
      "##case": 8072,
      "##bits": 8073,
      "phoen": 8074,
      "supports": 8075,
      "silence": 8076,
      "tablet": 8077,
      "sweet": 8078,
      "pensioner": 8079,
      "##children": 8080,
      "hacked": 8081,
      "upper": 8082,
      "##dom": 8083,
      "thor": 8084,
      "thai": 8085,
      "##inating": 8086,
      "rover": 8087,
      "imposs": 8088,
      "facilities": 8089,
      "homeland": 8090,
      "meetings": 8091,
      "rescu": 8092,
      "toronto": 8093,
      "machines": 8094,
      "##reprene": 8095,
      "lloyd": 8096,
      "hij": 8097,
      "pir": 8098,
      "##list": 8099,
      "shore": 8100,
      "##uls": 8101,
      "concent": 8102,
      "adj": 8103,
      "keane": 8104,
      "urban": 8105,
      "valent": 8106,
      "motion": 8107,
      "attorneys": 8108,
      "cruz": 8109,
      "jerry": 8110,
      "buckingham": 8111,
      "tribunal": 8112,
      "##agement": 8113,
      "clock": 8114,
      "fines": 8115,
      "sne": 8116,
      "celebration": 8117,
      "increases": 8118,
      "engineer": 8119,
      "easier": 8120,
      "heathrow": 8121,
      "largely": 8122,
      "93": 8123,
      "lip": 8124,
      "toure": 8125,
      "##utely": 8126,
      "perth": 8127,
      "backing": 8128,
      "specific": 8129,
      "hostages": 8130,
      "faa": 8131,
      "silva": 8132,
      "brooks": 8133,
      "minority": 8134,
      "ethnic": 8135,
      "regulations": 8136,
      "featuring": 8137,
      "bun": 8138,
      "##etime": 8139,
      "scared": 8140,
      "colin": 8141,
      "£25": 8142,
      "crossed": 8143,
      "fleeing": 8144,
      "entreprene": 8145,
      "innov": 8146,
      "demonstrators": 8147,
      "surgeon": 8148,
      "surrounded": 8149,
      "phoenix": 8150,
      "han": 8151,
      "len": 8152,
      "whale": 8153,
      "expects": 8154,
      "##ache": 8155,
      "compound": 8156,
      "claire": 8157,
      "offices": 8158,
      "##anner": 8159,
      "elite": 8160,
      "##eryl": 8161,
      "blacks": 8162,
      "billy": 8163,
      "technique": 8164,
      "combined": 8165,
      "selected": 8166,
      "elsewhere": 8167,
      "bacteria": 8168,
      "fi": 8169,
      "packed": 8170,
      "tipped": 8171,
      "##cano": 8172,
      "##uments": 8173,
      "replic": 8174,
      "investors": 8175,
      "possibility": 8176,
      "covering": 8177,
      "##ported": 8178,
      "zelizer": 8179,
      "concentr": 8180,
      "gram": 8181,
      "##antic": 8182,
      "parker": 8183,
      "strateg": 8184,
      "stranded": 8185,
      "waited": 8186,
      "civilian": 8187,
      "associated": 8188,
      "lancaster": 8189,
      "hanging": 8190,
      "bundesl": 8191,
      "amnesty": 8192,
      "##zh": 8193,
      "##mitted": 8194,
      "1950": 8195,
      "boom": 8196,
      "longest": 8197,
      "steal": 8198,
      "affil": 8199,
      "qualifier": 8200,
      "dorset": 8201,
      "bundesliga": 8202,
      "bah": 8203,
      "##uting": 8204,
      "haul": 8205,
      "trump": 8206,
      "intent": 8207,
      "parks": 8208,
      "column": 8209,
      "elim": 8210,
      "managers": 8211,
      "providing": 8212,
      "ideas": 8213,
      "crackdown": 8214,
      "impossible": 8215,
      "hood": 8216,
      "##hall": 8217,
      "##li": 8218,
      "##ici": 8219,
      "sunn": 8220,
      "spencer": 8221,
      "##ums": 8222,
      "resemb": 8223,
      "cape": 8224,
      "autumn": 8225,
      "larry": 8226,
      "estr": 8227,
      "painted": 8228,
      "copy": 8229,
      "gallery": 8230,
      "jeffrey": 8231,
      "highlight": 8232,
      "purchased": 8233,
      "bronze": 8234,
      "survivor": 8235,
      "pretty": 8236,
      "benjamin": 8237,
      "bitter": 8238,
      "dug": 8239,
      "lut": 8240,
      "carib": 8241,
      "serena": 8242,
      "glou": 8243,
      "popularity": 8244,
      "entit": 8245,
      "industrial": 8246,
      "principal": 8247,
      "##crib": 8248,
      "drones": 8249,
      "throwing": 8250,
      "blackpool": 8251,
      "1990s": 8252,
      "requests": 8253,
      "wilsh": 8254,
      "engineers": 8255,
      "adopt": 8256,
      "carroll": 8257,
      "phillip": 8258,
      "gabri": 8259,
      "meteor": 8260,
      "900": 8261,
      "vett": 8262,
      "##iller": 8263,
      "trop": 8264,
      "dischar": 8265,
      "##enna": 8266,
      "lessons": 8267,
      "relationships": 8268,
      "chemotherapy": 8269,
      "underwater": 8270,
      "revenge": 8271,
      "cens": 8272,
      "dick": 8273,
      "lies": 8274,
      "alf": 8275,
      "reserve": 8276,
      "cheaper": 8277,
      "##bean": 8278,
      "cultural": 8279,
      "bobby": 8280,
      "seemed": 8281,
      "opinion": 8282,
      "aide": 8283,
      "bure": 8284,
      "cease": 8285,
      "##oted": 8286,
      "blasts": 8287,
      "defends": 8288,
      "keeps": 8289,
      "venue": 8290,
      "cited": 8291,
      "tu": 8292,
      "stones": 8293,
      "frag": 8294,
      "##ulous": 8295,
      "leak": 8296,
      "thatcher": 8297,
      "consecut": 8298,
      "extended": 8299,
      "welbeck": 8300,
      "vacation": 8301,
      "easily": 8302,
      "answers": 8303,
      "ratings": 8304,
      "reunited": 8305,
      "resources": 8306,
      "aj": 8307,
      "sull": 8308,
      "##aft": 8309,
      "##po": 8310,
      "newborn": 8311,
      "arts": 8312,
      "##apova": 8313,
      "##iang": 8314,
      "hitler": 8315,
      "snapped": 8316,
      "pleas": 8317,
      "arriving": 8318,
      "nicholas": 8319,
      "vettel": 8320,
      "bac": 8321,
      "hip": 8322,
      "tent": 8323,
      "##rob": 8324,
      "uploaded": 8325,
      "130": 8326,
      "1990": 8327,
      "portray": 8328,
      "requires": 8329,
      "0845": 8330,
      "sends": 8331,
      "wigan": 8332,
      "##giving": 8333,
      "##30": 8334,
      "alt": 8335,
      "##oping": 8336,
      "comic": 8337,
      "202": 8338,
      "belt": 8339,
      "medics": 8340,
      "donor": 8341,
      "hunger": 8342,
      "trading": 8343,
      "mosque": 8344,
      "dedicated": 8345,
      "cott": 8346,
      "##low": 8347,
      "parked": 8348,
      "chronic": 8349,
      "##hips": 8350,
      "1989": 8351,
      "basic": 8352,
      "forecast": 8353,
      "overturned": 8354,
      "testimony": 8355,
      "##rd": 8356,
      "##acity": 8357,
      "orle": 8358,
      "recre": 8359,
      "relative": 8360,
      "£11": 8361,
      "talked": 8362,
      "sharapova": 8363,
      "petrol": 8364,
      "absolutely": 8365,
      "guinea": 8366,
      "##yard": 8367,
      "##aro": 8368,
      "##ato": 8369,
      "sequ": 8370,
      "seasons": 8371,
      "guar": 8372,
      "experiment": 8373,
      "comeback": 8374,
      "destr": 8375,
      "globe": 8376,
      "##cription": 8377,
      "containing": 8378,
      "gol": 8379,
      "gren": 8380,
      "undercover": 8381,
      "schoolgirl": 8382,
      "southwest": 8383,
      "protected": 8384,
      "battled": 8385,
      "websites": 8386,
      "confronted": 8387,
      "08457": 8388,
      "##bal": 8389,
      "abusive": 8390,
      "liz": 8391,
      "recip": 8392,
      "opt": 8393,
      "brits": 8394,
      "assemb": 8395,
      "steel": 8396,
      "solution": 8397,
      "karl": 8398,
      "boris": 8399,
      "caribbean": 8400,
      "foss": 8401,
      "tub": 8402,
      "stor": 8403,
      "dement": 8404,
      "##ifying": 8405,
      "##otti": 8406,
      "1992": 8407,
      "powered": 8408,
      "fulham": 8409,
      "circumst": 8410,
      "consecutive": 8411,
      "orleans": 8412,
      "bil": 8413,
      "cob": 8414,
      "maine": 8415,
      "pic": 8416,
      "##inter": 8417,
      "##arms": 8418,
      "guidelines": 8419,
      "midnight": 8420,
      "breakfast": 8421,
      "karen": 8422,
      "task": 8423,
      "raheem": 8424,
      "dennis": 8425,
      "350": 8426,
      "lenn": 8427,
      "mog": 8428,
      "dems": 8429,
      "seiz": 8430,
      "actors": 8431,
      "uncovered": 8432,
      "parade": 8433,
      "##asha": 8434,
      "invasion": 8435,
      "conscious": 8436,
      "facts": 8437,
      "glam": 8438,
      "athlete": 8439,
      "cosm": 8440,
      "qualifying": 8441,
      "trauma": 8442,
      "92": 8443,
      "##bish": 8444,
      "thief": 8445,
      "##icial": 8446,
      "adrian": 8447,
      "##athers": 8448,
      "poch": 8449,
      "belief": 8450,
      "casey": 8451,
      "vaccine": 8452,
      "bald": 8453,
      "intention": 8454,
      "##eps": 8455,
      "defin": 8456,
      "##rington": 8457,
      "slept": 8458,
      "middleton": 8459,
      "libyan": 8460,
      "entertainment": 8461,
      "sod": 8462,
      "vit": 8463,
      "entr": 8464,
      "secured": 8465,
      "throw": 8466,
      "stripped": 8467,
      "fleet": 8468,
      "electronic": 8469,
      "jor": 8470,
      "jokes": 8471,
      "von": 8472,
      "##rich": 8473,
      "##unction": 8474,
      "croc": 8475,
      "outs": 8476,
      "amend": 8477,
      "promotion": 8478,
      "pledged": 8479,
      "loyal": 8480,
      "mech": 8481,
      "forb": 8482,
      "emily": 8483,
      "crashes": 8484,
      "competing": 8485,
      "volcano": 8486,
      "##standing": 8487,
      "iii": 8488,
      "recru": 8489,
      "territory": 8490,
      "reckless": 8491,
      "ceme": 8492,
      "fda": 8493,
      "gm": 8494,
      "pages": 8495,
      "##gage": 8496,
      "##onom": 8497,
      "##idency": 8498,
      "sab": 8499,
      "##alling": 8500,
      "##uder": 8501,
      "thank": 8502,
      "undergoing": 8503,
      "visa": 8504,
      "reception": 8505,
      "posing": 8506,
      "function": 8507,
      "hopeful": 8508,
      "ebay": 8509,
      "boots": 8510,
      "cruelty": 8511,
      "unhappy": 8512,
      "bans": 8513,
      "fury": 8514,
      "##illo": 8515,
      "neither": 8516,
      "seas": 8517,
      "spends": 8518,
      "offender": 8519,
      "monkey": 8520,
      "##igned": 8521,
      "accom": 8522,
      "invent": 8523,
      "payment": 8524,
      "palmer": 8525,
      "sells": 8526,
      "dresses": 8527,
      "discussed": 8528,
      "jewell": 8529,
      "enjoying": 8530,
      "nursing": 8531,
      "gonz": 8532,
      "nevada": 8533,
      "fence": 8534,
      "##state": 8535,
      "##vet": 8536,
      "disag": 8537,
      "tracking": 8538,
      "ultr": 8539,
      "ecu": 8540,
      "vietnam": 8541,
      "bp": 8542,
      "dyn": 8543,
      "wages": 8544,
      "##ateur": 8545,
      "enth": 8546,
      "##aux": 8547,
      "barca": 8548,
      "snake": 8549,
      "homosex": 8550,
      "testified": 8551,
      "checked": 8552,
      "89": 8553,
      "aven": 8554,
      "cad": 8555,
      "rica": 8556,
      "thir": 8557,
      "##outed": 8558,
      "##emor": 8559,
      "units": 8560,
      "accuse": 8561,
      "presidents": 8562,
      "wrest": 8563,
      "infr": 8564,
      "advanced": 8565,
      "##attered": 8566,
      "borussia": 8567,
      "lucas": 8568,
      "hans": 8569,
      "lots": 8570,
      "rating": 8571,
      "##bar": 8572,
      "##lee": 8573,
      "craz": 8574,
      "slay": 8575,
      "handle": 8576,
      "prisoner": 8577,
      "humanitarian": 8578,
      "creator": 8579,
      "oxy": 8580,
      "myster": 8581,
      "mamm": 8582,
      "##zai": 8583,
      "##usal": 8584,
      "polar": 8585,
      "##ogan": 8586,
      "adeb": 8587,
      "farage": 8588,
      "appealed": 8589,
      "experiences": 8590,
      "lorry": 8591,
      "unemployment": 8592,
      "taste": 8593,
      "croatia": 8594,
      "estranged": 8595,
      "tropical": 8596,
      "pochettino": 8597,
      "ov": 8598,
      "wet": 8599,
      "##real": 8600,
      "unex": 8601,
      "comprom": 8602,
      "millionaire": 8603,
      "aviation": 8604,
      "violated": 8605,
      "explor": 8606,
      "solo": 8607,
      "bullied": 8608,
      "religion": 8609,
      "portugues": 8610,
      "revenue": 8611,
      "rifle": 8612,
      "bite": 8613,
      "jol": 8614,
      "stim": 8615,
      "priest": 8616,
      "uncon": 8617,
      "intensive": 8618,
      "recalled": 8619,
      "swift": 8620,
      "gunshot": 8621,
      "values": 8622,
      "opponent": 8623,
      "application": 8624,
      "siblings": 8625,
      "rescuers": 8626,
      "accompl": 8627,
      "hag": 8628,
      "zh": 8629,
      "heather": 8630,
      "30pm": 8631,
      "formal": 8632,
      "competitive": 8633,
      "##ivalent": 8634,
      "melissa": 8635,
      "climb": 8636,
      "negotiations": 8637,
      "initiative": 8638,
      "liquid": 8639,
      "dementia": 8640,
      "portuguese": 8641,
      "##equ": 8642,
      "##isation": 8643,
      "ate": 8644,
      "airways": 8645,
      "slipped": 8646,
      "##affe": 8647,
      "installed": 8648,
      "pulling": 8649,
      "recommend": 8650,
      "recalls": 8651,
      "tig": 8652,
      "##amb": 8653,
      "whistle": 8654,
      "sector": 8655,
      "norwich": 8656,
      "realised": 8657,
      "substance": 8658,
      "priority": 8659,
      "particularly": 8660,
      "mock": 8661,
      "mph": 8662,
      "##egr": 8663,
      "##fc": 8664,
      "bry": 8665,
      "unrest": 8666,
      "##airs": 8667,
      "appearing": 8668,
      "irs": 8669,
      "escal": 8670,
      "conservation": 8671,
      "tactics": 8672,
      "suddenly": 8673,
      "ecuador": 8674,
      "rup": 8675,
      "tai": 8676,
      "##bow": 8677,
      "thick": 8678,
      "##itely": 8679,
      "disrup": 8680,
      "##oyd": 8681,
      "trials": 8682,
      "proof": 8683,
      "##ika": 8684,
      "valu": 8685,
      "equivalent": 8686,
      "beaches": 8687,
      "##whel": 8688,
      "separated": 8689,
      "expecting": 8690,
      "etihad": 8691,
      "diplomatic": 8692,
      "established": 8693,
      "organs": 8694,
      "deployed": 8695,
      "fractured": 8696,
      "awaiting": 8697,
      "##bus": 8698,
      "##emic": 8699,
      "##ipper": 8700,
      "frenchman": 8701,
      "loses": 8702,
      "1960s": 8703,
      "transferred": 8704,
      "jews": 8705,
      "harvard": 8706,
      "ye": 8707,
      "##alf": 8708,
      "forcing": 8709,
      "frame": 8710,
      "plum": 8711,
      "unbeat": 8712,
      "integr": 8713,
      "holy": 8714,
      "convin": 8715,
      "keys": 8716,
      "interviews": 8717,
      "understood": 8718,
      "cant": 8719,
      "gut": 8720,
      "yan": 8721,
      "hisp": 8722,
      "crying": 8723,
      "floyd": 8724,
      "convictions": 8725,
      "celebrations": 8726,
      "selection": 8727,
      "intimid": 8728,
      "virtual": 8729,
      "wilshere": 8730,
      "convinced": 8731,
      "tong": 8732,
      "##armed": 8733,
      "##alo": 8734,
      "plate": 8735,
      "homeown": 8736,
      "soil": 8737,
      "spots": 8738,
      "possibly": 8739,
      "councill": 8740,
      "treasury": 8741,
      "rumours": 8742,
      "daw": 8743,
      "##gb": 8744,
      "##oria": 8745,
      "chased": 8746,
      "chave": 8747,
      "hailed": 8748,
      "noise": 8749,
      "strain": 8750,
      "touched": 8751,
      "absence": 8752,
      "craft": 8753,
      "perez": 8754,
      "chavez": 8755,
      "gig": 8756,
      "lon": 8757,
      "orph": 8758,
      "blasted": 8759,
      "northampton": 8760,
      "humil": 8761,
      "graduate": 8762,
      "divorced": 8763,
      "lt": 8764,
      "sized": 8765,
      "wik": 8766,
      "##pal": 8767,
      "converted": 8768,
      "haram": 8769,
      "donate": 8770,
      "risen": 8771,
      "urging": 8772,
      "extremists": 8773,
      "savings": 8774,
      "dw": 8775,
      "luck": 8776,
      "##uan": 8777,
      "tools": 8778,
      "##agne": 8779,
      "spill": 8780,
      "marco": 8781,
      "capacity": 8782,
      "glenn": 8783,
      "petra": 8784,
      "defeats": 8785,
      "buyers": 8786,
      "motorcy": 8787,
      "stunned": 8788,
      "cigarettes": 8789,
      "arkansas": 8790,
      "circumstances": 8791,
      "bog": 8792,
      "jama": 8793,
      "lists": 8794,
      "authors": 8795,
      "grandson": 8796,
      "1991": 8797,
      "listen": 8798,
      "fault": 8799,
      "##ylan": 8800,
      "##doch": 8801,
      "boko": 8802,
      "fetch": 8803,
      "lump": 8804,
      "raw": 8805,
      "ripped": 8806,
      "inmate": 8807,
      "##itutes": 8808,
      "##eta": 8809,
      "chad": 8810,
      "grav": 8811,
      "harrison": 8812,
      "behead": 8813,
      "travellers": 8814,
      "cheese": 8815,
      "travelers": 8816,
      "unbeaten": 8817,
      "fare": 8818,
      "##gal": 8819,
      "intense": 8820,
      "allies": 8821,
      "curren": 8822,
      "pays": 8823,
      "attract": 8824,
      "troubled": 8825,
      "vigil": 8826,
      "bust": 8827,
      "dial": 8828,
      "fc": 8829,
      "fights": 8830,
      "ka": 8831,
      "kas": 8832,
      "kard": 8833,
      "lapt": 8834,
      "##fish": 8835,
      "##icip": 8836,
      "aster": 8837,
      "brill": 8838,
      "##istent": 8839,
      "butter": 8840,
      "scan": 8841,
      "murdoch": 8842,
      "midfield": 8843,
      "eligible": 8844,
      "statue": 8845,
      "screening": 8846,
      "motorists": 8847,
      "julia": 8848,
      "tsun": 8849,
      "£60": 8850,
      "hackers": 8851,
      "proposals": 8852,
      "andrea": 8853,
      "triggered": 8854,
      "venezuela": 8855,
      "enthus": 8856,
      "##hr": 8857,
      "##oning": 8858,
      "##apers": 8859,
      "carlo": 8860,
      "interests": 8861,
      "contam": 8862,
      "investigations": 8863,
      "treatments": 8864,
      "balloon": 8865,
      "extraord": 8866,
      "raids": 8867,
      "fing": 8868,
      "nude": 8869,
      "##lock": 8870,
      "ina": 8871,
      "tob": 8872,
      "##rete": 8873,
      "hash": 8874,
      "strange": 8875,
      "headquar": 8876,
      "requested": 8877,
      "controls": 8878,
      "ferry": 8879,
      "limits": 8880,
      "dressing": 8881,
      "bulgar": 8882,
      "climbed": 8883,
      "speeding": 8884,
      "individuals": 8885,
      "recommended": 8886,
      "succeed": 8887,
      "arthur": 8888,
      "kardash": 8889,
      "bout": 8890,
      "diving": 8891,
      "fasc": 8892,
      "pione": 8893,
      "##iture": 8894,
      "shah": 8895,
      "##ussels": 8896,
      "proceed": 8897,
      "corps": 8898,
      "safely": 8899,
      "loud": 8900,
      "coleman": 8901,
      "procedures": 8902,
      "purchase": 8903,
      "bernard": 8904,
      "siege": 8905,
      "cov": 8906,
      "cake": 8907,
      "ku": 8908,
      "pills": 8909,
      "rated": 8910,
      "butt": 8911,
      "joh": 8912,
      "slight": 8913,
      "robb": 8914,
      "searches": 8915,
      "radiation": 8916,
      "creative": 8917,
      "successfully": 8918,
      "surgeons": 8919,
      "samples": 8920,
      "##walk": 8921,
      "symbol": 8922,
      "woke": 8923,
      "##itated": 8924,
      "##isons": 8925,
      "##enda": 8926,
      "charities": 8927,
      "schol": 8928,
      "magic": 8929,
      "beneath": 8930,
      "pupil": 8931,
      "thanksgiving": 8932,
      "substitute": 8933,
      "tunnel": 8934,
      "poisoning": 8935,
      "sponsors": 8936,
      "gem": 8937,
      "bever": 8938,
      "expenses": 8939,
      "##awa": 8940,
      "runway": 8941,
      "##lett": 8942,
      "radamel": 8943,
      "ghitis": 8944,
      "robertson": 8945,
      "volunteer": 8946,
      "corporation": 8947,
      "ease": 8948,
      "##min": 8949,
      "carn": 8950,
      "tops": 8951,
      "underwear": 8952,
      "promoting": 8953,
      "elephant": 8954,
      "##avery": 8955,
      "##heimer": 8956,
      "kurdish": 8957,
      "oxygen": 8958,
      "covers": 8959,
      "tons": 8960,
      "##andra": 8961,
      "concept": 8962,
      "unions": 8963,
      "monarch": 8964,
      "upgr": 8965,
      "overwhel": 8966,
      "liam": 8967,
      "barnes": 8968,
      "calc": 8969,
      "producers": 8970,
      "exploded": 8971,
      "abdul": 8972,
      "weighing": 8973,
      "communications": 8974,
      "conversation": 8975,
      "sophie": 8976,
      "bak": 8977,
      "ft": 8978,
      "rou": 8979,
      "toler": 8980,
      "sting": 8981,
      "retr": 8982,
      "alz": 8983,
      "wors": 8984,
      "2018": 8985,
      "##raid": 8986,
      "teammate": 8987,
      "refuse": 8988,
      "cheer": 8989,
      "inspector": 8990,
      "potter": 8991,
      "questioning": 8992,
      "lifetime": 8993,
      "temple": 8994,
      "begun": 8995,
      "accompan": 8996,
      "popp": 8997,
      "pga": 8998,
      "##agen": 8999,
      "##iped": 9000,
      "schum": 9001,
      "studying": 9002,
      "boats": 9003,
      "releg": 9004,
      "timothy": 9005,
      "ahmad": 9006,
      "creature": 9007,
      "kenneth": 9008,
      "loving": 9009,
      "revelations": 9010,
      "jewellery": 9011,
      "tum": 9012,
      "##lain": 9013,
      "##lie": 9014,
      "##mm": 9015,
      "stops": 9016,
      "##ceeds": 9017,
      "sev": 9018,
      "dise": 9019,
      "##aches": 9020,
      "engagement": 9021,
      "denmark": 9022,
      "destination": 9023,
      "richardson": 9024,
      "mclaren": 9025,
      "unaccept": 9026,
      "mysterious": 9027,
      "bing": 9028,
      "fert": 9029,
      "fiction": 9030,
      "##urst": 9031,
      "neph": 9032,
      "recession": 9033,
      "serial": 9034,
      "underway": 9035,
      "prote": 9036,
      "edition": 9037,
      "postp": 9038,
      "##ographic": 9039,
      "developers": 9040,
      "stormed": 9041,
      "kirk": 9042,
      "chambers": 9043,
      "spectac": 9044,
      "cycling": 9045,
      "backlash": 9046,
      "cemetery": 9047,
      "zimb": 9048,
      "leone": 9049,
      "spac": 9050,
      "amateur": 9051,
      "quite": 9052,
      "indicted": 9053,
      "##lington": 9054,
      "avo": 9055,
      "directed": 9056,
      "merkel": 9057,
      "cleaning": 9058,
      "stevens": 9059,
      "airstrikes": 9060,
      "weren": 9061,
      "stephanie": 9062,
      "pirates": 9063,
      "##erie": 9064,
      "##aws": 9065,
      "##ounted": 9066,
      "##olds": 9067,
      "seeks": 9068,
      "muscle": 9069,
      "burg": 9070,
      "appealing": 9071,
      "mistaken": 9072,
      "persu": 9073,
      "liberia": 9074,
      "nigerian": 9075,
      "comfortable": 9076,
      "acknowled": 9077,
      "zimbab": 9078,
      "dylan": 9079,
      "gent": 9080,
      "rsp": 9081,
      "##cr": 9082,
      "##kley": 9083,
      "##idi": 9084,
      "##ete": 9085,
      "##ecraft": 9086,
      "asle": 9087,
      "helm": 9088,
      "legacy": 9089,
      "lightning": 9090,
      "tablets": 9091,
      "constant": 9092,
      "festive": 9093,
      "ramsey": 9094,
      "pacqu": 9095,
      "zimbabwe": 9096,
      "wrapped": 9097,
      "thigh": 9098,
      "##enk": 9099,
      "##asions": 9100,
      "##rique": 9101,
      "brussels": 9102,
      "##aping": 9103,
      "##ooth": 9104,
      "reflect": 9105,
      "140": 9106,
      "negl": 9107,
      "satisf": 9108,
      "archae": 9109,
      "mentioned": 9110,
      "puppy": 9111,
      "tigers": 9112,
      "unacceptable": 9113,
      "aunt": 9114,
      "sessions": 9115,
      "tiss": 9116,
      "##storm": 9117,
      "braw": 9118,
      "tray": 9119,
      "feeding": 9120,
      "theme": 9121,
      "allege": 9122,
      "austria": 9123,
      "detailed": 9124,
      "struggles": 9125,
      "mills": 9126,
      "praise": 9127,
      "suburb": 9128,
      "strangled": 9129,
      "ozil": 9130,
      "elementary": 9131,
      "alzheimer": 9132,
      "dent": 9133,
      "hi": 9134,
      "beard": 9135,
      "shout": 9136,
      "shame": 9137,
      "shane": 9138,
      "calories": 9139,
      "designers": 9140,
      "hearts": 9141,
      "drawing": 9142,
      "bullets": 9143,
      "creatures": 9144,
      "losses": 9145,
      "concrete": 9146,
      "assistance": 9147,
      "trailer": 9148,
      "erupted": 9149,
      "bh": 9150,
      "dak": 9151,
      "tube": 9152,
      "##cm": 9153,
      "tooth": 9154,
      "##itar": 9155,
      "marines": 9156,
      "knowing": 9157,
      "circuit": 9158,
      "ghost": 9159,
      "nicolas": 9160,
      "existing": 9161,
      "landsc": 9162,
      "nephew": 9163,
      "joked": 9164,
      "kane": 9165,
      "##uly": 9166,
      "##ayed": 9167,
      "frances": 9168,
      "##ucting": 9169,
      "blocks": 9170,
      "contracted": 9171,
      "thirds": 9172,
      "opposed": 9173,
      "statistics": 9174,
      "sweep": 9175,
      "pledge": 9176,
      "acquitted": 9177,
      "terrified": 9178,
      "appointment": 9179,
      "kings": 9180,
      "moss": 9181,
      "##rain": 9182,
      "##onna": 9183,
      "##ream": 9184,
      "afraid": 9185,
      "##isha": 9186,
      "counsel": 9187,
      "signal": 9188,
      "raided": 9189,
      "transl": 9190,
      "£14": 9191,
      "farmer": 9192,
[...]
