{
  "version": "1.0",
  "truncation": null,
  "padding": null,
  "added_tokens": [
    {
      "id": 0,
      "content": "[START]",
      "single_word": false,
      "lstrip": false,
      "rstrip": false,
      "normalized": false,
      "special": true
    },
    {
      "id": 1,
      "content": "[END]",
      "single_word": false,
      "lstrip": false,
      "rstrip": false,
      "normalized": false,
      "special": true
    },
    {
      "id": 2,
      "content": "[SEP]",
      "single_word": false,
      "lstrip": false,
      "rstrip": false,
      "normalized": false,
      "special": true
    },
    {
      "id": 3,
      "content": "[UNK]",
      "single_word": false,
      "lstrip": false,
      "rstrip": false,
      "normalized": false,
      "special": true
    },
    {
      "id": 4,
      "content": "[FILL]",
      "single_word": false,
      "lstrip": false,
      "rstrip": false,
      "normalized": false,
      "special": true
    }
  ],
  "normalizer": {
    "type": "BertNormalizer",
    "clean_text": true,
    "handle_chinese_chars": true,
    "strip_accents": null,
    "lowercase": true
  },
  "pre_tokenizer": {
    "type": "BertPreTokenizer"
  },
  "post_processor": {
    "type": "TemplateProcessing",
    "single": [
      {
        "SpecialToken": {
          "id": "[START]",
          "type_id": 0
        }
      },
      {
        "Sequence": {
          "id": "A",
          "type_id": 0
        }
      },
      {
        "SpecialToken": {
          "id": "[END]",
          "type_id": 0
        }
      }
    ],
    "pair": [
      {
        "SpecialToken": {
          "id": "[START]",
          "type_id": 0
        }
      },
      {
        "Sequence": {
          "id": "A",
          "type_id": 0
        }
      },
      {
        "SpecialToken": {
          "id": "[SEP]",
          "type_id": 0
        }
      },
      {
        "Sequence": {
          "id": "B",
          "type_id": 1
        }
      },
      {
        "SpecialToken": {
          "id": "[END]",
          "type_id": 1
        }
      }
    ],
    "special_tokens": {
      "[END]": {
        "id": "[END]",
        "ids": [
          1
        ],
        "tokens": [
          "[END]"
        ]
      },
      "[SEP]": {
        "id": "[SEP]",
        "ids": [
          2
        ],
        "tokens": [
          "[SEP]"
        ]
      },
      "[START]": {
        "id": "[START]",
        "ids": [
          0
        ],
        "tokens": [
          "[START]"
        ]
      }
    }
  },
  "decoder": {
    "type": "WordPiece",
    "prefix": "##",
    "cleanup": true
  },
  "model": {
    "type": "WordPiece",
    "unk_token": "[UNK]",
    "continuing_subword_prefix": "##",
    "max_input_chars_per_word": 100,
    "vocab": {
      "[START]": 0,
      "[END]": 1,
      "[SEP]": 2,
      "[UNK]": 3,
      "[FILL]": 4,
      "!": 5,
      "\"": 6,
      "#": 7,
      "$": 8,
      "%": 9,
      "&": 10,
      "'": 11,
      "(": 12,
      ")": 13,
      "*": 14,
      "+": 15,
      ",": 16,
      "-": 17,
      ".": 18,
      "/": 19,
      "0": 20,
      "1": 21,
      "2": 22,
      "3": 23,
      "4": 24,
      "5": 25,
      "6": 26,
      "7": 27,
      "8": 28,
      "9": 29,
      ":": 30,
      ";": 31,
      "<": 32,
      "=": 33,
      ">": 34,
      "?": 35,
      "@": 36,
      "[": 37,
      "\\": 38,
      "]": 39,
      "^": 40,
      "_": 41,
      "`": 42,
      "a": 43,
      "b": 44,
      "c": 45,
      "d": 46,
      "e": 47,
      "f": 48,
      "g": 49,
      "h": 50,
      "i": 51,
      "j": 52,
      "k": 53,
      "l": 54,
      "m": 55,
      "n": 56,
      "o": 57,
      "p": 58,
      "q": 59,
      "r": 60,
      "s": 61,
      "t": 62,
      "u": 63,
      "v": 64,
      "w": 65,
      "x": 66,
      "y": 67,
      "z": 68,
      "{": 69,
      "|": 70,
      "}": 71,
      "~": 72,
      "¡": 73,
      "¢": 74,
      "£": 75,
      "¤": 76,
      "¥": 77,
      "¦": 78,
      "§": 79,
      "¨": 80,
      "©": 81,
      "ª": 82,
      "«": 83,
      "¬": 84,
      "®": 85,
      "¯": 86,
      "°": 87,
      "±": 88,
      "²": 89,
      "³": 90,
      "´": 91,
      "µ": 92,
      "¶": 93,
      "·": 94,
      "¸": 95,
      "¹": 96,
      "º": 97,
      "»": 98,
      "¼": 99,
      "½": 100,
      "¾": 101,
      "¿": 102,
      "×": 103,
      "ß": 104,
      "æ": 105,
      "ð": 106,
      "÷": 107,
      "ø": 108,
      "đ": 109,
      "ħ": 110,
      "ı": 111,
      "ł": 112,
      "œ": 113,
      "ǃ": 114,
      "ʻ": 115,
      "ʼ": 116,
      "ʽ": 117,
      "˚": 118,
      "˜": 119,
      "α": 120,
      "β": 121,
      "ε": 122,
      "ζ": 123,
      "η": 124,
      "ι": 125,
      "κ": 126,
      "μ": 127,
      "ν": 128,
      "ο": 129,
      "π": 130,
      "ρ": 131,
      "ς": 132,
      "τ": 133,
      "ω": 134,
      "а": 135,
      "в": 136,
      "е": 137,
      "и": 138,
      "к": 139,
      "м": 140,
      "н": 141,
      "о": 142,
      "п": 143,
      "р": 144,
      "с": 145,
      "т": 146,
      "у": 147,
      "ю": 148,
      "я": 149,
      "і": 150,
      "ћ": 151,
      "พ": 152,
      "ย": 153,
      "‐": 154,
      "‑": 155,
      "–": 156,
      "—": 157,
      "―": 158,
      "‘": 159,
      "’": 160,
      "‚": 161,
      "“": 162,
      "”": 163,
      "„": 164,
      "‟": 165,
      "‡": 166,
      "•": 167,
      "…": 168,
      "‰": 169,
      "′": 170,
      "″": 171,
      "‹": 172,
      "⁄": 173,
      "₩": 174,
      "€": 175,
      "™": 176,
      "⅛": 177,
      "→": 178,
      "−": 179,
      "─": 180,
      "█": 181,
      "■": 182,
      "▬": 183,
      "▲": 184,
      "▼": 185,
      "●": 186,
      "♥": 187,
      "❤": 188,
      "さ": 189,
      "ん": 190,
      "分": 191,
      "明": 192,
      "朝": 193,
      "紅": 194,
      "綠": 195,
      "自": 196,
      "藍": 197,
      "ﬁ": 198,
      "ﬂ": 199,
      "ｍ": 200,
      "ｓ": 201,
      "💀": 202,
      "##n": 203,
      "##y": 204,
      "##e": 205,
      "##z": 206,
      "##i": 207,
      "##r": 208,
      "##a": 209,
      "##t": 210,
      "##h": 211,
      "##d": 212,
      "##f": 213,
      "##b": 214,
      "##c": 215,
      "##s": 216,
      "##o": 217,
      "##l": 218,
      "##m": 219,
      "##p": 220,
      "##k": 221,
      "##w": 222,
      "##u": 223,
      "##v": 224,
      "##0": 225,
      "##6": 226,
      "##x": 227,
      "##1": 228,
      "##9": 229,
      "##7": 230,
      "##g": 231,
      "##j": 232,
      "##q": 233,
      "##8": 234,
      "##4": 235,
      "##™": 236,
      "##2": 237,
      "##3": 238,
      "##5": 239,
      "##©": 240,
      "##€": 241,
      "##¦": 242,
      "##°": 243,
      "##æ": 244,
      "##±": 245,
      "##¹": 246,
      "##ø": 247,
      "##¨": 248,
      "##½": 249,
      "##ı": 250,
      "##¼": 251,
      "##£": 252,
      "##α": 253,
      "##ο": 254,
      "##²": 255,
      "##ʼ": 256,
      "##´": 257,
      "##ﬂ": 258,
      "##¥": 259,
      "##ð": 260,
      "##ª": 261,
      "##ł": 262,
      "##®": 263,
      "##³": 264,
      "##ß": 265,
      "##˜": 266,
      "##¢": 267,
      "##⁄": 268,
      "##ﬁ": 269,
      "##¯": 270,
      "##×": 271,
      "##º": 272,
      "##¬": 273,
      "##ζ": 274,
      "##❤": 275,
      "##˚": 276,
      "##¾": 277,
      "##ν": 278,
      "##ω": 279,
      "##τ": 280,
      "##β": 281,
      "##œ": 282,
      "##ʻ": 283,
      "##н": 284,
      "##т": 285,
      "##е": 286,
      "##р": 287,
      "##а": 288,
      "##к": 289,
      "##с": 290,
      "##¤": 291,
      "##η": 292,
      "##і": 293,
      "##я": 294,
      "##ย": 295,
      "##พ": 296,
      "##¸": 297,
      "##ε": 298,
      "##ς": 299,
      "##⅛": 300,
      "##ǃ": 301,
      "##ん": 302,
      "##−": 303,
      "##ｓ": 304,
      "##ρ": 305,
      "##ι": 306,
      "##κ": 307,
      "##и": 308,
      "##ю": 309,
      "##µ": 310,
      "##у": 311,
      "##в": 312,
      "##he": 313,
      "##er": 314,
      "the": 315,
      "##in": 316,
      "##ed": 317,
      "##on": 318,
      "##or": 319,
      "##en": 320,
      "##es": 321,
      "##an": 322,
      "##at": 323,
      "##ar": 324,
      "##ing": 325,
      "in": 326,
      "to": 327,
      "an": 328,
      "##al": 329,
      "##it": 330,
      "##as": 331,
      "##is": 332,
      "##ou": 333,
      "of": 334,
      "##ic": 335,
      "and": 336,
      "##re": 337,
      "##il": 338,
      "th": 339,
      "##om": 340,
      "##id": 341,
      "##el": 342,
      "##ent": 343,
      "##ion": 344,
      "##ay": 345,
      "##le": 346,
      "be": 347,
      "##ur": 348,
      "on": 349,
      "##st": 350,
      "##ot": 351,
      "##am": 352,
      "##ol": 353,
      "st": 354,
      "##ad": 355,
      "for": 356,
      "##ac": 357,
      "##ter": 358,
      "re": 359,
      "##ut": 360,
      "##ve": 361,
      "##ig": 362,
      "##ir": 363,
      "##ow": 364,
      "wh": 365,
      "##et": 366,
      "was": 367,
      "##im": 368,
      "he": 369,
      "that": 370,
      "pr": 371,
      "##ly": 372,
      "at": 373,
      "is": 374,
      "##ver": 375,
      "##ith": 376,
      "##ec": 377,
      "##ld": 378,
      "sa": 379,
      "with": 380,
      "fr": 381,
      "as": 382,
      "##ear": 383,
      "it": 384,
      "##os": 385,
      "##ill": 386,
      "##us": 387,
      "his": 388,
      "ch": 389,
      "al": 390,
      "said": 391,
      "##ers": 392,
      "##ce": 393,
      "##op": 394,
      "##ation": 395,
      "##est": 396,
      "##her": 397,
      "##oun": 398,
      "##and": 399,
      "##ag": 400,
      "##igh": 401,
      "##ch": 402,
      "con": 403,
      "de": 404,
      "##un": 405,
      "##ri": 406,
      "ha": 407,
      "##th": 408,
      "ne": 409,
      "##ul": 410,
      "##ain": 411,
      "her": 412,
      "le": 413,
      "sh": 414,
      "af": 415,
      "##ak": 416,
      "##ess": 417,
      "by": 418,
      "from": 419,
      "has": 420,
      "##our": 421,
      "com": 422,
      "##ts": 423,
      "##pp": 424,
      "un": 425,
      "##od": 426,
      "se": 427,
      "year": 428,
      "we": 429,
      "##ate": 430,
      "sp": 431,
      "##ment": 432,
      "##ted": 433,
      "su": 434,
      "##if": 435,
      "after": 436,
      "##oc": 437,
      "who": 438,
      "have": 439,
      "##ight": 440,
      "##ore": 441,
      "##ast": 442,
      "br": 443,
      "ac": 444,
      "tr": 445,
      "##ok": 446,
      "whe": 447,
      "##day": 448,
      "##ack": 449,
      "are": 450,
      "##all": 451,
      "ex": 452,
      "##se": 453,
      "##ist": 454,
      "##ity": 455,
      "##iv": 456,
      "##ab": 457,
      "##ice": 458,
      "pl": 459,
      "cl": 460,
      "ar": 461,
      "but": 462,
      "##gh": 463,
      "wor": 464,
      "she": 465,
      "##ie": 466,
      "##ard": 467,
      "##art": 468,
      "##em": 469,
      "ab": 470,
      "en": 471,
      "##ould": 472,
      "##ap": 473,
      "##end": 474,
      "##ust": 475,
      "new": 476,
      "off": 477,
      "go": 478,
      "##ich": 479,
      "not": 480,
      "##ive": 481,
      "had": 482,
      "their": 483,
      "##ud": 484,
      "##ort": 485,
      "##ome": 486,
      "##ies": 487,
      "##um": 488,
      "##ost": 489,
      "##ell": 490,
      "they": 491,
      "##ere": 492,
      "##ound": 493,
      "##ge": 494,
      "this": 495,
      "man": 496,
      "been": 497,
      "##out": 498,
      "will": 499,
      "##ia": 500,
      "or": 501,
      "##ial": 502,
      "##00": 503,
      "were": 504,
      "##ant": 505,
      "out": 506,
      "cr": 507,
      "ag": 508,
      "gr": 509,
      "##ict": 510,
      "pol": 511,
      "##ide": 512,
      "##der": 513,
      "ad": 514,
      "tw": 515,
      "up": 516,
      "##ber": 517,
      "##og": 518,
      "##mer": 519,
      "when": 520,
      "##av": 521,
      "##ue": 522,
      "##ian": 523,
      "which": 524,
      "pe": 525,
      "mon": 526,
      "rep": 527,
      "##uc": 528,
      "##ine": 529,
      "sc": 530,
      "##own": 531,
      "##ong": 532,
      "##tr": 533,
      "##ous": 534,
      "##ime": 535,
      "car": 536,
      "##ough": 537,
      "one": 538,
      "##age": 539,
      "##ub": 540,
      "##ord": 541,
      "li": 542,
      "##ace": 543,
      "mar": 544,
      "res": 545,
      "##tion": 546,
      "##ov": 547,
      "##to": 548,
      "##ays": 549,
      "all": 550,
      "dr": 551,
      "can": 552,
      "acc": 553,
      "##ile": 554,
      "me": 555,
      "##ame": 556,
      "##ob": 557,
      "##ff": 558,
      "##ke": 559,
      "##ary": 560,
      "##ft": 561,
      "##ook": 562,
      "over": 563,
      "##ans": 564,
      "##ated": 565,
      "inc": 566,
      "##ail": 567,
      "##ond": 568,
      "##ip": 569,
      "about": 570,
      "two": 571,
      "##ure": 572,
      "##ree": 573,
      "fir": 574,
      "dis": 575,
      "##oy": 576,
      "##ople": 577,
      "more": 578,
      "comp": 579,
      "people": 580,
      "old": 581,
      "##ild": 582,
      "##one": 583,
      "te": 584,
      "##ire": 585,
      "##ence": 586,
      "##ake": 587,
      "##ther": 588,
      "##ass": 589,
      "sec": 590,
      "##ite": 591,
      "us": 592,
      "bl": 593,
      "##ally": 594,
      "##ign": 595,
      "police": 596,
      "##man": 597,
      "##ish": 598,
      "app": 599,
      "exp": 600,
      "att": 601,
      "last": 602,
      "##ose": 603,
      "##ident": 604,
      "im": 605,
      "##other": 606,
      "him": 607,
      "##ks": 608,
      "coun": 609,
      "20": 610,
      "##aw": 611,
      "would": 612,
      "bec": 613,
      "ev": 614,
      "you": 615,
      "so": 616,
      "per": 617,
      "fl": 618,
      "##ey": 619,
      "##ect": 620,
      "time": 621,
      "do": 622,
      "##oll": 623,
      "into": 624,
      "than": 625,
      "##amp": 626,
      "mr": 627,
      "rec": 628,
      "##hed": 629,
      "years": 630,
      "just": 631,
      "##ind": 632,
      "par": 633,
      "##ick": 634,
      "first": 635,
      "part": 636,
      "##qu": 637,
      "##iss": 638,
      "##aus": 639,
      "##ning": 640,
      "pre": 641,
      "##nn": 642,
      "##ath": 643,
      "##so": 644,
      "told": 645,
      "##ting": 646,
      "##ep": 647,
      "work": 648,
      "##ife": 649,
      "inter": 650,
      "co": 651,
      "##oss": 652,
      "ser": 653,
      "kn": 654,
      "left": 655,
      "##ely": 656,
      "cnn": 657,
      "##ured": 658,
      "ph": 659,
      "its": 660,
      "also": 661,
      "fe": 662,
      "offic": 663,
      "##ors": 664,
      "##iz": 665,
      "##ry": 666,
      "fam": 667,
      "##ach": 668,
      "##ug": 669,
      "##land": 670,
      "play": 671,
      "wee": 672,
      "##ions": 673,
      "##ib": 674,
      "pres": 675,
      "rel": 676,
      "world": 677,
      "##ations": 678,
      "##ged": 679,
      "no": 680,
      "##fore": 681,
      "##ied": 682,
      "home": 683,
      "there": 684,
      "cent": 685,
      "am": 686,
      "##ood": 687,
      "##ton": 688,
      "before": 689,
      "hel": 690,
      "pict": 691,
      "other": 692,
      "##ens": 693,
      "##reat": 694,
      "##ade": 695,
      "des": 696,
      "op": 697,
      "##uring": 698,
      "ro": 699,
      "##ance": 700,
      "##ra": 701,
      "min": 702,
      "cour": 703,
      "##ily": 704,
      "again": 705,
      "##ase": 706,
      "dec": 707,
      "them": 708,
      "inv": 709,
      "comm": 710,
      "state": 711,
      "show": 712,
      "##ents": 713,
      "child": 714,
      "##ool": 715,
      "char": 716,
      "back": 717,
      "##ned": 718,
      "could": 719,
      "##old": 720,
      "##ited": 721,
      "some": 722,
      "##ty": 723,
      "qu": 724,
      "if": 725,
      "201": 726,
      "being": 727,
      "str": 728,
      "##ates": 729,
      "19": 730,
      "##ical": 731,
      "##able": 732,
      "##ove": 733,
      "##ock": 734,
      "while": 735,
      "right": 736,
      "cont": 737,
      "##orn": 738,
      "##ang": 739,
      "##oup": 740,
      "now": 741,
      "##ause": 742,
      "found": 743,
      "wom": 744,
      "three": 745,
      "during": 746,
      "my": 747,
      "call": 748,
      "##orm": 749,
      "like": 750,
      "##enc": 751,
      "jo": 752,
      "##ters": 753,
      "##act": 754,
      "##lic": 755,
      "##ier": 756,
      "##anc": 757,
      "##ater": 758,
      "month": 759,
      "day": 760,
      "under": 761,
      "what": 762,
      "how": 763,
      "##ory": 764,
      "where": 765,
      "##ition": 766,
      "##oot": 767,
      "bel": 768,
      "##ational": 769,
      "##ious": 770,
      "##lud": 771,
      "week": 772,
      "ear": 773,
      "##ather": 774,
      "sch": 775,
      "##au": 776,
      "##ink": 777,
      "get": 778,
      "##wn": 779,
      "war": 780,
      "ind": 781,
      "##son": 782,
      "ever": 783,
      "sur": 784,
      "thr": 785,
      "##up": 786,
      "##ince": 787,
      "family": 788,
      "##illion": 789,
      "ob": 790,
      "down": 791,
      "200": 792,
      "against": 793,
      "##aking": 794,
      "kill": 795,
      "##als": 796,
      "court": 797,
      "fin": 798,
      "includ": 799,
      "air": 800,
      "tri": 801,
      "em": 802,
      "look": 803,
      "##vers": 804,
      "cla": 805,
      "##ren": 806,
      "because": 807,
      "sm": 808,
      "may": 809,
      "president": 810,
      "000": 811,
      "col": 812,
      "##ings": 813,
      "sy": 814,
      "mil": 815,
      "star": 816,
      "##br": 817,
      "rem": 818,
      "bar": 819,
      "che": 820,
      "##esday": 821,
      "pictured": 822,
      "any": 823,
      "gu": 824,
      "def": 825,
      "say": 826,
      "##ery": 827,
      "miss": 828,
      "imp": 829,
      "##ouse": 830,
      "##air": 831,
      "gover": 832,
      "##we": 833,
      "##ons": 834,
      "##ved": 835,
      "ins": 836,
      "##az": 837,
      "##are": 838,
      "win": 839,
      "##ult": 840,
      "claim": 841,
      "##ating": 842,
      "##ving": 843,
      "ass": 844,
      "lead": 845,
      "says": 846,
      "city": 847,
      "##ah": 848,
      "##ash": 849,
      "bet": 850,
      "govern": 851,
      "eng": 852,
      "only": 853,
      "##ording": 854,
      "##ublic": 855,
      "brit": 856,
      "most": 857,
      "help": 858,
      "repor": 859,
      "team": 860,
      "made": 861,
      "##ix": 862,
      "add": 863,
      "aw": 864,
      "##fer": 865,
      "##ital": 866,
      "ter": 867,
      "according": 868,
      "med": 869,
      "did": 870,
      "four": 871,
      "##ress": 872,
      "school": 873,
      "former": 874,
      "high": 875,
      "##lec": 876,
      "##augh": 877,
      "##ork": 878,
      "##ities": 879,
      "##hn": 880,
      "##pt": 881,
      "law": 882,
      "bo": 883,
      "##les": 884,
      "cap": 885,
      "##outh": 886,
      "##che": 887,
      "dep": 888,
      "life": 889,
      "attack": 890,
      "cons": 891,
      "amer": 892,
      "##led": 893,
      "supp": 894,
      "americ": 895,
      "##owing": 896,
      "stud": 897,
      "##ked": 898,
      "##ased": 899,
      "house": 900,
      "##ise": 901,
      "bu": 902,
      "##urn": 903,
      "pro": 904,
      "children": 905,
      "government": 906,
      "##ope": 907,
      "##hing": 908,
      "through": 909,
      "sun": 910,
      "mem": 911,
      "united": 912,
      "official": 913,
      "##atch": 914,
      "wr": 915,
      "our": 916,
      "death": 917,
      "reg": 918,
      "po": 919,
      "##itt": 920,
      "ret": 921,
      "ve": 922,
      "night": 923,
      "even": 924,
      "aut": 925,
      "long": 926,
      "##cc": 927,
      "##elf": 928,
      "set": 929,
      "invest": 930,
      "end": 931,
      "head": 932,
      "##osp": 933,
      "near": 934,
      "group": 935,
      "own": 936,
      "mother": 937,
      "act": 938,
      "foll": 939,
      "contr": 940,
      "see": 941,
      "##med": 942,
      "inf": 943,
      "##ama": 944,
      "##atur": 945,
      "today": 946,
      "since": 947,
      "##ful": 948,
      "##iel": 949,
      "way": 950,
      "##try": 951,
      "nor": 952,
      "##ro": 953,
      "belie": 954,
      "fri": 955,
      "plan": 956,
      "second": 957,
      "friend": 958,
      "##ason": 959,
      "##ave": 960,
      "around": 961,
      "vict": 962,
      "##irl": 963,
      "##co": 964,
      "south": 965,
      "then": 966,
      "##vel": 967,
      "##ale": 968,
      "##ene": 969,
      "##ister": 970,
      "##iew": 971,
      "ann": 972,
      "##gan": 973,
      "##ected": 974,
      "##alth": 975,
      "bot": 976,
      "news": 977,
      "##ull": 978,
      "every": 979,
      "don": 980,
      "##get": 981,
      "hand": 982,
      "run": 983,
      "##ogr": 984,
      "make": 985,
      "country": 986,
      "##ley": 987,
      "##urs": 988,
      "##tain": 989,
      "sw": 990,
      "##ames": 991,
      "##ual": 992,
      "##uss": 993,
      "ed": 994,
      "many": 995,
      "bre": 996,
      "dem": 997,
      "##ought": 998,
      "##ner": 999,
      "sl": 1000,
      "face": 1001,
      "chr": 1002,
      "##ric": 1003,
      "##ven": 1004,
      "##erson": 1005,
      "##ists": 1006,
      "##ced": 1007,
      "##ger": 1008,
      "##king": 1009,
      "girl": 1010,
      "intern": 1011,
      "alle": 1012,
      "youn": 1013,
      "including": 1014,
      "##ina": 1015,
      "##ele": 1016,
      "mur": 1017,
      "gl": 1018,
      "##per": 1019,
      "need": 1020,
      "take": 1021,
      "##ster": 1022,
      "##ody": 1023,
      "bus": 1024,
      "##io": 1025,
      "leg": 1026,
      "##ments": 1027,
      "##pl": 1028,
      "##ying": 1029,
      "##ondon": 1030,
      "london": 1031,
      "conf": 1032,
      "##xt": 1033,
      "ma": 1034,
      "##ives": 1035,
      "har": 1036,
      "well": 1037,
      "##und": 1038,
      "prot": 1039,
      "women": 1040,
      "##ct": 1041,
      "wal": 1042,
      "called": 1043,
      "investig": 1044,
      "##cer": 1045,
      "camp": 1046,
      "dri": 1047,
      "sign": 1048,
      "la": 1049,
      "##ral": 1050,
      "##imes": 1051,
      "##iday": 1052,
      "wed": 1053,
      "##att": 1054,
      "sex": 1055,
      "ke": 1056,
      "foot": 1057,
      "hosp": 1058,
      "arr": 1059,
      "##ury": 1060,
      "##ham": 1061,
      "open": 1062,
      "##ling": 1063,
      "post": 1064,
      "##ward": 1065,
      "cle": 1066,
      "##ague": 1067,
      "##rib": 1068,
      "spe": 1069,
      "##ween": 1070,
      "##uch": 1071,
      "##hip": 1072,
      "spok": 1073,
      "five": 1074,
      "public": 1075,
      "should": 1076,
      "pass": 1077,
      "york": 1078,
      "##int": 1079,
      "##ph": 1080,
      "mor": 1081,
      "between": 1082,
      "fil": 1083,
      "##aff": 1084,
      "put": 1085,
      "el": 1086,
      "##ecut": 1087,
      "serv": 1088,
      "##eral": 1089,
      "##red": 1090,
      "##ester": 1091,
      "pat": 1092,
      "sent": 1093,
      "sk": 1094,
      "appear": 1095,
      "##hor": 1096,
      "ban": 1097,
      "tak": 1098,
      "gen": 1099,
      "##ested": 1100,
      "resp": 1101,
      "##ants": 1102,
      "health": 1103,
      "young": 1104,
      "phot": 1105,
      "10": 1106,
      "##ered": 1107,
      "cam": 1108,
      "##ange": 1109,
      "adm": 1110,
      "very": 1111,
      "##used": 1112,
      "##ms": 1113,
      "prov": 1114,
      "another": 1115,
      "##ret": 1116,
      "##its": 1117,
      "still": 1118,
      "##ised": 1119,
      "good": 1120,
      "##ently": 1121,
      "vide": 1122,
      "know": 1123,
      "rele": 1124,
      "##ines": 1125,
      "hour": 1126,
      "those": 1127,
      "national": 1128,
      "##ison": 1129,
      "##ady": 1130,
      "##ivers": 1131,
      "hospital": 1132,
      "##app": 1133,
      "days": 1134,
      "loc": 1135,
      "west": 1136,
      "dav": 1137,
      "mid": 1138,
      "care": 1139,
      "sus": 1140,
      "vis": 1141,
      "ste": 1142,
      "ap": 1143,
      "##side": 1144,
      "took": 1145,
      "north": 1146,
      "far": 1147,
      "author": 1148,
      "men": 1149,
      "six": 1150,
      "##ets": 1151,
      "think": 1152,
      "killed": 1153,
      "obama": 1154,
      "num": 1155,
      "##by": 1156,
      "real": 1157,
      "##te": 1158,
      "compan": 1159,
      "boy": 1160,
      "##ular": 1161,
      "##hes": 1162,
      "next": 1163,
      "going": 1164,
      "league": 1165,
      "wife": 1166,
      "happ": 1167,
      "club": 1168,
      "inst": 1169,
      "tu": 1170,
      "##ures": 1171,
      "tal": 1172,
      "big": 1173,
      "id": 1174,
      "##ible": 1175,
      "##bers": 1176,
      "son": 1177,
      "john": 1178,
      "mus": 1179,
      "used": 1180,
      "##olog": 1181,
      "million": 1182,
      "cre": 1183,
      "doc": 1184,
      "ref": 1185,
      "ra": 1186,
      "##ower": 1187,
      "##ves": 1188,
      "such": 1189,
      "##iam": 1190,
      "sen": 1191,
      "red": 1192,
      "top": 1193,
      "trans": 1194,
      "##ency": 1195,
      "milit": 1196,
      "del": 1197,
      "##line": 1198,
      "cond": 1199,
      "##uck": 1200,
      "reported": 1201,
      "inj": 1202,
      "months": 1203,
      "uk": 1204,
      "det": 1205,
      "met": 1206,
      "both": 1207,
      "##iving": 1208,
      "your": 1209,
      "##ages": 1210,
      "##ision": 1211,
      "woman": 1212,
      "##enn": 1213,
      "cur": 1214,
      "cup": 1215,
      "monday": 1216,
      "##ics": 1217,
      "sunday": 1218,
      "##aughter": 1219,
      "person": 1220,
      "tuesday": 1221,
      "report": 1222,
      "father": 1223,
      "##ights": 1224,
      "prop": 1225,
      "dire": 1226,
      "season": 1227,
      "died": 1228,
      "##ins": 1229,
      "eur": 1230,
      "sim": 1231,
      "video": 1232,
      "seen": 1233,
      "hal": 1234,
      "pa": 1235,
      "england": 1236,
      "##ember": 1237,
      "train": 1238,
      "beh": 1239,
      "prob": 1240,
      "great": 1241,
      "##oduc": 1242,
      "##bs": 1243,
      "gre": 1244,
      "cal": 1245,
      "exper": 1246,
      "dif": 1247,
      "british": 1248,
      "christ": 1249,
      "stre": 1250,
      "want": 1251,
      "mark": 1252,
      "##ior": 1253,
      "these": 1254,
      "##ax": 1255,
      "friday": 1256,
      "much": 1257,
      "##ball": 1258,
      "lar": 1259,
      "following": 1260,
      "best": 1261,
      "reve": 1262,
      "susp": 1263,
      "##els": 1264,
      "##ney": 1265,
      "tur": 1266,
      "elec": 1267,
      "##ee": 1268,
      "##ony": 1269,
      "away": 1270,
      "spec": 1271,
      "states": 1272,
      "place": 1273,
      "fac": 1274,
      "times": 1275,
      "game": 1276,
      "##ote": 1277,
      "contin": 1278,
      "##ness": 1279,
      "vi": 1280,
      "es": 1281,
      "##ute": 1282,
      "sn": 1283,
      "aust": 1284,
      "wedn": 1285,
      "stand": 1286,
      "soc": 1287,
      "wednesday": 1288,
      "alleged": 1289,
      "##osed": 1290,
      "##opp": 1291,
      "come": 1292,
      "##oved": 1293,
      "let": 1294,
      "won": 1295,
      "hum": 1296,
      "shot": 1297,
      "fire": 1298,
      "##tions": 1299,
      "murder": 1300,
      "##ces": 1301,
      "same": 1302,
      "later": 1303,
      "##ll": 1304,
      "pay": 1305,
      "satur": 1306,
      "##urity": 1307,
      "hit": 1308,
      "international": 1309,
      "champ": 1310,
      "aff": 1311,
      "white": 1312,
      "taken": 1313,
      "officials": 1314,
      "##artment": 1315,
      "saturday": 1316,
      "eff": 1317,
      "##ield": 1318,
      "prev": 1319,
      "##ched": 1320,
      "american": 1321,
      "hol": 1322,
      "manag": 1323,
      "came": 1324,
      "##ges": 1325,
      "security": 1326,
      "##ont": 1327,
      "thurs": 1328,
      "support": 1329,
      "##earch": 1330,
      "sub": 1331,
      "thursday": 1332,
      "find": 1333,
      "case": 1334,
      "sever": 1335,
      "##ared": 1336,
      "cor": 1337,
      "##ative": 1338,
      "jud": 1339,
      "iss": 1340,
      "use": 1341,
      "##ann": 1342,
      "##istr": 1343,
      "##res": 1344,
      "##ined": 1345,
      "spokes": 1346,
      "daughter": 1347,
      "##ark": 1348,
      "##gest": 1349,
      "##ived": 1350,
      "david": 1351,
      "got": 1352,
      "mod": 1353,
      "perf": 1354,
      "##ues": 1355,
      "rece": 1356,
      "rest": 1357,
      "reveal": 1358,
      "##ices": 1359,
      "##ient": 1360,
      "##ird": 1361,
      "expl": 1362,
      "dead": 1363,
      "body": 1364,
      "som": 1365,
      "15": 1366,
      "oper": 1367,
      "prof": 1368,
      "party": 1369,
      "int": 1370,
      "##ility": 1371,
      "univers": 1372,
      "went": 1373,
      "##ually": 1374,
      "##sh": 1375,
      "ago": 1376,
      "black": 1377,
      "minister": 1378,
      "stri": 1379,
      "number": 1380,
      "company": 1381,
      "12": 1382,
      "suff": 1383,
      "test": 1384,
      "##con": 1385,
      "russ": 1386,
      "##iver": 1387,
      "statement": 1388,
      "having": 1389,
      "##ief": 1390,
      "ger": 1391,
      "victim": 1392,
      "secret": 1393,
      "camer": 1394,
      "##ane": 1395,
      "record": 1396,
      "side": 1397,
      "ge": 1398,
      "direct": 1399,
      "30": 1400,
      "hus": 1401,
      "ir": 1402,
      "park": 1403,
      "##orts": 1404,
      "ang": 1405,
      "half": 1406,
      "trav": 1407,
      "commun": 1408,
      "##ific": 1409,
      "##str": 1410,
      "polit": 1411,
      "##band": 1412,
      "never": 1413,
      "##chester": 1414,
      "adv": 1415,
      "hot": 1416,
      "##ror": 1417,
      "start": 1418,
      "drug": 1419,
      "##view": 1420,
      "##iting": 1421,
      "##ened": 1422,
      "cele": 1423,
      "bur": 1424,
      "earl": 1425,
      "produc": 1426,
      "##uary": 1427,
      "hours": 1428,
      "celebr": 1429,
      "cost": 1430,
      "coup": 1431,
      "##ued": 1432,
      "##itted": 1433,
      "office": 1434,
      "##ailed": 1435,
      "##iness": 1436,
      "##ones": 1437,
      "build": 1438,
      "##let": 1439,
      "university": 1440,
      "military": 1441,
      "##ott": 1442,
      "##port": 1443,
      "##atic": 1444,
      "art": 1445,
      "europe": 1446,
      "mc": 1447,
      "austral": 1448,
      "known": 1449,
      "land": 1450,
      "water": 1451,
      "move": 1452,
      "members": 1453,
      "##aign": 1454,
      "does": 1455,
      "final": 1456,
      "remain": 1457,
      "money": 1458,
      "campaign": 1459,
      "saying": 1460,
      "desp": 1461,
      "##ik": 1462,
      "pop": 1463,
      "18": 1464,
      "##ending": 1465,
      "manchester": 1466,
      "av": 1467,
      "friends": 1468,
      "service": 1469,
      "husband": 1470,
      "mich": 1471,
      "sing": 1472,
      "##ided": 1473,
      "##gr": 1474,
      "11": 1475,
      "along": 1476,
      "gun": 1477,
      "##aster": 1478,
      "##ried": 1479,
      "acr": 1480,
      "past": 1481,
      "outside": 1482,
      "announ": 1483,
      "opp": 1484,
      "dev": 1485,
      "##ograp": 1486,
      "##iven": 1487,
      "asked": 1488,
      "##ne": 1489,
      "##ished": 1490,
      "##ys": 1491,
      "prom": 1492,
      "earlier": 1493,
      "viol": 1494,
      "mrs": 1495,
      "job": 1496,
      "maj": 1497,
      "##eng": 1498,
      "##anted": 1499,
      "bab": 1500,
      "sal": 1501,
      "##tor": 1502,
      "##ael": 1503,
      "##ering": 1504,
      "authorities": 1505,
      "keep": 1506,
      "##ipp": 1507,
      "##gy": 1508,
      "press": 1509,
      "across": 1510,
      "without": 1511,
      "##amed": 1512,
      "football": 1513,
      "saf": 1514,
      "##til": 1515,
      "despite": 1516,
      "##ended": 1517,
      "desc": 1518,
      "deal": 1519,
      "poss": 1520,
      "##ats": 1521,
      "fed": 1522,
      "ris": 1523,
      "free": 1524,
      "##ism": 1525,
      "allow": 1526,
      "fight": 1527,
      "##ards": 1528,
      "##ump": 1529,
      "grand": 1530,
      "##ittle": 1531,
      "working": 1532,
      "mess": 1533,
      "parents": 1534,
      "power": 1535,
      "sit": 1536,
      "invol": 1537,
      "taking": 1538,
      "##ety": 1539,
      "little": 1540,
      "added": 1541,
      "prison": 1542,
      "lab": 1543,
      "##vered": 1544,
      "too": 1545,
      "arrested": 1546,
      "##self": 1547,
      "est": 1548,
      "##oke": 1549,
      "afric": 1550,
      "sold": 1551,
      "morning": 1552,
      "ext": 1553,
      "arm": 1554,
      "area": 1555,
      "##velop": 1556,
      "early": 1557,
      "business": 1558,
      "##elling": 1559,
      "here": 1560,
      "##istan": 1561,
      "book": 1562,
      "given": 1563,
      "department": 1564,
      "##ank": 1565,
      "##ention": 1566,
      "##inal": 1567,
      "##ized": 1568,
      "design": 1569,
      "di": 1570,
      "##aring": 1571,
      "emer": 1572,
      "hom": 1573,
      "curr": 1574,
      "lo": 1575,
      "##idence": 1576,
      "revealed": 1577,
      "meet": 1578,
      "sum": 1579,
      "order": 1580,
      "super": 1581,
      "conv": 1582,
      "using": 1583,
      "until": 1584,
      "mo": 1585,
      "claims": 1586,
      "disc": 1587,
      "chief": 1588,
      "quest": 1589,
      "##oub": 1590,
      "develop": 1591,
      "few": 1592,
      "##me": 1593,
      "major": 1594,
      "officers": 1595,
      "released": 1596,
      "yester": 1597,
      "arri": 1598,
      "local": 1599,
      "making": 1600,
      "yesterday": 1601,
      "heard": 1602,
      "accused": 1603,
      "##ution": 1604,
      "caus": 1605,
      "differ": 1606,
      "pos": 1607,
      "rob": 1608,
      "staff": 1609,
      "prem": 1610,
      "##utes": 1611,
      "##ever": 1612,
      "threat": 1613,
      "##inc": 1614,
      "britain": 1615,
      "##ming": 1616,
      "roy": 1617,
      "pal": 1618,
      "bir": 1619,
      "weeks": 1620,
      "##head": 1621,
      "shoot": 1622,
      "ms": 1623,
      "each": 1624,
      "treat": 1625,
      "watch": 1626,
      "lik": 1627,
      "##ified": 1628,
      "##ially": 1629,
      "somet": 1630,
      "##ands": 1631,
      "val": 1632,
      "den": 1633,
      "##ogram": 1634,
      "laun": 1635,
      "##ired": 1636,
      "step": 1637,
      "##ew": 1638,
      "mag": 1639,
      "##ately": 1640,
      "several": 1641,
      "food": 1642,
      "spokesman": 1643,
      "inform": 1644,
      "behind": 1645,
      "ham": 1646,
      "##ten": 1647,
      "syri": 1648,
      "lot": 1649,
      "##stem": 1650,
      "street": 1651,
      "couple": 1652,
      "##enal": 1653,
      "deb": 1654,
      "players": 1655,
      "£1": 1656,
      "goal": 1657,
      "##ize": 1658,
      "scor": 1659,
      "mom": 1660,
      "organ": 1661,
      "##ker": 1662,
      "##ount": 1663,
      "##way": 1664,
      "geor": 1665,
      "hold": 1666,
      "tax": 1667,
      "proble": 1668,
      "ju": 1669,
      "##ience": 1670,
      "16": 1671,
      "cut": 1672,
      "cer": 1673,
      "##lex": 1674,
      "michael": 1675,
      "seven": 1676,
      "system": 1677,
      "road": 1678,
      "hard": 1679,
      "mat": 1680,
      "##ford": 1681,
      "crit": 1682,
      "incre": 1683,
      "##ection": 1684,
      "mass": 1685,
      "ant": 1686,
      "match": 1687,
      "human": 1688,
      "tar": 1689,
      "feel": 1690,
      "concer": 1691,
      "net": 1692,
      "sug": 1693,
      "describ": 1694,
      "didn": 1695,
      "25": 1696,
      "among": 1697,
      "program": 1698,
      "view": 1699,
      "##cher": 1700,
      "front": 1701,
      "claimed": 1702,
      "based": 1703,
      "town": 1704,
      "shows": 1705,
      "##book": 1706,
      "class": 1707,
      "##ern": 1708,
      "##ape": 1709,
      "jun": 1710,
      "thought": 1711,
      "republic": 1712,
      "mov": 1713,
      "lost": 1714,
      "brother": 1715,
      "cust": 1716,
      "event": 1717,
      "champions": 1718,
      "county": 1719,
      "media": 1720,
      "clear": 1721,
      "dog": 1722,
      "199": 1723,
      "room": 1724,
      "##ects": 1725,
      "pros": 1726,
      "incident": 1727,
      "terror": 1728,
      "jan": 1729,
      "looking": 1730,
      "third": 1731,
      "##ians": 1732,
      "tec": 1733,
      "judge": 1734,
      "able": 1735,
      "really": 1736,
      "small": 1737,
      "whether": 1738,
      "east": 1739,
      "least": 1740,
      "close": 1741,
      "officer": 1742,
      "jack": 1743,
      "##pr": 1744,
      "become": 1745,
      "##sea": 1746,
      "wanted": 1747,
      "bill": 1748,
      "##ators": 1749,
      "##ops": 1750,
      "##ession": 1751,
      "##ained": 1752,
      "started": 1753,
      "squ": 1754,
      "##ready": 1755,
      "manager": 1756,
      "##itter": 1757,
      "##ator": 1758,
      "prosecut": 1759,
      "##ium": 1760,
      "love": 1761,
      "dam": 1762,
      "##emp": 1763,
      "2012": 1764,
      "fact": 1765,
      "believe": 1766,
      "main": 1767,
      "already": 1768,
      "##omb": 1769,
      "disco": 1770,
      "centre": 1771,
      "mad": 1772,
      "##aged": 1773,
      "14": 1774,
      "live": 1775,
      "social": 1776,
      "##ries": 1777,
      "form": 1778,
      "##eal": 1779,
      "##gin": 1780,
      "less": 1781,
      "investigation": 1782,
      "cas": 1783,
      "ball": 1784,
      "requ": 1785,
      "van": 1786,
      "eight": 1787,
      "tre": 1788,
      "succ": 1789,
      "short": 1790,
      "ty": 1791,
      "##million": 1792,
      "##ways": 1793,
      "rul": 1794,
      "##hern": 1795,
      "read": 1796,
      "##cl": 1797,
      "washing": 1798,
      "baby": 1799,
      "##que": 1800,
      "13": 1801,
      "full": 1802,
      "tour": 1803,
      "german": 1804,
      "##go": 1805,
      "port": 1806,
      "host": 1807,
      "##ps": 1808,
      "fell": 1809,
      "##less": 1810,
      "fall": 1811,
      "execut": 1812,
      "##idge": 1813,
      "los": 1814,
      "##akes": 1815,
      "william": 1816,
      "heart": 1817,
      "##ising": 1818,
      "leader": 1819,
      "arg": 1820,
      "##ald": 1821,
      "##ocr": 1822,
      "##ench": 1823,
      "sol": 1824,
      "bor": 1825,
      "17": 1826,
      "##ler": 1827,
      "##hen": 1828,
      "##af": 1829,
      "vir": 1830,
      "fans": 1831,
      "once": 1832,
      "##ai": 1833,
      "##ense": 1834,
      "saw": 1835,
      "fur": 1836,
      "proc": 1837,
      "held": 1838,
      "lu": 1839,
      "priv": 1840,
      "lat": 1841,
      "##ploy": 1842,
      "prime": 1843,
      "pot": 1844,
      "games": 1845,
      "led": 1846,
      "control": 1847,
      "level": 1848,
      "rights": 1849,
      "counc": 1850,
      "facebook": 1851,
      "##urch": 1852,
      "follow": 1853,
      "director": 1854,
      "decision": 1855,
      "rom": 1856,
      "trying": 1857,
      "hor": 1858,
      "give": 1859,
      "rac": 1860,
      "visit": 1861,
      "wa": 1862,
      "count": 1863,
      "wear": 1864,
      "photograp": 1865,
      "##ject": 1866,
      "econ": 1867,
      "50": 1868,
      "econom": 1869,
      "ple": 1870,
      "pain": 1871,
      "##ests": 1872,
      "success": 1873,
      "washington": 1874,
      "##par": 1875,
      "however": 1876,
      "##ico": 1877,
      "center": 1878,
      "##hic": 1879,
      "proper": 1880,
      "##pool": 1881,
      "began": 1882,
      "mot": 1883,
      "fund": 1884,
      "kid": 1885,
      "himself": 1886,
      "calif": 1887,
      "paul": 1888,
      "film": 1889,
      "liver": 1890,
      "site": 1891,
      "ground": 1892,
      "return": 1893,
      "##fri": 1894,
      "charged": 1895,
      "##iff": 1896,
      "hop": 1897,
      "californ": 1898,
      "interview": 1899,
      "##ugg": 1900,
      "mart": 1901,
      "##ona": 1902,
      "minutes": 1903,
      "##thing": 1904,
      "colle": 1905,
      "wind": 1906,
      "##use": 1907,
      "alm": 1908,
      "##mp": 1909,
      "ira": 1910,
      "recent": 1911,
      "democr": 1912,
      "angel": 1913,
      "teen": 1914,
      "change": 1915,
      "##iously": 1916,
      "chel": 1917,
      "ur": 1918,
      "##bc": 1919,
      "rad": 1920,
      "though": 1921,
      "ey": 1922,
      "general": 1923,
      "late": 1924,
      "compet": 1925,
      "ident": 1926,
      "conn": 1927,
      "##friend": 1928,
      "break": 1929,
      "inside": 1930,
      "medical": 1931,
      "special": 1932,
      "premier": 1933,
      "allegedly": 1934,
      "consid": 1935,
      "california": 1936,
      "batt": 1937,
      "line": 1938,
      "better": 1939,
      "stay": 1940,
      "mal": 1941,
      "dist": 1942,
      "royal": 1943,
      "mill": 1944,
      "china": 1945,
      "trial": 1946,
      "federal": 1947,
      "hun": 1948,
      "rich": 1949,
      "information": 1950,
      "jour": 1951,
      "anim": 1952,
      "james": 1953,
      "council": 1954,
      "##lish": 1955,
      "##oon": 1956,
      "##erv": 1957,
      "online": 1958,
      "kore": 1959,
      "##acy": 1960,
      "phone": 1961,
      "tot": 1962,
      "fre": 1963,
      "wat": 1964,
      "##gether": 1965,
      "together": 1966,
      "list": 1967,
      "##ana": 1968,
      "iraq": 1969,
      "secretary": 1970,
      "charges": 1971,
      "##den": 1972,
      "force": 1973,
      "vill": 1974,
      "hope": 1975,
      "something": 1976,
      "100": 1977,
      "##aly": 1978,
      "##uty": 1979,
      "##lam": 1980,
      "announced": 1981,
      "age": 1982,
      "target": 1983,
      "forces": 1984,
      "political": 1985,
      "insp": 1986,
      "relations": 1987,
      "que": 1988,
      "stop": 1989,
      "island": 1990,
      "why": 1991,
      "likely": 1992,
      "flor": 1993,
      "##ission": 1994,
      "travel": 1995,
      "ahead": 1996,
      "series": 1997,
      "techn": 1998,
      "played": 1999,
      "##bert": 2000,
      "player": 2001,
      "coll": 2002,
      "living": 2003,
      "occ": 2004,
      "ill": 2005,
      "##ances": 2006,
      "tit": 2007,
      "point": 2008,
      "different": 2009,
      "evidence": 2010,
      "spent": 2011,
      "##dle": 2012,
      "almost": 2013,
      "bed": 2014,
      "spot": 2015,
      "mean": 2016,
      "2011": 2017,
      "##oad": 2018,
      "##uel": 2019,
      "flight": 2020,
      "might": 2021,
      "became": 2022,
      "must": 2023,
      "leav": 2024,
      "name": 2025,
      "student": 2026,
      "##orney": 2027,
      "gold": 2028,
      "##ology": 2029,
      "24": 2030,
      "##igr": 2031,
      "attorney": 2032,
      "king": 2033,
      "##ides": 2034,
      "liverpool": 2035,
      "##rew": 2036,
      "##fic": 2037,
      "chelsea": 2038,
      "partic": 2039,
      "fore": 2040,
      "confir": 2041,
      "agency": 2042,
      "employ": 2043,
      "fun": 2044,
      "imm": 2045,
      "turn": 2046,
      "collec": 2047,
      "enter": 2048,
      "whose": 2049,
      "neigh": 2050,
      "comes": 2051,
      "neighb": 2052,
      "civ": 2053,
      "##bed": 2054,
      "scene": 2055,
      "cancer": 2056,
      "webs": 2057,
      "##ically": 2058,
      "##ida": 2059,
      "action": 2060,
      "##ds": 2061,
      "pub": 2062,
      "birth": 2063,
      "summer": 2064,
      "believed": 2065,
      "reports": 2066,
      "hu": 2067,
      "lives": 2068,
      "fig": 2069,
      "21": 2070,
      "##aced": 2071,
      "fut": 2072,
      "picture": 2073,
      "tv": 2074,
      "##ring": 2075,
      "getting": 2076,
      "##uct": 2077,
      "##ike": 2078,
      "40": 2079,
      "training": 2080,
      "search": 2081,
      "##ocked": 2082,
      "beat": 2083,
      "fear": 2084,
      "import": 2085,
      "dress": 2086,
      "activ": 2087,
      "##ature": 2088,
      "thous": 2089,
      "phil": 2090,
      "assa": 2091,
      "expected": 2092,
      "afgh": 2093,
      "sam": 2094,
      "fer": 2095,
      "things": 2096,
      "leave": 2097,
      "##ients": 2098,
      "##ches": 2099,
      "round": 2100,
      "nearly": 2101,
      "hotel": 2102,
      "fel": 2103,
      "mail": 2104,
      "leaders": 2105,
      "##gn": 2106,
      "always": 2107,
      "chall": 2108,
      "received": 2109,
      "light": 2110,
      "civil": 2111,
      "community": 2112,
      "due": 2113,
      "##gress": 2114,
      "##tory": 2115,
      "january": 2116,
      "french": 2117,
      "##ences": 2118,
      "clin": 2119,
      "##ino": 2120,
      "polic": 2121,
      "bad": 2122,
      "capt": 2123,
      "nation": 2124,
      "strong": 2125,
      "america": 2126,
      "##lin": 2127,
      "sour": 2128,
      "guil": 2129,
      "##mas": 2130,
      "killing": 2131,
      "history": 2132,
      "equ": 2133,
      "##yle": 2134,
      "others": 2135,
      "vot": 2136,
      "poin": 2137,
      "seem": 2138,
      "afghan": 2139,
      "term": 2140,
      "##opped": 2141,
      "twitter": 2142,
      "march": 2143,
      "islam": 2144,
      "##ett": 2145,
      "##hs": 2146,
      "##acher": 2147,
      "building": 2148,
      "board": 2149,
      "playing": 2150,
      "lou": 2151,
      "ber": 2152,
      "european": 2153,
      "docu": 2154,
      "admitted": 2155,
      "##uit": 2156,
      "##ging": 2157,
      "##aper": 2158,
      "bas": 2159,
      "miles": 2160,
      "students": 2161,
      "future": 2162,
      "##iation": 2163,
      "2010": 2164,
      "forced": 2165,
      "##ender": 2166,
      "low": 2167,
      "bal": 2168,
      "##icted": 2169,
      "famil": 2170,
      "yet": 2171,
      "##ening": 2172,
      "cross": 2173,
      "coast": 2174,
      "tried": 2175,
      "research": 2176,
      "brown": 2177,
      "legal": 2178,
      "22": 2179,
      "##itness": 2180,
      "doub": 2181,
      "ent": 2182,
      "exc": 2183,
      "described": 2184,
      "foreign": 2185,
      "within": 2186,
      "gar": 2187,
      "##ox": 2188,
      "bring": 2189,
      "bank": 2190,
      "fa": 2191,
      "gave": 2192,
      "##work": 2193,
      "##anger": 2194,
      "custom": 2195,
      "turned": 2196,
      "sept": 2197,
      "bene": 2198,
      "thousands": 2199,
      "retur": 2200,
      "sexual": 2201,
      "enough": 2202,
      "##ech": 2203,
      "##rael": 2204,
      "carry": 2205,
      "missing": 2206,
      "space": 2207,
      "wrote": 2208,
      "israel": 2209,
      "tex": 2210,
      "appeared": 2211,
      "green": 2212,
      "##lle": 2213,
      "forward": 2214,
      "study": 2215,
      "##ival": 2216,
      "story": 2217,
      "##cent": 2218,
      "ars": 2219,
      "lear": 2220,
      "ll": 2221,
      "aug": 2222,
      "sil": 2223,
      "##ril": 2224,
      "guilty": 2225,
      "tom": 2226,
      "nine": 2227,
      "##ination": 2228,
      "resident": 2229,
      "alex": 2230,
      "born": 2231,
      "##itions": 2232,
      "middle": 2233,
      "plans": 2234,
      "mex": 2235,
      "june": 2236,
      "pet": 2237,
      "blood": 2238,
      "airport": 2239,
      "involved": 2240,
      "##be": 2241,
      "admin": 2242,
      "impr": 2243,
      "prince": 2244,
      "compl": 2245,
      "website": 2246,
      "assoc": 2247,
      "##ories": 2248,
      "australia": 2249,
      "hig": 2250,
      "##ails": 2251,
      "question": 2252,
      "##ding": 2253,
      "##aps": 2254,
      "##over": 2255,
      "##oph": 2256,
      "wil": 2257,
      "alth": 2258,
      "mer": 2259,
      "september": 2260,
      "george": 2261,
      "although": 2262,
      "risk": 2263,
      "##rain": 2264,
      "posted": 2265,
      "san": 2266,
      "##wards": 2267,
      "race": 2268,
      "role": 2269,
      "##ef": 2270,
      "key": 2271,
      "market": 2272,
      "##uction": 2273,
      "##aught": 2274,
      "dom": 2275,
      "##ows": 2276,
      "##cel": 2277,
      "##ars": 2278,
      "##na": 2279,
      "station": 2280,
      "##nal": 2281,
      "##uce": 2282,
      "weekend": 2283,
      "lim": 2284,
      "pick": 2285,
      "cameron": 2286,
      "rock": 2287,
      "girls": 2288,
      "christmas": 2289,
      "large": 2290,
      "shooting": 2291,
      "##sel": 2292,
      "hill": 2293,
      "dan": 2294,
      "justice": 2295,
      "##iding": 2296,
      "crime": 2297,
      "present": 2298,
      "repres": 2299,
      "oc": 2300,
      "##avy": 2301,
      "further": 2302,
      "vehic": 2303,
      "capital": 2304,
      "florida": 2305,
      "popular": 2306,
      "victims": 2307,
      "##ably": 2308,
      "##wood": 2309,
      "##ached": 2310,
      "trip": 2311,
      "extr": 2312,
      "nort": 2313,
      "challen": 2314,
      "er": 2315,
      "##oming": 2316,
      "august": 2317,
      "##tors": 2318,
      "fav": 2319,
      "trad": 2320,
      "ben": 2321,
      "##iers": 2322,
      "2013": 2323,
      "relationship": 2324,
      "april": 2325,
      "##yl": 2326,
      "##ns": 2327,
      "iran": 2328,
      "os": 2329,
      "##ference": 2330,
      "##mber": 2331,
      "##field": 2332,
      "scre": 2333,
      "card": 2334,
      "tell": 2335,
      "fly": 2336,
      "worked": 2337,
      "##here": 2338,
      "latest": 2339,
      "ran": 2340,
      "coming": 2341,
      "member": 2342,
      "important": 2343,
      "central": 2344,
      "mic": 2345,
      "caused": 2346,
      "july": 2347,
      "plane": 2348,
      "23": 2349,
      "cover": 2350,
      "above": 2351,
      "senior": 2352,
      "church": 2353,
      "treatment": 2354,
      "region": 2355,
      "##ilar": 2356,
      "private": 2357,
      "crash": 2358,
      "named": 2359,
      "mcc": 2360,
      "##ese": 2361,
      "##joy": 2362,
      "oly": 2363,
      "reb": 2364,
      "france": 2365,
      "##ential": 2366,
      "olymp": 2367,
      "accident": 2368,
      "personal": 2369,
      "dest": 2370,
      "fem": 2371,
      "december": 2372,
      "shar": 2373,
      "nove": 2374,
      "sand": 2375,
      "##rid": 2376,
      "november": 2377,
      "comple": 2378,
      "workers": 2379,
      "vol": 2380,
      "moment": 2381,
      "wood": 2382,
      "braz": 2383,
      "wall": 2384,
      "resc": 2385,
      "services": 2386,
      "198": 2387,
      "esc": 2388,
      "russian": 2389,
      "possible": 2390,
      "countries": 2391,
      "discovered": 2392,
      "surv": 2393,
      "recently": 2394,
      "syria": 2395,
      "cy": 2396,
      "try": 2397,
      "crim": 2398,
      "administr": 2399,
      "winning": 2400,
      "##enced": 2401,
      "je": 2402,
      "distr": 2403,
      "lif": 2404,
      "safety": 2405,
      "orig": 2406,
      "cat": 2407,
      "simp": 2408,
      "respons": 2409,
      "##ners": 2410,
      "##ensive": 2411,
      "running": 2412,
      "music": 2413,
      "coach": 2414,
      "bomb": 2415,
      "election": 2416,
      "sir": 2417,
      "africa": 2418,
      "bag": 2419,
      "boss": 2420,
      "##tober": 2421,
      "##room": 2422,
      "enc": 2423,
      "ide": 2424,
      "attacks": 2425,
      "clos": 2426,
      "army": 2427,
      "##eth": 2428,
      "underst": 2429,
      "##isted": 2430,
      "##row": 2431,
      "showed": 2432,
      "october": 2433,
      "failed": 2434,
      "##ead": 2435,
      "enjoy": 2436,
      "anti": 2437,
      "doctors": 2438,
      "continue": 2439,
      "doing": 2440,
      "##ashed": 2441,
      "leaving": 2442,
      "##ults": 2443,
      "disapp": 2444,
      "glob": 2445,
      "##ma": 2446,
      "traff": 2447,
      "##rop": 2448,
      "##0s": 2449,
      "qual": 2450,
      "##ease": 2451,
      "track": 2452,
      "abuse": 2453,
      "##ades": 2454,
      "lawy": 2455,
      "##ston": 2456,
      "career": 2457,
      "snow": 2458,
      "cho": 2459,
      "div": 2460,
      "hon": 2461,
      "scr": 2462,
      "victory": 2463,
      "crown": 2464,
      "draw": 2465,
      "##ij": 2466,
      "##itor": 2467,
      "brazil": 2468,
      "pak": 2469,
      "happened": 2470,
      "##irc": 2471,
      "##ola": 2472,
      "gener": 2473,
      "decided": 2474,
      "ver": 2475,
      "suffered": 2476,
      "labour": 2477,
      "violence": 2478,
      "done": 2479,
      "families": 2480,
      "cand": 2481,
      "driver": 2482,
      "##ush": 2483,
      "##itch": 2484,
      "box": 2485,
      "hund": 2486,
      "£2": 2487,
      "photo": 2488,
      "release": 2489,
      "##lim": 2490,
      "thom": 2491,
      "often": 2492,
      "self": 2493,
      "chair": 2494,
      "suppor": 2495,
      "access": 2496,
      "process": 2497,
      "hands": 2498,
      "emb": 2499,
      "educ": 2500,
      "weap": 2501,
      "bid": 2502,
      "hundred": 2503,
      "##ata": 2504,
      "condition": 2505,
      "scient": 2506,
      "arsenal": 2507,
      "2009": 2508,
      "deter": 2509,
      "fat": 2510,
      "smith": 2511,
      "##ck": 2512,
      "bea": 2513,
      "extre": 2514,
      "26": 2515,
      "ten": 2516,
      "meeting": 2517,
      "##lished": 2518,
      "pakistan": 2519,
      "driving": 2520,
      "strugg": 2521,
      "##aker": 2522,
      "##umb": 2523,
      "journal": 2524,
      "##pre": 2525,
      "##ole": 2526,
      "repl": 2527,
      "laws": 2528,
      "congress": 2529,
      "init": 2530,
      "patients": 2531,
      "storm": 2532,
      "similar": 2533,
      "##ortun": 2534,
      "##ental": 2535,
      "benef": 2536,
      "thing": 2537,
      "##ots": 2538,
      "cann": 2539,
      "##oud": 2540,
      "marri": 2541,
      "sister": 2542,
      "base": 2543,
      "store": 2544,
      "page": 2545,
      "pair": 2546,
      "bbc": 2547,
      "##for": 2548,
      "commission": 2549,
      "amb": 2550,
      "##ka": 2551,
      "##shire": 2552,
      "##itive": 2553,
      "russia": 2554,
      "##ively": 2555,
      "circ": 2556,
      "##anged": 2557,
      "suggest": 2558,
      "pun": 2559,
      "represent": 2560,
      "tro": 2561,
      "27": 2562,
      "happy": 2563,
      "paid": 2564,
      "##apan": 2565,
      "angeles": 2566,
      "drink": 2567,
      "captain": 2568,
      "texas": 2569,
      "bri": 2570,
      "attemp": 2571,
      "flo": 2572,
      "leading": 2573,
      "beach": 2574,
      "executive": 2575,
      "speaking": 2576,
      "soon": 2577,
      "##han": 2578,
      "rod": 2579,
      "chang": 2580,
      "japan": 2581,
      "fif": 2582,
      "creat": 2583,
      "property": 2584,
      "brand": 2585,
      "chance": 2586,
      "sat": 2587,
      "##ray": 2588,
      "helped": 2589,
      "sle": 2590,
      "##ky": 2591,
      "##iec": 2592,
      "kind": 2593,
      "charge": 2594,
      "##oid": 2595,
      "confirmed": 2596,
      "cast": 2597,
      "##yn": 2598,
      "##ca": 2599,
      "looked": 2600,
      "battle": 2601,
      "const": 2602,
      "teacher": 2603,
      "pan": 2604,
      "mel": 2605,
      "model": 2606,
      "##cept": 2607,
      "committ": 2608,
      "##overs": 2609,
      "broad": 2610,
      "tele": 2611,
      "##ara": 2612,
      "danger": 2613,
      "defense": 2614,
      "sports": 2615,
      "image": 2616,
      "##aily": 2617,
      "instead": 2618,
      "course": 2619,
      "effect": 2620,
      "sout": 2621,
      "critic": 2622,
      "mob": 2623,
      "brought": 2624,
      "serious": 2625,
      "##gency": 2626,
      "rev": 2627,
      "looks": 2628,
      "daily": 2629,
      "neg": 2630,
      "assist": 2631,
      "caught": 2632,
      "issue": 2633,
      "earth": 2634,
      "owner": 2635,
      "##iate": 2636,
      "appro": 2637,
      "australian": 2638,
      "pack": 2639,
      "hearing": 2640,
      "##selves": 2641,
      "fail": 2642,
      "##bur": 2643,
      "wants": 2644,
      "deep": 2645,
      "images": 2646,
      "##uries": 2647,
      "married": 2648,
      "##atures": 2649,
      "pictures": 2650,
      "pil": 2651,
      "immigr": 2652,
      "##cast": 2653,
      "district": 2654,
      "hall": 2655,
      "quick": 2656,
      "##asing": 2657,
      "bul": 2658,
      "ship": 2659,
      "typ": 2660,
      "mis": 2661,
      "##ung": 2662,
      "prep": 2663,
      "join": 2664,
      "indust": 2665,
      "foc": 2666,
      "protect": 2667,
      "huge": 2668,
      "rap": 2669,
      "surve": 2670,
      "bay": 2671,
      "##ille": 2672,
      "hur": 2673,
      "union": 2674,
      "policy": 2675,
      "perform": 2676,
      "moved": 2677,
      "someone": 2678,
      "##iant": 2679,
      "28": 2680,
      "die": 2681,
      "##mar": 2682,
      "twe": 2683,
      "goals": 2684,
      "problems": 2685,
      "martin": 2686,
      "##hood": 2687,
      "queen": 2688,
      "alleg": 2689,
      "##aur": 2690,
      "scott": 2691,
      "makes": 2692,
      "witness": 2693,
      "account": 2694,
      "doesn": 2695,
      "jail": 2696,
      "letter": 2697,
      "##hire": 2698,
      "americans": 2699,
      "arrived": 2700,
      "sea": 2701,
      "crow": 2702,
      "sure": 2703,
      "wrong": 2704,
      "border": 2705,
      "points": 2706,
      "2008": 2707,
      "ele": 2708,
      "##ounds": 2709,
      "billion": 2710,
      "franc": 2711,
      "madrid": 2712,
      "##inese": 2713,
      "controvers": 2714,
      "trib": 2715,
      "committee": 2716,
      "##bo": 2717,
      "##iety": 2718,
      "organiz": 2719,
      "arrest": 2720,
      "african": 2721,
      "conference": 2722,
      "title": 2723,
      "injured": 2724,
      "worth": 2725,
      "created": 2726,
      "perfor": 2727,
      "current": 2728,
      "##ulation": 2729,
      "ken": 2730,
      "surg": 2731,
      "allowed": 2732,
      "message": 2733,
      "problem": 2734,
      "scot": 2735,
      "brain": 2736,
      "trust": 2737,
      "decl": 2738,
      "eas": 2739,
      "meas": 2740,
      "sher": 2741,
      "field": 2742,
      "disease": 2743,
      "groups": 2744,
      "##yan": 2745,
      "bott": 2746,
      "operation": 2747,
      "diffic": 2748,
      "remains": 2749,
      "##sw": 2750,
      "guard": 2751,
      "apple": 2752,
      "deliver": 2753,
      "##itional": 2754,
      "launched": 2755,
      "republican": 2756,
      "##ept": 2757,
      "believes": 2758,
      "sport": 2759,
      "loss": 2760,
      "english": 2761,
      "currently": 2762,
      "internet": 2763,
      "weight": 2764,
      "##uation": 2765,
      "##ica": 2766,
      "female": 2767,
      "##esh": 2768,
      "holiday": 2769,
      "buy": 2770,
      "chinese": 2771,
      "##imate": 2772,
      "needed": 2773,
      "opening": 2774,
      "warned": 2775,
      "hundreds": 2776,
      "scored": 2777,
      "college": 2778,
      "result": 2779,
      "##aded": 2780,
      "##atives": 2781,
      "afghanistan": 2782,
      "means": 2783,
      "experience": 2784,
      "wearing": 2785,
      "certain": 2786,
      "aver": 2787,
      "##uted": 2788,
      "injury": 2789,
      "drugs": 2790,
      "immed": 2791,
      "single": 2792,
      "emergency": 2793,
      "febr": 2794,
      "##raft": 2795,
      "wild": 2796,
      "february": 2797,
      "##ergy": 2798,
      "##engers": 2799,
      "northern": 2800,
      "nec": 2801,
      "##key": 2802,
      "network": 2803,
      "##cement": 2804,
      "fighting": 2805,
      "administration": 2806,
      "conserv": 2807,
      "link": 2808,
      "rather": 2809,
      "stat": 2810,
      "ow": 2811,
      "fash": 2812,
      "##cep": 2813,
      "famous": 2814,
      "##ees": 2815,
      "##ilt": 2816,
      "gas": 2817,
      "minute": 2818,
      "##oin": 2819,
      "intr": 2820,
      "price": 2821,
      "##ither": 2822,
      "financ": 2823,
      "##opping": 2824,
      "##pped": 2825,
      "2014": 2826,
      "address": 2827,
      "##lear": 2828,
      "##uff": 2829,
      "chris": 2830,
      "interest": 2831,
      "nothing": 2832,
      "speed": 2833,
      "##ander": 2834,
      "cell": 2835,
      "cases": 2836,
      "common": 2837,
      "dre": 2838,
      "##rup": 2839,
      "##aces": 2840,
      "500": 2841,
      "##berg": 2842,
      "crew": 2843,
      "197": 2844,
      "range": 2845,
      "passengers": 2846,
      "marriage": 2847,
      "users": 2848,
      "returned": 2849,
      "##ams": 2850,
      "homes": 2851,
      "assault": 2852,
      "areas": 2853,
      "richard": 2854,
      "weather": 2855,
      "korea": 2856,
      "germany": 2857,
      "criminal": 2858,
      "fashion": 2859,
      "louis": 2860,
      "pract": 2861,
      "girlfriend": 2862,
      "river": 2863,
      "comb": 2864,
      "##chers": 2865,
      "cause": 2866,
      "##onstr": 2867,
      "tim": 2868,
      "carol": 2869,
      "var": 2870,
      "resear": 2871,
      "striker": 2872,
      "percent": 2873,
      "electr": 2874,
      "themselves": 2875,
      "convicted": 2876,
      "muslim": 2877,
      "performan": 2878,
      "reach": 2879,
      "oppos": 2880,
      "##ado": 2881,
      "residents": 2882,
      "ron": 2883,
      "inqu": 2884,
      "project": 2885,
      "discuss": 2886,
      "mult": 2887,
      "span": 2888,
      "##ibility": 2889,
      "##ada": 2890,
      "princ": 2891,
      "quar": 2892,
      "surgery": 2893,
      "##ager": 2894,
      "mexico": 2895,
      "firm": 2896,
      "ukrain": 2897,
      "cult": 2898,
      "##mb": 2899,
      "vote": 2900,
      "demand": 2901,
      "felt": 2902,
      "gard": 2903,
      "begin": 2904,
      "##ional": 2905,
      "agree": 2906,
      "29": 2907,
      "##atter": 2908,
      "moun": 2909,
      "##my": 2910,
      "injuries": 2911,
      "biggest": 2912,
      "separ": 2913,
      "##ites": 2914,
      "jones": 2915,
      "determ": 2916,
      "##50": 2917,
      "peter": 2918,
      "##oz": 2919,
      "##bi": 2920,
      "include": 2921,
      "particular": 2922,
      "respond": 2923,
      "##empt": 2924,
      "joined": 2925,
      "##essor": 2926,
      "##ris": 2927,
      "pregn": 2928,
      "telev": 2929,
      "difficult": 2930,
      "##ored": 2931,
      "expect": 2932,
      "60": 2933,
      "##iter": 2934,
      "peace": 2935,
      "comment": 2936,
      "##olf": 2937,
      "kim": 2938,
      "##acted": 2939,
      "williams": 2940,
      "stab": 2941,
      "launch": 2942,
      "##fully": 2943,
      "stage": 2944,
      "data": 2945,
      "disp": 2946,
      "wedding": 2947,
      "##ho": 2948,
      "##hel": 2949,
      "jose": 2950,
      "wasn": 2951,
      "camera": 2952,
      "actually": 2953,
      "aud": 2954,
      "kick": 2955,
      "displ": 2956,
      "corn": 2957,
      "mos": 2958,
      "##icide": 2959,
      "defe": 2960,
      "esp": 2961,
      "##iled": 2962,
      "bud": 2963,
      "##elled": 2964,
      "##ify": 2965,
      "arch": 2966,
      "surr": 2967,
      "charac": 2968,
      "knew": 2969,
      "##hol": 2970,
      "provide": 2971,
      "prevent": 2972,
      "jailed": 2973,
      "hair": 2974,
      "partner": 2975,
      "non": 2976,
      "patr": 2977,
      "complain": 2978,
      "##estern": 2979,
      "award": 2980,
      "row": 2981,
      "giving": 2982,
      "##ogn": 2983,
      "##apped": 2984,
      "jackson": 2985,
      "pressure": 2986,
      "candid": 2987,
      "##epend": 2988,
      "walk": 2989,
      "wel": 2990,
      "photos": 2991,
      "##ises": 2992,
      "surpr": 2993,
      "restaur": 2994,
      "barack": 2995,
      "##roy": 2996,
      "independ": 2997,
      "energy": 2998,
      "penal": 2999,
      "##hy": 3000,
      "refer": 3001,
      "##ena": 3002,
      "ille": 3003,
      "shock": 3004,
      "##ogle": 3005,
      "illeg": 3006,
      "pred": 3007,
      "roll": 3008,
      "##ounded": 3009,
      "style": 3010,
      "der": 3011,
      "ep": 3012,
      "technology": 3013,
      "door": 3014,
      "scotland": 3015,
      "squad": 3016,
      "pers": 3017,
      "bow": 3018,
      "infl": 3019,
      "contrib": 3020,
      "johnson": 3021,
      "works": 3022,
      "needs": 3023,
      "calls": 3024,
      "abs": 3025,
      "env": 3026,
      "extra": 3027,
      "comments": 3028,
      "finally": 3029,
      "hy": 3030,
      "##of": 3031,
      "appar": 3032,
      "talk": 3033,
      "idea": 3034,
      "pul": 3035,
      "##itten": 3036,
      "troops": 3037,
      "##ersey": 3038,
      "published": 3039,
      "cook": 3040,
      "abd": 3041,
      "global": 3042,
      "matt": 3043,
      "gone": 3044,
      "##dr": 3045,
      "norm": 3046,
      "offer": 3047,
      "##ains": 3048,
      "wales": 3049,
      "phys": 3050,
      "##ift": 3051,
      "##iger": 3052,
      "du": 3053,
      "nick": 3054,
      "cop": 3055,
      "allegations": 3056,
      "previous": 3057,
      "##ode": 3058,
      "avail": 3059,
      "obs": 3060,
      "sentence": 3061,
      "aftern": 3062,
      "express": 3063,
      "average": 3064,
      "issues": 3065,
      "built": 3066,
      "##ushed": 3067,
      "oil": 3068,
      "google": 3069,
      "appeal": 3070,
      "##iod": 3071,
      "##ivid": 3072,
      "aid": 3073,
      "##emy": 3074,
      "emerged": 3075,
      "##la": 3076,
      "carried": 3077,
      "afternoon": 3078,
      "eye": 3079,
      "gay": 3080,
      "position": 3081,
      "grow": 3082,
      "ens": 3083,
      "fle": 3084,
      "india": 3085,
      "contract": 3086,
      "robert": 3087,
      "anyone": 3088,
      "opportun": 3089,
      "hers": 3090,
      "piec": 3091,
      "recover": 3092,
      "##enger": 3093,
      "lee": 3094,
      "kar": 3095,
      "##ini": 3096,
      "review": 3097,
      "nations": 3098,
      "fellow": 3099,
      "warning": 3100,
      "anything": 3101,
      "showing": 3102,
      "create": 3103,
      "bit": 3104,
      "source": 3105,
      "cred": 3106,
      "attacked": 3107,
      "ice": 3108,
      "soldiers": 3109,
      "ash": 3110,
      "fit": 3111,
      "financial": 3112,
      "takes": 3113,
      "professor": 3114,
      "reason": 3115,
      "ps": 3116,
      "vehicle": 3117,
      "animal": 3118,
      "sky": 3119,
      "cit": 3120,
      "signed": 3121,
      "##por": 3122,
      "##kn": 3123,
      "fair": 3124,
      "##onse": 3125,
      "poll": 3126,
      "period": 3127,
      "mas": 3128,
      "engine": 3129,
      "jer": 3130,
      "southern": 3131,
      "stad": 3132,
      "fal": 3133,
      "##amb": 3134,
      "hear": 3135,
      "hous": 3136,
      "tor": 3137,
      "clinton": 3138,
      "##ev": 3139,
      "affair": 3140,
      "##oney": 3141,
      "lord": 3142,
      "lived": 3143,
      "share": 3144,
      "speak": 3145,
      "cab": 3146,
      "blue": 3147,
      "eb": 3148,
      "vers": 3149,
      "economic": 3150,
      "calling": 3151,
      "##men": 3152,
      "demonstr": 3153,
      "response": 3154,
      "table": 3155,
      "total": 3156,
      "growing": 3157,
      "understand": 3158,
      "charl": 3159,
      "##lines": 3160,
      "feet": 3161,
      "##orks": 3162,
      "##aging": 3163,
      "behav": 3164,
      "everything": 3165,
      "doctor": 3166,
      "pow": 3167,
      "safe": 3168,
      "##oper": 3169,
      "egy": 3170,
      "31": 3171,
      "education": 3172,
      "armed": 3173,
      "veter": 3174,
      "##agn": 3175,
      "potential": 3176,
      "##vin": 3177,
      "egypt": 3178,
      "web": 3179,
      "##ament": 3180,
      "longer": 3181,
      "available": 3182,
      "jury": 3183,
      "cris": 3184,
      "experts": 3185,
      "spain": 3186,
      "##gg": 3187,
      "stun": 3188,
      "indian": 3189,
      "##ider": 3190,
      "sel": 3191,
      "##inks": 3192,
      "agre": 3193,
      "challenge": 3194,
      "included": 3195,
      "television": 3196,
      "opened": 3197,
      "previously": 3198,
      "##lant": 3199,
      "evening": 3200,
      "harry": 3201,
      "customers": 3202,
      "continued": 3203,
      "##inated": 3204,
      "£3": 3205,
      "spending": 3206,
      "signific": 3207,
      "gang": 3208,
      "nuc": 3209,
      "stadium": 3210,
      "ru": 3211,
      "ros": 3212,
      "rout": 3213,
      "##oken": 3214,
      "din": 3215,
      "##oo": 3216,
      "##oul": 3217,
      "##omm": 3218,
      "victor": 3219,
      "##ction": 3220,
      "##hest": 3221,
      "unc": 3222,
      "andrew": 3223,
      "motor": 3224,
      "individ": 3225,
      "##inger": 3226,
      "everyone": 3227,
      "##ville": 3228,
      "spend": 3229,
      "##ipped": 3230,
      "fort": 3231,
      "##ude": 3232,
      "weapons": 3233,
      "tweet": 3234,
      "islamic": 3235,
      "syrian": 3236,
      "ended": 3237,
      "champion": 3238,
      "jump": 3239,
      "largest": 3240,
      "doz": 3241,
      "companies": 3242,
      "aged": 3243,
      "burn": 3244,
      "histor": 3245,
      "investigators": 3246,
      "detect": 3247,
      "32": 3248,
      "speech": 3249,
      "extrem": 3250,
      "##astern": 3251,
      "##ki": 3252,
      "2007": 3253,
      "mind": 3254,
      "issued": 3255,
      "adding": 3256,
      "##imb": 3257,
      "mayor": 3258,
      "winner": 3259,
      "shown": 3260,
      "##ellig": 3261,
      "##craft": 3262,
      "repe": 3263,
      "##ban": 3264,
      "clot": 3265,
      "196": 3266,
      "chairman": 3267,
      "ga": 3268,
      "dar": 3269,
      "##anda": 3270,
      "nuclear": 3271,
      "championship": 3272,
      "sleep": 3273,
      "gri": 3274,
      "bod": 3275,
      "boys": 3276,
      "fast": 3277,
      "mary": 3278,
      "profession": 3279,
      "performance": 3280,
      "mist": 3281,
      "deg": 3282,
      "intellig": 3283,
      "sar": 3284,
      "stra": 3285,
      "else": 3286,
      "conc": 3287,
      "35": 3288,
      "kept": 3289,
      "paris": 3290,
      "suspect": 3291,
      "figures": 3292,
      "isis": 3293,
      "##icket": 3294,
      "researchers": 3295,
      "movie": 3296,
      "ful": 3297,
      "refused": 3298,
      "##ours": 3299,
      "##wh": 3300,
      "spoke": 3301,
      "clean": 3302,
      "drive": 3303,
      "entire": 3304,
      "skin": 3305,
      "footage": 3306,
      "western": 3307,
      "##ancy": 3308,
      "cash": 3309,
      "thomas": 3310,
      "##tic": 3311,
      "##off": 3312,
      "poor": 3313,
      "daniel": 3314,
      "cars": 3315,
      "song": 3316,
      "##ural": 3317,
      "newsp": 3318,
      "##aked": 3319,
      "scientists": 3320,
      "sav": 3321,
      "sell": 3322,
      "45": 3323,
      "broke": 3324,
      "damage": 3325,
      "##ips": 3326,
      "prosecutors": 3327,
      "surf": 3328,
      "jersey": 3329,
      "natur": 3330,
      "flood": 3331,
      "palace": 3332,
      "virgin": 3333,
      "mir": 3334,
      "questions": 3335,
      "##vert": 3336,
      "parts": 3337,
      "##istry": 3338,
      "##read": 3339,
      "ce": 3340,
      "explos": 3341,
      "francis": 3342,
      "##oman": 3343,
      "save": 3344,
      "rain": 3345,
      "fourth": 3346,
      "designed": 3347,
      "##iction": 3348,
      "whole": 3349,
      "sentenced": 3350,
      "instit": 3351,
      "##ishing": 3352,
      "regular": 3353,
      "floor": 3354,
      "impress": 3355,
      "rescue": 3356,
      "##action": 3357,
      "liber": 3358,
      "denied": 3359,
      "mission": 3360,
      "herself": 3361,
      "details": 3362,
      "##ih": 3363,
      "mobile": 3364,
      "stars": 3365,
      "charity": 3366,
      "protest": 3367,
      "jew": 3368,
      "parl": 3369,
      "fan": 3370,
      "sale": 3371,
      "schools": 3372,
      "##back": 3373,
      "tem": 3374,
      "insur": 3375,
      "agreed": 3376,
      "offered": 3377,
      "millions": 3378,
      "attempt": 3379,
      "ital": 3380,
      "industry": 3381,
      "ordered": 3382,
      "lawyer": 3383,
      "attend": 3384,
      "##ampton": 3385,
      "defend": 3386,
      "senate": 3387,
      "passed": 3388,
      "significant": 3389,
      "unf": 3390,
      "barcel": 3391,
      "conditions": 3392,
      "claiming": 3393,
      "actor": 3394,
      "sad": 3395,
      "##ago": 3396,
      "unl": 3397,
      "italy": 3398,
      "compu": 3399,
      "presidential": 3400,
      "barcelona": 3401,
      "radio": 3402,
      "##ert": 3403,
      "towards": 3404,
      "##pm": 3405,
      "##iron": 3406,
      "increase": 3407,
      "situation": 3408,
      "##ique": 3409,
      "olympic": 3410,
      "lew": 3411,
      "aircraft": 3412,
      "sem": 3413,
      "arab": 3414,
      "document": 3415,
      "citiz": 3416,
      "jobs": 3417,
      "recogn": 3418,
      "size": 3419,
      "##phone": 3420,
      "gather": 3421,
      "suicide": 3422,
      "ol": 3423,
      "suffering": 3424,
      "association": 3425,
      "##itz": 3426,
      "village": 3427,
      "democratic": 3428,
      "supporters": 3429,
      "moving": 3430,
      "dangerous": 3431,
      "##ez": 3432,
      "prim": 3433,
      "rape": 3434,
      "amaz": 3435,
      "cannot": 3436,
      "vo": 3437,
      "syd": 3438,
      "carrying": 3439,
      "las": 3440,
      "ready": 3441,
      "##using": 3442,
      "identified": 3443,
      "##tress": 3444,
      "enfor": 3445,
      "events": 3446,
      "ul": 3447,
      "heavy": 3448,
      "sens": 3449,
      "chem": 3450,
      "attr": 3451,
      "freed": 3452,
      "lov": 3453,
      "##ny": 3454,
      "sydney": 3455,
      "##ighters": 3456,
      "followed": 3457,
      "shop": 3458,
      "##iest": 3459,
      "inn": 3460,
      "magaz": 3461,
      "swe": 3462,
      "words": 3463,
      "##za": 3464,
      "##reg": 3465,
      "appears": 3466,
      "disappear": 3467,
      "mour": 3468,
      "environ": 3469,
      "atlant": 3470,
      "matter": 3471,
      "##ielder": 3472,
      "##ension": 3473,
      "crisis": 3474,
      "kids": 3475,
      "jim": 3476,
      "aim": 3477,
      "##ugh": 3478,
      "33": 3479,
      "##uing": 3480,
      "nhs": 3481,
      "perfect": 3482,
      "square": 3483,
      "hug": 3484,
      "##form": 3485,
      "raised": 3486,
      "##mark": 3487,
      "mountain": 3488,
      "nat": 3489,
      "frank": 3490,
      "memor": 3491,
      "##oes": 3492,
      "emot": 3493,
      "bridge": 3494,
      "jon": 3495,
      "touch": 3496,
      "cerem": 3497,
      "parliam": 3498,
      "##lor": 3499,
      "neighbor": 3500,
      "dub": 3501,
      "##fielder": 3502,
      "stopped": 3503,
      "answ": 3504,
      "faces": 3505,
      "penalty": 3506,
      "alongside": 3507,
      "##aming": 3508,
      "##olution": 3509,
      "##iet": 3510,
      "struck": 3511,
      "boyfriend": 3512,
      "shir": 3513,
      "intelligence": 3514,
      "ari": 3515,
      "attention": 3516,
      "diagn": 3517,
      "parliament": 3518,
      "##iated": 3519,
      "holl": 3520,
      "rare": 3521,
      "fired": 3522,
      "##well": 3523,
      "immedi": 3524,
      "sant": 3525,
      "thanks": 3526,
      "##ba": 3527,
      "midfielder": 3528,
      "immediately": 3529,
      "documents": 3530,
      "##fl": 3531,
      "favour": 3532,
      "temper": 3533,
      "encour": 3534,
      "ba": 3535,
      "quarter": 3536,
      "##atory": 3537,
      "hopes": 3538,
      "##astic": 3539,
      "reportedly": 3540,
      "feat": 3541,
      "streets": 3542,
      "##bridge": 3543,
      "century": 3544,
      "mater": 3545,
      "##woman": 3546,
      "ord": 3547,
      "tow": 3548,
      "##agement": 3549,
      "apartment": 3550,
      "competition": 3551,
      "##down": 3552,
      "shel": 3553,
      "##where": 3554,
      "##istic": 3555,
      "double": 3556,
      "god": 3557,
      "italian": 3558,
      "##oned": 3559,
      "send": 3560,
      "##oe": 3561,
      "##omp": 3562,
      "collection": 3563,
      "twice": 3564,
      "brook": 3565,
      "##rey": 3566,
      "##unk": 3567,
      "telling": 3568,
      "impact": 3569,
      "##iles": 3570,
      "display": 3571,
      "cru": 3572,
      "##born": 3573,
      "appr": 3574,
      "block": 3575,
      "stone": 3576,
      "nas": 3577,
      "georg": 3578,
      "fest": 3579,
      "bought": 3580,
      "concerns": 3581,
      "couldn": 3582,
      "results": 3583,
      "fill": 3584,
      "##car": 3585,
      "talks": 3586,
      "facing": 3587,
      "development": 3588,
      "##ha": 3589,
      "effort": 3590,
      "ire": 3591,
      "pur": 3592,
      "lux": 3593,
      "##ych": 3594,
      "environment": 3595,
      "defeat": 3596,
      "helping": 3597,
      "muse": 3598,
      "hack": 3599,
      "efforts": 3600,
      "crowd": 3601,
      "sud": 3602,
      "consum": 3603,
      "doll": 3604,
      "ach": 3605,
      "rise": 3606,
      "##ength": 3607,
      "consider": 3608,
      "occur": 3609,
      "##ram": 3610,
      "swim": 3611,
      "##inary": 3612,
      "controversial": 3613,
      "pen": 3614,
      "ath": 3615,
      "##icks": 3616,
      "band": 3617,
      "avoid": 3618,
      "espec": 3619,
      "especially": 3620,
      "exam": 3621,
      "animals": 3622,
      "complete": 3623,
      "captured": 3624,
      "##gl": 3625,
      "bob": 3626,
      "lady": 3627,
      "holding": 3628,
      "ok": 3629,
      "reporters": 3630,
      "troub": 3631,
      "reform": 3632,
      "pret": 3633,
      "levels": 3634,
      "opposition": 3635,
      "36": 3636,
      "walking": 3637,
      "##cohol": 3638,
      "economy": 3639,
      "related": 3640,
      "file": 3641,
      "written": 3642,
      "##isters": 3643,
      "penn": 3644,
      "restaurant": 3645,
      "alcohol": 3646,
      "ts": 3647,
      "##bour": 3648,
      "contact": 3649,
      "mach": 3650,
      "suspected": 3651,
      "alone": 3652,
      "dism": 3653,
      "transport": 3654,
      "dig": 3655,
      "cold": 3656,
      "spread": 3657,
      "##tle": 3658,
      "##bre": 3659,
      "placed": 3660,
      "cub": 3661,
      "sanc": 3662,
      "##ga": 3663,
      "onto": 3664,
      "trag": 3665,
      "ask": 3666,
      "##ya": 3667,
      "##ari": 3668,
      "eastern": 3669,
      "##come": 3670,
      "jul": 3671,
      "filed": 3672,
      "bost": 3673,
      "treated": 3674,
      "magazine": 3675,
      "##ented": 3676,
      "ministry": 3677,
      "actress": 3678,
      "estim": 3679,
      "mac": 3680,
      "male": 3681,
      "character": 3682,
      "scand": 3683,
      "tourn": 3684,
      "rub": 3685,
      "singer": 3686,
      "devast": 3687,
      "either": 3688,
      "deaths": 3689,
      "color": 3690,
      "giant": 3691,
      "teenager": 3692,
      "##nes": 3693,
      "spanish": 3694,
      "##esters": 3695,
      "raise": 3696,
      "quickly": 3697,
      "##eds": 3698,
      "check": 3699,
      "deputy": 3700,
      "owners": 3701,
      "argent": 3702,
      "charles": 3703,
      "##unt": 3704,
      "lad": 3705,
      "vac": 3706,
      "illegal": 3707,
      "##while": 3708,
      "society": 3709,
      "lack": 3710,
      "loan": 3711,
      "bol": 3712,
      "rules": 3713,
      "##aches": 3714,
      "benefits": 3715,
      "##itche": 3716,
      "newspaper": 3717,
      "changes": 3718,
      "##van": 3719,
      "transfer": 3720,
      "planning": 3721,
      "smart": 3722,
      "boston": 3723,
      "##inson": 3724,
      "discover": 3725,
      "relig": 3726,
      "##iling": 3727,
      "##oom": 3728,
      "##gar": 3729,
      "sheriff": 3730,
      "medic": 3731,
      "##ores": 3732,
      "bird": 3733,
      "##eda": 3734,
      "asking": 3735,
      "##ex": 3736,
      "##aud": 3737,
      "products": 3738,
      "pulled": 3739,
      "dark": 3740,
      "beg": 3741,
      "served": 3742,
      "planned": 3743,
      "##elly": 3744,
      "indic": 3745,
      "##rif": 3746,
      "museum": 3747,
      "bull": 3748,
      "increasing": 3749,
      "ryan": 3750,
      "strike": 3751,
      "holly": 3752,
      "flag": 3753,
      "messages": 3754,
      "natural": 3755,
      "protesters": 3756,
      "##oint": 3757,
      "glass": 3758,
      "bi": 3759,
      "70": 3760,
      "stock": 3761,
      "sales": 3762,
      "##ta": 3763,
      "photographer": 3764,
      "immigration": 3765,
      "simply": 3766,
      "murray": 3767,
      "ox": 3768,
      "meanwhile": 3769,
      "tay": 3770,
      "winter": 3771,
      "##mond": 3772,
      "##fort": 3773,
      "lang": 3774,
      "defence": 3775,
      "##ground": 3776,
      "survey": 3777,
      "##itting": 3778,
      "##ucted": 3779,
      "bodies": 3780,
      "bush": 3781,
      "gal": 3782,
      "steve": 3783,
      "changed": 3784,
      "original": 3785,
      "carl": 3786,
      "rate": 3787,
      "subst": 3788,
      "higher": 3789,
      "ram": 3790,
      "repeated": 3791,
      "tenn": 3792,
      "spir": 3793,
      "prior": 3794,
      "fbi": 3795,
      "wid": 3796,
      "nov": 3797,
      "laur": 3798,
      "probably": 3799,
      "korean": 3800,
      "##ube": 3801,
      "removed": 3802,
      "bath": 3803,
      "##ano": 3804,
      "achie": 3805,
      "shut": 3806,
      "##ibly": 3807,
      "handed": 3808,
      "remember": 3809,
      "loved": 3810,
      "##iny": 3811,
      "considered": 3812,
      "##ases": 3813,
      "##aves": 3814,
      "farm": 3815,
      "flying": 3816,
      "opportunity": 3817,
      "supre": 3818,
      "counter": 3819,
      "##isl": 3820,
      "incred": 3821,
      "chic": 3822,
      "qa": 3823,
      "2006": 3824,
      "respect": 3825,
      "##castle": 3826,
      "ceremony": 3827,
      "##ador": 3828,
      "quite": 3829,
      "terrorist": 3830,
      "highest": 3831,
      "##igan": 3832,
      "nearby": 3833,
      "temp": 3834,
      "##jected": 3835,
      "ton": 3836,
      "ruled": 3837,
      "ker": 3838,
      "##uk": 3839,
      "##essed": 3840,
      "managed": 3841,
      "influ": 3842,
      "destroy": 3843,
      "goes": 3844,
      "lay": 3845,
      "nom": 3846,
      "boat": 3847,
      "annual": 3848,
      "dogs": 3849,
      "improve": 3850,
      "ronald": 3851,
      "majority": 3852,
      "organization": 3853,
      "focus": 3854,
      "scoring": 3855,
      "ukraine": 3856,
      "responsible": 3857,
      "##don": 3858,
      "chann": 3859,
      "##ils": 3860,
      "wait": 3861,
      "##ample": 3862,
      "date": 3863,
      "modern": 3864,
      "dun": 3865,
      "ebola": 3866,
      "newcastle": 3867,
      "rober": 3868,
      "starting": 3869,
      "kate": 3870,
      "##aining": 3871,
      "waiting": 3872,
      "whom": 3873,
      "figure": 3874,
      "##aped": 3875,
      "selling": 3876,
      "throughout": 3877,
      "isn": 3878,
      "pregnant": 3879,
      "##iance": 3880,
      "##asons": 3881,
      "mand": 3882,
      "fix": 3883,
      "spl": 3884,
      "massive": 3885,
      "estab": 3886,
      "shared": 3887,
      "costs": 3888,
      "bey": 3889,
      "lake": 3890,
      "closed": 3891,
      "34": 3892,
      "##gers": 3893,
      "item": 3894,
      "##ability": 3895,
      "linked": 3896,
      "appearance": 3897,
      "##isc": 3898,
      "joe": 3899,
      "max": 3900,
      "pilot": 3901,
      "##ucky": 3902,
      "gaal": 3903,
      "##akers": 3904,
      "experi": 3905,
      "bedroom": 3906,
      "gall": 3907,
      "adop": 3908,
      "communic": 3909,
      "republicans": 3910,
      "grad": 3911,
      "oh": 3912,
      "##tim": 3913,
      "##tenham": 3914,
      "eating": 3915,
      "teams": 3916,
      "eth": 3917,
      "uns": 3918,
      "romney": 3919,
      "defender": 3920,
      "##ounts": 3921,
      "terms": 3922,
      "records": 3923,
      "##hew": 3924,
      "luc": 3925,
      "##ula": 3926,
      "older": 3927,
      "brad": 3928,
      "standing": 3929,
      "straight": 3930,
      "decades": 3931,
      "##kins": 3932,
      "eyes": 3933,
      "lower": 3934,
      "talking": 3935,
      "ensure": 3936,
      "includes": 3937,
      "eat": 3938,
      "##hib": 3939,
      "tony": 3940,
      "mans": 3941,
      "##ills": 3942,
      "lose": 3943,
      "##bing": 3944,
      "anth": 3945,
      "pull": 3946,
      "reached": 3947,
      "dream": 3948,
      "##keep": 3949,
      "causing": 3950,
      "##erc": 3951,
      "true": 3952,
      "budget": 3953,
      "kent": 3954,
      "ali": 3955,
      "##bury": 3956,
      "enforcement": 3957,
      "watching": 3958,
      "##clus": 3959,
      "screen": 3960,
      "##lands": 3961,
      "suit": 3962,
      "tear": 3963,
      "##ze": 3964,
      "qaeda": 3965,
      "tragic": 3966,
      "##iful": 3967,
      "liby": 3968,
      "garden": 3969,
      "##mit": 3970,
      "shortly": 3971,
      "mp": 3972,
      "dropped": 3973,
      "seeing": 3974,
      "regard": 3975,
      "##ron": 3976,
      "apolog": 3977,
      "losing": 3978,
      "oce": 3979,
      "moham": 3980,
      "professional": 3981,
      "spotted": 3982,
      "worst": 3983,
      "od": 3984,
      "ut": 3985,
      "conservative": 3986,
      "##unch": 3987,
      "vice": 3988,
      "ring": 3989,
      "successful": 3990,
      "estate": 3991,
      "tournament": 3992,
      "violent": 3993,
      "artist": 3994,
      "acad": 3995,
      "##inho": 3996,
      "traffic": 3997,
      "##gested": 3998,
      "israeli": 3999,
      "psych": 4000,
      "##set": 4001,
      "ii": 4002,
      "300": 4003,
      "##ani": 4004,
      "christian": 4005,
      "hen": 4006,
      "carolina": 4007,
      "amount": 4008,
      "##cing": 4009,
      "eventually": 4010,
      "##any": 4011,
      "compared": 4012,
      "##ustr": 4013,
      "beaut": 4014,
      "fine": 4015,
      "bright": 4016,
      "fox": 4017,
      "exch": 4018,
      "operations": 4019,
      "##erve": 4020,
      "fresh": 4021,
      "computer": 4022,
      "governor": 4023,
      "georgia": 4024,
      "##eless": 4025,
      "device": 4026,
      "80": 4027,
      "kidn": 4028,
      "banned": 4029,
      "sched": 4030,
      "features": 4031,
      "##ero": 4032,
      "ly": 4033,
      "wonder": 4034,
      "scandal": 4035,
      "##uth": 4036,
      "numbers": 4037,
      "alter": 4038,
      "alb": 4039,
      "##ocks": 4040,
      "spokeswoman": 4041,
      "ca": 4042,
      "taylor": 4043,
      "ray": 4044,
      "mile": 4045,
      "mental": 4046,
      "cry": 4047,
      "seat": 4048,
      "material": 4049,
      "mike": 4050,
      "apparently": 4051,
      "tun": 4052,
      "spr": 4053,
      "##bit": 4054,
      "patient": 4055,
      "promot": 4056,
      "cooper": 4057,
      "stephen": 4058,
      "birthday": 4059,
      "##ilities": 4060,
      "tas": 4061,
      "airlines": 4062,
      "bin": 4063,
      "##ella": 4064,
      "und": 4065,
      "becoming": 4066,
      "##iple": 4067,
      "wilson": 4068,
      "voters": 4069,
      "advert": 4070,
      "seems": 4071,
      "##itution": 4072,
      "fab": 4073,
      "particularly": 4074,
      "rang": 4075,
      "##iring": 4076,
      "##ican": 4077,
      "##body": 4078,
      "##estic": 4079,
      "##ties": 4080,
      "jord": 4081,
      "dut": 4082,
      "rid": 4083,
      "##ela": 4084,
      "debate": 4085,
      "##ius": 4086,
      "worker": 4087,
      "prog": 4088,
      "abb": 4089,
      "word": 4090,
      "andy": 4091,
      "suggested": 4092,
      "dip": 4093,
      "eric": 4094,
      "complet": 4095,
      "kr": 4096,
      "##ropri": 4097,
      "custody": 4098,
      "assistant": 4099,
      "broken": 4100,
      "dram": 4101,
      "miche": 4102,
      "kat": 4103,
      "##ateg": 4104,
      "unable": 4105,
      "greater": 4106,
      "suspended": 4107,
      "beautiful": 4108,
      "duc": 4109,
      "##ument": 4110,
      "haw": 4111,
      "##ilton": 4112,
      "supreme": 4113,
      "##sex": 4114,
      "spar": 4115,
      "visited": 4116,
      "paper": 4117,
      "investigating": 4118,
      "navy": 4119,
      "comed": 4120,
      "insisted": 4121,
      "##cy": 4122,
      "resign": 4123,
      "##ounding": 4124,
      "37": 4125,
      "##osh": 4126,
      "feed": 4127,
      "##ota": 4128,
      "legisl": 4129,
      "##arr": 4130,
      "meant": 4131,
      "serving": 4132,
      "##ulted": 4133,
      "90": 4134,
      "introduc": 4135,
      "flat": 4136,
      "##night": 4137,
      "minor": 4138,
      "memorial": 4139,
      "##val": 4140,
      "2005": 4141,
      "approach": 4142,
      "##oms": 4143,
      "##iana": 4144,
      "particip": 4145,
      "faced": 4146,
      "hero": 4147,
      "youth": 4148,
      "eld": 4149,
      "clar": 4150,
      "normal": 4151,
      "##going": 4152,
      "soft": 4153,
      "degree": 4154,
      "progress": 4155,
      "pup": 4156,
      "##uled": 4157,
      "##zz": 4158,
      "pleaded": 4159,
      "jam": 4160,
      "##ological": 4161,
      "rose": 4162,
      "horse": 4163,
      "fraud": 4164,
      "covered": 4165,
      "version": 4166,
      "tottenham": 4167,
      "putting": 4168,
      "sources": 4169,
      "walked": 4170,
      "£4": 4171,
      "healthy": 4172,
      "committed": 4173,
      "##nel": 4174,
      "prices": 4175,
      "suspic": 4176,
      "runs": 4177,
      "##kes": 4178,
      "##iser": 4179,
      "emp": 4180,
      "independent": 4181,
      "rail": 4182,
      "anthony": 4183,
      "proud": 4184,
      "##icop": 4185,
      "bom": 4186,
      "ireland": 4187,
      "chicago": 4188,
      "watched": 4189,
      "names": 4190,
      "trade": 4191,
      "employees": 4192,
      "##alled": 4193,
      "specific": 4194,
      "virginia": 4195,
      "citizens": 4196,
      "culture": 4197,
      "##asts": 4198,
      "38": 4199,
      "##ovic": 4200,
      "places": 4201,
      "concerned": 4202,
      "regime": 4203,
      "agreement": 4204,
      "instr": 4205,
      "receive": 4206,
      "cambridge": 4207,
      "sick": 4208,
      "##ble": 4209,
      "propos": 4210,
      "unit": 4211,
      "amid": 4212,
      "plant": 4213,
      "exact": 4214,
      "##athan": 4215,
      "##ighter": 4216,
      "ruling": 4217,
      "sarah": 4218,
      "##arez": 4219,
      "ocean": 4220,
      "##ceed": 4221,
      "choice": 4222,
      "jess": 4223,
      "coal": 4224,
      "gets": 4225,
      "itself": 4226,
      "bond": 4227,
      "completely": 4228,
      "adam": 4229,
      "attempted": 4230,
      "lewis": 4231,
      "crack": 4232,
      "provided": 4233,
      "kh": 4234,
      "happen": 4235,
      "powerful": 4236,
      "##house": 4237,
      "population": 4238,
      "##ption": 4239,
      "rog": 4240,
      "##ette": 4241,
      "protection": 4242,
      "province": 4243,
      "bon": 4244,
      "signing": 4245,
      "##oma": 4246,
      "##iban": 4247,
      "##hold": 4248,
      "sche": 4249,
      "legend": 4250,
      "pool": 4251,
      "traditional": 4252,
      "channel": 4253,
      "##burg": 4254,
      "mix": 4255,
      "blog": 4256,
      "mun": 4257,
      "hunt": 4258,
      "crimes": 4259,
      "window": 4260,
      "jenn": 4261,
      "expert": 4262,
      "jeff": 4263,
      "wheel": 4264,
      "breaking": 4265,
      "zeal": 4266,
      "actions": 4267,
      "taliban": 4268,
      "ways": 4269,
      "##oking": 4270,
      "agent": 4271,
      "exerc": 4272,
      "prosecutor": 4273,
      "dramatic": 4274,
      "domestic": 4275,
      "piece": 4276,
      "cart": 4277,
      "feeling": 4278,
      "##gus": 4279,
      "attended": 4280,
      "foundation": 4281,
      "movement": 4282,
      "terr": 4283,
      "controll": 4284,
      "##wide": 4285,
      "sense": 4286,
      "authority": 4287,
      "crashed": 4288,
      "inspired": 4289,
      "##aine": 4290,
      "celebrate": 4291,
      "jet": 4292,
      "constr": 4293,
      "candidate": 4294,
      "victoria": 4295,
      "##iot": 4296,
      "severe": 4297,
      "##gu": 4298,
      "##och": 4299,
      "##ires": 4300,
      "drinking": 4301,
      "helicop": 4302,
      "##onic": 4303,
      "##arm": 4304,
      "cities": 4305,
      "desper": 4306,
      "fifth": 4307,
      "voice": 4308,
      "accep": 4309,
      "##ae": 4310,
      "##sey": 4311,
      "owned": 4312,
      "brief": 4313,
      "example": 4314,
      "breast": 4315,
      "pac": 4316,
      "chemical": 4317,
      "hollywood": 4318,
      "reality": 4319,
      "positive": 4320,
      "langu": 4321,
      "##jects": 4322,
      "arms": 4323,
      "connect": 4324,
      "tel": 4325,
      "traged": 4326,
      "entertain": 4327,
      "eu": 4328,
      "text": 4329,
      "deadly": 4330,
      "younger": 4331,
      "jordan": 4332,
      "##cle": 4333,
      "manh": 4334,
      "luxury": 4335,
      "request": 4336,
      "danc": 4337,
      "founder": 4338,
      "lic": 4339,
      "threatened": 4340,
      "tests": 4341,
      "##eed": 4342,
      "##sp": 4343,
      "decade": 4344,
      "accept": 4345,
      "dad": 4346,
      "42": 4347,
      "niger": 4348,
      "commer": 4349,
      "hoping": 4350,
      "maria": 4351,
      "journey": 4352,
      "funeral": 4353,
      "militants": 4354,
      "finding": 4355,
      "##iber": 4356,
      "spring": 4357,
      "passenger": 4358,
      "sor": 4359,
      "ven": 4360,
      "##vent": 4361,
      "tory": 4362,
      "via": 4363,
      "developed": 4364,
      "sitting": 4365,
      "palest": 4366,
      "learn": 4367,
      "princess": 4368,
      "protests": 4369,
      "divor": 4370,
      "freedom": 4371,
      "corpor": 4372,
      "chec": 4373,
      "log": 4374,
      "steven": 4375,
      "##bor": 4376,
      "product": 4377,
      "commit": 4378,
      "easy": 4379,
      "wide": 4380,
      "increased": 4381,
      "diet": 4382,
      "paying": 4383,
      "signs": 4384,
      "virus": 4385,
      "kevin": 4386,
      "shopping": 4387,
      "diagnosed": 4388,
      "visitors": 4389,
      "48": 4390,
      "fergus": 4391,
      "athlet": 4392,
      "syn": 4393,
      "murdered": 4394,
      "##omatic": 4395,
      "beauty": 4396,
      "golf": 4397,
      "meth": 4398,
      "lawsuit": 4399,
      "##iced": 4400,
      "democrats": 4401,
      "##ua": 4402,
      "##dy": 4403,
      "matches": 4404,
      "slow": 4405,
      "zealand": 4406,
      "soldier": 4407,
      "brut": 4408,
      "##anny": 4409,
      "primary": 4410,
      "ip": 4411,
      "simon": 4412,
      "##light": 4413,
      "wouldn": 4414,
      "silver": 4415,
      "##min": 4416,
      "type": 4417,
      "dozens": 4418,
      "maintain": 4419,
      "favor": 4420,
      "insurance": 4421,
      "diego": 4422,
      "practice": 4423,
      "duty": 4424,
      "initially": 4425,
      "quality": 4426,
      "occurred": 4427,
      "exist": 4428,
      "##wich": 4429,
      "items": 4430,
      "##rec": 4431,
      "£5": 4432,
      "upon": 4433,
      "##pe": 4434,
      "##uf": 4435,
      "holland": 4436,
      "tough": 4437,
      "clash": 4438,
      "tree": 4439,
      "##aling": 4440,
      "fuel": 4441,
      "path": 4442,
      "fish": 4443,
      "##arian": 4444,
      "confl": 4445,
      "scroll": 4446,
      "profile": 4447,
      "affected": 4448,
      "catch": 4449,
      "beyond": 4450,
      "##aza": 4451,
      "coc": 4452,
      "partners": 4453,
      "tragedy": 4454,
      "pounds": 4455,
      "43": 4456,
      "negot": 4457,
      "batter": 4458,
      "seeking": 4459,
      "command": 4460,
      "views": 4461,
      "comfort": 4462,
      "harm": 4463,
      "cabin": 4464,
      "fears": 4465,
      "##hess": 4466,
      "alive": 4467,
      "2004": 4468,
      "nasa": 4469,
      "pretty": 4470,
      "standards": 4471,
      "programme": 4472,
      "##gas": 4473,
      "kil": 4474,
      "##oduce": 4475,
      "lind": 4476,
      "nurs": 4477,
      "truck": 4478,
      "connection": 4479,
      "scen": 4480,
      "villa": 4481,
      "ward": 4482,
      "estimated": 4483,
      "##cow": 4484,
      "ferguson": 4485,
      "seconds": 4486,
      "growth": 4487,
      "multiple": 4488,
      "coff": 4489,
      "origin": 4490,
      "monitor": 4491,
      "analy": 4492,
      "sexually": 4493,
      "conflict": 4494,
      "kelly": 4495,
      "clearly": 4496,
      "wealth": 4497,
      "duchess": 4498,
      "outr": 4499,
      "apart": 4500,
      "wake": 4501,
      "convers": 4502,
      "management": 4503,
      "iphone": 4504,
      "##ume": 4505,
      "below": 4506,
      "##mingham": 4507,
      "ariz": 4508,
      "hong": 4509,
      "ster": 4510,
      "regul": 4511,
      "aware": 4512,
      "drivers": 4513,
      "politic": 4514,
      "birmingham": 4515,
      "ign": 4516,
      "ah": 4517,
      "drop": 4518,
      "icon": 4519,
      "##une": 4520,
      "parties": 4521,
      "setting": 4522,
      "##board": 4523,
      "clubs": 4524,
      "thinking": 4525,
      "tack": 4526,
      "recomm": 4527,
      "southampton": 4528,
      "boot": 4529,
      "cra": 4530,
      "behavi": 4531,
      "contributed": 4532,
      "determined": 4533,
      "arizona": 4534,
      "lines": 4535,
      "celebrates": 4536,
      "sites": 4537,
      "note": 4538,
      "underw": 4539,
      "complex": 4540,
      "44": 4541,
      "##ipe": 4542,
      "dismiss": 4543,
      "##ros": 4544,
      "plot": 4545,
      "inquir": 4546,
      "mps": 4547,
      "##iami": 4548,
      "mont": 4549,
      "alan": 4550,
      "belong": 4551,
      "recovery": 4552,
      "purch": 4553,
      "hay": 4554,
      "##rim": 4555,
      "heav": 4556,
      "killer": 4557,
      "miami": 4558,
      "pitch": 4559,
      "reflec": 4560,
      "learned": 4561,
      "prost": 4562,
      "##entially": 4563,
      "##unte": 4564,
      "ability": 4565,
      "hat": 4566,
      "turkey": 4567,
      "continues": 4568,
      "shocked": 4569,
      "volunte": 4570,
      "##ointed": 4571,
      "historic": 4572,
      "##ym": 4573,
      "##olen": 4574,
      "##azi": 4575,
      "bear": 4576,
      "raid": 4577,
      "occas": 4578,
      "400": 4579,
      "##sequ": 4580,
      "debut": 4581,
      "yorks": 4582,
      "auction": 4583,
      "counts": 4584,
      "bottom": 4585,
      "46": 4586,
      "drag": 4587,
      "palestin": 4588,
      "dipl": 4589,
      "vehicles": 4590,
      "eliz": 4591,
      "necess": 4592,
      "kong": 4593,
      "##aze": 4594,
      "separate": 4595,
      "tra": 4596,
      "boost": 4597,
      "equal": 4598,
      "reduc": 4599,
      "costa": 4600,
      "##hab": 4601,
      "hang": 4602,
      "##ware": 4603,
      "remove": 4604,
      "##keeper": 4605,
      "allowing": 4606,
      "ceo": 4607,
      "##com": 4608,
      "##ends": 4609,
      "##ulting": 4610,
      "missed": 4611,
      "feder": 4612,
      "beginning": 4613,
      "replace": 4614,
      "##met": 4615,
      "##ections": 4616,
      "morgan": 4617,
      "ell": 4618,
      "cuts": 4619,
      "wounded": 4620,
      "##abeth": 4621,
      "##orth": 4622,
      "barb": 4623,
      "keeping": 4624,
      "credit": 4625,
      "retired": 4626,
      "##uge": 4627,
      "##imum": 4628,
      "kenned": 4629,
      "shirt": 4630,
      "medal": 4631,
      "science": 4632,
      "repeatedly": 4633,
      "gary": 4634,
      "##haps": 4635,
      "unve": 4636,
      "neck": 4637,
      "concern": 4638,
      "joint": 4639,
      "books": 4640,
      "##iano": 4641,
      "aband": 4642,
      "gad": 4643,
      "score": 4644,
      "##izing": 4645,
      "stands": 4646,
      "prepared": 4647,
      "targeted": 4648,
      "picked": 4649,
      "perhaps": 4650,
      "yorkshire": 4651,
      "highly": 4652,
      "##ols": 4653,
      "kir": 4654,
      "tweeted": 4655,
      "##online": 4656,
      "individual": 4657,
      "stories": 4658,
      "uses": 4659,
      "rooney": 4660,
      "winds": 4661,
      "anc": 4662,
      "nur": 4663,
      "##asc": 4664,
      "grab": 4665,
      "emotional": 4666,
      "##oles": 4667,
      "##isions": 4668,
      "surge": 4669,
      "##tt": 4670,
      "39": 4671,
      "escape": 4672,
      "offering": 4673,
      "argentina": 4674,
      "confident": 4675,
      "##ropriate": 4676,
      "everton": 4677,
      "putin": 4678,
      "tribute": 4679,
      "mort": 4680,
      "sometimes": 4681,
      "mourinho": 4682,
      "##hi": 4683,
      "festival": 4684,
      "writing": 4685,
      "##load": 4686,
      "pap": 4687,
      "migr": 4688,
      "bail": 4689,
      "cos": 4690,
      "obtain": 4691,
      "rug": 4692,
      "flow": 4693,
      "serve": 4694,
      "responsibility": 4695,
      "lawyers": 4696,
      "inquest": 4697,
      "absol": 4698,
      "##apt": 4699,
      "aston": 4700,
      "reading": 4701,
      "measures": 4702,
      "religious": 4703,
      "involving": 4704,
      "##aries": 4705,
      "proced": 4706,
      "##ala": 4707,
      "##elli": 4708,
      "kennedy": 4709,
      "##sa": 4710,
      "editor": 4711,
      "toward": 4712,
      "michelle": 4713,
      "et": 4714,
      "resort": 4715,
      "addition": 4716,
      "colour": 4717,
      "colorado": 4718,
      "slam": 4719,
      "##agues": 4720,
      "sear": 4721,
      "##west": 4722,
      "roberts": 4723,
      "certainly": 4724,
      "raf": 4725,
      "##ste": 4726,
      "41": 4727,
      "##cious": 4728,
      "fully": 4729,
      "finished": 4730,
      "##lying": 4731,
      "##pper": 4732,
      "canada": 4733,
      "##ulf": 4734,
      "photographs": 4735,
      "##can": 4736,
      "##ushing": 4737,
      "matthew": 4738,
      "guests": 4739,
      "meaning": 4740,
      "##oked": 4741,
      "bac": 4742,
      "##mate": 4743,
      "yout": 4744,
      "electric": 4745,
      "##arily": 4746,
      "stolen": 4747,
      "47": 4748,
      "##ova": 4749,
      "finish": 4750,
      "returning": 4751,
      "sending": 4752,
      "tan": 4753,
      "##elle": 4754,
      "hamp": 4755,
      "ren": 4756,
      "£6": 4757,
      "##cri": 4758,
      "rule": 4759,
      "##ledge": 4760,
      "bang": 4761,
      "celebrity": 4762,
      "value": 4763,
      "location": 4764,
      "carri": 4765,
      "critical": 4766,
      "ohio": 4767,
      "##mother": 4768,
      "coron": 4769,
      "japanese": 4770,
      "pray": 4771,
      "recorded": 4772,
      "hart": 4773,
      "##erved": 4774,
      "beating": 4775,
      "pin": 4776,
      "##acts": 4777,
      "##ihad": 4778,
      "##awn": 4779,
      "firef": 4780,
      "cow": 4781,
      "session": 4782,
      "##alys": 4783,
      "brothers": 4784,
      "youtube": 4785,
      "ford": 4786,
      "tens": 4787,
      "angry": 4788,
      "##mates": 4789,
      "##ifying": 4790,
      "feature": 4791,
      "imag": 4792,
      "scottish": 4793,
      "##anch": 4794,
      "##ighted": 4795,
      "teenage": 4796,
      "extremely": 4797,
      "nic": 4798,
      "ped": 4799,
      "pit": 4800,
      "designer": 4801,
      "dinner": 4802,
      "guy": 4803,
      "agents": 4804,
      "sound": 4805,
      "pu": 4806,
      "##mes": 4807,
      "heat": 4808,
      "stabbed": 4809,
      "##isher": 4810,
      "##owed": 4811,
      "##ously": 4812,
      "mailonline": 4813,
      "hamilton": 4814,
      "moments": 4815,
      "bell": 4816,
      "ronaldo": 4817,
      "behaviour": 4818,
      "illness": 4819,
      "produced": 4820,
      "cath": 4821,
      "veteran": 4822,
      "falling": 4823,
      "delay": 4824,
      "inspect": 4825,
      "declared": 4826,
      "##kin": 4827,
      "##rific": 4828,
      "pope": 4829,
      "##bon": 4830,
      "cel": 4831,
      "temperatures": 4832,
      "purs": 4833,
      "rival": 4834,
      "turning": 4835,
      "roman": 4836,
      "physical": 4837,
      "dressed": 4838,
      "seek": 4839,
      "commerc": 4840,
      "cham": 4841,
      "davis": 4842,
      "magn": 4843,
      "elizabeth": 4844,
      "##va": 4845,
      "##itation": 4846,
      "##etts": 4847,
      "##encies": 4848,
      "##iband": 4849,
      "surface": 4850,
      "pra": 4851,
      "offers": 4852,
      "leadership": 4853,
      "afford": 4854,
      "ho": 4855,
      "##encing": 4856,
      "knows": 4857,
      "drunk": 4858,
      "mum": 4859,
      "iv": 4860,
      "moon": 4861,
      "institute": 4862,
      "trail": 4863,
      "nav": 4864,
      "annivers": 4865,
      "rates": 4866,
      "warm": 4867,
      "language": 4868,
      "milan": 4869,
      "opin": 4870,
      "##apping": 4871,
      "ec": 4872,
      "promp": 4873,
      "##ko": 4874,
      "fifa": 4875,
      "witnesses": 4876,
      "expensive": 4877,
      "push": 4878,
      "##ading": 4879,
      "##aren": 4880,
      "##olic": 4881,
      "legs": 4882,
      "miliband": 4883,
      "ones": 4884,
      "fighters": 4885,
      "hid": 4886,
      "##attan": 4887,
      "threatening": 4888,
      "climate": 4889,
      "spect": 4890,
      "##aughters": 4891,
      "fatal": 4892,
      "nob": 4893,
      "iraqi": 4894,
      "##acked": 4895,
      "secure": 4896,
      "##udi": 4897,
      "##ortion": 4898,
      "##achus": 4899,
      "gh": 4900,
      "defin": 4901,
      "anniversary": 4902,
      "applic": 4903,
      "shocking": 4904,
      "##break": 4905,
      "flights": 4906,
      "awards": 4907,
      "artic": 4908,
      "various": 4909,
      "receiving": 4910,
      "cool": 4911,
      "yell": 4912,
      "massachus": 4913,
      "amazing": 4914,
      "nature": 4915,
      "##tery": 4916,
      "surprise": 4917,
      "activity": 4918,
      "##isa": 4919,
      "urged": 4920,
      "subject": 4921,
      "massachusetts": 4922,
      "##da": 4923,
      "videos": 4924,
      "wing": 4925,
      "banks": 4926,
      "planet": 4927,
      "suarez": 4928,
      "olympics": 4929,
      "subur": 4930,
      "ble": 4931,
      "abu": 4932,
      "##uals": 4933,
      "elections": 4934,
      "anger": 4935,
      "##illa": 4936,
      "benefit": 4937,
      "manhattan": 4938,
      "faith": 4939,
      "francisco": 4940,
      "les": 4941,
      "##itude": 4942,
      "atlanta": 4943,
      "##eing": 4944,
      "belg": 4945,
      "lam": 4946,
      "ess": 4947,
      "plat": 4948,
      "##dd": 4949,
      "labor": 4950,
      "##bourne": 4951,
      "gives": 4952,
      "perm": 4953,
      "yes": 4954,
      "##antly": 4955,
      "195": 4956,
      "assad": 4957,
      "thank": 4958,
      "daughters": 4959,
      "sym": 4960,
      "ambul": 4961,
      "remained": 4962,
      "49": 4963,
      "##pping": 4964,
      "entered": 4965,
      "commercial": 4966,
      "ride": 4967,
      "##iner": 4968,
      "facility": 4969,
      "75": 4970,
      "##ologist": 4971,
      "194": 4972,
      "##uts": 4973,
      "jay": 4974,
      "occup": 4975,
      "prize": 4976,
      "##itals": 4977,
      "recr": 4978,
      "dating": 4979,
      "valley": 4980,
      "mate": 4981,
      "lor": 4982,
      "miller": 4983,
      "##outs": 4984,
      "production": 4985,
      "retail": 4986,
      "purp": 4987,
      "organis": 4988,
      "elder": 4989,
      "stret": 4990,
      "unus": 4991,
      "##ket": 4992,
      "mexican": 4993,
      "##icken": 4994,
      "bern": 4995,
      "##ni": 4996,
      "marine": 4997,
      "contest": 4998,
      "consp": 4999,
      "tiny": 5000,
      "answer": 5001,
      "riv": 5002,
      "##oring": 5003,
      "2003": 5004,
      "##iment": 5005,
      "required": 5006,
      "helicopter": 5007,
      "register": 5008,
      "holds": 5009,
      "failure": 5010,
      "refuge": 5011,
      "coalition": 5012,
      "usually": 5013,
      "##onym": 5014,
      "bat": 5015,
      "jur": 5016,
      "exclus": 5017,
      "tort": 5018,
      "shots": 5019,
      "##icking": 5020,
      "user": 5021,
      "failing": 5022,
      "55": 5023,
      "seemed": 5024,
      "##agram": 5025,
      "semi": 5026,
      "gop": 5027,
      "##iley": 5028,
      "teach": 5029,
      "bringing": 5030,
      "##illing": 5031,
      "2015": 5032,
      "accounts": 5033,
      "obv": 5034,
      "parent": 5035,
      "disaster": 5036,
      "require": 5037,
      "favourite": 5038,
      "suppl": 5039,
      "changing": 5040,
      "##time": 5041,
      "sudden": 5042,
      "plus": 5043,
      "machine": 5044,
      "affil": 5045,
      "devices": 5046,
      "reasons": 5047,
      "ded": 5048,
      "##coming": 5049,
      "sons": 5050,
      "cole": 5051,
      "epis": 5052,
      "backed": 5053,
      "steps": 5054,
      "##inals": 5055,
      "beaten": 5056,
      "moscow": 5057,
      "settle": 5058,
      "terrorism": 5059,
      "academy": 5060,
      "landing": 5061,
      "saved": 5062,
      "sust": 5063,
      "doubt": 5064,
      "##ouri": 5065,
      "##anna": 5066,
      "colleagues": 5067,
      "status": 5068,
      "anderson": 5069,
      "##utions": 5070,
      "##ifer": 5071,
      "incredible": 5072,
      "exactly": 5073,
      "carr": 5074,
      "neighborhood": 5075,
      "##resp": 5076,
      "struggling": 5077,
      "lie": 5078,
      "hurt": 5079,
      "rum": 5080,
      "##igue": 5081,
      "oscar": 5082,
      "announcement": 5083,
      "exchange": 5084,
      "criticism": 5085,
      "master": 5086,
      "flu": 5087,
      "journalist": 5088,
      "housing": 5089,
      "chap": 5090,
      "keen": 5091,
      "clothes": 5092,
      "overse": 5093,
      "marc": 5094,
      "harris": 5095,
      "advice": 5096,
      "rebels": 5097,
      "mu": 5098,
      "politics": 5099,
      "knife": 5100,
      "condem": 5101,
      "models": 5102,
      "lane": 5103,
      "swan": 5104,
      "rising": 5105,
      "reduce": 5106,
      "saudi": 5107,
      "wayne": 5108,
      "income": 5109,
      "portug": 5110,
      "charlie": 5111,
      "wine": 5112,
      "embass": 5113,
      "##stal": 5114,
      "##andez": 5115,
      "dj": 5116,
      "explained": 5117,
      "52": 5118,
      "##apy": 5119,
      "babies": 5120,
      "##aham": 5121,
      "completed": 5122,
      "##order": 5123,
      "suffer": 5124,
      "waters": 5125,
      "dutch": 5126,
      "exhib": 5127,
      "prove": 5128,
      "conduct": 5129,
      "hod": 5130,
      "messi": 5131,
      "content": 5132,
      "threats": 5133,
      "nar": 5134,
      "achieve": 5135,
      "##iar": 5136,
      "friendly": 5137,
      "##venue": 5138,
      "lanc": 5139,
      "rh": 5140,
      "##ales": 5141,
      "##town": 5142,
      "suspects": 5143,
      "porn": 5144,
      "plays": 5145,
      "##uses": 5146,
      "depart": 5147,
      "generation": 5148,
      "scheduled": 5149,
      "az": 5150,
      "rig": 5151,
      "##lyn": 5152,
      "inquiry": 5153,
      "stores": 5154,
      "breath": 5155,
      "tennis": 5156,
      "corrup": 5157,
      "vess": 5158,
      "equip": 5159,
      "##uana": 5160,
      "##ufact": 5161,
      "##enty": 5162,
      "beck": 5163,
      "seriously": 5164,
      "neighbour": 5165,
      "asp": 5166,
      "manufact": 5167,
      "relatives": 5168,
      "tea": 5169,
      "length": 5170,
      "filmed": 5171,
      "goalkeeper": 5172,
      "contain": 5173,
      "fant": 5174,
      "airline": 5175,
      "##rell": 5176,
      "leaves": 5177,
      "alexander": 5178,
      "prosp": 5179,
      "lion": 5180,
      "sharp": 5181,
      "65": 5182,
      "instagram": 5183,
      "audience": 5184,
      "jac": 5185,
      "##life": 5186,
      "##ijuana": 5187,
      "ian": 5188,
      "located": 5189,
      "lock": 5190,
      "luis": 5191,
      "kitche": 5192,
      "buildings": 5193,
      "forest": 5194,
      "fled": 5195,
      "debt": 5196,
      "##ictions": 5197,
      "associated": 5198,
      "confidence": 5199,
      "yellow": 5200,
      "joy": 5201,
      "haz": 5202,
      "innoc": 5203,
      "damaged": 5204,
      "collaps": 5205,
      "##aled": 5206,
      "constitution": 5207,
      "##immer": 5208,
      "##ulated": 5209,
      "##attle": 5210,
      "unique": 5211,
      "false": 5212,
      "tat": 5213,
      "ther": 5214,
      "simple": 5215,
      "ross": 5216,
      "rugby": 5217,
      "##ington": 5218,
      "domin": 5219,
      "affairs": 5220,
      "grandmother": 5221,
      "commissioner": 5222,
      "##opher": 5223,
      "directly": 5224,
      "rand": 5225,
      "somal": 5226,
      "surveill": 5227,
      "beij": 5228,
      "vegas": 5229,
      "##mad": 5230,
      "houses": 5231,
      "surveillance": 5232,
      "panel": 5233,
      "reporter": 5234,
      "additional": 5235,
      "beijing": 5236,
      "bes": 5237,
      "providing": 5238,
      "creating": 5239,
      "##istol": 5240,
      "wish": 5241,
      "##pay": 5242,
      "sparked": 5243,
      "##lets": 5244,
      "##ansas": 5245,
      "phill": 5246,
      "##rant": 5247,
      "standard": 5248,
      "resour": 5249,
      "todd": 5250,
      "##ipping": 5251,
      "proposed": 5252,
      "stunning": 5253,
      "##lig": 5254,
      "questioned": 5255,
      "##mo": 5256,
      "##anced": 5257,
      "py": 5258,
      "##ita": 5259,
      "acting": 5260,
      "duke": 5261,
      "##ucture": 5262,
      "cher": 5263,
      "nfl": 5264,
      "henry": 5265,
      "myself": 5266,
      "discovery": 5267,
      "soph": 5268,
      "##billion": 5269,
      "##gen": 5270,
      "forec": 5271,
      "teachers": 5272,
      "destroyed": 5273,
      "equipment": 5274,
      "##ios": 5275,
      "##vania": 5276,
      "grant": 5277,
      "hou": 5278,
      "penns": 5279,
      "##works": 5280,
      "circum": 5281,
      "queens": 5282,
      "visiting": 5283,
      "revolution": 5284,
      "zoo": 5285,
      "##eland": 5286,
      "spirit": 5287,
      "plastic": 5288,
      "feels": 5289,
      "likes": 5290,
      "broadcast": 5291,
      "##ront": 5292,
      "##know": 5293,
      "iranian": 5294,
      "##illy": 5295,
      "trouble": 5296,
      "jane": 5297,
      "##ashes": 5298,
      "##orted": 5299,
      "gradu": 5300,
      "2001": 5301,
      "corre": 5302,
      "##ylvania": 5303,
      "responded": 5304,
      "spoken": 5305,
      "astr": 5306,
      "busy": 5307,
      "hull": 5308,
      "meat": 5309,
      "malays": 5310,
      "woods": 5311,
      "150": 5312,
      "ticket": 5313,
      "##olk": 5314,
      "josh": 5315,
      "limited": 5316,
      "##ification": 5317,
      "##win": 5318,
      "heads": 5319,
      "##ek": 5320,
      "kur": 5321,
      "torn": 5322,
      "systems": 5323,
      "brutal": 5324,
      "scar": 5325,
      "swed": 5326,
      "letters": 5327,
      "##ching": 5328,
      "golden": 5329,
      "weapon": 5330,
      "complaint": 5331,
      "brian": 5332,
      "adult": 5333,
      "acknow": 5334,
      "overall": 5335,
      "pennsylvania": 5336,
      "honor": 5337,
      "measure": 5338,
      "ambulance": 5339,
      "trig": 5340,
      "wars": 5341,
      "filled": 5342,
      "nurse": 5343,
      "newly": 5344,
      "lands": 5345,
      "fern": 5346,
      "##de": 5347,
      "haven": 5348,
      "##tha": 5349,
      "tick": 5350,
      "enjoyed": 5351,
      "##idel": 5352,
      "##icated": 5353,
      "depress": 5354,
      "transform": 5355,
      "jr": 5356,
      "evac": 5357,
      "dance": 5358,
      "phones": 5359,
      "##loy": 5360,
      "tall": 5361,
      "allows": 5362,
      "confirm": 5363,
      "worse": 5364,
      "taxpay": 5365,
      "acqu": 5366,
      "##reek": 5367,
      "treas": 5368,
      "limit": 5369,
      "sympt": 5370,
      "suggests": 5371,
      "marijuana": 5372,
      "upd": 5373,
      "kiss": 5374,
      "egg": 5375,
      "activists": 5376,
      "##utely": 5377,
      "bayern": 5378,
      "evans": 5379,
      "horrific": 5380,
      "album": 5381,
      "christopher": 5382,
      "lucky": 5383,
      "upset": 5384,
      "active": 5385,
      "willing": 5386,
      "##burgh": 5387,
      "andre": 5388,
      "surviv": 5389,
      "robber": 5390,
      "exercise": 5391,
      "vul": 5392,
      "##oat": 5393,
      "introduced": 5394,
      "split": 5395,
      "rick": 5396,
      "adults": 5397,
      "2002": 5398,
      "tourists": 5399,
      "extreme": 5400,
      "stress": 5401,
      "maybe": 5402,
      "involve": 5403,
      "colomb": 5404,
      "prepar": 5405,
      "magistr": 5406,
      "##ran": 5407,
      "##lement": 5408,
      "##quar": 5409,
      "viewers": 5410,
      "heading": 5411,
      "##20": 5412,
      "##aire": 5413,
      "##oli": 5414,
      "islands": 5415,
      "journalists": 5416,
      "sort": 5417,
      "##rian": 5418,
      "guns": 5419,
      "funding": 5420,
      "divorce": 5421,
      "dna": 5422,
      "originally": 5423,
      "dou": 5424,
      "##lah": 5425,
      "racing": 5426,
      "##hd": 5427,
      "##oval": 5428,
      "##iat": 5429,
      "##ining": 5430,
      "##rah": 5431,
      "developing": 5432,
      "headed": 5433,
      "##ulate": 5434,
      "gathered": 5435,
      "diam": 5436,
      "route": 5437,
      "conclud": 5438,
      "libya": 5439,
      "analyst": 5440,
      "travelling": 5441,
      "joseph": 5442,
      "featured": 5443,
      "employee": 5444,
      "corner": 5445,
      "##worth": 5446,
      "section": 5447,
      "ambass": 5448,
      "restr": 5449,
      "potentially": 5450,
      "gov": 5451,
      "cameras": 5452,
      "##do": 5453,
      "abc": 5454,
      "edward": 5455,
      "da": 5456,
      "##acing": 5457,
      "welcome": 5458,
      "embassy": 5459,
      "hospitals": 5460,
      "photograph": 5461,
      "yard": 5462,
      "frustr": 5463,
      "scheme": 5464,
      "pad": 5465,
      "khan": 5466,
      "##umn": 5467,
      "bron": 5468,
      "51": 5469,
      "initial": 5470,
      "sterling": 5471,
      "##borne": 5472,
      "oppon": 5473,
      "##icester": 5474,
      "crystal": 5475,
      "towns": 5476,
      "businesses": 5477,
      "films": 5478,
      "##makers": 5479,
      "##agers": 5480,
      "santa": 5481,
      "deploy": 5482,
      "tast": 5483,
      "mars": 5484,
      "drove": 5485,
      "murd": 5486,
      "unusual": 5487,
      "rat": 5488,
      "##oted": 5489,
      "patrick": 5490,
      "parking": 5491,
      "edge": 5492,
      "cricket": 5493,
      "kitchen": 5494,
      "ta": 5495,
      "##anding": 5496,
      "prosecution": 5497,
      "pakistani": 5498,
      "jason": 5499,
      "map": 5500,
      "critics": 5501,
      "painting": 5502,
      "learning": 5503,
      "99": 5504,
      "stood": 5505,
      "blind": 5506,
      "##har": 5507,
      "perman": 5508,
      "na": 5509,
      "blow": 5510,
      "embr": 5511,
      "##oft": 5512,
      "walker": 5513,
      "analys": 5514,
      "##allas": 5515,
      "marsh": 5516,
      "establish": 5517,
      "nato": 5518,
      "smoke": 5519,
      "##road": 5520,
      "leicester": 5521,
      "surrounding": 5522,
      "##rial": 5523,
      "##ule": 5524,
      "prin": 5525,
      "54": 5526,
      "ministers": 5527,
      "raped": 5528,
      "aggress": 5529,
      "canad": 5530,
      "diamond": 5531,
      "##wall": 5532,
      "communities": 5533,
      "email": 5534,
      "##antage": 5535,
      "##etic": 5536,
      "remar": 5537,
      "operating": 5538,
      "derby": 5539,
      "##itzer": 5540,
      "desperate": 5541,
      "marath": 5542,
      "houston": 5543,
      "raising": 5544,
      "rivals": 5545,
      "native": 5546,
      "tech": 5547,
      "##mon": 5548,
      "opinion": 5549,
      "anton": 5550,
      "##ophy": 5551,
      "##bell": 5552,
      "absolutely": 5553,
      "hole": 5554,
      "policies": 5555,
      "verd": 5556,
      "swimming": 5557,
      "pupils": 5558,
      "reaction": 5559,
      "mention": 5560,
      "consult": 5561,
      "expressed": 5562,
      "##ellor": 5563,
      "frequ": 5564,
      "classic": 5565,
      "tam": 5566,
      "chest": 5567,
      "bars": 5568,
      "##oster": 5569,
      "£7": 5570,
      "combat": 5571,
      "testing": 5572,
      "difference": 5573,
      "tempor": 5574,
      "##fit": 5575,
      "studies": 5576,
      "kl": 5577,
      "lev": 5578,
      "altern": 5579,
      "rejected": 5580,
      "dur": 5581,
      "landed": 5582,
      "##wart": 5583,
      "gaza": 5584,
      "terry": 5585,
      "cruise": 5586,
      "sides": 5587,
      "53": 5588,
      "##otic": 5589,
      "voted": 5590,
      "laugh": 5591,
      "pushed": 5592,
      "rene": 5593,
      "individuals": 5594,
      "##ordon": 5595,
      "trafford": 5596,
      "##ables": 5597,
      "2016": 5598,
      "laden": 5599,
      "produce": 5600,
      "legislation": 5601,
      "##rie": 5602,
      "memory": 5603,
      "driven": 5604,
      "entertainment": 5605,
      "tight": 5606,
      "turk": 5607,
      "melbourne": 5608,
      "article": 5609,
      "anonym": 5610,
      "collect": 5611,
      "nbc": 5612,
      "allen": 5613,
      "advoc": 5614,
      "remote": 5615,
      "civilians": 5616,
      "cock": 5617,
      "disappeared": 5618,
      "nice": 5619,
      "wre": 5620,
      "zone": 5621,
      "stuff": 5622,
      "basket": 5623,
      "##igg": 5624,
      "rough": 5625,
      "shad": 5626,
      "##weight": 5627,
      "delivered": 5628,
      "sight": 5629,
      "effects": 5630,
      "jihad": 5631,
      "##umped": 5632,
      "mah": 5633,
      "decide": 5634,
      "chain": 5635,
      "species": 5636,
      "elderly": 5637,
      "withdr": 5638,
      "commander": 5639,
      "pled": 5640,
      "##eme": 5641,
      "complaints": 5642,
      "symptoms": 5643,
      "forg": 5644,
      "scale": 5645,
      "influence": 5646,
      "chanc": 5647,
      "wore": 5648,
      "##oving": 5649,
      "iconic": 5650,
      "ny": 5651,
      "joining": 5652,
      "##bl": 5653,
      "jennifer": 5654,
      "graham": 5655,
      "michigan": 5656,
      "survived": 5657,
      "##ography": 5658,
      "affect": 5659,
      "bound": 5660,
      "elected": 5661,
      "600": 5662,
      "capture": 5663,
      "##elson": 5664,
      "earned": 5665,
      "attempts": 5666,
      "mol": 5667,
      "pension": 5668,
      "##osure": 5669,
      "jamie": 5670,
      "##iracy": 5671,
      "tells": 5672,
      "tower": 5673,
      "staying": 5674,
      "accepted": 5675,
      "negoti": 5676,
      "appl": 5677,
      "mcdon": 5678,
      "posed": 5679,
      "ancient": 5680,
      "bowl": 5681,
      "##ila": 5682,
      "encoun": 5683,
      "##father": 5684,
      "palestinian": 5685,
      "rushed": 5686,
      "trained": 5687,
      "devastated": 5688,
      "unveiled": 5689,
      "rodgers": 5690,
      "closer": 5691,
      "terrorists": 5692,
      "refere": 5693,
      "increasingly": 5694,
      "##usted": 5695,
      "ib": 5696,
      "prest": 5697,
      "skills": 5698,
      "rio": 5699,
      "##aska": 5700,
      "struggle": 5701,
      "##illed": 5702,
      "##abor": 5703,
      "mates": 5704,
      "outbreak": 5705,
      "pieces": 5706,
      "##ocol": 5707,
      "##away": 5708,
      "##sters": 5709,
      "stan": 5710,
      "fake": 5711,
      "investigate": 5712,
      "supporting": 5713,
      "jimmy": 5714,
      "shape": 5715,
      "##ira": 5716,
      "activities": 5717,
      "necessary": 5718,
      "##mail": 5719,
      "craig": 5720,
      "lying": 5721,
      "oklah": 5722,
      "gulf": 5723,
      "buried": 5724,
      "patrol": 5725,
      "ambassador": 5726,
      "atm": 5727,
      "explosion": 5728,
      "##erous": 5729,
      "tum": 5730,
      "performed": 5731,
      "dollars": 5732,
      "sweet": 5733,
      "trick": 5734,
      "vulner": 5735,
      "ongoing": 5736,
      "regularly": 5737,
      "sac": 5738,
      "sandy": 5739,
      "swansea": 5740,
      "marathon": 5741,
      "##fast": 5742,
      "##stone": 5743,
      "hern": 5744,
      "##abled": 5745,
      "relax": 5746,
      "cocaine": 5747,
      "##ece": 5748,
      "accus": 5749,
      "oklahoma": 5750,
      "##ctv": 5751,
      "relief": 5752,
      "supposed": 5753,
      "##arrass": 5754,
      "philipp": 5755,
      "investment": 5756,
      "trigger": 5757,
      "wildlife": 5758,
      "##mph": 5759,
      "leeds": 5760,
      "blamed": 5761,
      "bombing": 5762,
      "canadian": 5763,
      "danny": 5764,
      "worried": 5765,
      "##rible": 5766,
      "ipad": 5767,
      "greatest": 5768,
      "tie": 5769,
      "rocket": 5770,
      "embarrass": 5771,
      "##more": 5772,
      "metal": 5773,
      "justin": 5774,
      "##agon": 5775,
      "abandoned": 5776,
      "sought": 5777,
      "wenger": 5778,
      "##arre": 5779,
      "scenes": 5780,
      "ric": 5781,
      "quiet": 5782,
      "disorder": 5783,
      "veterans": 5784,
      "91": 5785,
      "dallas": 5786,
      "worry": 5787,
      "essex": 5788,
      "punish": 5789,
      "sunder": 5790,
      "appearances": 5791,
      "ukip": 5792,
      "larger": 5793,
      "mall": 5794,
      "stoke": 5795,
      "moore": 5796,
      "compens": 5797,
      "buying": 5798,
      "arriving": 5799,
      "fred": 5800,
      "##igar": 5801,
      "irish": 5802,
      "candidates": 5803,
      "construction": 5804,
      "chancellor": 5805,
      "hillary": 5806,
      "mut": 5807,
      "lit": 5808,
      "acts": 5809,
      "abused": 5810,
      "outrage": 5811,
      "marks": 5812,
      "clinic": 5813,
      "awarded": 5814,
      "sporting": 5815,
      "cctv": 5816,
      "##enders": 5817,
      "experienced": 5818,
      "hell": 5819,
      "indones": 5820,
      "terrif": 5821,
      "posting": 5822,
      "greg": 5823,
      "seized": 5824,
      "##emen": 5825,
      "jonathan": 5826,
      "lunch": 5827,
      "cutting": 5828,
      "determine": 5829,
      "princip": 5830,
      "direc": 5831,
      "sharing": 5832,
      "800": 5833,
      "mouth": 5834,
      "noted": 5835,
      "knowledge": 5836,
      "philip": 5837,
      "struggled": 5838,
      "lav": 5839,
      "##irates": 5840,
      "##ques": 5841,
      "conducted": 5842,
      "causes": 5843,
      "hampshire": 5844,
      "reco": 5845,
      "fallen": 5846,
      "controversy": 5847,
      "56": 5848,
      "hasn": 5849,
      "cia": 5850,
      "pink": 5851,
      "personnel": 5852,
      "detective": 5853,
      "passing": 5854,
      "sunderland": 5855,
      "wimb": 5856,
      "buck": 5857,
      "fought": 5858,
      "approved": 5859,
      "tonight": 5860,
      "naked": 5861,
      "intended": 5862,
      "couples": 5863,
      "tomor": 5864,
      "coverage": 5865,
      "controlled": 5866,
      "##nell": 5867,
      "##adel": 5868,
      "remark": 5869,
      "senator": 5870,
      "gain": 5871,
      "##aks": 5872,
      "##afi": 5873,
      "rescued": 5874,
      "collapsed": 5875,
      "considering": 5876,
      "regional": 5877,
      "##itan": 5878,
      "christie": 5879,
      "rodr": 5880,
      "pear": 5881,
      "attacking": 5882,
      "clegg": 5883,
      "tomorrow": 5884,
      "impressive": 5885,
      "roof": 5886,
      "accomp": 5887,
      "supermark": 5888,
      "hate": 5889,
      "usa": 5890,
      "##dom": 5891,
      "prisoners": 5892,
      "##afe": 5893,
      "presented": 5894,
      "zimmer": 5895,
      "jessica": 5896,
      "vast": 5897,
      "oxford": 5898,
      "hook": 5899,
      "robin": 5900,
      "cards": 5901,
      "detectives": 5902,
      "nico": 5903,
      "tank": 5904,
      "promised": 5905,
      "honour": 5906,
      "hitting": 5907,
      "##agger": 5908,
      "harass": 5909,
      "identity": 5910,
      "immigrants": 5911,
      "advantage": 5912,
      "method": 5913,
      "digital": 5914,
      "lights": 5915,
      "division": 5916,
      "##osis": 5917,
      "recovered": 5918,
      "code": 5919,
      "##eman": 5920,
      "missouri": 5921,
      "presenter": 5922,
      "thrown": 5923,
      "mothers": 5924,
      "grew": 5925,
      "##heast": 5926,
      "virt": 5927,
      "racist": 5928,
      "bash": 5929,
      "fitness": 5930,
      "##inn": 5931,
      "##eck": 5932,
      "##eline": 5933,
      "write": 5934,
      "canc": 5935,
      "finals": 5936,
      "coffee": 5937,
      "yemen": 5938,
      "##semb": 5939,
      "option": 5940,
      "sorry": 5941,
      "contacted": 5942,
      "cabinet": 5943,
      "resources": 5944,
      "string": 5945,
      "cruc": 5946,
      "##ledon": 5947,
      "episode": 5948,
      "wave": 5949,
      "leon": 5950,
      "nig": 5951,
      "proved": 5952,
      "clothing": 5953,
      "rangers": 5954,
      "##iti": 5955,
      "arrive": 5956,
      "retire": 5957,
      "funds": 5958,
      "argued": 5959,
      "circumst": 5960,
      "presence": 5961,
      "##active": 5962,
      "jeremy": 5963,
      "hughes": 5964,
      "wimbledon": 5965,
      "##ja": 5966,
      "focused": 5967,
      "gym": 5968,
      "##rel": 5969,
      "household": 5970,
      "ashley": 5971,
      "##pson": 5972,
      "##ria": 5973,
      "neil": 5974,
      "traum": 5975,
      "truth": 5976,
      "gordon": 5977,
      "##rison": 5978,
      "assess": 5979,
      "distrib": 5980,
      "offensive": 5981,
      "crist": 5982,
      "rally": 5983,
      "ski": 5984,
      "##atherine": 5985,
      "##airs": 5986,
      "firefighters": 5987,
      "stuck": 5988,
      "##anded": 5989,
      "ukrainian": 5990,
      "##cia": 5991,
      "possibility": 5992,
      "scores": 5993,
      "£8": 5994,
      "##era": 5995,
      "##ception": 5996,
      "dol": 5997,
      "##wal": 5998,
      "strip": 5999,
      "nigeria": 6000,
      "aren": 6001,
      "blame": 6002,
      "brazilian": 6003,
      "remarks": 6004,
      "egyptian": 6005,
      "##hal": 6006,
      "nich": 6007,
      "buc": 6008,
      "effective": 6009,
      "smoking": 6010,
      "platform": 6011,
      "strang": 6012,
      "##oard": 6013,
      "agencies": 6014,
      "satell": 6015,
      "hidden": 6016,
      "##olas": 6017,
      "##boy": 6018,
      "locked": 6019,
      "##aken": 6020,
      "wins": 6021,
      "gif": 6022,
      "##stein": 6023,
      "chef": 6024,
      "dy": 6025,
      "subs": 6026,
      "##ivity": 6027,
      "rooms": 6028,
      "##iform": 6029,
      "summit": 6030,
      "strikes": 6031,
      "solar": 6032,
      "sugar": 6033,
      "trapped": 6034,
      "tested": 6035,
      "2000": 6036,
      "targets": 6037,
      "identify": 6038,
      "##okes": 6039,
      "thompson": 6040,
      "marry": 6041,
      "kerry": 6042,
      "bottle": 6043,
      "##lad": 6044,
      "##ization": 6045,
      "hills": 6046,
      "element": 6047,
      "##fall": 6048,
      "dozen": 6049,
      "climb": 6050,
      "##ishop": 6051,
      "complained": 6052,
      "behavior": 6053,
      "brooklyn": 6054,
      "mansion": 6055,
      "interior": 6056,
      "interested": 6057,
      "publicly": 6058,
      "##itely": 6059,
      "worldwide": 6060,
      "drama": 6061,
      "hoped": 6062,
      "campbell": 6063,
      "catholic": 6064,
      "categ": 6065,
      "welf": 6066,
      "affiliate": 6067,
      "##enses": 6068,
      "arrival": 6069,
      "turkish": 6070,
      "ending": 6071,
      "passion": 6072,
      "##esty": 6073,
      "remaining": 6074,
      "documentary": 6075,
      "factor": 6076,
      "searching": 6077,
      "wright": 6078,
      "hurric": 6079,
      "magistrates": 6080,
      "dim": 6081,
      "qat": 6082,
      "##alf": 6083,
      "inches": 6084,
      "uniform": 6085,
      "bills": 6086,
      "rebel": 6087,
      "kenn": 6088,
      "##fire": 6089,
      "whit": 6090,
      "##rard": 6091,
      "##osing": 6092,
      "##izes": 6093,
      "dismissed": 6094,
      "watson": 6095,
      "software": 6096,
      "trend": 6097,
      "courts": 6098,
      "##azz": 6099,
      "direction": 6100,
      "pig": 6101,
      "muslims": 6102,
      "gib": 6103,
      "knee": 6104,
      "campus": 6105,
      "jewish": 6106,
      "thinks": 6107,
      "background": 6108,
      "reveals": 6109,
      "offences": 6110,
      "munich": 6111,
      "preparing": 6112,
      "pose": 6113,
      "suspicion": 6114,
      "privacy": 6115,
      "heavily": 6116,
      "fighter": 6117,
      "##estyle": 6118,
      "appoint": 6119,
      "atlantic": 6120,
      "numerous": 6121,
      "cells": 6122,
      "era": 6123,
      "##phia": 6124,
      "celtic": 6125,
      "strength": 6126,
      "myst": 6127,
      "toy": 6128,
      "highway": 6129,
      "euro": 6130,
      "programs": 6131,
      "jen": 6132,
      "##jo": 6133,
      "eve": 6134,
      "stepped": 6135,
      "independence": 6136,
      "welfare": 6137,
      "193": 6138,
      "supported": 6139,
      "hernandez": 6140,
      "asia": 6141,
      "infection": 6142,
      "immediate": 6143,
      "atmosp": 6144,
      "blast": 6145,
      "cardiff": 6146,
      "57": 6147,
      "fiance": 6148,
      "bristol": 6149,
      "pacific": 6150,
      "##udd": 6151,
      "philadel": 6152,
      "explain": 6153,
      "tickets": 6154,
      "lib": 6155,
      "philadelphia": 6156,
      "decisions": 6157,
      "disappearance": 6158,
      "recall": 6159,
      "unn": 6160,
      "tears": 6161,
      "nad": 6162,
      "spell": 6163,
      "##izz": 6164,
      "brom": 6165,
      "reun": 6166,
      "exposed": 6167,
      "perry": 6168,
      "##vis": 6169,
      "##omes": 6170,
      "aboard": 6171,
      "grown": 6172,
      "knowing": 6173,
      "##ogue": 6174,
      "prefer": 6175,
      "insists": 6176,
      "helps": 6177,
      "larg": 6178,
      "mount": 6179,
      "##inent": 6180,
      "roads": 6181,
      "##hens": 6182,
      "zimmerman": 6183,
      "##nam": 6184,
      "##enz": 6185,
      "revel": 6186,
      "deeply": 6187,
      "##annah": 6188,
      "aer": 6189,
      "sixth": 6190,
      "##iguez": 6191,
      "pent": 6192,
      "fo": 6193,
      "ultim": 6194,
      "territ": 6195,
      "stick": 6196,
      "customer": 6197,
      "##war": 6198,
      "##icut": 6199,
      "featuring": 6200,
      "notice": 6201,
      "corruption": 6202,
      "vulnerable": 6203,
      "nap": 6204,
      "incidents": 6205,
      "formula": 6206,
      "saving": 6207,
      "possession": 6208,
      "orange": 6209,
      "rural": 6210,
      "##lus": 6211,
      "bure": 6212,
      "##agan": 6213,
      "##lan": 6214,
      "chances": 6215,
      "possibly": 6216,
      "62": 6217,
      "sets": 6218,
      "obtained": 6219,
      "cigar": 6220,
      "rein": 6221,
      "##amin": 6222,
      "commons": 6223,
      "serge": 6224,
      "trees": 6225,
      "rodriguez": 6226,
      "spons": 6227,
      "talent": 6228,
      "erup": 6229,
      "bags": 6230,
      "dubbed": 6231,
      "dave": 6232,
      "##icip": 6233,
      "mini": 6234,
      "discip": 6235,
      "listed": 6236,
      "ing": 6237,
      "seats": 6238,
      "gerrard": 6239,
      "internal": 6240,
      "extraord": 6241,
      "earthqu": 6242,
      "rice": 6243,
      "cha": 6244,
      "unless": 6245,
      "detained": 6246,
      "##dog": 6247,
      "##wa": 6248,
      "brend": 6249,
      "##inder": 6250,
      "headquar": 6251,
      "baghd": 6252,
      "acknowled": 6253,
      "kay": 6254,
      "##gio": 6255,
      "weigh": 6256,
      "poison": 6257,
      "connecticut": 6258,
      "shoes": 6259,
      "cleared": 6260,
      "escaped": 6261,
      "aimed": 6262,
      "verdict": 6263,
      "vital": 6264,
      "biz": 6265,
      "tied": 6266,
      "##ategy": 6267,
      "pregnancy": 6268,
      "liberal": 6269,
      "##oche": 6270,
      "grounds": 6271,
      "clark": 6272,
      "inspir": 6273,
      "jean": 6274,
      "peters": 6275,
      "assistance": 6276,
      "drew": 6277,
      "##oth": 6278,
      "strategy": 6279,
      "enjoying": 6280,
      "flew": 6281,
      "##eted": 6282,
      "performing": 6283,
      "judges": 6284,
      "##essions": 6285,
      "grey": 6286,
      "mistake": 6287,
      "politicians": 6288,
      "gear": 6289,
      "asian": 6290,
      "hodg": 6291,
      "largely": 6292,
      "conversation": 6293,
      "aar": 6294,
      "stu": 6295,
      "insist": 6296,
      "lisa": 6297,
      "##uated": 6298,
      "alab": 6299,
      "task": 6300,
      "gab": 6301,
      "unlik": 6302,
      "circumstances": 6303,
      "bruce": 6304,
      "twin": 6305,
      "resist": 6306,
      "lan": 6307,
      "amanda": 6308,
      "overt": 6309,
      "bigger": 6310,
      "tackle": 6311,
      "supply": 6312,
      "neighbours": 6313,
      "tradition": 6314,
      "##atively": 6315,
      "64": 6316,
      "client": 6317,
      "##ashing": 6318,
      "testified": 6319,
      "criticised": 6320,
      "bike": 6321,
      "coroner": 6322,
      "hunting": 6323,
      "prepare": 6324,
      "options": 6325,
      "##acting": 6326,
      "sees": 6327,
      "continuing": 6328,
      "baghdad": 6329,
      "windows": 6330,
      "russell": 6331,
      "advent": 6332,
      "basketball": 6333,
      "radical": 6334,
      "liter": 6335,
      "unlikely": 6336,
      "##rep": 6337,
      "inch": 6338,
      "sty": 6339,
      "seattle": 6340,
      "utah": 6341,
      "powers": 6342,
      "core": 6343,
      "waste": 6344,
      "nose": 6345,
      "ay": 6346,
      "conviction": 6347,
      "##apse": 6348,
      "defending": 6349,
      "rif": 6350,
      "##ardo": 6351,
      "##inois": 6352,
      "distance": 6353,
      "vic": 6354,
      "knock": 6355,
      "followers": 6356,
      "gor": 6357,
      "notor": 6358,
      "slight": 6359,
      "##atever": 6360,
      "granted": 6361,
      "earn": 6362,
      "guide": 6363,
      "transpl": 6364,
      "whatever": 6365,
      "dor": 6366,
      "blair": 6367,
      "drawn": 6368,
      "archit": 6369,
      "##vey": 6370,
      "disney": 6371,
      "choose": 6372,
      "##gt": 6373,
      "feared": 6374,
      "speaker": 6375,
      "abbott": 6376,
      "comedy": 6377,
      "shadow": 6378,
      "##iev": 6379,
      "kicked": 6380,
      "##isf": 6381,
      "mostly": 6382,
      "##ias": 6383,
      "reporting": 6384,
      "##acle": 6385,
      "mohammed": 6386,
      "proceed": 6387,
      "weak": 6388,
      "rolling": 6389,
      "barcl": 6390,
      "illinois": 6391,
      "greece": 6392,
      "headquarters": 6393,
      "mitche": 6394,
      "plea": 6395,
      "challenges": 6396,
      "environmental": 6397,
      "findings": 6398,
      "heath": 6399,
      "approached": 6400,
      "dancing": 6401,
      "exclusive": 6402,
      "dying": 6403,
      "##oves": 6404,
      "##ito": 6405,
      "none": 6406,
      "bathroom": 6407,
      "58": 6408,
      "iron": 6409,
      "doors": 6410,
      "osborne": 6411,
      "prompted": 6412,
      "66": 6413,
      "##pet": 6414,
      "joh": 6415,
      "discrim": 6416,
      "consist": 6417,
      "consumers": 6418,
      "bizarre": 6419,
      "widely": 6420,
      "understood": 6421,
      "proposal": 6422,
      "convention": 6423,
      "replaced": 6424,
      "flowers": 6425,
      "##gow": 6426,
      "humans": 6427,
      "mitchell": 6428,
      "67": 6429,
      "##berry": 6430,
      "edin": 6431,
      "250": 6432,
      "##eller": 6433,
      "gunman": 6434,
      "micros": 6435,
      "##nic": 6436,
      "##die": 6437,
      "##mann": 6438,
      "unfortun": 6439,
      "alabama": 6440,
      "anch": 6441,
      "##imp": 6442,
      "adopted": 6443,
      "pist": 6444,
      "mario": 6445,
      "strict": 6446,
      "encounter": 6447,
      "lift": 6448,
      "##enez": 6449,
      "conspiracy": 6450,
      "dry": 6451,
      "##oln": 6452,
      "communications": 6453,
      "ment": 6454,
      "noticed": 6455,
      "theft": 6456,
      "poses": 6457,
      "surprised": 6458,
      "toil": 6459,
      "brid": 6460,
      "##aph": 6461,
      "qpr": 6462,
      "##look": 6463,
      "##otte": 6464,
      "declined": 6465,
      "detail": 6466,
      "pound": 6467,
      "##oyd": 6468,
      "weekly": 6469,
      "##eb": 6470,
      "##ache": 6471,
      "admits": 6472,
      "roger": 6473,
      "59": 6474,
      "nut": 6475,
      "##dale": 6476,
      "##emic": 6477,
      "##ports": 6478,
      "dal": 6479,
      "vent": 6480,
      "hurricane": 6481,
      "##rence": 6482,
      "chose": 6483,
      "sha": 6484,
      "attempting": 6485,
      "##mouth": 6486,
      "##asted": 6487,
      "barr": 6488,
      "dispute": 6489,
      "amy": 6490,
      "wolf": 6491,
      "object": 6492,
      "symb": 6493,
      "lob": 6494,
      "##under": 6495,
      "sanctions": 6496,
      "grave": 6497,
      "celebrating": 6498,
      "theat": 6499,
      "threw": 6500,
      "sean": 6501,
      "vacc": 6502,
      "gil": 6503,
      "ted": 6504,
      "smaller": 6505,
      "compensation": 6506,
      "##esc": 6507,
      "trophy": 6508,
      "guards": 6509,
      "mystery": 6510,
      "shr": 6511,
      "unp": 6512,
      "established": 6513,
      "ry": 6514,
      "execution": 6515,
      "linc": 6516,
      "burgl": 6517,
      "elsewhere": 6518,
      "##owa": 6519,
      "abroad": 6520,
      "portra": 6521,
      "chat": 6522,
      "##utation": 6523,
      "excess": 6524,
      "beer": 6525,
      "davies": 6526,
      "stayed": 6527,
      "cornwall": 6528,
      "factory": 6529,
      "tatto": 6530,
      "##uz": 6531,
      "engaged": 6532,
      "distur": 6533,
      "breach": 6534,
      "favorite": 6535,
      "celebration": 6536,
      "luke": 6537,
      "assaulted": 6538,
      "castle": 6539,
      "##inations": 6540,
      "##inez": 6541,
      "anne": 6542,
      "motiv": 6543,
      "sisters": 6544,
      "rapid": 6545,
      "rav": 6546,
      "burning": 6547,
      "unkn": 6548,
      "guest": 6549,
      "smugg": 6550,
      "burst": 6551,
      "novel": 6552,
      "72": 6553,
      "atlet": 6554,
      "sevent": 6555,
      "##uly": 6556,
      "gian": 6557,
      "caps": 6558,
      "pointed": 6559,
      "wis": 6560,
      "compete": 6561,
      "demanding": 6562,
      "##itute": 6563,
      "chocol": 6564,
      "basis": 6565,
      "gill": 6566,
      "isol": 6567,
      "excited": 6568,
      "switch": 6569,
      "belief": 6570,
      "extraordinary": 6571,
      "kath": 6572,
      "emma": 6573,
      "##itors": 6574,
      "lincoln": 6575,
      "700": 6576,
      "wer": 6577,
      "awa": 6578,
      "##anne": 6579,
      "prix": 6580,
      "mack": 6581,
      "argument": 6582,
      "##wr": 6583,
      "defended": 6584,
      "investigated": 6585,
      "vessel": 6586,
      "por": 6587,
      "bombs": 6588,
      "pushing": 6589,
      "notes": 6590,
      "referred": 6591,
      "apparent": 6592,
      "permission": 6593,
      "##care": 6594,
      "margar": 6595,
      "glas": 6596,
      "atletico": 6597,
      "fame": 6598,
      "officially": 6599,
      "celebrities": 6600,
      "devastating": 6601,
      "permanent": 6602,
      "##osen": 6603,
      "starts": 6604,
      "testim": 6605,
      "transportation": 6606,
      "assemb": 6607,
      "easily": 6608,
      "jumped": 6609,
      "ko": 6610,
      "##bel": 6611,
      "fee": 6612,
      "studio": 6613,
      "suc": 6614,
      "sentencing": 6615,
      "homeless": 6616,
      "stuart": 6617,
      "specialist": 6618,
      "dir": 6619,
      "sheff": 6620,
      "##kel": 6621,
      "grace": 6622,
      "aaron": 6623,
      "##istics": 6624,
      "talked": 6625,
      "producer": 6626,
      "analysis": 6627,
      "inte": 6628,
      "strateg": 6629,
      "foster": 6630,
      "laura": 6631,
      "duncan": 6632,
      "notting": 6633,
      "athletes": 6634,
      "##oses": 6635,
      "writer": 6636,
      "milk": 6637,
      "birds": 6638,
      "63": 6639,
      "cruel": 6640,
      "tsar": 6641,
      "katie": 6642,
      "stom": 6643,
      "##aco": 6644,
      "clim": 6645,
      "##employ": 6646,
      "complic": 6647,
      "bloom": 6648,
      "shares": 6649,
      "laid": 6650,
      "procedure": 6651,
      "gon": 6652,
      "attending": 6653,
      "follows": 6654,
      "sgt": 6655,
      "##antic": 6656,
      "ale": 6657,
      "##hetic": 6658,
      "columb": 6659,
      "deliber": 6660,
      "statements": 6661,
      "characters": 6662,
      "sleeping": 6663,
      "gift": 6664,
      "riding": 6665,
      "##ounced": 6666,
      "hodgson": 6667,
      "cous": 6668,
      "##wick": 6669,
      "##char": 6670,
      "glam": 6671,
      "fu": 6672,
      "finger": 6673,
      "loy": 6674,
      "behalf": 6675,
      "celebrated": 6676,
      "calm": 6677,
      "resol": 6678,
      "sheffield": 6679,
      "adj": 6680,
      "stewart": 6681,
      "iowa": 6682,
      "##inct": 6683,
      "diver": 6684,
      "congressional": 6685,
      "referee": 6686,
      "68": 6687,
      "bart": 6688,
      "entr": 6689,
      "drone": 6690,
      "encourage": 6691,
      "invited": 6692,
      "inspector": 6693,
      "please": 6694,
      "obviously": 6695,
      "##itarian": 6696,
      "martinez": 6697,
      "surrounded": 6698,
      "reduced": 6699,
      "vig": 6700,
      "##ora": 6701,
      "provides": 6702,
      "apology": 6703,
      "dedicated": 6704,
      "stomach": 6705,
      "##ando": 6706,
      "unemploy": 6707,
      "planes": 6708,
      "withdraw": 6709,
      "tiger": 6710,
      "edwards": 6711,
      "tend": 6712,
      "##owned": 6713,
      "indeed": 6714,
      "involvement": 6715,
      "height": 6716,
      "horror": 6717,
      "cul": 6718,
      "##uay": 6719,
      "consequ": 6720,
      "galax": 6721,
      "teenagers": 6722,
      "votes": 6723,
      "balot": 6724,
      "libr": 6725,
      "salt": 6726,
      "castro": 6727,
      "waves": 6728,
      "tact": 6729,
      "connected": 6730,
      "crossing": 6731,
      "barclays": 6732,
      "vinc": 6733,
      "knight": 6734,
      "##water": 6735,
      "closing": 6736,
      "flooding": 6737,
      "balotelli": 6738,
      "lung": 6739,
      "packed": 6740,
      "juan": 6741,
      "##wise": 6742,
      "label": 6743,
      "hawai": 6744,
      "upper": 6745,
      "marked": 6746,
      "##ective": 6747,
      "portugal": 6748,
      "##person": 6749,
      "##ema": 6750,
      "interests": 6751,
      "lies": 6752,
      "inapp": 6753,
      "knocked": 6754,
      "garcia": 6755,
      "closely": 6756,
      "lt": 6757,
      "leads": 6758,
      "cuba": 6759,
      "##minster": 6760,
      "accompan": 6761,
      "decor": 6762,
      "##ded": 6763,
      "ferr": 6764,
      "basic": 6765,
      "eleph": 6766,
      "cav": 6767,
      "burns": 6768,
      "##areness": 6769,
      "patter": 6770,
      "sudan": 6771,
      "reaching": 6772,
      "robbery": 6773,
      "##astr": 6774,
      "minimum": 6775,
      "awareness": 6776,
      "properly": 6777,
      "##ridge": 6778,
      "rome": 6779,
      "amazon": 6780,
      "gates": 6781,
      "##mers": 6782,
      "##inate": 6783,
      "correct": 6784,
      "vlad": 6785,
      "moves": 6786,
      "titles": 6787,
      "boxing": 6788,
      "baseball": 6789,
      "multi": 6790,
      "stem": 6791,
      "##rupt": 6792,
      "firms": 6793,
      "orders": 6794,
      "pier": 6795,
      "##yr": 6796,
      "##ints": 6797,
      "suddenly": 6798,
      "moy": 6799,
      "soccer": 6800,
      "taxi": 6801,
      "##iro": 6802,
      "downing": 6803,
      "appearing": 6804,
      "button": 6805,
      "murdering": 6806,
      "bos": 6807,
      "##lo": 6808,
      "risks": 6809,
      "77": 6810,
      "1999": 6811,
      "innocent": 6812,
      "cair": 6813,
      "killings": 6814,
      "##cedes": 6815,
      "lots": 6816,
      "##ingly": 6817,
      "occasion": 6818,
      "##ulous": 6819,
      "chamber": 6820,
      "unknown": 6821,
      "cream": 6822,
      "regarding": 6823,
      "carter": 6824,
      "intention": 6825,
      "nelson": 6826,
      "##erted": 6827,
      "shark": 6828,
      "##orders": 6829,
      "promote": 6830,
      "drinks": 6831,
      "belgium": 6832,
      "ramp": 6833,
      "##odes": 6834,
      "shelter": 6835,
      "leban": 6836,
      "furious": 6837,
      "hung": 6838,
      "riot": 6839,
      "##esco": 6840,
      "democrat": 6841,
      "lifestyle": 6842,
      "wreck": 6843,
      "interv": 6844,
      "dubai": 6845,
      "##itage": 6846,
      "defendant": 6847,
      "£10": 6848,
      "snowden": 6849,
      "##icient": 6850,
      "fier": 6851,
      "appointed": 6852,
      "glasgow": 6853,
      "ultimately": 6854,
      "##het": 6855,
      "probe": 6856,
      "##ologists": 6857,
      "medicine": 6858,
      "##esus": 6859,
      "concent": 6860,
      "meal": 6861,
      "##rees": 6862,
      "adams": 6863,
      "##oppers": 6864,
      "##eding": 6865,
      "democracy": 6866,
      "jong": 6867,
      "winners": 6868,
      "tourist": 6869,
      "##ropol": 6870,
      "territory": 6871,
      "gap": 6872,
      "overseas": 6873,
      "##burn": 6874,
      "##usal": 6875,
      "froz": 6876,
      "beckham": 6877,
      "61": 6878,
      "rush": 6879,
      "founded": 6880,
      "chase": 6881,
      "stealing": 6882,
      "alternative": 6883,
      "nazi": 6884,
      "##aya": 6885,
      "negative": 6886,
      "depression": 6887,
      "satellite": 6888,
      "rab": 6889,
      "##itis": 6890,
      "thor": 6891,
      "recording": 6892,
      "sed": 6893,
      "quit": 6894,
      "automatic": 6895,
      "bik": 6896,
      "alt": 6897,
      "demanded": 6898,
      "edinburgh": 6899,
      "ast": 6900,
      "thail": 6901,
      "grade": 6902,
      "coord": 6903,
      "infected": 6904,
      "concluded": 6905,
      "thailand": 6906,
      "fruit": 6907,
      "vision": 6908,
      "concentr": 6909,
      "travelled": 6910,
      "stole": 6911,
      "##ima": 6912,
      "brill": 6913,
      "robinson": 6914,
      "begins": 6915,
      "testimony": 6916,
      "##actions": 6917,
      "disabled": 6918,
      "##uits": 6919,
      "margaret": 6920,
      "lig": 6921,
      "formed": 6922,
      "mcdonald": 6923,
      "colon": 6924,
      "sams": 6925,
      "##vens": 6926,
      "ties": 6927,
      "anna": 6928,
      "thoughts": 6929,
      "##inating": 6930,
      "cliff": 6931,
      "il": 6932,
      "##cling": 6933,
      "##oured": 6934,
      "highl": 6935,
      "activist": 6936,
      "tip": 6937,
      "##issa": 6938,
      "##drome": 6939,
      "##imir": 6940,
      "filming": 6941,
      "balance": 6942,
      "nigel": 6943,
      "bone": 6944,
      "scan": 6945,
      "grandfather": 6946,
      "##gent": 6947,
      "prec": 6948,
      "hide": 6949,
      "bailey": 6950,
      "syndrome": 6951,
      "##greg": 6952,
      "plenty": 6953,
      "sin": 6954,
      "##borough": 6955,
      "narrow": 6956,
      "pard": 6957,
      "atmosphere": 6958,
      "pock": 6959,
      "##child": 6960,
      "voting": 6961,
      "crucial": 6962,
      "##azy": 6963,
      "traveling": 6964,
      "##maker": 6965,
      "warrant": 6966,
      "dealing": 6967,
      "advance": 6968,
      "earthquake": 6969,
      "chosen": 6970,
      "imposs": 6971,
      "patri": 6972,
      "##wan": 6973,
      "reid": 6974,
      "happens": 6975,
      "hired": 6976,
      "overnight": 6977,
      "charlotte": 6978,
      "earning": 6979,
      "metropol": 6980,
      "explo": 6981,
      "reputation": 6982,
      "youngest": 6983,
      "kenya": 6984,
      "initi": 6985,
      "dele": 6986,
      "mandela": 6987,
      "militant": 6988,
      "links": 6989,
      "guar": 6990,
      "samsung": 6991,
      "##rog": 6992,
      "##place": 6993,
      "promise": 6994,
      "alert": 6995,
      "bosses": 6996,
      "citing": 6997,
      "lyn": 6998,
      "##erves": 6999,
      "overw": 7000,
      "satisf": 7001,
      "chocolate": 7002,
      "resolution": 7003,
      "burned": 7004,
      "lun": 7005,
      "##ci": 7006,
      "footballer": 7007,
      "ye": 7008,
      "seal": 7009,
      "entit": 7010,
      "##amples": 7011,
      "howard": 7012,
      "holder": 7013,
      "bench": 7014,
      "facilities": 7015,
      "harv": 7016,
      "casual": 7017,
      "appropriate": 7018,
      "rehab": 7019,
      "overwhel": 7020,
      "##ids": 7021,
      "##arch": 7022,
      "##strong": 7023,
      "kansas": 7024,
      "blaze": 7025,
      "battery": 7026,
      "hors": 7027,
      "condemned": 7028,
      "##ami": 7029,
      "pleas": 7030,
      "teaching": 7031,
      "malaysia": 7032,
      "##oop": 7033,
      "routine": 7034,
      "comfortable": 7035,
      "organisation": 7036,
      "##acity": 7037,
      "phillips": 7038,
      "bureau": 7039,
      "neither": 7040,
      "cancel": 7041,
      "##roit": 7042,
      "westminster": 7043,
      "hend": 7044,
      "hob": 7045,
      "oldest": 7046,
      "##gun": 7047,
      "motion": 7048,
      "##ouch": 7049,
      "##standing": 7050,
      "familiar": 7051,
      "empty": 7052,
      "dod": 7053,
      "firing": 7054,
      "aviation": 7055,
      "bund": 7056,
      "informed": 7057,
      "##hem": 7058,
      "##anic": 7059,
      "##naev": 7060,
      "wealthy": 7061,
      "shaw": 7062,
      "##ikh": 7063,
      "definitely": 7064,
      "kit": 7065,
      "grass": 7066,
      "payments": 7067,
      "collins": 7068,
      "##etta": 7069,
      "dust": 7070,
      "childhood": 7071,
      "diplomatic": 7072,
      "tsarnaev": 7073,
      "##oded": 7074,
      "balls": 7075,
      "mine": 7076,
      "bra": 7077,
      "plun": 7078,
      "junior": 7079,
      "arabia": 7080,
      "survive": 7081,
      "ak": 7082,
      "delighted": 7083,
      "taxes": 7084,
      "jurors": 7085,
      "thatcher": 7086,
      "enth": 7087,
      "containing": 7088,
      "destr": 7089,
      "armstrong": 7090,
      "badly": 7091,
      "hiv": 7092,
      "detroit": 7093,
      "enr": 7094,
      "discl": 7095,
      "pip": 7096,
      "twins": 7097,
      "everybody": 7098,
      "lap": 7099,
      "gene": 7100,
      "wides": 7101,
      "susan": 7102,
      "package": 7103,
      "##regon": 7104,
      "lamp": 7105,
      "##ierra": 7106,
      "mercedes": 7107,
      "industrial": 7108,
      "oregon": 7109,
      "##eals": 7110,
      "brave": 7111,
      "representatives": 7112,
      "##ici": 7113,
      "nottingham": 7114,
      "pc": 7115,
      "shell": 7116,
      "happening": 7117,
      "solution": 7118,
      "loyal": 7119,
      "chile": 7120,
      "nep": 7121,
      "shops": 7122,
      "properties": 7123,
      "191": 7124,
      "movies": 7125,
      "organizations": 7126,
      "keith": 7127,
      "##pread": 7128,
      "lod": 7129,
      "##usion": 7130,
      "observ": 7131,
      "##rene": 7132,
      "swiss": 7133,
      "##ippi": 7134,
      "savile": 7135,
      "suggesting": 7136,
      "branded": 7137,
      "brendan": 7138,
      "##bie": 7139,
      "missile": 7140,
      "bullet": 7141,
      "describes": 7142,
      "cable": 7143,
      "##uster": 7144,
      "somalia": 7145,
      "branch": 7146,
      "goods": 7147,
      "impossible": 7148,
      "##orous": 7149,
      "##endum": 7150,
      "darren": 7151,
      "##rier": 7152,
      "switzer": 7153,
      "##cott": 7154,
      "1998": 7155,
      "##amm": 7156,
      "veget": 7157,
      "widespread": 7158,
      "loving": 7159,
      "instruc": 7160,
      "architect": 7161,
      "cafe": 7162,
      "sits": 7163,
      "mccain": 7164,
      "##rest": 7165,
      "##onom": 7166,
      "indict": 7167,
      "hacking": 7168,
      "compr": 7169,
      "donald": 7170,
      "hotels": 7171,
      "hosts": 7172,
      "listen": 7173,
      "delivery": 7174,
      "commitment": 7175,
      "switzerland": 7176,
      "tail": 7177,
      "posing": 7178,
      "appeals": 7179,
      "implement": 7180,
      "turns": 7181,
      "wonderful": 7182,
      "pod": 7183,
      "tab": 7184,
      "anx": 7185,
      "fisher": 7186,
      "barbara": 7187,
      "click": 7188,
      "gross": 7189,
      "walls": 7190,
      "mississ": 7191,
      "referendum": 7192,
      "maryland": 7193,
      "73": 7194,
      "gate": 7195,
      "frozen": 7196,
      "carbon": 7197,
      "teeth": 7198,
      "advis": 7199,
      "referring": 7200,
      "exhibition": 7201,
      "rot": 7202,
      "compar": 7203,
      "interviewed": 7204,
      "artists": 7205,
      "devon": 7206,
      "crews": 7207,
      "striking": 7208,
      "greek": 7209,
      "stated": 7210,
      "alaska": 7211,
      "migrants": 7212,
      "##lers": 7213,
      "recommend": 7214,
      "illustr": 7215,
      "##point": 7216,
      "##gate": 7217,
      "homeland": 7218,
      "louisiana": 7219,
      "tag": 7220,
      "sector": 7221,
      "admitting": 7222,
      "##asy": 7223,
      "##ctic": 7224,
      "##phy": 7225,
      "cycl": 7226,
      "85": 7227,
      "yards": 7228,
      "##hez": 7229,
      "representative": 7230,
      "mississippi": 7231,
      "##ellers": 7232,
      "surrey": 7233,
      "morris": 7234,
      "pill": 7235,
      "settlement": 7236,
      "supermarket": 7237,
      "78": 7238,
      "agu": 7239,
      "krist": 7240,
      "sierra": 7241,
      "disgr": 7242,
      "sail": 7243,
      "assass": 7244,
      "combined": 7245,
      "advertising": 7246,
      "##respond": 7247,
      "vladimir": 7248,
      "centers": 7249,
      "wra": 7250,
      "##uting": 7251,
      "foods": 7252,
      "massac": 7253,
      "correspond": 7254,
      "extended": 7255,
      "papers": 7256,
      "nba": 7257,
      "throwing": 7258,
      "shoulder": 7259,
      "pel": 7260,
      "##iders": 7261,
      "truly": 7262,
      "conce": 7263,
      "colleague": 7264,
      "gender": 7265,
      "projects": 7266,
      "viet": 7267,
      "berlin": 7268,
      "##istle": 7269,
      "concert": 7270,
      "breakfast": 7271,
      "bucking": 7272,
      "blank": 7273,
      "shift": 7274,
      "lawrence": 7275,
      "falls": 7276,
      "burnley": 7277,
      "loves": 7278,
      "arena": 7279,
      "islamist": 7280,
      "temporary": 7281,
      "transplant": 7282,
      "luck": 7283,
      "##ucks": 7284,
      "solid": 7285,
      "roma": 7286,
      "existing": 7287,
      "wire": 7288,
      "hits": 7289,
      "##cot": 7290,
      "##apper": 7291,
      "##kyo": 7292,
      "##ecca": 7293,
      "civilian": 7294,
      "tracks": 7295,
      "fishing": 7296,
      "tent": 7297,
      "##alling": 7298,
      "worn": 7299,
      "##heim": 7300,
      "intent": 7301,
      "restaurants": 7302,
      "cbs": 7303,
      "##een": 7304,
      "tries": 7305,
      "normally": 7306,
      "##ati": 7307,
      "##chi": 7308,
      "##oko": 7309,
      "emails": 7310,
      "sett": 7311,
      "enh": 7312,
      "accusations": 7313,
      "cu": 7314,
      "tokyo": 7315,
      "habit": 7316,
      "minnes": 7317,
      "pilots": 7318,
      "speaks": 7319,
      "inspiration": 7320,
      "rent": 7321,
      "libyan": 7322,
      "chicken": 7323,
      "##ls": 7324,
      "crowds": 7325,
      "innov": 7326,
      "checks": 7327,
      "governments": 7328,
      "spectac": 7329,
      "##umed": 7330,
      "successfully": 7331,
      "distress": 7332,
      "globe": 7333,
      "tenness": 7334,
      "##apes": 7335,
      "easier": 7336,
      "seed": 7337,
      "incredibly": 7338,
      "kilome": 7339,
      "consumer": 7340,
      "walks": 7341,
      "74": 7342,
      "clashes": 7343,
      "##phones": 7344,
      "sanchez": 7345,
      "brilliant": 7346,
      "diss": 7347,
      "explains": 7348,
      "gamb": 7349,
      "galaxy": 7350,
      "##aved": 7351,
      "cultural": 7352,
      "##laim": 7353,
      "minnesota": 7354,
      "terrible": 7355,
      "metres": 7356,
      "cats": 7357,
      "##iac": 7358,
      "manuel": 7359,
      "guarant": 7360,
      "deals": 7361,
      "desert": 7362,
      "microsoft": 7363,
      "metropolitan": 7364,
      "mitt": 7365,
      "spin": 7366,
      "##ullah": 7367,
      "variety": 7368,
      "mountains": 7369,
      "announce": 7370,
      "volunteers": 7371,
      "inappropriate": 7372,
      "joke": 7373,
      "lover": 7374,
      "criminals": 7375,
      "elementary": 7376,
      "touc": 7377,
      "mug": 7378,
      "kingdom": 7379,
      "taste": 7380,
      "punishment": 7381,
      "capable": 7382,
      "racial": 7383,
      "anonymous": 7384,
      "dawn": 7385,
      "midlands": 7386,
      "understanding": 7387,
      "partnership": 7388,
      "buckingham": 7389,
      "austin": 7390,
      "horn": 7391,
      "##amo": 7392,
      "humanitarian": 7393,
      "select": 7394,
      "uncle": 7395,
      "seasons": 7396,
      "remind": 7397,
      "flags": 7398,
      "bitter": 7399,
      "describing": 7400,
      "urug": 7401,
      "entirely": 7402,
      "songs": 7403,
      "cord": 7404,
      "##lete": 7405,
      "leaked": 7406,
      "illegally": 7407,
      "uruguay": 7408,
      "##acks": 7409,
      "kidnapping": 7410,
      "##urer": 7411,
      "mete": 7412,
      "ethnic": 7413,
      "kurd": 7414,
      "abortion": 7415,
      "demands": 7416,
      "##xim": 7417,
      "forget": 7418,
      "contained": 7419,
      "managing": 7420,
      "collected": 7421,
      "function": 7422,
      "petr": 7423,
      "integr": 7424,
      "spokesperson": 7425,
      "heritage": 7426,
      "mcil": 7427,
      "citizen": 7428,
      "comedian": 7429,
      "pistor": 7430,
      "bent": 7431,
      "cheap": 7432,
      "wy": 7433,
      "posts": 7434,
      "collapse": 7435,
      "opportunities": 7436,
      "pump": 7437,
      "vowed": 7438,
      "##uments": 7439,
      "##mund": 7440,
      "##roid": 7441,
      "profit": 7442,
      "fewer": 7443,
      "attorneys": 7444,
      "##antha": 7445,
      "pole": 7446,
      "hiding": 7447,
      "forcing": 7448,
      "clock": 7449,
      "entering": 7450,
      "zero": 7451,
      "clevel": 7452,
      "tennessee": 7453,
      "liqu": 7454,
      "diplom": 7455,
      "aggressive": 7456,
      "lauren": 7457,
      "fees": 7458,
      "warn": 7459,
      "marketing": 7460,
      "colombia": 7461,
      "sri": 7462,
      "investigations": 7463,
      "snap": 7464,
      "flames": 7465,
      "##licit": 7466,
      "##idelines": 7467,
      "mcl": 7468,
      "pistorius": 7469,
      "stal": 7470,
      "##ighth": 7471,
      "conver": 7472,
      "gray": 7473,
      "cleveland": 7474,
      "antonio": 7475,
      "anchor": 7476,
      "69": 7477,
      "oak": 7478,
      "businessman": 7479,
      "enthus": 7480,
      "subsequ": 7481,
      "frame": 7482,
      "clay": 7483,
      "hawaii": 7484,
      "lank": 7485,
      "ald": 7486,
      "##ture": 7487,
      "arts": 7488,
      "kab": 7489,
      "ug": 7490,
      "venez": 7491,
      "##nie": 7492,
      "minority": 7493,
      "throw": 7494,
      "trains": 7495,
      "diab": 7496,
      "confront": 7497,
      "somers": 7498,
      "rachel": 7499,
      "welcom": 7500,
      "bradley": 7501,
      "avenue": 7502,
      "##etime": 7503,
      "amp": 7504,
      "plants": 7505,
      "petition": 7506,
      "smashed": 7507,
      "lin": 7508,
      "brew": 7509,
      "apply": 7510,
      "baker": 7511,
      "replied": 7512,
      "hanging": 7513,
      "julie": 7514,
      "itv": 7515,
      "adviser": 7516,
      "dean": 7517,
      "allies": 7518,
      "##cover": 7519,
      "arrests": 7520,
      "taxpayers": 7521,
      "##oen": 7522,
      "upcoming": 7523,
      "funded": 7524,
      "targeting": 7525,
      "##asters": 7526,
      "venezuel": 7527,
      "sacked": 7528,
      "tornado": 7529,
      "peak": 7530,
      "barry": 7531,
      "skull": 7532,
      "detailed": 7533,
      "trafficking": 7534,
      "mcilroy": 7535,
      "##issions": 7536,
      "realised": 7537,
      "networks": 7538,
      "clarke": 7539,
      "stamp": 7540,
      "nev": 7541,
      "kidnapped": 7542,
      "locations": 7543,
      "ideas": 7544,
      "resigned": 7545,
      "ships": 7546,
      "##pass": 7547,
      "knox": 7548,
      "specifically": 7549,
      "searched": 7550,
      "wels": 7551,
      "detention": 7552,
      "franco": 7553,
      "##mitted": 7554,
      "samantha": 7555,
      "divers": 7556,
      "han": 7557,
      "torture": 7558,
      "orle": 7559,
      "thin": 7560,
      "underground": 7561,
      "reven": 7562,
      "911": 7563,
      "math": 7564,
      "markets": 7565,
      "battling": 7566,
      "offices": 7567,
      "demonstrators": 7568,
      "intense": 7569,
      "circuit": 7570,
      "cristiano": 7571,
      "##aware": 7572,
      "parade": 7573,
      "maximum": 7574,
      "clients": 7575,
      "sussex": 7576,
      "spectacular": 7577,
      "craw": 7578,
      "dougl": 7579,
      "ank": 7580,
      "neur": 7581,
      "smartphone": 7582,
      "desire": 7583,
      "praised": 7584,
      "orleans": 7585,
      "ax": 7586,
      "holmes": 7587,
      "kyle": 7588,
      "##essing": 7589,
      "##wealth": 7590,
      "qatar": 7591,
      "owns": 7592,
      "convin": 7593,
      "library": 7594,
      "unex": 7595,
      "pover": 7596,
      "locals": 7597,
      "sony": 7598,
      "powell": 7599,
      "##obi": 7600,
      "apps": 7601,
      "races": 7602,
      "griff": 7603,
      "oliver": 7604,
      "remarkable": 7605,
      "welsh": 7606,
      "mood": 7607,
      "arrives": 7608,
      "covering": 7609,
      "commonwealth": 7610,
      "bun": 7611,
      "dyn": 7612,
      "spurs": 7613,
      "tape": 7614,
      "##bul": 7615,
      "ney": 7616,
      "buff": 7617,
      "dict": 7618,
      "federer": 7619,
      "##ulty": 7620,
      "adds": 7621,
      "sib": 7622,
      "effectively": 7623,
      "rever": 7624,
      "elite": 7625,
      "stations": 7626,
      "biden": 7627,
      "##box": 7628,
      "##xic": 7629,
      "tensions": 7630,
      "persie": 7631,
      "unw": 7632,
      "flash": 7633,
      "temperature": 7634,
      "pupp": 7635,
      "convinced": 7636,
      "poverty": 7637,
      "rover": 7638,
      "registered": 7639,
      "##asion": 7640,
      "hut": 7641,
      "##nd": 7642,
      "smile": 7643,
      "gest": 7644,
      "relatively": 7645,
      "meals": 7646,
      "denver": 7647,
      "##estone": 7648,
      "shield": 7649,
      "structure": 7650,
      "fantastic": 7651,
      "lionel": 7652,
      "lamb": 7653,
      "visits": 7654,
      "representing": 7655,
      "application": 7656,
      "pelle": 7657,
      "stages": 7658,
      "shoppers": 7659,
      "##acht": 7660,
      "unlike": 7661,
      "giants": 7662,
      "plain": 7663,
      "avo": 7664,
      "urban": 7665,
      "sustained": 7666,
      "exit": 7667,
      "capacity": 7668,
      "gained": 7669,
      "indonesia": 7670,
      "hannah": 7671,
      "reign": 7672,
      "employment": 7673,
      "renew": 7674,
      "##din": 7675,
      "warnings": 7676,
      "va": 7677,
      "beloved": 7678,
      "confron": 7679,
      "infr": 7680,
      "nancy": 7681,
      "traveled": 7682,
      "ordeal": 7683,
      "kentucky": 7684,
      "##idays": 7685,
      "ups": 7686,
      "fortune": 7687,
      "championships": 7688,
      "negotiations": 7689,
      "swift": 7690,
      "reforms": 7691,
      "pere": 7692,
      "toll": 7693,
      "spy": 7694,
      "trium": 7695,
      "slightly": 7696,
      "winger": 7697,
      "prevention": 7698,
      "##iece": 7699,
      "##ien": 7700,
      "##acking": 7701,
      "outfit": 7702,
      "freez": 7703,
      "hunter": 7704,
      "simpson": 7705,
      "bever": 7706,
      "therefore": 7707,
      "anticip": 7708,
      "unac": 7709,
      "apprec": 7710,
      "warren": 7711,
      "notorious": 7712,
      "neymar": 7713,
      "delhi": 7714,
      "hosted": 7715,
      "imagine": 7716,
      "wounds": 7717,
      "cler": 7718,
      "persu": 7719,
      "ahmed": 7720,
      "##ensions": 7721,
      "stafford": 7722,
      "represents": 7723,
      "cyber": 7724,
      "creative": 7725,
      "weren": 7726,
      "taught": 7727,
      "##ashire": 7728,
      "principal": 7729,
      "spray": 7730,
      "lawmakers": 7731,
      "shed": 7732,
      "mixed": 7733,
      "lancashire": 7734,
      "##math": 7735,
      "stur": 7736,
      "£9": 7737,
      "##stan": 7738,
      "brun": 7739,
      "experiences": 7740,
      "vet": 7741,
      "inmates": 7742,
      "##acey": 7743,
      "##low": 7744,
      "##uous": 7745,
      "retirement": 7746,
      "seventh": 7747,
      "indiana": 7748,
      "triumph": 7749,
      "entry": 7750,
      "becomes": 7751,
      "guys": 7752,
      "meetings": 7753,
      "debr": 7754,
      "murphy": 7755,
      "hamas": 7756,
      "cloud": 7757,
      "repair": 7758,
      "toilet": 7759,
      "71": 7760,
      "##fa": 7761,
      "disappointed": 7762,
      "fasc": 7763,
      "honey": 7764,
      "##icts": 7765,
      "pleased": 7766,
      "telep": 7767,
      "monitoring": 7768,
      "benn": 7769,
      "mech": 7770,
      "wet": 7771,
      "bris": 7772,
      "confessed": 7773,
      "advanced": 7774,
      "mud": 7775,
      "chan": 7776,
      "arth": 7777,
      "angela": 7778,
      "relationships": 7779,
      "poland": 7780,
      "##encer": 7781,
      "classes": 7782,
      "recruit": 7783,
      "speculation": 7784,
      "survivors": 7785,
      "boeing": 7786,
      "stunned": 7787,
      "wool": 7788,
      "resulted": 7789,
      "salv": 7790,
      "gallery": 7791,
      "suburb": 7792,
      "moyes": 7793,
      "stroke": 7794,
      "puts": 7795,
      "cape": 7796,
      "pentagon": 7797,
      "formal": 7798,
      "aside": 7799,
      "powered": 7800,
      "##oa": 7801,
      "revealing": 7802,
      "##ahl": 7803,
      "drawing": 7804,
      "predict": 7805,
      "purpose": 7806,
      "hadn": 7807,
      "parked": 7808,
      "predicted": 7809,
      "nin": 7810,
      "otherwise": 7811,
      "berg": 7812,
      "garage": 7813,
      "bolton": 7814,
      "cited": 7815,
      "##erate": 7816,
      "amend": 7817,
      "recovering": 7818,
      "acknowledged": 7819,
      "##cr": 7820,
      "##etch": 7821,
      "1997": 7822,
      "emirates": 7823,
      "gadh": 7824,
      "improved": 7825,
      "accidentally": 7826,
      "org": 7827,
      "teens": 7828,
      "attached": 7829,
      "slim": 7830,
      "nobody": 7831,
      "positions": 7832,
      "bullying": 7833,
      "surprising": 7834,
      "##bian": 7835,
      "##stri": 7836,
      "denn": 7837,
      "carn": 7838,
      "contains": 7839,
      "explor": 7840,
      "paed": 7841,
      "stabbing": 7842,
      "carlos": 7843,
      "approval": 7844,
      "priority": 7845,
      "nicole": 7846,
      "debris": 7847,
      "76": 7848,
      "outs": 7849,
      "##igned": 7850,
      "hood": 7851,
      "theory": 7852,
      "reward": 7853,
      "myster": 7854,
      "##shot": 7855,
      "paint": 7856,
      "hollande": 7857,
      "cass": 7858,
      "executed": 7859,
      "bru": 7860,
      "backing": 7861,
      "##idency": 7862,
      "applied": 7863,
      "##abe": 7864,
      "##iatric": 7865,
      "finance": 7866,
      "chronic": 7867,
      "opponents": 7868,
      "meteor": 7869,
      "horrif": 7870,
      "helen": 7871,
      "pulling": 7872,
      "douglas": 7873,
      "jesus": 7874,
      "nathan": 7875,
      "selection": 7876,
      "##loaded": 7877,
      "gadhafi": 7878,
      "rivers": 7879,
      "publish": 7880,
      "nurses": 7881,
      "cope": 7882,
      "##aving": 7883,
      "supplies": 7884,
      "entitled": 7885,
      "directed": 7886,
      "##endent": 7887,
      "horses": 7888,
      "cheer": 7889,
      "##mbley": 7890,
      "graduate": 7891,
      "##crib": 7892,
      "enorm": 7893,
      "fundra": 7894,
      "escal": 7895,
      "surgeon": 7896,
      "1994": 7897,
      "massacre": 7898,
      "hud": 7899,
      "##tar": 7900,
      "##gment": 7901,
      "rebecca": 7902,
      "ech": 7903,
      "carib": 7904,
      "turner": 7905,
      "sweden": 7906,
      "wol": 7907,
      "##oker": 7908,
      "blocked": 7909,
      "handling": 7910,
      "maur": 7911,
      "##rets": 7912,
      "bears": 7913,
      "##ello": 7914,
      "yourself": 7915,
      "reception": 7916,
      "hostage": 7917,
      "wembley": 7918,
      "strange": 7919,
      "£100": 7920,
      "neighbors": 7921,
      "forens": 7922,
      "recalled": 7923,
      "cairo": 7924,
      "dressing": 7925,
      "cd": 7926,
      "diana": 7927,
      "brooks": 7928,
      "##uls": 7929,
      "##okovic": 7930,
      "ark": 7931,
      "interviews": 7932,
      "natal": 7933,
      "shout": 7934,
      "bride": 7935,
      "bacter": 7936,
      "sie": 7937,
      "lifted": 7938,
      "archae": 7939,
      "##jan": 7940,
      "mirror": 7941,
      "regulations": 7942,
      "bub": 7943,
      "sink": 7944,
      "beneath": 7945,
      "tweets": 7946,
      "conservatives": 7947,
      "mull": 7948,
      "manage": 7949,
      "treating": 7950,
      "djokovic": 7951,
      "##aid": 7952,
      "polls": 7953,
      "oliv": 7954,
      "##arth": 7955,
      "values": 7956,
      "loud": 7957,
      "discrimination": 7958,
      "larry": 7959,
      "toddler": 7960,
      "roughly": 7961,
      "harassment": 7962,
      "scared": 7963,
      "starring": 7964,
      "protected": 7965,
      "##ylum": 7966,
      "nevada": 7967,
      "astrona": 7968,
      "##uan": 7969,
      "asylum": 7970,
      "clip": 7971,
      "##ucting": 7972,
      "southwest": 7973,
      "electronic": 7974,
      "##otherapy": 7975,
      "paramed": 7976,
      "slammed": 7977,
      "overs": 7978,
      "handle": 7979,
      "photographed": 7980,
      "raping": 7981,
      "odds": 7982,
      "##ommod": 7983,
      "##caster": 7984,
      "matters": 7985,
      "competitive": 7986,
      "corporation": 7987,
      "bug": 7988,
      "seas": 7989,
      "smiles": 7990,
      "writes": 7991,
      "stevens": 7992,
      "engineer": 7993,
      "refugees": 7994,
      "##ione": 7995,
      "offence": 7996,
      "excell": 7997,
      "1970s": 7998,
      "impressed": 7999,
      "refusing": 8000,
      "##grav": 8001,
      "totally": 8002,
      "accommod": 8003,
      "somebody": 8004,
      "95": 8005,
      "tribun": 8006,
      "nickn": 8007,
      "mohamed": 8008,
      "saint": 8009,
      "heroin": 8010,
      "crazy": 8011,
      "##bean": 8012,
      "troubled": 8013,
      "jav": 8014,
      "##opez": 8015,
      "memories": 8016,
      "caroline": 8017,
      "accom": 8018,
      "advised": 8019,
      "vincent": 8020,
      "##nity": 8021,
      "barn": 8022,
      "landsc": 8023,
      "frag": 8024,
      "purchase": 8025,
      "tattoo": 8026,
      "units": 8027,
      "aftermath": 8028,
      "##usting": 8029,
      "encouraged": 8030,
      "suspicious": 8031,
      "shore": 8032,
      "therapy": 8033,
      "accompanied": 8034,
      "concept": 8035,
      "##aba": 8036,
      "grim": 8037,
      "jacob": 8038,
      "dick": 8039,
      "managers": 8040,
      "crossed": 8041,
      "represented": 8042,
      "launching": 8043,
      "sweep": 8044,
      "##oty": 8045,
      "spencer": 8046,
      "monaco": 8047,
      "##hner": 8048,
      "farage": 8049,
      "##onsin": 8050,
      "cousin": 8051,
      "##ato": 8052,
      "wisc": 8053,
      "##the": 8054,
      "##xual": 8055,
      "stam": 8056,
      "designs": 8057,
      "peaceful": 8058,
      "bour": 8059,
      "deport": 8060,
      "brighton": 8061,
      "hond": 8062,
      "tesco": 8063,
      "phoen": 8064,
      "studying": 8065,
      "marie": 8066,
      "##ucker": 8067,
      "parker": 8068,
      "##rick": 8069,
      "##abis": 8070,
      "highlight": 8071,
      "bomber": 8072,
      "##apore": 8073,
      "fined": 8074,
      "discussed": 8075,
      "portrait": 8076,
      "acted": 8077,
      "fleet": 8078,
      "consequences": 8079,
      "parks": 8080,
      "holidays": 8081,
      "delayed": 8082,
      "teleph": 8083,
      "counsel": 8084,
      "singapore": 8085,
      "hip": 8086,
      "collision": 8087,
      "wisconsin": 8088,
      "midfield": 8089,
      "pages": 8090,
      "usual": 8091,
      "regret": 8092,
      "maid": 8093,
      "widow": 8094,
      "expecting": 8095,
      "sne": 8096,
      "middleton": 8097,
      "hammer": 8098,
      "technical": 8099,
      "trips": 8100,
      "deny": 8101,
      "1996": 8102,
      "nationwide": 8103,
      "explosive": 8104,
      "materials": 8105,
      "arsene": 8106,
      "essential": 8107,
      "prospect": 8108,
      "cert": 8109,
      "accompl": 8110,
      "bishop": 8111,
      "pie": 8112,
      "transl": 8113,
      "imprison": 8114,
      "substant": 8115,
      "queensland": 8116,
      "##icial": 8117,
      "describe": 8118,
      "cin": 8119,
      "##rob": 8120,
      "thick": 8121,
      "waited": 8122,
      "conclus": 8123,
      "obam": 8124,
      "ri": 8125,
      "##lect": 8126,
      "witnessed": 8127,
      "indicated": 8128,
      "pace": 8129,
      "types": 8130,
      "eggs": 8131,
      "pride": 8132,
      "airports": 8133,
      "attracted": 8134,
      "##cles": 8135,
      "##olis": 8136,
      "singing": 8137,
      "boots": 8138,
      "phoenix": 8139,
      "lions": 8140,
      "##star": 8141,
      "albert": 8142,
      "##club": 8143,
      "lambert": 8144,
      "category": 8145,
      "cob": 8146,
      "roles": 8147,
      "musical": 8148,
      "rank": 8149,
      "##icate": 8150,
      "hazard": 8151,
      "eag": 8152,
      "rou": 8153,
      "##oir": 8154,
      "##ilst": 8155,
      "react": 8156,
      "sue": 8157,
      "legacy": 8158,
      "arrange": 8159,
      "websites": 8160,
      "grabbed": 8161,
      "android": 8162,
      "sequ": 8163,
      "exception": 8164,
      "ages": 8165,
      "boe": 8166,
      "germ": 8167,
      "##attered": 8168,
      "##girl": 8169,
      "magic": 8170,
      "daw": 8171,
      "##efa": 8172,
      "departure": 8173,
      "ew": 8174,
      "rocks": 8175,
      "deem": 8176,
      "spac": 8177,
      "producing": 8178,
      "kilometers": 8179,
      "dang": 8180,
      "##ateful": 8181,
      "treasury": 8182,
      "##rahim": 8183,
      "ivan": 8184,
      "booked": 8185,
      "cannabis": 8186,
      "ultr": 8187,
      "prohib": 8188,
      "benj": 8189,
      "caribbean": 8190,
      "raw": 8191,
      "hey": 8192,
      "survival": 8193,
      "tamp": 8194,
      "##tershire": 8195,
      "##lessly": 8196,
      "estr": 8197,
      "tribunal": 8198,
      "exciting": 8199,
      "boun": 8200,
      "bale": 8201,
      "compound": 8202,
      "painted": 8203,
      "somerset": 8204,
      "welcomed": 8205,
      "##usive": 8206,
      "requires": 8207,
      "##covered": 8208,
      "interesting": 8209,
      "residence": 8210,
      "rebu": 8211,
      "prominent": 8212,
      "chiefs": 8213,
      "strongly": 8214,
      "mansl": 8215,
      "electricity": 8216,
      "anfield": 8217,
      "##ality": 8218,
      "dug": 8219,
      "##walk": 8220,
      "manslaughter": 8221,
      "furn": 8222,
      "yan": 8223,
      "##bar": 8224,
      "##ilit": 8225,
      "secured": 8226,
      "portray": 8227,
      "viral": 8228,
      "assaulting": 8229,
      "kurdish": 8230,
      "##armed": 8231,
      "##ockey": 8232,
      "honest": 8233,
      "uefa": 8234,
      "fitted": 8235,
      "legit": 8236,
      "1990s": 8237,
      "catal": 8238,
      "typically": 8239,
      "runway": 8240,
      "gareth": 8241,
      "murders": 8242,
      "##aro": 8243,
      "britons": 8244,
      "autumn": 8245,
      "elim": 8246,
      "objects": 8247,
      "emph": 8248,
      "anywhere": 8249,
      "terminal": 8250,
      "gp": 8251,
      "rounds": 8252,
      "scientific": 8253,
      "pic": 8254,
      "sergio": 8255,
      "##dam": 8256,
      "suing": 8257,
      "keeper": 8258,
      "owen": 8259,
      "dollar": 8260,
      "lut": 8261,
      "##aft": 8262,
      "chaos": 8263,
      "sov": 8264,
      "headlines": 8265,
      "ceme": 8266,
      "trading": 8267,
      "downtown": 8268,
      "impl": 8269,
      "imposed": 8270,
      "##atican": 8271,
      "significantly": 8272,
      "gardens": 8273,
      "degrees": 8274,
      "calc": 8275,
      "stable": 8276,
      "opposed": 8277,
      "tablet": 8278,
      "nightclub": 8279,
      "tourism": 8280,
      "fernando": 8281,
      "##yard": 8282,
      "##equ": 8283,
      "emily": 8284,
      "corps": 8285,
      "silence": 8286,
      "stretch": 8287,
      "hub": 8288,
      "rup": 8289,
      "##arms": 8290,
      "lip": 8291,
      "##lings": 8292,
      "##aga": 8293,
      "importance": 8294,
      "constant": 8295,
      "approxim": 8296,
      "reserve": 8297,
      "picking": 8298,
      "gent": 8299,
      "sut": 8300,
      "steel": 8301,
      "personally": 8302,
      "1980s": 8303,
      "begun": 8304,
      "##umber": 8305,
      "genetic": 8306,
      "generally": 8307,
      "computers": 8308,
      "gathering": 8309,
      "vatican": 8310,
      "##li": 8311,
      "scul": 8312,
      "belt": 8313,
      "politician": 8314,
      "rar": 8315,
      "ends": 8316,
      "extrad": 8317,
      "butter": 8318,
      "##umes": 8319,
      "swept": 8320,
      "hopeful": 8321,
      "statistics": 8322,
      "hyp": 8323,
      "##uten": 8324,
      "whilst": 8325,
      "accusing": 8326,
      "1995": 8327,
      "sportsmail": 8328,
      "catherine": 8329,
      "##onto": 8330,
      "kidney": 8331,
      "personality": 8332,
      "vacation": 8333,
      "procedures": 8334,
      "sergeant": 8335,
      "##akh": 8336,
      "##abad": 8337,
      "mick": 8338,
      "reck": 8339,
      "throat": 8340,
      "fatally": 8341,
      "##rehens": 8342,
      "obser": 8343,
      "sensitive": 8344,
      "##cript": 8345,
      "masters": 8346,
      "##ught": 8347,
      "lon": 8348,
      "##chair": 8349,
      "barely": 8350,
      "guine": 8351,
      "lowest": 8352,
      "screaming": 8353,
      "##fel": 8354,
      "casey": 8355,
      "runner": 8356,
      "federation": 8357,
      "##case": 8358,
      "##lb": 8359,
      "##ardy": 8360,
      "corp": 8361,
      "destination": 8362,
      "bobby": 8363,
      "##ivan": 8364,
      "cheese": 8365,
      "holy": 8366,
      "questioning": 8367,
      "lopez": 8368,
      "ferrari": 8369,
      "comprom": 8370,
      "revenue": 8371,
      "bottles": 8372,
      "##ili": 8373,
      "haiti": 8374,
      "engagement": 8375,
      "infant": 8376,
      "82": 8377,
      "##lee": 8378,
      "##state": 8379,
      "grap": 8380,
      "camps": 8381,
      "consultant": 8382,
      "dolph": 8383,
      "proof": 8384,
      "edition": 8385,
      "trainer": 8386,
      "safely": 8387,
      "volunteer": 8388,
      "bashar": 8389,
      "wound": 8390,
      "##ayed": 8391,
      "painful": 8392,
      "rosberg": 8393,
      "##aws": 8394,
      "toys": 8395,
      "brings": 8396,
      "appointment": 8397,
      "##oping": 8398,
      "criticized": 8399,
      "philippines": 8400,
      "probation": 8401,
      "collabor": 8402,
      "funny": 8403,
      "protecting": 8404,
      "accur": 8405,
      "extensive": 8406,
      "feeding": 8407,
      "benjamin": 8408,
      "disg": 8409,
      "reflect": 8410,
      "##eno": 8411,
      "shouldn": 8412,
      "returns": 8413,
      "louise": 8414,
      "symbol": 8415,
      "##beat": 8416,
      "misc": 8417,
      "##illo": 8418,
      "resem": 8419,
      "recre": 8420,
      "defensive": 8421,
      "approximately": 8422,
      "faster": 8423,
      "unpre": 8424,
      "opposite": 8425,
      "succeed": 8426,
      "bry": 8427,
      "airstri": 8428,
      "boris": 8429,
      "explosives": 8430,
      "occasions": 8431,
      "sounds": 8432,
      "##bits": 8433,
      "##vant": 8434,
      "£20": 8435,
      "##cription": 8436,
      "hearts": 8437,
      "boehner": 8438,
      "##lined": 8439,
      "indec": 8440,
      "temple": 8441,
      "forever": 8442,
      "error": 8443,
      "ibrahim": 8444,
      "jets": 8445,
      "stor": 8446,
      "valu": 8447,
      "latin": 8448,
      "##ii": 8449,
      "shan": 8450,
      "dumped": 8451,
      "lag": 8452,
      "##fe": 8453,
      "stronger": 8454,
      "copy": 8455,
      "jerry": 8456,
      "nights": 8457,
      "glou": 8458,
      "urging": 8459,
      "screening": 8460,
      "bald": 8461,
      "##von": 8462,
      "##asha": 8463,
      "announcing": 8464,
      "hind": 8465,
      "claire": 8466,
      "absence": 8467,
      "trop": 8468,
      "uncons": 8469,
      "medication": 8470,
      "grav": 8471,
      "##lington": 8472,
      "detain": 8473,
      "err": 8474,
      "rib": 8475,
      "##gage": 8476,
      "estimates": 8477,
      "initiative": 8478,
      "shame": 8479,
      "##identified": 8480,
      "streng": 8481,
      "denies": 8482,
      "abbey": 8483,
      "##omen": 8484,
      "northeast": 8485,
      "liked": 8486,
      "install": 8487,
      "felony": 8488,
      "##ported": 8489,
      "roberto": 8490,
      "prol": 8491,
      "##aping": 8492,
      "theme": 8493,
      "airways": 8494,
      "healthcare": 8495,
      "religion": 8496,
      "rear": 8497,
      "exploded": 8498,
      "breathing": 8499,
      "destruction": 8500,
      "regions": 8501,
      "billionaire": 8502,
      "mosque": 8503,
      "theater": 8504,
      "enormous": 8505,
      "bones": 8506,
      "##elet": 8507,
      "##encia": 8508,
      "##rete": 8509,
      "jumping": 8510,
      "hans": 8511,
      "##ss": 8512,
      "dial": 8513,
      "gi": 8514,
      "oz": 8515,
      "##zh": 8516,
      "##bag": 8517,
      "teh": 8518,
      "alexis": 8519,
      "prestig": 8520,
      "##pro": 8521,
      "fract": 8522,
      "unidentified": 8523,
      "##raid": 8524,
      "payment": 8525,
      "##enson": 8526,
      "ranked": 8527,
      "##enda": 8528,
      "newborn": 8529,
      "nomine": 8530,
      "fare": 8531,
      "##kinson": 8532,
      "tool": 8533,
      "##apers": 8534,
      "fires": 8535,
      "contrast": 8536,
      "legally": 8537,
      "120": 8538,
      "heathrow": 8539,
      "ky": 8540,
      "unh": 8541,
      "##rington": 8542,
      "bombings": 8543,
      "encouraging": 8544,
      "plate": 8545,
      "valent": 8546,
      "bloody": 8547,
      "checked": 8548,
      "##opa": 8549,
      "engage": 8550,
      "replacement": 8551,
      "##ussels": 8552,
      "controls": 8553,
      "slowly": 8554,
      "##real": 8555,
      "lessons": 8556,
      "nadal": 8557,
      "letting": 8558,
      "##lett": 8559,
      "deployed": 8560,
      "entrance": 8561,
      "railway": 8562,
      "license": 8563,
      "stagger": 8564,
      "experiment": 8565,
      "qualifying": 8566,
      "vigil": 8567,
      "vit": 8568,
      "conced": 8569,
      "drum": 8570,
      "midnight": 8571,
      "##umption": 8572,
      "1993": 8573,
      "requests": 8574,
      "lifetime": 8575,
      "obes": 8576,
      "toronto": 8577,
      "cruz": 8578,
      "##dles": 8579,
      "##km": 8580,
      "licence": 8581,
      "£50": 8582,
      "extend": 8583,
      "stopping": 8584,
      "##ixon": 8585,
      "investors": 8586,
      "sull": 8587,
      "##agne": 8588,
      "192": 8589,
      "addressed": 8590,
      "affordable": 8591,
      "aggrav": 8592,
      "genu": 8593,
      "stephan": 8594,
      "obesity": 8595,
      "peru": 8596,
      "selected": 8597,
      "unfortunately": 8598,
      "bm": 8599,
      "##emor": 8600,
      "soul": 8601,
      "##sen": 8602,
      "finishing": 8603,
      "sophie": 8604,
      "##bane": 8605,
      "nether": 8606,
      "watches": 8607,
      "bou": 8608,
      "##orse": 8609,
      "practices": 8610,
      "81": 8611,
      "##icing": 8612,
      "athlete": 8613,
      "paedoph": 8614,
      "gut": 8615,
      "abusing": 8616,
      "orland": 8617,
      "courage": 8618,
      "increases": 8619,
      "liga": 8620,
      "harrison": 8621,
      "ferdin": 8622,
      "institution": 8623,
      "restrictions": 8624,
      "cz": 8625,
      "inher": 8626,
      "suv": 8627,
      "intim": 8628,
      "entrep": 8629,
      "selfie": 8630,
      "##ettes": 8631,
      "dort": 8632,
      "##itable": 8633,
      "optim": 8634,
      "operated": 8635,
      "gig": 8636,
      "berry": 8637,
      "sentences": 8638,
      "rifle": 8639,
      "soviet": 8640,
      "gem": 8641,
      "blond": 8642,
      "amn": 8643,
      "admit": 8644,
      "wrapped": 8645,
      "vietnam": 8646,
      "billy": 8647,
      "paraly": 8648,
      "proceedings": 8649,
      "ferdinand": 8650,
      "dortmund": 8651,
      "bah": 8652,
      "ridic": 8653,
      "naval": 8654,
      "5million": 8655,
      "mamm": 8656,
      "##bal": 8657,
      "##oning": 8658,
      "struct": 8659,
      "lethal": 8660,
      "fields": 8661,
      "entreprene": 8662,
      "##rd": 8663,
      "dominated": 8664,
      "unfair": 8665,
      "transferred": 8666,
      "terrifying": 8667,
      "symp": 8668,
      "equival": 8669,
      "##ointing": 8670,
      "recommended": 8671,
      "##eta": 8672,
      "##abilities": 8673,
      "##iences": 8674,
      "intens": 8675,
      "punched": 8676,
      "dates": 8677,
      "##ounted": 8678,
      "medals": 8679,
      "ingred": 8680,
      "reference": 8681,
      "afraid": 8682,
      "hitler": 8683,
      "sized": 8684,
      "tips": 8685,
      "addiction": 8686,
      "donated": 8687,
      "romantic": 8688,
      "guardian": 8689,
      "fortun": 8690,
      "theatre": 8691,
      "borders": 8692,
      "cad": 8693,
      "column": 8694,
      "ryder": 8695,
      "##guard": 8696,
      "dragged": 8697,
      "relative": 8698,
      "salary": 8699,
      "bradford": 8700,
      "resignation": 8701,
      "##ttino": 8702,
      "actors": 8703,
      "actual": 8704,
      "##hall": 8705,
      "toler": 8706,
      "alf": 8707,
      "organized": 8708,
      "cycling": 8709,
      "nursing": 8710,
      "touched": 8711,
      "karen": 8712,
      "piz": 8713,
      "norway": 8714,
      "stim": 8715,
      "##olds": 8716,
      "wrest": 8717,
      "operate": 8718,
      "prisoner": 8719,
      "cake": 8720,
      "disrup": 8721,
      "youngster": 8722,
      "performances": 8723,
      "fastest": 8724,
      "perez": 8725,
      "##alo": 8726,
      "polar": 8727,
      "robot": 8728,
      "assembly": 8729,
      "dock": 8730,
      "sot": 8731,
      "herald": 8732,
      "##ancing": 8733,
      "juvent": 8734,
      "unconscious": 8735,
      "heroes": 8736,
      "dropping": 8737,
      "infam": 8738,
      "diabet": 8739,
      "eighth": 8740,
      "sab": 8741,
      "palin": 8742,
      "84": 8743,
      "dreams": 8744,
      "communication": 8745,
      "lean": 8746,
      "enemy": 8747,
      "##aux": 8748,
      "defic": 8749,
      "abdul": 8750,
      "engineers": 8751,
      "penins": 8752,
      "telephone": 8753,
      "cemetery": 8754,
      "lenn": 8755,
      "toxic": 8756,
      "##cedented": 8757,
      "duo": 8758,
      "79": 8759,
      "manner": 8760,
      "unclear": 8761,
      "nominated": 8762,
      "unprecedented": 8763,
      "juventus": 8764,
      "mog": 8765,
      "brussels": 8766,
      "dise": 8767,
      "longtime": 8768,
      "##enging": 8769,
      "dresses": 8770,
      "##beck": 8771,
      "decline": 8772,
      "facial": 8773,
      "suffers": 8774,
      "keeps": 8775,
      "##ecraft": 8776,
      "crying": 8777,
      "undergo": 8778,
      "solic": 8779,
      "empire": 8780,
      "orlando": 8781,
      "whistle": 8782,
      "coat": 8783,
      "lloyd": 8784,
      "discussion": 8785,
      "gifts": 8786,
      "##ulations": 8787,
      "brands": 8788,
      "##ieber": 8789,
      "hopefully": 8790,
      "constit": 8791,
      "responding": 8792,
      "estranged": 8793,
      "bog": 8794,
      "kel": 8795,
      "flown": 8796,
      "visible": 8797,
      "finds": 8798,
      "donations": 8799,
      "brisbane": 8800,
      "popularity": 8801,
      "##othy": 8802,
      "bengh": 8803,
      "engineering": 8804,
      "forms": 8805,
      "infrastr": 8806,
      "mors": 8807,
      "##osa": 8808,
      "outstanding": 8809,
      "helm": 8810,
      "palm": 8811,
      "conservation": 8812,
      "adopt": 8813,
      "##atched": 8814,
      "soil": 8815,
      "amounts": 8816,
      "passport": 8817,
      "youngsters": 8818,
      "deadline": 8819,
      "communist": 8820,
      "legendary": 8821,
      "benghazi": 8822,
      "boom": 8823,
      "pione": 8824,
      "polish": 8825,
      "conscious": 8826,
      "arguing": 8827,
      "typical": 8828,
      "analysts": 8829,
      "##onia": 8830,
      "##idi": 8831,
      "##stre": 8832,
      "triggered": 8833,
      "fence": 8834,
      "##yang": 8835,
      "proposals": 8836,
      "mechan": 8837,
      "nik": 8838,
      "ww": 8839,
      "yacht": 8840,
      "##iques": 8841,
      "##certain": 8842,
      "garner": 8843,
      "ahmad": 8844,
      "ivory": 8845,
      "guinea": 8846,
      "alarm": 8847,
      "boats": 8848,
      "argue": 8849,
      "physic": 8850,
      "venue": 8851,
      "wick": 8852,
      "delays": 8853,
      "kings": 8854,
      "##idal": 8855,
      "congr": 8856,
      "athletic": 8857,
      "forb": 8858,
      "parliamentary": 8859,
      "kirk": 8860,
      "reunited": 8861,
      "mock": 8862,
      "shif": 8863,
      "watchdog": 8864,
      "viewed": 8865,
      "##aug": 8866,
      "##ahu": 8867,
      "achieved": 8868,
      "stamford": 8869,
      "combination": 8870,
      "underwent": 8871,
      "enthusi": 8872,
      "forensic": 8873,
      "cot": 8874,
      "purchased": 8875,
      "liquid": 8876,
      "treatments": 8877,
      "storms": 8878,
      "pardew": 8879,
      "peninsula": 8880,
      "gir": 8881,
      "northwest": 8882,
      "celebrations": 8883,
      "apologised": 8884,
      "equivalent": 8885,
      "##iang": 8886,
      "lucy": 8887,
      "gonz": 8888,
      "intervention": 8889,
      "##erg": 8890,
      "aims": 8891,
      "ult": 8892,
      "stunt": 8893,
      "tob": 8894,
      "franch": 8895,
      "redkn": 8896,
      "sessions": 8897,
      "##tv": 8898,
      "trump": 8899,
      "silva": 8900,
      "redknapp": 8901,
      "evacuated": 8902,
      "murdoch": 8903,
      "brady": 8904,
      "lebanon": 8905,
      "ultimate": 8906,
      "3d": 8907,
      "swing": 8908,
      "rafael": 8909,
      "##lu": 8910,
      "shaped": 8911,
      "jerusal": 8912,
      "graphic": 8913,
      "infrastructure": 8914,
      "jerusalem": 8915,
      "##uter": 8916,
      "comic": 8917,
      "creation": 8918,
      "iii": 8919,
      "deemed": 8920,
      "tehran": 8921,
      "##icy": 8922,
      "replic": 8923,
      "challenging": 8924,
      "netherlands": 8925,
      "##bow": 8926,
      "shi": 8927,
      "carrier": 8928,
      "diabetes": 8929,
      "bieber": 8930,
      "wals": 8931,
      "belgian": 8932,
      "##owski": 8933,
      "ignored": 8934,
      "cease": 8935,
      "##iable": 8936,
      "##hill": 8937,
      "##aki": 8938,
      "##aver": 8939,
      "wanting": 8940,
      "confronted": 8941,
      "qc": 8942,
      "tories": 8943,
      "forum": 8944,
      "employed": 8945,
      "lanka": 8946,
      "toug": 8947,
      "competing": 8948,
      "sustain": 8949,
      "profits": 8950,
      "scientist": 8951,
      "corporate": 8952,
      "shirts": 8953,
      "gabri": 8954,
      "nsa": 8955,
      "ori": 8956,
      "presidency": 8957,
      "bread": 8958,
      "lottery": 8959,
      "mainly": 8960,
      "executives": 8961,
      "unemployment": 8962,
      "88": 8963,
      "leone": 8964,
      "overd": 8965,
      "governing": 8966,
      "machines": 8967,
      "opponent": 8968,
      "##onso": 8969,
      "invasion": 8970,
      "guid": 8971,
      "shootings": 8972,
      "cycle": 8973,
      "dors": 8974,
      "gren": 8975,
      "##iverse": 8976,
      "breaks": 8977,
      "clinical": 8978,
      "elev": 8979,
      "jar": 8980,
      "##pected": 8981,
      "uncovered": 8982,
      "guidelines": 8983,
      "grie": 8984,
      "quoted": 8985,
      "undercover": 8986,
      "merkel": 8987,
      "historical": 8988,
      "wage": 8989,
      "##ares": 8990,
      "ana": 8991,
      "##acare": 8992,
      "colin": 8993,
      "calories": 8994,
      "superior": 8995,
      "crackdown": 8996,
      "amnesty": 8997,
      "opener": 8998,
      "skir": 8999,
      "coastal": 9000,
      "constitutional": 9001,
      "transition": 9002,
      "ferry": 9003,
      "networking": 9004,
      "blues": 9005,
      "banking": 9006,
      "##enna": 9007,
      "christine": 9008,
      "radar": 9009,
      "participants": 9010,
      "congrat": 9011,
      "offenders": 9012,
      "noise": 9013,
      "dak": 9014,
      "erupted": 9015,
      "##how": 9016,
      "##uters": 9017,
      "leather": 9018,
      "adrian": 9019,
      "reass": 9020,
      "promising": 9021,
      "1992": 9022,
      "survivor": 9023,
      "obamacare": 9024,
      "croat": 9025,
      "suspension": 9026,
      "answers": 9027,
      "dennis": 9028,
      "tropical": 9029,
      "cott": 9030,
      "pets": 9031,
      "##yer": 9032,
      "##gation": 9033,
      "unexpected": 9034,
      "tong": 9035,
      "##ateur": 9036,
      "##ooth": 9037,
      "revenge": 9038,
      "foul": 9039,
      "liz": 9040,
      "statue": 9041,
      "bernard": 9042,
      "83": 9043,
      "valencia": 9044,
      "##lock": 9045,
      "severely": 9046,
      "melissa": 9047,
      "beef": 9048,
      "schoolgirl": 9049,
      "openly": 9050,
      "talented": 9051,
      "recru": 9052,
      "phen": 9053,
      "vanished": 9054,
      "overwhelming": 9055,
      "cdc": 9056,
      "##list": 9057,
      "##pd": 9058,
      "##isan": 9059,
      "##asty": 9060,
      "##awa": 9061,
      "protective": 9062,
      "stones": 9063,
      "##iller": 9064,
      "universe": 9065,
      "##apolis": 9066,
      "haram": 9067,
      "emerging": 9068,
      "kas": 9069,
      "exposure": 9070,
      "requested": 9071,
      "separated": 9072,
      "promoting": 9073,
      "maker": 9074,
      "##ogan": 9075,
      "homicide": 9076,
      "fiancee": 9077,
      "von": 9078,
      "explaining": 9079,
      "oxy": 9080,
      "pizza": 9081,
      "##appy": 9082,
      "##cao": 9083,
      "emotion": 9084,
      "pellegr": 9085,
      "gps": 9086,
      "aired": 9087,
      "random": 9088,
      "##ulating": 9089,
      "bronze": 9090,
      "##gie": 9091,
      "wreckage": 9092,
      "tools": 9093,
      "thai": 9094,
      "longest": 9095,
      "poster": 9096,
      "curt": 9097,
      "dump": 9098,
      "resulting": 9099,
      "landmark": 9100,
      "challenged": 9101,
      "##ken": 9102,
      "alliance": 9103,
      "recon": 9104,
      "##otten": 9105,
      "##isation": 9106,
      "cargo": 9107,
      "liberty": 9108,
      "diseases": 9109,
      "mit": 9110,
      "##weather": 9111,
      "##urst": 9112,
      "facts": 9113,
      "customs": 9114,
      "##agen": 9115,
      "currency": 9116,
      "festive": 9117,
      "haul": 9118,
      "steal": 9119,
      "##ipper": 9120,
      "jacket": 9121,
      "pursue": 9122,
      "##giving": 9123,
      "##ads": 9124,
      "demonstrations": 9125,
      "kabul": 9126,
      "mason": 9127,
      "xin": 9128,
      "grief": 9129,
      "lovely": 9130,
      "taxpayer": 9131,
      "signal": 9132,
      "organised": 9133,
      "alexand": 9134,
      "savings": 9135,
      "fabreg": 9136,
      "assessment": 9137,
      "hudson": 9138,
      "jol": 9139,
      "##pa": 9140,
      "##ographic": 9141,
      "mh": 9142,
      "potter": 9143,
      "fabregas": 9144,
      "print": 9145,
      "sued": 9146,
      "1990": 9147,
      "ordinary": 9148,
      "swedish": 9149,
      "prestigious": 9150,
      "nsw": 9151,
      "rises": 9152,
      "diagnosis": 9153,
      "tunnel": 9154,
      "gown": 9155,
      "moss": 9156,
      "##ji": 9157,
      "##troom": 9158,
      "champagne": 9159,
      "substance": 9160,
      "wheelchair": 9161,
      "indictment": 9162,
      "ruth": 9163,
      "chad": 9164,
      "courtroom": 9165,
      "cathed": 9166,
      "grateful": 9167,
      "subway": 9168,
      "falcao": 9169,
      "frequently": 9170,
      "factors": 9171,
      "extremist": 9172,
      "bil": 9173,
      "thames": 9174,
      "fried": 9175,
      "hailed": 9176,
      "capit": 9177,
      "##ante": 9178,
      "##oga": 9179,
      "30pm": 9180,
[...]
