{
  "version": "1.0",
  "truncation": null,
  "padding": null,
  "added_tokens": [
    {
      "id": 0,
      "content": "[START]",
      "single_word": false,
      "lstrip": false,
      "rstrip": false,
      "normalized": false,
      "special": true
    },
    {
      "id": 1,
      "content": "[END]",
      "single_word": false,
      "lstrip": false,
      "rstrip": false,
      "normalized": false,
      "special": true
    },
    {
      "id": 2,
      "content": "[SEP]",
      "single_word": false,
      "lstrip": false,
      "rstrip": false,
      "normalized": false,
      "special": true
    },
    {
      "id": 3,
      "content": "[UNK]",
      "single_word": false,
      "lstrip": false,
      "rstrip": false,
      "normalized": false,
      "special": true
    },
    {
      "id": 4,
      "content": "[FILL]",
      "single_word": false,
      "lstrip": false,
      "rstrip": false,
      "normalized": false,
      "special": true
    }
  ],
  "normalizer": {
    "type": "BertNormalizer",
    "clean_text": true,
    "handle_chinese_chars": true,
    "strip_accents": null,
    "lowercase": true
  },
  "pre_tokenizer": {
    "type": "BertPreTokenizer"
  },
  "post_processor": {
    "type": "TemplateProcessing",
    "single": [
      {
        "SpecialToken": {
          "id": "[START]",
          "type_id": 0
        }
      },
      {
        "Sequence": {
          "id": "A",
          "type_id": 0
        }
      },
      {
        "SpecialToken": {
          "id": "[END]",
          "type_id": 0
        }
      }
    ],
    "pair": [
      {
        "SpecialToken": {
          "id": "[START]",
          "type_id": 0
        }
      },
      {
        "Sequence": {
          "id": "A",
          "type_id": 0
        }
      },
      {
        "SpecialToken": {
          "id": "[SEP]",
          "type_id": 0
        }
      },
      {
        "Sequence": {
          "id": "B",
          "type_id": 1
        }
      },
      {
        "SpecialToken": {
          "id": "[END]",
          "type_id": 1
        }
      }
    ],
    "special_tokens": {
      "[END]": {
        "id": "[END]",
        "ids": [
          1
        ],
        "tokens": [
          "[END]"
        ]
      },
      "[SEP]": {
        "id": "[SEP]",
        "ids": [
          2
        ],
        "tokens": [
          "[SEP]"
        ]
      },
      "[START]": {
        "id": "[START]",
        "ids": [
          0
        ],
        "tokens": [
          "[START]"
        ]
      }
    }
  },
  "decoder": {
    "type": "WordPiece",
    "prefix": "##",
    "cleanup": true
  },
  "model": {
    "type": "WordPiece",
    "unk_token": "[UNK]",
    "continuing_subword_prefix": "##",
    "max_input_chars_per_word": 100,
    "vocab": {
      "[START]": 0,
      "[END]": 1,
      "[SEP]": 2,
      "[UNK]": 3,
      "[FILL]": 4,
      "!": 5,
      "\"": 6,
      "#": 7,
      "$": 8,
      "%": 9,
      "&": 10,
      "'": 11,
      "(": 12,
      ")": 13,
      "*": 14,
      "+": 15,
      ",": 16,
      "-": 17,
      ".": 18,
      "/": 19,
      "0": 20,
      "1": 21,
      "2": 22,
      "3": 23,
      "4": 24,
      "5": 25,
      "6": 26,
      "7": 27,
      "8": 28,
      "9": 29,
      ":": 30,
      ";": 31,
      "<": 32,
      "=": 33,
      ">": 34,
      "?": 35,
      "@": 36,
      "[": 37,
      "\\": 38,
      "]": 39,
      "^": 40,
      "_": 41,
      "`": 42,
      "a": 43,
      "b": 44,
      "c": 45,
      "d": 46,
      "e": 47,
      "f": 48,
      "g": 49,
      "h": 50,
      "i": 51,
      "j": 52,
      "k": 53,
      "l": 54,
      "m": 55,
      "n": 56,
      "o": 57,
      "p": 58,
      "q": 59,
      "r": 60,
      "s": 61,
      "t": 62,
      "u": 63,
      "v": 64,
      "w": 65,
      "x": 66,
      "y": 67,
      "z": 68,
      "{": 69,
      "|": 70,
      "}": 71,
      "~": 72,
      "¡": 73,
      "¢": 74,
      "£": 75,
      "¤": 76,
      "¥": 77,
      "¦": 78,
      "§": 79,
      "¨": 80,
      "©": 81,
      "ª": 82,
      "«": 83,
      "¬": 84,
      "®": 85,
      "¯": 86,
      "°": 87,
      "±": 88,
      "²": 89,
      "³": 90,
      "´": 91,
      "µ": 92,
      "¶": 93,
      "·": 94,
      "¸": 95,
      "¹": 96,
      "º": 97,
      "»": 98,
      "¼": 99,
      "½": 100,
      "¾": 101,
      "¿": 102,
      "×": 103,
      "ß": 104,
      "æ": 105,
      "ð": 106,
      "÷": 107,
      "ø": 108,
      "þ": 109,
      "đ": 110,
      "ħ": 111,
      "ı": 112,
      "ł": 113,
      "œ": 114,
      "ƙ": 115,
      "ǀ": 116,
      "ǃ": 117,
      "ə": 118,
      "ʀ": 119,
      "ʊ": 120,
      "ʻ": 121,
      "ʼ": 122,
      "ʽ": 123,
      "ʿ": 124,
      "ˆ": 125,
      "ˈ": 126,
      "˚": 127,
      "˜": 128,
      "˝": 129,
      "α": 130,
      "β": 131,
      "ε": 132,
      "ζ": 133,
      "η": 134,
      "ι": 135,
      "κ": 136,
      "λ": 137,
      "μ": 138,
      "ν": 139,
      "ο": 140,
      "π": 141,
      "ρ": 142,
      "ς": 143,
      "σ": 144,
      "τ": 145,
      "φ": 146,
      "ω": 147,
      "ϟ": 148,
      "а": 149,
      "б": 150,
      "в": 151,
      "д": 152,
      "е": 153,
      "з": 154,
      "и": 155,
      "к": 156,
      "л": 157,
      "м": 158,
      "н": 159,
      "о": 160,
      "п": 161,
      "р": 162,
      "с": 163,
      "т": 164,
      "у": 165,
      "ы": 166,
      "ь": 167,
      "ю": 168,
      "я": 169,
      "і": 170,
      "ћ": 171,
      "ԯ": 172,
      "ן": 173,
      "ا": 174,
      "ب": 175,
      "ة": 176,
      "ت": 177,
      "ج": 178,
      "ح": 179,
      "ر": 180,
      "س": 181,
      "ش": 182,
      "ع": 183,
      "ف": 184,
      "ك": 185,
      "ل": 186,
      "م": 187,
      "و": 188,
      "ي": 189,
      "ง": 190,
      "ต": 191,
      "บ": 192,
      "ป": 193,
      "พ": 194,
      "ย": 195,
      "ร": 196,
      "ะ": 197,
      "ᄀ": 198,
      "ᄂ": 199,
      "ᄉ": 200,
      "ᄋ": 201,
      "ᄐ": 202,
      "ᅡ": 203,
      "ᅳ": 204,
      "ᅵ": 205,
      "ᆯ": 206,
      "ᆷ": 207,
      "ᆼ": 208,
      "‐": 209,
      "‑": 210,
      "‒": 211,
      "–": 212,
      "—": 213,
      "―": 214,
      "‘": 215,
      "’": 216,
      "‚": 217,
      "“": 218,
      "”": 219,
      "„": 220,
      "‟": 221,
      "†": 222,
      "‡": 223,
      "•": 224,
      "…": 225,
      "‰": 226,
      "′": 227,
      "″": 228,
      "‹": 229,
      "‼": 230,
      "⁄": 231,
      "⁰": 232,
      "₩": 233,
      "€": 234,
      "℃": 235,
      "™": 236,
      "⅓": 237,
      "⅔": 238,
      "⅛": 239,
      "⅜": 240,
      "→": 241,
      "∑": 242,
      "−": 243,
      "∙": 244,
      "∼": 245,
      "─": 246,
      "█": 247,
      "■": 248,
      "▬": 249,
      "▲": 250,
      "▼": 251,
      "●": 252,
      "★": 253,
      "☆": 254,
      "☺": 255,
      "♡": 256,
      "♥": 257,
      "❤": 258,
      "き": 259,
      "こ": 260,
      "さ": 261,
      "た": 262,
      "っ": 263,
      "て": 264,
      "ろ": 265,
      "ん": 266,
      "コ": 267,
      "ネ": 268,
      "ル": 269,
      "ロ": 270,
      "ー": 271,
      "世": 272,
      "个": 273,
      "中": 274,
      "你": 275,
      "分": 276,
      "呀": 277,
      "四": 278,
      "回": 279,
      "声": 280,
      "外": 281,
      "女": 282,
      "家": 283,
      "寝": 284,
      "帰": 285,
      "年": 286,
      "心": 287,
      "新": 288,
      "方": 289,
      "明": 290,
      "春": 291,
      "曆": 292,
      "有": 293,
      "朝": 294,
      "来": 295,
      "没": 296,
      "游": 297,
      "界": 298,
      "等": 299,
      "節": 300,
      "紅": 301,
      "綠": 302,
      "縄": 303,
      "縯": 304,
      "自": 305,
      "藍": 306,
      "農": 307,
      "过": 308,
      "钱": 309,
      "门": 310,
      "音": 311,
      "ﬀ": 312,
      "ﬁ": 313,
      "ﬂ": 314,
      "！": 315,
      "（": 316,
      "）": 317,
      "，": 318,
      "ｍ": 319,
      "ｓ": 320,
      "￥": 321,
      "￼": 322,
      "💀": 323,
      "😳": 324,
      "🙏": 325,
      "##o": 326,
      "##v": 327,
      "##i": 328,
      "##c": 329,
      "##e": 330,
      "##s": 331,
      "##0": 332,
      "##3": 333,
      "##8": 334,
      "##a": 335,
      "##n": 336,
      "##h": 337,
      "##y": 338,
      "##p": 339,
      "##t": 340,
      "##u": 341,
      "##r": 342,
      "##m": 343,
      "##z": 344,
      "##b": 345,
      "##d": 346,
      "##f": 347,
      "##x": 348,
      "##l": 349,
      "##g": 350,
      "##2": 351,
      "##w": 352,
      "##k": 353,
      "##j": 354,
      "##4": 355,
      "##7": 356,
      "##£": 357,
      "##5": 358,
      "##1": 359,
      "##6": 360,
      "##q": 361,
      "##9": 362,
      "##ð": 363,
      "##˚": 364,
      "##½": 365,
      "##€": 366,
      "##™": 367,
      "##ø": 368,
      "##©": 369,
      "##¢": 370,
      "##º": 371,
      "##¼": 372,
      "##ß": 373,
      "##®": 374,
      "##±": 375,
      "##ª": 376,
      "##¬": 377,
      "##¨": 378,
      "##−": 379,
      "##°": 380,
      "##ζ": 381,
      "##ı": 382,
      "##¹": 383,
      "##¦": 384,
      "##ﬁ": 385,
      "##´": 386,
      "##˜": 387,
      "##³": 388,
      "##æ": 389,
      "##¯": 390,
      "##ف": 391,
      "##و": 392,
      "##ر": 393,
      "##℃": 394,
      "##⁄": 395,
      "##พ": 396,
      "##о": 397,
      "##¤": 398,
      "##а": 399,
      "##к": 400,
      "##с": 401,
      "##¾": 402,
      "##²": 403,
      "##ʻ": 404,
      "##♥": 405,
      "##η": 406,
      "##ν": 407,
      "##×": 408,
      "##ˆ": 409,
      "##в": 410,
      "##и": 411,
      "##д": 412,
      "##м": 413,
      "##я": 414,
      "##ł": 415,
      "##⅓": 416,
      "##λ": 417,
      "##т": 418,
      "##ʼ": 419,
      "##ﬂ": 420,
      "##н": 421,
      "##¸": 422,
      "##œ": 423,
      "##¥": 424,
      "##ب": 425,
      "##ا": 426,
      "##م": 427,
      "##α": 428,
      "##б": 429,
      "##е": 430,
      "##ы": 431,
      "##ろ": 432,
      "##ロ": 433,
      "##ネ": 434,
      "##ل": 435,
      "##ت": 436,
      "##∙": 437,
      "##⁰": 438,
      "##て": 439,
      "##き": 440,
      "##た": 441,
      "##ω": 442,
      "##ο": 443,
      "##τ": 444,
      "##ย": 445,
      "##บ": 446,
      "##þ": 447,
      "##р": 448,
      "##і": 449,
      "##ю": 450,
      "##ь": 451,
      "##µ": 452,
      "##ｓ": 453,
      "##ん": 454,
      "##ε": 455,
      "##ς": 456,
      "##ʿ": 457,
      "##ι": 458,
      "##φ": 459,
      "##❤": 460,
      "##☆": 461,
      "##☺": 462,
      "##⅛": 463,
      "##ǀ": 464,
      "##ﬀ": 465,
      "##ي": 466,
      "##ك": 467,
      "##●": 468,
      "##ʊ": 469,
      "##ə": 470,
      "##ー": 471,
      "##ル": 472,
      "##⅔": 473,
      "##з": 474,
      "##у": 475,
      "##л": 476,
      "##ħ": 477,
      "##ᅡ": 478,
      "##ᆼ": 479,
      "##ᄂ": 480,
      "##ᆷ": 481,
      "##ᄉ": 482,
      "##ᅳ": 483,
      "##ᄐ": 484,
      "##ᄋ": 485,
      "##ᅵ": 486,
      "##ᆯ": 487,
      "##μ": 488,
      "##⅜": 489,
      "##ش": 490,
      "##ร": 491,
      "##ะ": 492,
      "##ต": 493,
      "##ح": 494,
      "##ج": 495,
      "##ة": 496,
      "##β": 497,
      "##ρ": 498,
      "##κ": 499,
      "##˝": 500,
      "##σ": 501,
      "##ǃ": 502,
      "##ง": 503,
      "##ƙ": 504,
      "##ʀ": 505,
      "##ן": 506,
      "##∑": 507,
      "th": 508,
      "##er": 509,
      "the": 510,
      "##in": 511,
      "##ed": 512,
      "##en": 513,
      "##on": 514,
      "##or": 515,
      "##es": 516,
      "##at": 517,
      "##an": 518,
      "##ing": 519,
      "##ar": 520,
      "to": 521,
      "in": 522,
      "an": 523,
      "##ou": 524,
      "##as": 525,
      "##it": 526,
      "##al": 527,
      "##is": 528,
      "of": 529,
      "and": 530,
      "##ic": 531,
      "##il": 532,
      "##om": 533,
      "##re": 534,
      "##id": 535,
      "##el": 536,
      "##ion": 537,
      "##ent": 538,
      "be": 539,
      "##le": 540,
      "wh": 541,
      "##ot": 542,
      "##ay": 543,
      "on": 544,
      "##st": 545,
      "##ut": 546,
      "##ur": 547,
      "##ad": 548,
      "for": 549,
      "re": 550,
      "##ve": 551,
      "##am": 552,
      "##ac": 553,
      "st": 554,
      "##ol": 555,
      "##ow": 556,
      "##et": 557,
      "he": 558,
      "##ir": 559,
      "##ig": 560,
      "was": 561,
      "##ter": 562,
      "##ly": 563,
      "is": 564,
      "sh": 565,
      "that": 566,
      "it": 567,
      "##im": 568,
      "pr": 569,
      "##ver": 570,
      "##ec": 571,
      "##ith": 572,
      "##ld": 573,
      "at": 574,
      "sa": 575,
      "as": 576,
      "with": 577,
      "al": 578,
      "##ch": 579,
      "##th": 580,
      "fr": 581,
      "##se": 582,
      "ch": 583,
      "##ill": 584,
      "##ere": 585,
      "##ers": 586,
      "said": 587,
      "##ce": 588,
      "##ear": 589,
      "ha": 590,
      "his": 591,
      "##ation": 592,
      "##op": 593,
      "##est": 594,
      "##oun": 595,
      "con": 596,
      "##ag": 597,
      "##igh": 598,
      "##and": 599,
      "##ul": 600,
      "##ri": 601,
      "su": 602,
      "we": 603,
      "##ess": 604,
      "##os": 605,
      "##ain": 606,
      "##ak": 607,
      "##em": 608,
      "by": 609,
      "ne": 610,
      "com": 611,
      "have": 612,
      "from": 613,
      "##un": 614,
      "##pp": 615,
      "##our": 616,
      "her": 617,
      "##od": 618,
      "##us": 619,
      "##ts": 620,
      "un": 621,
      "has": 622,
      "are": 623,
      "de": 624,
      "le": 625,
      "se": 626,
      "but": 627,
      "##ted": 628,
      "af": 629,
      "she": 630,
      "sp": 631,
      "##ore": 632,
      "##if": 633,
      "##oc": 634,
      "##ould": 635,
      "not": 636,
      "they": 637,
      "ex": 638,
      "tr": 639,
      "who": 640,
      "ac": 641,
      "##ate": 642,
      "##ok": 643,
      "##gh": 644,
      "##ast": 645,
      "##ight": 646,
      "##ack": 647,
      "##iv": 648,
      "ab": 649,
      "##ab": 650,
      "year": 651,
      "br": 652,
      "##ust": 653,
      "##all": 654,
      "##ment": 655,
      "this": 656,
      "##ity": 657,
      "had": 658,
      "##her": 659,
      "en": 660,
      "go": 661,
      "ar": 662,
      "pl": 663,
      "##ard": 664,
      "wor": 665,
      "##ist": 666,
      "##art": 667,
      "20": 668,
      "after": 669,
      "cl": 670,
      "##end": 671,
      "##ome": 672,
      "##ap": 673,
      "##ie": 674,
      "##ive": 675,
      "##ice": 676,
      "##ies": 677,
      "or": 678,
      "##ich": 679,
      "their": 680,
      "##ell": 681,
      "##um": 682,
      "were": 683,
      "been": 684,
      "off": 685,
      "will": 686,
      "up": 687,
      "##ort": 688,
      "##ound": 689,
      "##ud": 690,
      "##ost": 691,
      "##out": 692,
      "out": 693,
      "##ant": 694,
      "##day": 695,
      "##ge": 696,
      "man": 697,
      "##ial": 698,
      "##ide": 699,
      "ad": 700,
      "##ber": 701,
      "##ough": 702,
      "gr": 703,
      "cr": 704,
      "new": 705,
      "##own": 706,
      "when": 707,
      "one": 708,
      "ag": 709,
      "##one": 710,
      "##ia": 711,
      "##der": 712,
      "can": 713,
      "##ous": 714,
      "you": 715,
      "do": 716,
      "all": 717,
      "##ct": 718,
      "tw": 719,
      "rep": 720,
      "##ub": 721,
      "##ated": 722,
      "##ish": 723,
      "pro": 724,
      "##ong": 725,
      "which": 726,
      "me": 727,
      "pol": 728,
      "sc": 729,
      "##ine": 730,
      "##au": 731,
      "##ue": 732,
      "##ime": 733,
      "pe": 734,
      "##av": 735,
      "res": 736,
      "li": 737,
      "int": 738,
      "##ect": 739,
      "##ans": 740,
      "am": 741,
      "car": 742,
      "##ict": 743,
      "##ail": 744,
      "so": 745,
      "more": 746,
      "##age": 747,
      "about": 748,
      "##ame": 749,
      "lo": 750,
      "##ally": 751,
      "##ace": 752,
      "##ary": 753,
      "##ays": 754,
      "##ry": 755,
      "there": 756,
      "would": 757,
      "##ord": 758,
      "us": 759,
      "##ake": 760,
      "cont": 761,
      "##ke": 762,
      "##ff": 763,
      "inc": 764,
      "no": 765,
      "over": 766,
      "ro": 767,
      "##ure": 768,
      "comp": 769,
      "##so": 770,
      "dr": 771,
      "him": 772,
      "##ople": 773,
      "##ence": 774,
      "##00": 775,
      "people": 776,
      "mar": 777,
      "exp": 778,
      "##ions": 779,
      "##ile": 780,
      "##ip": 781,
      "ev": 782,
      "im": 783,
      "dis": 784,
      "also": 785,
      "acc": 786,
      "bec": 787,
      "201": 788,
      "##pt": 789,
      "##ach": 790,
      "two": 791,
      "just": 792,
      "##ild": 793,
      "##ian": 794,
      "fir": 795,
      "app": 796,
      "##ire": 797,
      "bl": 798,
      "per": 799,
      "mon": 800,
      "##oll": 801,
      "##ite": 802,
      "##ond": 803,
      "##ther": 804,
      "##ass": 805,
      "##ely": 806,
      "bo": 807,
      "att": 808,
      "##ind": 809,
      "than": 810,
      "##ree": 811,
      "kn": 812,
      "##ign": 813,
      "##ks": 814,
      "my": 815,
      "time": 816,
      "fe": 817,
      "##og": 818,
      "te": 819,
      "rec": 820,
      "mr": 821,
      "##ount": 822,
      "##aw": 823,
      "into": 824,
      "last": 825,
      "##ft": 826,
      "them": 827,
      "some": 828,
      "##ick": 829,
      "##qu": 830,
      "##man": 831,
      "##uc": 832,
      "part": 833,
      "##ident": 834,
      "co": 835,
      "##other": 836,
      "fl": 837,
      "what": 838,
      "if": 839,
      "told": 840,
      "work": 841,
      "jo": 842,
      "pre": 843,
      "##ved": 844,
      "##act": 845,
      "could": 846,
      "##ath": 847,
      "first": 848,
      "sec": 849,
      "##oss": 850,
      "##mer": 851,
      "its": 852,
      "##ib": 853,
      "police": 854,
      "par": 855,
      "##ors": 856,
      "inter": 857,
      "##ro": 858,
      "years": 859,
      "##ep": 860,
      "##ations": 861,
      "how": 862,
      "ph": 863,
      "ser": 864,
      "##ens": 865,
      "dec": 866,
      "##iz": 867,
      "##ning": 868,
      "old": 869,
      "##ade": 870,
      "##iss": 871,
      "##ose": 872,
      "##ife": 873,
      "str": 874,
      "back": 875,
      "fam": 876,
      "rel": 877,
      "##ubl": 878,
      "qu": 879,
      "##reat": 880,
      "##ance": 881,
      "##able": 882,
      "##ood": 883,
      "##fore": 884,
      "##ents": 885,
      "##ang": 886,
      "get": 887,
      "##amp": 888,
      "down": 889,
      "now": 890,
      "des": 891,
      "##ase": 892,
      "mo": 893,
      "any": 894,
      "##ause": 895,
      "##ily": 896,
      "hel": 897,
      "before": 898,
      "ever": 899,
      "##ied": 900,
      "19": 901,
      "other": 902,
      "play": 903,
      "inv": 904,
      "comm": 905,
      "##ery": 906,
      "##ting": 907,
      "cent": 908,
      "##ug": 909,
      "wee": 910,
      "again": 911,
      "##ical": 912,
      "like": 913,
      "offic": 914,
      "##ra": 915,
      "##ater": 916,
      "being": 917,
      "##ink": 918,
      "show": 919,
      "##ned": 920,
      "child": 921,
      "min": 922,
      "##ious": 923,
      "pres": 924,
      "##land": 925,
      "did": 926,
      "##orm": 927,
      "under": 928,
      "home": 929,
      "##old": 930,
      "cour": 931,
      "op": 932,
      "count": 933,
      "act": 934,
      "world": 935,
      "##uring": 936,
      "##ition": 937,
      "char": 938,
      "##ne": 939,
      "##ock": 940,
      "sch": 941,
      "call": 942,
      "where": 943,
      "while": 944,
      "##ates": 945,
      "because": 946,
      "##oup": 947,
      "##ving": 948,
      "add": 949,
      "##ool": 950,
      "publ": 951,
      "##sp": 952,
      "##enc": 953,
      "thr": 954,
      "found": 955,
      "bel": 956,
      "may": 957,
      "##lud": 958,
      "##ory": 959,
      "left": 960,
      "say": 961,
      "three": 962,
      "##ings": 963,
      "imp": 964,
      "only": 965,
      "ind": 966,
      "##ited": 967,
      "rem": 968,
      "##ult": 969,
      "our": 970,
      "look": 971,
      "sur": 972,
      "##atch": 973,
      "##wn": 974,
      "##nn": 975,
      "wom": 976,
      "day": 977,
      "200": 978,
      "##gr": 979,
      "##ured": 980,
      "ear": 981,
      "000": 982,
      "month": 983,
      "##ged": 984,
      "em": 985,
      "##ons": 986,
      "##ash": 987,
      "est": 988,
      "family": 989,
      "##aking": 990,
      "##ton": 991,
      "##als": 992,
      "sm": 993,
      "##ince": 994,
      "ob": 995,
      "##ather": 996,
      "high": 997,
      "includ": 998,
      "during": 999,
      "ke": 1000,
      "most": 1001,
      "bet": 1002,
      "##ier": 1003,
      "##illion": 1004,
      "then": 1005,
      "war": 1006,
      "cnn": 1007,
      "##oth": 1008,
      "##anc": 1009,
      "made": 1010,
      "tri": 1011,
      "##fer": 1012,
      "sy": 1013,
      "##we": 1014,
      "gu": 1015,
      "##ren": 1016,
      "##ters": 1017,
      "every": 1018,
      "fin": 1019,
      "##are": 1020,
      "##air": 1021,
      "week": 1022,
      "##ational": 1023,
      "see": 1024,
      "##vers": 1025,
      "repor": 1026,
      "even": 1027,
      "def": 1028,
      "ass": 1029,
      "aw": 1030,
      "col": 1031,
      "right": 1032,
      "don": 1033,
      "wr": 1034,
      "pict": 1035,
      "##hing": 1036,
      "##br": 1037,
      "##ating": 1038,
      "against": 1039,
      "star": 1040,
      "##son": 1041,
      "help": 1042,
      "through": 1043,
      "air": 1044,
      "##uch": 1045,
      "##az": 1046,
      "##ouse": 1047,
      "very": 1048,
      "##lo": 1049,
      "gover": 1050,
      "court": 1051,
      "##ked": 1052,
      "##oot": 1053,
      "##ty": 1054,
      "##ities": 1055,
      "##elf": 1056,
      "##ise": 1057,
      "po": 1058,
      "mil": 1059,
      "ter": 1060,
      "supp": 1061,
      "govern": 1062,
      "##les": 1063,
      "med": 1064,
      "##ful": 1065,
      "cons": 1066,
      "many": 1067,
      "cla": 1068,
      "life": 1069,
      "##ah": 1070,
      "says": 1071,
      "lead": 1072,
      "##ues": 1073,
      "know": 1074,
      "bar": 1075,
      "##led": 1076,
      "bu": 1077,
      "ve": 1078,
      "around": 1079,
      "##itt": 1080,
      "##ix": 1081,
      "miss": 1082,
      "long": 1083,
      "make": 1084,
      "##ope": 1085,
      "law": 1086,
      "##ember": 1087,
      "reg": 1088,
      "eng": 1089,
      "##ital": 1090,
      "##ording": 1091,
      "##augh": 1092,
      "way": 1093,
      "##cc": 1094,
      "kill": 1095,
      "inf": 1096,
      "dep": 1097,
      "president": 1098,
      "team": 1099,
      "##vel": 1100,
      "children": 1101,
      "##ought": 1102,
      "claim": 1103,
      "four": 1104,
      "win": 1105,
      "##urn": 1106,
      "well": 1107,
      "need": 1108,
      "##ester": 1109,
      "##ased": 1110,
      "##ble": 1111,
      "end": 1112,
      "school": 1113,
      "##eric": 1114,
      "ret": 1115,
      "own": 1116,
      "according": 1117,
      "##hn": 1118,
      "nor": 1119,
      "since": 1120,
      "##orn": 1121,
      "vide": 1122,
      "take": 1123,
      "cap": 1124,
      "##side": 1125,
      "those": 1126,
      "government": 1127,
      "house": 1128,
      "invest": 1129,
      "##erson": 1130,
      "brit": 1131,
      "americ": 1132,
      "##get": 1133,
      "think": 1134,
      "##ying": 1135,
      "hand": 1136,
      "belie": 1137,
      "sou": 1138,
      "head": 1139,
      "stud": 1140,
      "##iew": 1141,
      "##up": 1142,
      "your": 1143,
      "set": 1144,
      "##med": 1145,
      "should": 1146,
      "city": 1147,
      "##ected": 1148,
      "still": 1149,
      "det": 1150,
      "##osp": 1151,
      "##ress": 1152,
      "aut": 1153,
      "##ollow": 1154,
      "##gan": 1155,
      "##ave": 1156,
      "##ene": 1157,
      "##ures": 1158,
      "happ": 1159,
      "going": 1160,
      "fri": 1161,
      "friend": 1162,
      "##ody": 1163,
      "##ement": 1164,
      "##ction": 1165,
      "state": 1166,
      "follow": 1167,
      "##ished": 1168,
      "group": 1169,
      "bre": 1170,
      "attack": 1171,
      "##king": 1172,
      "plan": 1173,
      "##ull": 1174,
      "##ves": 1175,
      "video": 1176,
      "##ger": 1177,
      "##ives": 1178,
      "put": 1179,
      "good": 1180,
      "##ual": 1181,
      "##used": 1182,
      "former": 1183,
      "##ven": 1184,
      "##ale": 1185,
      "##rib": 1186,
      "10": 1187,
      "near": 1188,
      "##xt": 1189,
      "conf": 1190,
      "##ys": 1191,
      "##alth": 1192,
      "these": 1193,
      "official": 1194,
      "death": 1195,
      "cle": 1196,
      "##imes": 1197,
      "resp": 1198,
      "##int": 1199,
      "##urr": 1200,
      "##ward": 1201,
      "run": 1202,
      "sl": 1203,
      "another": 1204,
      "country": 1205,
      "dem": 1206,
      "##co": 1207,
      "##ists": 1208,
      "##iel": 1209,
      "night": 1210,
      "face": 1211,
      "bus": 1212,
      "ed": 1213,
      "vict": 1214,
      "such": 1215,
      "leg": 1216,
      "##ently": 1217,
      "##cer": 1218,
      "##ason": 1219,
      "##ner": 1220,
      "##per": 1221,
      "public": 1222,
      "##ments": 1223,
      "youn": 1224,
      "##uss": 1225,
      "##ised": 1226,
      "much": 1227,
      "dif": 1228,
      "##ork": 1229,
      "##bs": 1230,
      "tak": 1231,
      "second": 1232,
      "sw": 1233,
      "prot": 1234,
      "sign": 1235,
      "sun": 1236,
      "##ms": 1237,
      "##ele": 1238,
      "##und": 1239,
      "##ween": 1240,
      "united": 1241,
      "##ible": 1242,
      "between": 1243,
      "##ama": 1244,
      "including": 1245,
      "##ady": 1246,
      "##ister": 1247,
      "investig": 1248,
      "spe": 1249,
      "##irl": 1250,
      "##ames": 1251,
      "##ular": 1252,
      "##ric": 1253,
      "pass": 1254,
      "ele": 1255,
      "##ered": 1256,
      "el": 1257,
      "used": 1258,
      "##ph": 1259,
      "want": 1260,
      "##ced": 1261,
      "ma": 1262,
      "dri": 1263,
      "##tain": 1264,
      "##earch": 1265,
      "wal": 1266,
      "##hip": 1267,
      "mother": 1268,
      "intern": 1269,
      "##its": 1270,
      "called": 1271,
      "spok": 1272,
      "##io": 1273,
      "gen": 1274,
      "south": 1275,
      "far": 1276,
      "inst": 1277,
      "id": 1278,
      "women": 1279,
      "##ott": 1280,
      "num": 1281,
      "som": 1282,
      "##ling": 1283,
      "appear": 1284,
      "big": 1285,
      "chr": 1286,
      "##ange": 1287,
      "ext": 1288,
      "##ened": 1289,
      "ap": 1290,
      "sk": 1291,
      "loc": 1292,
      "2013": 1293,
      "today": 1294,
      "##ney": 1295,
      "har": 1296,
      "stat": 1297,
      "post": 1298,
      "care": 1299,
      "both": 1300,
      "mem": 1301,
      "hosp": 1302,
      "contr": 1303,
      "real": 1304,
      "person": 1305,
      "camp": 1306,
      "vis": 1307,
      "girl": 1308,
      "tal": 1309,
      "##ley": 1310,
      "pictured": 1311,
      "##aff": 1312,
      "next": 1313,
      "pat": 1314,
      "##ants": 1315,
      "##olog": 1316,
      "##ecut": 1317,
      "##ury": 1318,
      "never": 1319,
      "five": 1320,
      "##urs": 1321,
      "##gest": 1322,
      "ann": 1323,
      "##ets": 1324,
      "took": 1325,
      "sent": 1326,
      "health": 1327,
      "sim": 1328,
      "later": 1329,
      "##ina": 1330,
      "##ral": 1331,
      "hour": 1332,
      "foot": 1333,
      "ref": 1334,
      "met": 1335,
      "##att": 1336,
      "serv": 1337,
      "arr": 1338,
      "cond": 1339,
      "adm": 1340,
      "added": 1341,
      "la": 1342,
      "days": 1343,
      "beh": 1344,
      "##ines": 1345,
      "great": 1346,
      "##ics": 1347,
      "##app": 1348,
      "##bo": 1349,
      "compan": 1350,
      "##ower": 1351,
      "phot": 1352,
      "##let": 1353,
      "fil": 1354,
      "##ret": 1355,
      "##ondon": 1356,
      "london": 1357,
      "mor": 1358,
      "##hor": 1359,
      "##line": 1360,
      "men": 1361,
      "ban": 1362,
      "uk": 1363,
      "exper": 1364,
      "come": 1365,
      "##bers": 1366,
      "prop": 1367,
      "alle": 1368,
      "##ote": 1369,
      "got": 1370,
      "ste": 1371,
      "young": 1372,
      "case": 1373,
      "contin": 1374,
      "news": 1375,
      "##ness": 1376,
      "##oney": 1377,
      "top": 1378,
      "##ivers": 1379,
      "##eral": 1380,
      "cam": 1381,
      "hospital": 1382,
      "report": 1383,
      "##ison": 1384,
      "away": 1385,
      "seen": 1386,
      "trans": 1387,
      "mid": 1388,
      "does": 1389,
      "sex": 1390,
      "find": 1391,
      "##by": 1392,
      "##ision": 1393,
      "##ages": 1394,
      "rele": 1395,
      "million": 1396,
      "##ham": 1397,
      "red": 1398,
      "##ually": 1399,
      "##ever": 1400,
      "doc": 1401,
      "del": 1402,
      "same": 1403,
      "cre": 1404,
      "months": 1405,
      "six": 1406,
      "##uck": 1407,
      "somet": 1408,
      "sen": 1409,
      "##iving": 1410,
      "##ont": 1411,
      "##uary": 1412,
      "eff": 1413,
      "author": 1414,
      "##red": 1415,
      "dire": 1416,
      "spec": 1417,
      "##ead": 1418,
      "prov": 1419,
      "sat": 1420,
      "lar": 1421,
      "reported": 1422,
      "place": 1423,
      "ra": 1424,
      "inj": 1425,
      "north": 1426,
      "came": 1427,
      "let": 1428,
      "here": 1429,
      "##ency": 1430,
      "##ights": 1431,
      "went": 1432,
      "12": 1433,
      "2012": 1434,
      "taken": 1435,
      "stand": 1436,
      "gre": 1437,
      "national": 1438,
      "really": 1439,
      "##ility": 1440,
      "##iday": 1441,
      "colle": 1442,
      "watch": 1443,
      "won": 1444,
      "best": 1445,
      "prev": 1446,
      "##ax": 1447,
      "wed": 1448,
      "##ins": 1449,
      "too": 1450,
      "hal": 1451,
      "iss": 1452,
      "soc": 1453,
      "##nes": 1454,
      "tur": 1455,
      "mark": 1456,
      "sever": 1457,
      "coun": 1458,
      "##iam": 1459,
      "eur": 1460,
      "##ined": 1461,
      "manag": 1462,
      "##ior": 1463,
      "##osed": 1464,
      "times": 1465,
      "15": 1466,
      "sub": 1467,
      "aff": 1468,
      "rest": 1469,
      "hum": 1470,
      "##ative": 1471,
      "pay": 1472,
      "obama": 1473,
      "##els": 1474,
      "##opp": 1475,
      "##ute": 1476,
      "prod": 1477,
      "ins": 1478,
      "gl": 1479,
      "john": 1480,
      "dav": 1481,
      "pa": 1482,
      "open": 1483,
      "milit": 1484,
      "train": 1485,
      "##ew": 1486,
      "woman": 1487,
      "use": 1488,
      "##ared": 1489,
      "dist": 1490,
      "arrest": 1491,
      "west": 1492,
      "stre": 1493,
      "##ices": 1494,
      "support": 1495,
      "##ived": 1496,
      "didn": 1497,
      "son": 1498,
      "test": 1499,
      "vi": 1500,
      "fac": 1501,
      "##ru": 1502,
      "11": 1503,
      "expl": 1504,
      "fire": 1505,
      "##ific": 1506,
      "father": 1507,
      "##ee": 1508,
      "club": 1509,
      "wife": 1510,
      "prof": 1511,
      "unt": 1512,
      "published": 1513,
      "##ague": 1514,
      "perf": 1515,
      "cal": 1516,
      "##ient": 1517,
      "ca": 1518,
      "cor": 1519,
      "rece": 1520,
      "polit": 1521,
      "number": 1522,
      "##res": 1523,
      "##ges": 1524,
      "remain": 1525,
      "game": 1526,
      "##ark": 1527,
      "##unch": 1528,
      "mur": 1529,
      "##con": 1530,
      "commun": 1531,
      "scr": 1532,
      "18": 1533,
      "jud": 1534,
      "however": 1535,
      "keep": 1536,
      "adv": 1537,
      "susp": 1538,
      "30": 1539,
      "died": 1540,
      "##ield": 1541,
      "##aughter": 1542,
      "sit": 1543,
      "york": 1544,
      "mod": 1545,
      "oper": 1546,
      "cost": 1547,
      "lot": 1548,
      "allow": 1549,
      "spokes": 1550,
      "##ittle": 1551,
      "##thing": 1552,
      "christ": 1553,
      "mus": 1554,
      "##iness": 1555,
      "states": 1556,
      "##ces": 1557,
      "killed": 1558,
      "having": 1559,
      "differ": 1560,
      "##ird": 1561,
      "money": 1562,
      "coup": 1563,
      "##self": 1564,
      "little": 1565,
      "few": 1566,
      "sn": 1567,
      "##urity": 1568,
      "side": 1569,
      "direct": 1570,
      "aust": 1571,
      "opp": 1572,
      "##iting": 1573,
      "##ball": 1574,
      "body": 1575,
      "poss": 1576,
      "##ony": 1577,
      "hit": 1578,
      "##orts": 1579,
      "##ways": 1580,
      "without": 1581,
      "upd": 1582,
      "av": 1583,
      "until": 1584,
      "feel": 1585,
      "##ried": 1586,
      "move": 1587,
      "each": 1588,
      "white": 1589,
      "season": 1590,
      "hard": 1591,
      "asked": 1592,
      "british": 1593,
      "water": 1594,
      "following": 1595,
      "hol": 1596,
      "company": 1597,
      "security": 1598,
      "##ued": 1599,
      "press": 1600,
      "suff": 1601,
      "record": 1602,
      "##view": 1603,
      "england": 1604,
      "black": 1605,
      "start": 1606,
      "##iven": 1607,
      "##sh": 1608,
      "victim": 1609,
      "##iet": 1610,
      "pop": 1611,
      "build": 1612,
      "jan": 1613,
      "shot": 1614,
      "league": 1615,
      "univers": 1616,
      "known": 1617,
      "##ided": 1618,
      "##ately": 1619,
      "desc": 1620,
      "##artment": 1621,
      "curr": 1622,
      "art": 1623,
      "half": 1624,
      "##anted": 1625,
      "american": 1626,
      "past": 1627,
      "il": 1628,
      "thought": 1629,
      "##enn": 1630,
      "##iver": 1631,
      "progr": 1632,
      "trav": 1633,
      "saf": 1634,
      "friends": 1635,
      "##eng": 1636,
      "##ention": 1637,
      "##ism": 1638,
      "something": 1639,
      "party": 1640,
      "reve": 1641,
      "##ending": 1642,
      "clear": 1643,
      "##ether": 1644,
      "saying": 1645,
      "officials": 1646,
      "proble": 1647,
      "international": 1648,
      "##pl": 1649,
      "hours": 1650,
      "ir": 1651,
      "##itted": 1652,
      "quest": 1653,
      "##ands": 1654,
      "sunday": 1655,
      "invol": 1656,
      "##idence": 1657,
      "ago": 1658,
      "ris": 1659,
      "##ross": 1660,
      "camer": 1661,
      "prom": 1662,
      "disc": 1663,
      "##ended": 1664,
      "##rap": 1665,
      "##atic": 1666,
      "updated": 1667,
      "##ially": 1668,
      "mich": 1669,
      "##stem": 1670,
      "statement": 1671,
      "monday": 1672,
      "business": 1673,
      "##ror": 1674,
      "##oke": 1675,
      "across": 1676,
      "maj": 1677,
      "##ering": 1678,
      "desp": 1679,
      "boy": 1680,
      "given": 1681,
      "##ief": 1682,
      "earl": 1683,
      "dead": 1684,
      "##ones": 1685,
      "along": 1686,
      "europe": 1687,
      "viol": 1688,
      "system": 1689,
      "dev": 1690,
      "stri": 1691,
      "area": 1692,
      "##ection": 1693,
      "pos": 1694,
      "##ov": 1695,
      "bur": 1696,
      "##ats": 1697,
      "power": 1698,
      "members": 1699,
      "daughter": 1700,
      "##ession": 1701,
      "sal": 1702,
      "tues": 1703,
      "##ience": 1704,
      "drug": 1705,
      "inform": 1706,
      "##be": 1707,
      "tuesday": 1708,
      "fact": 1709,
      "mess": 1710,
      "russ": 1711,
      "ger": 1712,
      "ge": 1713,
      "sing": 1714,
      "cup": 1715,
      "##ution": 1716,
      "mail": 1717,
      "hot": 1718,
      "##gy": 1719,
      "##ik": 1720,
      "able": 1721,
      "##aign": 1722,
      "campaign": 1723,
      "working": 1724,
      "pet": 1725,
      "office": 1726,
      "##loy": 1727,
      "##velop": 1728,
      "##ograp": 1729,
      "always": 1730,
      "deal": 1731,
      "university": 1732,
      "##ards": 1733,
      "##ready": 1734,
      "fail": 1735,
      "reveal": 1736,
      "david": 1737,
      "several": 1738,
      "##ten": 1739,
      "##elling": 1740,
      "free": 1741,
      "already": 1742,
      "friday": 1743,
      "##ann": 1744,
      "gun": 1745,
      "local": 1746,
      "16": 1747,
      "##utes": 1748,
      "why": 1749,
      "##ipp": 1750,
      "##amed": 1751,
      "alleged": 1752,
      "mom": 1753,
      "couple": 1754,
      "match": 1755,
      "##inal": 1756,
      "despite": 1757,
      "taking": 1758,
      "##ized": 1759,
      "##aster": 1760,
      "military": 1761,
      "secret": 1762,
      "cele": 1763,
      "concer": 1764,
      "##port": 1765,
      "hist": 1766,
      "##ush": 1767,
      "research": 1768,
      "making": 1769,
      "read": 1770,
      "develop": 1771,
      "austral": 1772,
      "parents": 1773,
      "fight": 1774,
      "mc": 1775,
      "order": 1776,
      "earlier": 1777,
      "champ": 1778,
      "whether": 1779,
      "celebr": 1780,
      "outside": 1781,
      "##vered": 1782,
      "ms": 1783,
      "service": 1784,
      "##une": 1785,
      "hus": 1786,
      "event": 1787,
      "meet": 1788,
      "less": 1789,
      "book": 1790,
      "##ired": 1791,
      "believe": 1792,
      "##use": 1793,
      "treat": 1794,
      "lab": 1795,
      "hear": 1796,
      "##ration": 1797,
      "major": 1798,
      "murder": 1799,
      "describ": 1800,
      "ang": 1801,
      "ju": 1802,
      "early": 1803,
      "view": 1804,
      "13": 1805,
      "##itch": 1806,
      "small": 1807,
      "199": 1808,
      "minister": 1809,
      "##wh": 1810,
      "wednes": 1811,
      "##ained": 1812,
      "##ize": 1813,
      "##ove": 1814,
      "wednesday": 1815,
      "##ane": 1816,
      "park": 1817,
      "den": 1818,
      "£1": 1819,
      "once": 1820,
      "##ects": 1821,
      "lik": 1822,
      "incre": 1823,
      "sug": 1824,
      "arm": 1825,
      "food": 1826,
      "14": 1827,
      "##band": 1828,
      "using": 1829,
      "##ified": 1830,
      "behind": 1831,
      "25": 1832,
      "authorities": 1833,
      "among": 1834,
      "bab": 1835,
      "conv": 1836,
      "design": 1837,
      "##uct": 1838,
      "love": 1839,
      "satur": 1840,
      "started": 1841,
      "requ": 1842,
      "though": 1843,
      "##ump": 1844,
      "weeks": 1845,
      "room": 1846,
      "##atter": 1847,
      "val": 1848,
      "proc": 1849,
      "organ": 1850,
      "hold": 1851,
      "give": 1852,
      "##yp": 1853,
      "es": 1854,
      "threat": 1855,
      "sold": 1856,
      "scroll": 1857,
      "incident": 1858,
      "crit": 1859,
      "things": 1860,
      "staff": 1861,
      "arri": 1862,
      "fur": 1863,
      "##akes": 1864,
      "front": 1865,
      "prison": 1866,
      "saturday": 1867,
      "become": 1868,
      "seem": 1869,
      "sol": 1870,
      "hom": 1871,
      "sum": 1872,
      "##ank": 1873,
      "##rem": 1874,
      "main": 1875,
      "17": 1876,
      "officers": 1877,
      "##cept": 1878,
      "cut": 1879,
      "tec": 1880,
      "##par": 1881,
      "might": 1882,
      "heard": 1883,
      "grand": 1884,
      "step": 1885,
      "thurs": 1886,
      "super": 1887,
      "wanted": 1888,
      "##iously": 1889,
      "thursday": 1890,
      "exc": 1891,
      "##ians": 1892,
      "full": 1893,
      "final": 1894,
      "ent": 1895,
      "looking": 1896,
      "##less": 1897,
      "emer": 1898,
      "lost": 1899,
      "##ett": 1900,
      "better": 1901,
      "mag": 1902,
      "tax": 1903,
      "saw": 1904,
      "##ming": 1905,
      "road": 1906,
      "husband": 1907,
      "land": 1908,
      "##ries": 1909,
      "spokesman": 1910,
      "short": 1911,
      "football": 1912,
      "close": 1913,
      "mrs": 1914,
      "dam": 1915,
      "cust": 1916,
      "class": 1917,
      "fed": 1918,
      "deb": 1919,
      "media": 1920,
      "different": 1921,
      "##ising": 1922,
      "chang": 1923,
      "announ": 1924,
      "least": 1925,
      "doct": 1926,
      "##fic": 1927,
      "morning": 1928,
      "succ": 1929,
      "nat": 1930,
      "wa": 1931,
      "released": 1932,
      "mean": 1933,
      "must": 1934,
      "ey": 1935,
      "human": 1936,
      "department": 1937,
      "pros": 1938,
      "##ops": 1939,
      "##ject": 1940,
      "##ators": 1941,
      "##book": 1942,
      "point": 1943,
      "players": 1944,
      "rob": 1945,
      "##ases": 1946,
      "level": 1947,
      "bill": 1948,
      "form": 1949,
      "live": 1950,
      "tar": 1951,
      "toget": 1952,
      "trying": 1953,
      "together": 1954,
      "march": 1955,
      "##way": 1956,
      "consid": 1957,
      "proper": 1958,
      "##aged": 1959,
      "pain": 1960,
      "program": 1961,
      "emp": 1962,
      "##oy": 1963,
      "##inc": 1964,
      "hope": 1965,
      "##ape": 1966,
      "ant": 1967,
      "heart": 1968,
      "bir": 1969,
      "ple": 1970,
      "econ": 1971,
      "prosecut": 1972,
      "fall": 1973,
      "econom": 1974,
      "##pr": 1975,
      "occ": 1976,
      "based": 1977,
      "##itter": 1978,
      "##emp": 1979,
      "##lex": 1980,
      "alm": 1981,
      "partic": 1982,
      "social": 1983,
      "change": 1984,
      "information": 1985,
      "##thers": 1986,
      "britain": 1987,
      "chief": 1988,
      "street": 1989,
      "##ael": 1990,
      "priv": 1991,
      "dog": 1992,
      "grow": 1993,
      "import": 1994,
      "kid": 1995,
      "afric": 1996,
      "others": 1997,
      "##eal": 1998,
      "##ored": 1999,
      "ball": 2000,
      "investigation": 2001,
      "mass": 2002,
      "arg": 2003,
      "pal": 2004,
      "hu": 2005,
      "##ator": 2006,
      "##ern": 2007,
      "job": 2008,
      "shoot": 2009,
      "stay": 2010,
      "third": 2011,
      "success": 2012,
      "##ically": 2013,
      "january": 2014,
      "##gin": 2015,
      "shows": 2016,
      "town": 2017,
      "arrested": 2018,
      "2011": 2019,
      "pot": 2020,
      "wrote": 2021,
      "yet": 2022,
      "##istan": 2023,
      "held": 2024,
      "##chester": 2025,
      "##urch": 2026,
      "visit": 2027,
      "##que": 2028,
      "tre": 2029,
      "##ense": 2030,
      "roy": 2031,
      "50": 2032,
      "ah": 2033,
      "name": 2034,
      "ground": 2035,
      "wear": 2036,
      "minutes": 2037,
      "began": 2038,
      "appro": 2039,
      "syri": 2040,
      "##ium": 2041,
      "##ograph": 2042,
      "claims": 2043,
      "dou": 2044,
      "suggest": 2045,
      "##ances": 2046,
      "decision": 2047,
      "himself": 2048,
      "rul": 2049,
      "##erv": 2050,
      "getting": 2051,
      "judge": 2052,
      "##ench": 2053,
      "control": 2054,
      "fund": 2055,
      "compl": 2056,
      "ham": 2057,
      "ident": 2058,
      "almost": 2059,
      "wind": 2060,
      "enough": 2061,
      "goal": 2062,
      "search": 2063,
      "##enal": 2064,
      "interest": 2065,
      "const": 2066,
      "led": 2067,
      "##ides": 2068,
      "##go": 2069,
      "sept": 2070,
      "##unt": 2071,
      "net": 2072,
      "##ocr": 2073,
      "##ps": 2074,
      "claimed": 2075,
      "seven": 2076,
      "revealed": 2077,
      "tot": 2078,
      "break": 2079,
      "launch": 2080,
      "##aily": 2081,
      "evidence": 2082,
      "##acy": 2083,
      "fun": 2084,
      "yester": 2085,
      "techn": 2086,
      "done": 2087,
      "##ugg": 2088,
      "special": 2089,
      "yesterday": 2090,
      "daily": 2091,
      "republ": 2092,
      "age": 2093,
      "squ": 2094,
      "doing": 2095,
      "jack": 2096,
      "hor": 2097,
      "became": 2098,
      "##ford": 2099,
      "republic": 2100,
      "reach": 2101,
      "fel": 2102,
      "line": 2103,
      "geor": 2104,
      "jour": 2105,
      "san": 2106,
      "facebook": 2107,
      "oct": 2108,
      "fre": 2109,
      "disco": 2110,
      "political": 2111,
      "bad": 2112,
      "fell": 2113,
      "bro": 2114,
      "eight": 2115,
      "terror": 2116,
      "strong": 2117,
      "che": 2118,
      "stop": 2119,
      "bed": 2120,
      "rad": 2121,
      "recent": 2122,
      "east": 2123,
      "relations": 2124,
      "##ences": 2125,
      "september": 2126,
      "##ology": 2127,
      "##ably": 2128,
      "##mber": 2129,
      "port": 2130,
      "##ler": 2131,
      "list": 2132,
      "mot": 2133,
      "100": 2134,
      "phone": 2135,
      "aug": 2136,
      "di": 2137,
      "turn": 2138,
      "##ds": 2139,
      "fut": 2140,
      "execut": 2141,
      "polic": 2142,
      "manchester": 2143,
      "interview": 2144,
      "site": 2145,
      "##ker": 2146,
      "##million": 2147,
      "anim": 2148,
      "compet": 2149,
      "counc": 2150,
      "##den": 2151,
      "expected": 2152,
      "nove": 2153,
      "ll": 2154,
      "prem": 2155,
      "hop": 2156,
      "november": 2157,
      "return": 2158,
      "december": 2159,
      "underst": 2160,
      "ur": 2161,
      "produc": 2162,
      "inside": 2163,
      "##ober": 2164,
      "rich": 2165,
      "fig": 2166,
      "##erm": 2167,
      "director": 2168,
      "medical": 2169,
      "further": 2170,
      "thing": 2171,
      "lives": 2172,
      "equ": 2173,
      "likely": 2174,
      "bor": 2175,
      "##bc": 2176,
      "october": 2177,
      "officer": 2178,
      "24": 2179,
      "cer": 2180,
      "tour": 2181,
      "baby": 2182,
      "german": 2183,
      "vir": 2184,
      "happened": 2185,
      "rights": 2186,
      "democr": 2187,
      "##aced": 2188,
      "often": 2189,
      "fans": 2190,
      "jail": 2191,
      "important": 2192,
      "elect": 2193,
      "alth": 2194,
      "michael": 2195,
      "august": 2196,
      "21": 2197,
      "fear": 2198,
      "ill": 2199,
      "although": 2200,
      "##ption": 2201,
      "due": 2202,
      "enter": 2203,
      "rom": 2204,
      "late": 2205,
      "travel": 2206,
      "host": 2207,
      "community": 2208,
      "##sel": 2209,
      "feat": 2210,
      "mal": 2211,
      "june": 2212,
      "games": 2213,
      "##hic": 2214,
      "william": 2215,
      "neigh": 2216,
      "within": 2217,
      "neighb": 2218,
      "comes": 2219,
      "county": 2220,
      "insp": 2221,
      "living": 2222,
      "bas": 2223,
      "accused": 2224,
      "##ening": 2225,
      "##wards": 2226,
      "future": 2227,
      "##idge": 2228,
      "centre": 2229,
      "imm": 2230,
      "lat": 2231,
      "##ril": 2232,
      "light": 2233,
      "mart": 2234,
      "activ": 2235,
      "online": 2236,
      "tell": 2237,
      "##aper": 2238,
      "##bert": 2239,
      "conn": 2240,
      "40": 2241,
      "##ission": 2242,
      "##aut": 2243,
      "film": 2244,
      "##eck": 2245,
      "trial": 2246,
      "scene": 2247,
      "manager": 2248,
      "##aps": 2249,
      "action": 2250,
      "##str": 2251,
      "question": 2252,
      "sour": 2253,
      "mill": 2254,
      "##cent": 2255,
      "spot": 2256,
      "##dle": 2257,
      "lear": 2258,
      "chall": 2259,
      "blood": 2260,
      "webs": 2261,
      "general": 2262,
      "target": 2263,
      "tried": 2264,
      "##oci": 2265,
      "complet": 2266,
      "someone": 2267,
      "##opped": 2268,
      "coll": 2269,
      "council": 2270,
      "##aly": 2271,
      "batt": 2272,
      "##ocked": 2273,
      "spent": 2274,
      "2010": 2275,
      "story": 2276,
      "shar": 2277,
      "involved": 2278,
      "described": 2279,
      "tv": 2280,
      "washing": 2281,
      "associ": 2282,
      "charges": 2283,
      "low": 2284,
      "leave": 2285,
      "july": 2286,
      "history": 2287,
      "mad": 2288,
      "force": 2289,
      "employ": 2290,
      "lu": 2291,
      "##ural": 2292,
      "legal": 2293,
      "##ai": 2294,
      "##ald": 2295,
      "##sea": 2296,
      "##ients": 2297,
      "##ech": 2298,
      "famil": 2299,
      "##itions": 2300,
      "bring": 2301,
      "##iff": 2302,
      "confir": 2303,
      "ide": 2304,
      "##ination": 2305,
      "received": 2306,
      "april": 2307,
      "##lish": 2308,
      "ho": 2309,
      "fore": 2310,
      "china": 2311,
      "ira": 2312,
      "##itness": 2313,
      "comment": 2314,
      "##anger": 2315,
      "kind": 2316,
      "van": 2317,
      "los": 2318,
      "believed": 2319,
      "##bed": 2320,
      "22": 2321,
      "poin": 2322,
      "##ung": 2323,
      "large": 2324,
      "simp": 2325,
      "sure": 2326,
      "played": 2327,
      "##gn": 2328,
      "civ": 2329,
      "##yle": 2330,
      "dress": 2331,
      "##thern": 2332,
      "doesn": 2333,
      "##rew": 2334,
      "##ike": 2335,
      "##oon": 2336,
      "term": 2337,
      "##af": 2338,
      "nation": 2339,
      "##room": 2340,
      "leav": 2341,
      "gave": 2342,
      "lim": 2343,
      "possible": 2344,
      "leader": 2345,
      "diffic": 2346,
      "##mp": 2347,
      "nothing": 2348,
      "##oud": 2349,
      "try": 2350,
      "difficult": 2351,
      "bom": 2352,
      "capt": 2353,
      "##uted": 2354,
      "##uel": 2355,
      "center": 2356,
      "building": 2357,
      "##ories": 2358,
      "bene": 2359,
      "leaders": 2360,
      "reports": 2361,
      "james": 2362,
      "teen": 2363,
      "iraq": 2364,
      "turned": 2365,
      "##rop": 2366,
      "risk": 2367,
      "champions": 2368,
      "paul": 2369,
      "##lam": 2370,
      "##ensive": 2371,
      "anything": 2372,
      "royal": 2373,
      "attor": 2374,
      "king": 2375,
      "america": 2376,
      "crash": 2377,
      "process": 2378,
      "##ring": 2379,
      "twitter": 2380,
      "forward": 2381,
      "eas": 2382,
      "enc": 2383,
      "charged": 2384,
      "##ilar": 2385,
      "prime": 2386,
      "washington": 2387,
      "thous": 2388,
      "pick": 2389,
      "quick": 2390,
      "coming": 2391,
      "brother": 2392,
      "civil": 2393,
      "##ortun": 2394,
      "summer": 2395,
      "vill": 2396,
      "que": 2397,
      "moment": 2398,
      "training": 2399,
      "##nal": 2400,
      "player": 2401,
      "tom": 2402,
      "custom": 2403,
      "birth": 2404,
      "##ster": 2405,
      "series": 2406,
      "##ana": 2407,
      "2014": 2408,
      "scre": 2409,
      "##ests": 2410,
      "ahead": 2411,
      "round": 2412,
      "##ots": 2413,
      "agre": 2414,
      "wasn": 2415,
      "nearly": 2416,
      "sil": 2417,
      "detail": 2418,
      "retur": 2419,
      "respons": 2420,
      "##aught": 2421,
      "##row": 2422,
      "federal": 2423,
      "cross": 2424,
      "trad": 2425,
      "glo": 2426,
      "liver": 2427,
      "cho": 2428,
      "fa": 2429,
      "market": 2430,
      "##ef": 2431,
      "repres": 2432,
      "repl": 2433,
      "##ults": 2434,
      "island": 2435,
      "board": 2436,
      "##icted": 2437,
      "##ented": 2438,
      "##ential": 2439,
      "cancer": 2440,
      "febr": 2441,
      "vot": 2442,
      "contrib": 2443,
      "gold": 2444,
      "february": 2445,
      "relationship": 2446,
      "##0s": 2447,
      "##ico": 2448,
      "resident": 2449,
      "clin": 2450,
      "soon": 2451,
      "##ety": 2452,
      "docu": 2453,
      "carry": 2454,
      "website": 2455,
      "crime": 2456,
      "23": 2457,
      "mer": 2458,
      "##pool": 2459,
      "course": 2460,
      "gener": 2461,
      "worked": 2462,
      "198": 2463,
      "playing": 2464,
      "forces": 2465,
      "calif": 2466,
      "miles": 2467,
      "bal": 2468,
      "##ows": 2469,
      "appeared": 2470,
      "certain": 2471,
      "challen": 2472,
      "space": 2473,
      "fav": 2474,
      "students": 2475,
      "vehic": 2476,
      "secretary": 2477,
      "##selves": 2478,
      "##ns": 2479,
      "californ": 2480,
      "sam": 2481,
      "personal": 2482,
      "##uation": 2483,
      "ran": 2484,
      "##ging": 2485,
      "foreign": 2486,
      "guil": 2487,
      "flight": 2488,
      "popular": 2489,
      "rac": 2490,
      "defend": 2491,
      "##iding": 2492,
      "##fri": 2493,
      "##irc": 2494,
      "extrem": 2495,
      "green": 2496,
      "admitted": 2497,
      "cann": 2498,
      "beat": 2499,
      "wrong": 2500,
      "ten": 2501,
      "problem": 2502,
      "hotel": 2503,
      "cover": 2504,
      "dom": 2505,
      "##over": 2506,
      "crim": 2507,
      "phil": 2508,
      "happy": 2509,
      "continue": 2510,
      "everything": 2511,
      "enj": 2512,
      "##uce": 2513,
      "typ": 2514,
      "born": 2515,
      "role": 2516,
      "kore": 2517,
      "##isted": 2518,
      "##ival": 2519,
      "middle": 2520,
      "dest": 2521,
      "surv": 2522,
      "victims": 2523,
      "clos": 2524,
      "brown": 2525,
      "orig": 2526,
      "##body": 2527,
      "study": 2528,
      "chel": 2529,
      "lif": 2530,
      "treatment": 2531,
      "countries": 2532,
      "whose": 2533,
      "gar": 2534,
      "fer": 2535,
      "tit": 2536,
      "##itive": 2537,
      "hands": 2538,
      "showed": 2539,
      "bank": 2540,
      "california": 2541,
      "instead": 2542,
      "recently": 2543,
      "similar": 2544,
      "issue": 2545,
      "agency": 2546,
      "admin": 2547,
      "##ino": 2548,
      "everyone": 2549,
      "##ively": 2550,
      "##ains": 2551,
      "thousands": 2552,
      "safety": 2553,
      "##friend": 2554,
      "picture": 2555,
      "init": 2556,
      "australia": 2557,
      "justice": 2558,
      "assa": 2559,
      "bit": 2560,
      "hon": 2561,
      "##oph": 2562,
      "serious": 2563,
      "announced": 2564,
      "european": 2565,
      "##oming": 2566,
      "anyone": 2567,
      "##medi": 2568,
      "french": 2569,
      "##ars": 2570,
      "private": 2571,
      "church": 2572,
      "##lin": 2573,
      "knew": 2574,
      "forced": 2575,
      "wall": 2576,
      "congr": 2577,
      "felt": 2578,
      "circ": 2579,
      "plans": 2580,
      "islam": 2581,
      "effect": 2582,
      "girls": 2583,
      "vol": 2584,
      "##rain": 2585,
      "##rict": 2586,
      "flor": 2587,
      "looked": 2588,
      "div": 2589,
      "heav": 2590,
      "qual": 2591,
      "##rael": 2592,
      "makes": 2593,
      "services": 2594,
      "angel": 2595,
      "##ata": 2596,
      "##oring": 2597,
      "israel": 2598,
      "families": 2599,
      "currently": 2600,
      "pair": 2601,
      "£2": 2602,
      "##esh": 2603,
      "2009": 2604,
      "immedi": 2605,
      "disapp": 2606,
      "caused": 2607,
      "nine": 2608,
      "problems": 2609,
      "above": 2610,
      "##cl": 2611,
      "draw": 2612,
      "afgh": 2613,
      "running": 2614,
      "fly": 2615,
      "strugg": 2616,
      "##ference": 2617,
      "sle": 2618,
      "condition": 2619,
      "##ners": 2620,
      "means": 2621,
      "esc": 2622,
      "decided": 2623,
      "attorney": 2624,
      "##sw": 2625,
      "region": 2626,
      "ber": 2627,
      "educ": 2628,
      "speak": 2629,
      "guilty": 2630,
      "member": 2631,
      "deep": 2632,
      "trip": 2633,
      "26": 2634,
      "prob": 2635,
      "rock": 2636,
      "particular": 2637,
      "foc": 2638,
      "##iers": 2639,
      "violence": 2640,
      "##work": 2641,
      "er": 2642,
      "##iec": 2643,
      "track": 2644,
      "##ither": 2645,
      "emb": 2646,
      "key": 2647,
      "brought": 2648,
      "liverpool": 2649,
      "amb": 2650,
      "danger": 2651,
      "##mas": 2652,
      "##na": 2653,
      "result": 2654,
      "career": 2655,
      "station": 2656,
      "paid": 2657,
      "chelsea": 2658,
      "sexual": 2659,
      "chance": 2660,
      "##ding": 2661,
      "photograph": 2662,
      "##using": 2663,
      "##read": 2664,
      "card": 2665,
      "lawy": 2666,
      "##ulation": 2667,
      "access": 2668,
      "##iety": 2669,
      "self": 2670,
      "##ental": 2671,
      "wood": 2672,
      "##ounds": 2673,
      "huge": 2674,
      "rather": 2675,
      "##ressed": 2676,
      "##empt": 2677,
      "##eth": 2678,
      "flo": 2679,
      "##enced": 2680,
      "27": 2681,
      "abs": 2682,
      "afghan": 2683,
      "race": 2684,
      "journal": 2685,
      "##uction": 2686,
      "student": 2687,
      "##field": 2688,
      "bag": 2689,
      "protect": 2690,
      "latest": 2691,
      "##ida": 2692,
      "music": 2693,
      "##ona": 2694,
      "##uit": 2695,
      "accident": 2696,
      "premier": 2697,
      "##aded": 2698,
      "experience": 2699,
      "allegedly": 2700,
      "impro": 2701,
      "moved": 2702,
      "weekend": 2703,
      "doctors": 2704,
      "reb": 2705,
      "decl": 2706,
      "##ease": 2707,
      "benef": 2708,
      "workers": 2709,
      "pan": 2710,
      "administ": 2711,
      "indust": 2712,
      "mis": 2713,
      "weap": 2714,
      "alex": 2715,
      "capital": 2716,
      "cases": 2717,
      "coast": 2718,
      "suppor": 2719,
      "account": 2720,
      "understand": 2721,
      "##bal": 2722,
      "##for": 2723,
      "cause": 2724,
      "posted": 2725,
      "missing": 2726,
      "dan": 2727,
      "28": 2728,
      "coach": 2729,
      "property": 2730,
      "george": 2731,
      "witness": 2732,
      "##uries": 2733,
      "iran": 2734,
      "named": 2735,
      "fem": 2736,
      "box": 2737,
      "wil": 2738,
      "failed": 2739,
      "hill": 2740,
      "remains": 2741,
      "meas": 2742,
      "##wood": 2743,
      "ver": 2744,
      "hund": 2745,
      "##uff": 2746,
      "neg": 2747,
      "##ma": 2748,
      "hearing": 2749,
      "suffered": 2750,
      "needed": 2751,
      "france": 2752,
      "cand": 2753,
      "##ese": 2754,
      "beaut": 2755,
      "christmas": 2756,
      "drink": 2757,
      "themselves": 2758,
      "election": 2759,
      "mcc": 2760,
      "hundred": 2761,
      "##eter": 2762,
      "sand": 2763,
      "creat": 2764,
      "include": 2765,
      "crow": 2766,
      "chair": 2767,
      "tele": 2768,
      "##sy": 2769,
      "actually": 2770,
      "senior": 2771,
      "2008": 2772,
      "##sey": 2773,
      "attacks": 2774,
      "##ades": 2775,
      "scient": 2776,
      "syria": 2777,
      "##fully": 2778,
      "gone": 2779,
      "expect": 2780,
      "##yn": 2781,
      "tex": 2782,
      "##ibility": 2783,
      "labour": 2784,
      "rev": 2785,
      "respond": 2786,
      "else": 2787,
      "norm": 2788,
      "patients": 2789,
      "##asing": 2790,
      "twe": 2791,
      "esp": 2792,
      "snow": 2793,
      "meeting": 2794,
      "airport": 2795,
      "leaving": 2796,
      "##ilt": 2797,
      "central": 2798,
      "trust": 2799,
      "pack": 2800,
      "army": 2801,
      "je": 2802,
      "discovered": 2803,
      "page": 2804,
      "allowed": 2805,
      "##lim": 2806,
      "bott": 2807,
      "married": 2808,
      "bri": 2809,
      "critic": 2810,
      "common": 2811,
      "worth": 2812,
      "cur": 2813,
      "var": 2814,
      "ben": 2815,
      "avail": 2816,
      "bul": 2817,
      "##cel": 2818,
      "cameron": 2819,
      "resc": 2820,
      "##oid": 2821,
      "shooting": 2822,
      "policy": 2823,
      "message": 2824,
      "anti": 2825,
      "idea": 2826,
      "##hood": 2827,
      "plane": 2828,
      "##itional": 2829,
      "beach": 2830,
      "percent": 2831,
      "broad": 2832,
      "arrived": 2833,
      "comments": 2834,
      "laws": 2835,
      "pract": 2836,
      "situation": 2837,
      "##ox": 2838,
      "reason": 2839,
      "##ij": 2840,
      "##atives": 2841,
      "speaking": 2842,
      "##aces": 2843,
      "ars": 2844,
      "assist": 2845,
      "current": 2846,
      "helped": 2847,
      "killing": 2848,
      "fat": 2849,
      "buy": 2850,
      "financ": 2851,
      "##ivid": 2852,
      "mex": 2853,
      "touch": 2854,
      "infl": 2855,
      "charge": 2856,
      "##uty": 2857,
      "couldn": 2858,
      "talk": 2859,
      "aver": 2860,
      "field": 2861,
      "smith": 2862,
      "looks": 2863,
      "marri": 2864,
      "traff": 2865,
      "surpr": 2866,
      "discuss": 2867,
      "whole": 2868,
      "driving": 2869,
      "##imate": 2870,
      "determ": 2871,
      "500": 2872,
      "phys": 2873,
      "bbc": 2874,
      "##gency": 2875,
      "loss": 2876,
      "earth": 2877,
      "single": 2878,
      "present": 2879,
      "##bi": 2880,
      "sports": 2881,
      "##orman": 2882,
      "mind": 2883,
      "africa": 2884,
      "commission": 2885,
      "begin": 2886,
      "##ength": 2887,
      "russia": 2888,
      "##ams": 2889,
      "billion": 2890,
      "##cle": 2891,
      "##ky": 2892,
      "prince": 2893,
      "quite": 2894,
      "sister": 2895,
      "leading": 2896,
      "lou": 2897,
      "197": 2898,
      "price": 2899,
      "areas": 2900,
      "door": 2901,
      "29": 2902,
      "##iod": 2903,
      "abuse": 2904,
      "driver": 2905,
      "release": 2906,
      "deliver": 2907,
      "images": 2908,
      "wearing": 2909,
      "photo": 2910,
      "groups": 2911,
      "##to": 2912,
      "##ises": 2913,
      "pictures": 2914,
      "braz": 2915,
      "##ola": 2916,
      "##ca": 2917,
      "needs": 2918,
      "matter": 2919,
      "criminal": 2920,
      "##ify": 2921,
      "##han": 2922,
      "thom": 2923,
      "position": 2924,
      "opportun": 2925,
      "##te": 2926,
      "image": 2927,
      "store": 2928,
      "##ergy": 2929,
      "available": 2930,
      "confirmed": 2931,
      "cult": 2932,
      "wants": 2933,
      "##ara": 2934,
      "perform": 2935,
      "##oin": 2936,
      "points": 2937,
      "mob": 2938,
      "##iter": 2939,
      "##ees": 2940,
      "##acted": 2941,
      "##cted": 2942,
      "battle": 2943,
      "tro": 2944,
      "issues": 2945,
      "##iant": 2946,
      "hair": 2947,
      "env": 2948,
      "surve": 2949,
      "surr": 2950,
      "##my": 2951,
      "##ston": 2952,
      "pressure": 2953,
      "##bing": 2954,
      "russian": 2955,
      "oly": 2956,
      "mat": 2957,
      "olymp": 2958,
      "individ": 2959,
      "cannot": 2960,
      "##itor": 2961,
      "longer": 2962,
      "injuries": 2963,
      "cell": 2964,
      "americans": 2965,
      "conserv": 2966,
      "cast": 2967,
      "##50": 2968,
      "immig": 2969,
      "period": 2970,
      "storm": 2971,
      "committ": 2972,
      "##aur": 2973,
      "executive": 2974,
      "non": 2975,
      "bid": 2976,
      "approach": 2977,
      "defense": 2978,
      "returned": 2979,
      "ship": 2980,
      "internet": 2981,
      "##ogn": 2982,
      "hall": 2983,
      "disease": 2984,
      "##apan": 2985,
      "separ": 2986,
      "intr": 2987,
      "kept": 2988,
      "cy": 2989,
      "provide": 2990,
      "behav": 2991,
      "ens": 2992,
      "model": 2993,
      "piec": 2994,
      "english": 2995,
      "winning": 2996,
      "project": 2997,
      "operation": 2998,
      "comb": 2999,
      "alleg": 3000,
      "os": 3001,
      "brand": 3002,
      "swe": 3003,
      "signific": 3004,
      "japan": 3005,
      "pil": 3006,
      "attempt": 3007,
      "die": 3008,
      "oppos": 3009,
      "refer": 3010,
      "florida": 3011,
      "organiz": 3012,
      "drugs": 3013,
      "mount": 3014,
      "caught": 3015,
      "union": 3016,
      "##oo": 3017,
      "##icated": 3018,
      "safe": 3019,
      "complain": 3020,
      "represent": 3021,
      "##la": 3022,
      "martin": 3023,
      "total": 3024,
      "letter": 3025,
      "##epend": 3026,
      "unf": 3027,
      "victory": 3028,
      "aud": 3029,
      "sport": 3030,
      "walk": 3031,
      "sir": 3032,
      "speed": 3033,
      "firm": 3034,
      "charac": 3035,
      "surg": 3036,
      "brazil": 3037,
      "independ": 3038,
      "peace": 3039,
      "college": 3040,
      "##ron": 3041,
      "##umb": 3042,
      "mult": 3043,
      "##ites": 3044,
      "data": 3045,
      "eye": 3046,
      "pret": 3047,
      "mov": 3048,
      "fair": 3049,
      "weight": 3050,
      "##ka": 3051,
      "pred": 3052,
      "performan": 3053,
      "##hire": 3054,
      "##ication": 3055,
      "previous": 3056,
      "range": 3057,
      "##elled": 3058,
      "##where": 3059,
      "source": 3060,
      "residents": 3061,
      "hundreds": 3062,
      "feet": 3063,
      "minute": 3064,
      "mel": 3065,
      "extra": 3066,
      "##opping": 3067,
      "injured": 3068,
      "continued": 3069,
      "pak": 3070,
      "##bur": 3071,
      "##mar": 3072,
      "bud": 3073,
      "link": 3074,
      "join": 3075,
      "obs": 3076,
      "created": 3077,
      "emergency": 3078,
      "jer": 3079,
      "rod": 3080,
      "stage": 3081,
      "##ift": 3082,
      "demand": 3083,
      "technology": 3084,
      "fighting": 3085,
      "scot": 3086,
      "reporter": 3087,
      "takes": 3088,
      "answ": 3089,
      "boss": 3090,
      "##rid": 3091,
      "sea": 3092,
      "goals": 3093,
      "committee": 3094,
      "famous": 3095,
      "cat": 3096,
      "district": 3097,
      "guard": 3098,
      "disp": 3099,
      "arch": 3100,
      "displ": 3101,
      "##hol": 3102,
      "biggest": 3103,
      "enjoy": 3104,
      "carried": 3105,
      "average": 3106,
      "share": 3107,
      "##cast": 3108,
      "##wor": 3109,
      "kids": 3110,
      "vote": 3111,
      "ow": 3112,
      "included": 3113,
      "sad": 3114,
      "gard": 3115,
      "energy": 3116,
      "##key": 3117,
      "photos": 3118,
      "works": 3119,
      "60": 3120,
      "dre": 3121,
      "##ica": 3122,
      "hur": 3123,
      "accept": 3124,
      "##omm": 3125,
      "##ushed": 3126,
      "tim": 3127,
      "appeal": 3128,
      "giving": 3129,
      "##raft": 3130,
      "queen": 3131,
      "review": 3132,
      "finally": 3133,
      "fash": 3134,
      "cred": 3135,
      "weather": 3136,
      "rap": 3137,
      "wild": 3138,
      "conference": 3139,
      "ken": 3140,
      "corn": 3141,
      "apple": 3142,
      "homes": 3143,
      "quickly": 3144,
      "##cement": 3145,
      "telev": 3146,
      "fif": 3147,
      "##onse": 3148,
      "pakistan": 3149,
      "built": 3150,
      "amaz": 3151,
      "##kn": 3152,
      "warned": 3153,
      "camera": 3154,
      "border": 3155,
      "scott": 3156,
      "entire": 3157,
      "marriage": 3158,
      "##pped": 3159,
      "crew": 3160,
      "brain": 3161,
      "appar": 3162,
      "previously": 3163,
      "injury": 3164,
      "kick": 3165,
      "hers": 3166,
      "gas": 3167,
      "administration": 3168,
      "financial": 3169,
      "##otion": 3170,
      "response": 3171,
      "immediately": 3172,
      "owner": 3173,
      "significant": 3174,
      "users": 3175,
      "sleep": 3176,
      "potential": 3177,
      "offer": 3178,
      "##action": 3179,
      "cit": 3180,
      "##ez": 3181,
      "##ugh": 3182,
      "arsenal": 3183,
      "##ores": 3184,
      "quar": 3185,
      "poor": 3186,
      "contributed": 3187,
      "##ho": 3188,
      "calls": 3189,
      "fashion": 3190,
      "wel": 3191,
      "launched": 3192,
      "pers": 3193,
      "ash": 3194,
      "ru": 3195,
      "##rovers": 3196,
      "##ounded": 3197,
      "shock": 3198,
      "##itten": 3199,
      "blue": 3200,
      "experts": 3201,
      "consum": 3202,
      "controvers": 3203,
      "recover": 3204,
      "captain": 3205,
      "##ille": 3206,
      "cop": 3207,
      "##uses": 3208,
      "holiday": 3209,
      "##inese": 3210,
      "##essional": 3211,
      "##engers": 3212,
      "##essor": 3213,
      "base": 3214,
      "##eted": 3215,
      "31": 3216,
      "nav": 3217,
      "sentence": 3218,
      "remember": 3219,
      "##me": 3220,
      "##oken": 3221,
      "germany": 3222,
      "196": 3223,
      "demon": 3224,
      "##pm": 3225,
      "princ": 3226,
      "female": 3227,
      "details": 3228,
      "comput": 3229,
      "questions": 3230,
      "mist": 3231,
      "doub": 3232,
      "probably": 3233,
      "regular": 3234,
      "inqu": 3235,
      "economic": 3236,
      "conc": 3237,
      "ep": 3238,
      "surgery": 3239,
      "muslim": 3240,
      "style": 3241,
      "##ander": 3242,
      "##acher": 3243,
      "roll": 3244,
      "fit": 3245,
      "either": 3246,
      "attention": 3247,
      "vehicle": 3248,
      "isn": 3249,
      "2007": 3250,
      "##leg": 3251,
      "table": 3252,
      "pul": 3253,
      "growing": 3254,
      "address": 3255,
      "crown": 3256,
      "unl": 3257,
      "##ada": 3258,
      "fort": 3259,
      "assault": 3260,
      "appl": 3261,
      "lived": 3262,
      "##apped": 3263,
      "##iron": 3264,
      "chinese": 3265,
      "chris": 3266,
      "australian": 3267,
      "recogn": 3268,
      "##berg": 3269,
      "deg": 3270,
      "contact": 3271,
      "passengers": 3272,
      "companies": 3273,
      "##yan": 3274,
      "##ishing": 3275,
      "engine": 3276,
      "pregn": 3277,
      "bay": 3278,
      "attemp": 3279,
      "##oved": 3280,
      "words": 3281,
      "texas": 3282,
      "##ends": 3283,
      "wat": 3284,
      "congress": 3285,
      "vers": 3286,
      "damage": 3287,
      "speech": 3288,
      "repe": 3289,
      "cloth": 3290,
      "richard": 3291,
      "##ode": 3292,
      "##ability": 3293,
      "##hs": 3294,
      "education": 3295,
      "##ude": 3296,
      "hous": 3297,
      "rout": 3298,
      "fle": 3299,
      "restaur": 3300,
      "cris": 3301,
      "global": 3302,
      "teach": 3303,
      "espec": 3304,
      "especially": 3305,
      "gri": 3306,
      "£3": 3307,
      "din": 3308,
      "clean": 3309,
      "##ert": 3310,
      "##ample": 3311,
      "##of": 3312,
      "conditions": 3313,
      "industry": 3314,
      "penal": 3315,
      "republican": 3316,
      "du": 3317,
      "newsp": 3318,
      "sens": 3319,
      "create": 3320,
      "ful": 3321,
      "events": 3322,
      "impact": 3323,
      "fast": 3324,
      "##ev": 3325,
      "environ": 3326,
      "candid": 3327,
      "poll": 3328,
      "raised": 3329,
      "afghanistan": 3330,
      "##inks": 3331,
      "customers": 3332,
      "##ager": 3333,
      "##iction": 3334,
      "ach": 3335,
      "ul": 3336,
      "simply": 3337,
      "spoke": 3338,
      "##ipped": 3339,
      "refused": 3340,
      "##aging": 3341,
      "followed": 3342,
      "shown": 3343,
      "vo": 3344,
      "aid": 3345,
      "##ender": 3346,
      "denied": 3347,
      "towards": 3348,
      "##por": 3349,
      "drive": 3350,
      "##outh": 3351,
      "stra": 3352,
      "joined": 3353,
      "bow": 3354,
      "god": 3355,
      "oil": 3356,
      "trib": 3357,
      "##oz": 3358,
      "robert": 3359,
      "span": 3360,
      "##inated": 3361,
      "skin": 3362,
      "seems": 3363,
      "perfect": 3364,
      "mos": 3365,
      "wid": 3366,
      "believes": 3367,
      "##estern": 3368,
      "sor": 3369,
      "detect": 3370,
      "##dr": 3371,
      "floor": 3372,
      "cook": 3373,
      "size": 3374,
      "happen": 3375,
      "williams": 3376,
      "convicted": 3377,
      "##ogle": 3378,
      "##ique": 3379,
      "35": 3380,
      "partner": 3381,
      "goes": 3382,
      "challenge": 3383,
      "prep": 3384,
      "results": 3385,
      "##oes": 3386,
      "jump": 3387,
      "river": 3388,
      "eventually": 3389,
      "sel": 3390,
      "##olf": 3391,
      "scotland": 3392,
      "cars": 3393,
      "##ours": 3394,
      "ukrain": 3395,
      "ready": 3396,
      "northern": 3397,
      "consider": 3398,
      "sher": 3399,
      "herself": 3400,
      "opening": 3401,
      "##icide": 3402,
      "dangerous": 3403,
      "ended": 3404,
      "franc": 3405,
      "##elle": 3406,
      "african": 3407,
      "##gg": 3408,
      "figures": 3409,
      "##iled": 3410,
      "television": 3411,
      "illeg": 3412,
      "cab": 3413,
      "bod": 3414,
      "passed": 3415,
      "tem": 3416,
      "doctor": 3417,
      "attr": 3418,
      "contract": 3419,
      "45": 3420,
      "cash": 3421,
      "lack": 3422,
      "##astic": 3423,
      "google": 3424,
      "##ellig": 3425,
      "surf": 3426,
      "##aker": 3427,
      "instit": 3428,
      "##fort": 3429,
      "sell": 3430,
      "spending": 3431,
      "##agn": 3432,
      "peter": 3433,
      "opin": 3434,
      "title": 3435,
      "citiz": 3436,
      "award": 3437,
      "##bor": 3438,
      "allegations": 3439,
      "troops": 3440,
      "prevent": 3441,
      "fal": 3442,
      "warning": 3443,
      "alone": 3444,
      "sym": 3445,
      "##ban": 3446,
      "row": 3447,
      "ice": 3448,
      "pow": 3449,
      "##ris": 3450,
      "animal": 3451,
      "ask": 3452,
      "##ena": 3453,
      "##unk": 3454,
      "mater": 3455,
      "changed": 3456,
      "pur": 3457,
      "mas": 3458,
      "sky": 3459,
      "parts": 3460,
      "moving": 3461,
      "offered": 3462,
      "environment": 3463,
      "inn": 3464,
      "professor": 3465,
      "jackson": 3466,
      "evening": 3467,
      "investigators": 3468,
      "##ips": 3469,
      "johnson": 3470,
      "trou": 3471,
      "network": 3472,
      "##asons": 3473,
      "adding": 3474,
      "##ancy": 3475,
      "encour": 3476,
      "##ibly": 3477,
      "wedding": 3478,
      "schools": 3479,
      "jobs": 3480,
      "performance": 3481,
      "intellig": 3482,
      "weapons": 3483,
      "##illed": 3484,
      "increase": 3485,
      "##uced": 3486,
      "##ceed": 3487,
      "##roy": 3488,
      "##val": 3489,
      "eyes": 3490,
      "##ension": 3491,
      "loved": 3492,
      "defe": 3493,
      "hun": 3494,
      "##shire": 3495,
      "appears": 3496,
      "boys": 3497,
      "nick": 3498,
      "##come": 3499,
      "tough": 3500,
      "soldiers": 3501,
      "ord": 3502,
      "estim": 3503,
      "mir": 3504,
      "kim": 3505,
      "respect": 3506,
      "32": 3507,
      "##while": 3508,
      "jones": 3509,
      "angeles": 3510,
      "korea": 3511,
      "opened": 3512,
      "stopped": 3513,
      "freed": 3514,
      "##com": 3515,
      "affair": 3516,
      "aged": 3517,
      "showing": 3518,
      "exam": 3519,
      "agreed": 3520,
      "carol": 3521,
      "amount": 3522,
      "shir": 3523,
      "abd": 3524,
      "radio": 3525,
      "aftern": 3526,
      "complete": 3527,
      "##ications": 3528,
      "clinton": 3529,
      "crowd": 3530,
      "rain": 3531,
      "society": 3532,
      "##vert": 3533,
      "true": 3534,
      "web": 3535,
      "wonder": 3536,
      "check": 3537,
      "sometimes": 3538,
      "##uing": 3539,
      "save": 3540,
      "##oper": 3541,
      "ron": 3542,
      "temper": 3543,
      "mach": 3544,
      "bail": 3545,
      "economy": 3546,
      "considered": 3547,
      "ath": 3548,
      "liber": 3549,
      "insur": 3550,
      "treated": 3551,
      "efforts": 3552,
      "##olution": 3553,
      "##ecess": 3554,
      "afternoon": 3555,
      "concerns": 3556,
      "designed": 3557,
      "opportunity": 3558,
      "terri": 3559,
      "squad": 3560,
      "##ament": 3561,
      "calling": 3562,
      "fellow": 3563,
      "nearby": 3564,
      "##craft": 3565,
      "tick": 3566,
      "largest": 3567,
      "parl": 3568,
      "##others": 3569,
      "doz": 3570,
      "lawyer": 3571,
      "opt": 3572,
      "effort": 3573,
      "##pted": 3574,
      "dark": 3575,
      "signed": 3576,
      "##inger": 3577,
      "costs": 3578,
      "patr": 3579,
      "magaz": 3580,
      "meanwhile": 3581,
      "kar": 3582,
      "nations": 3583,
      "india": 3584,
      "jury": 3585,
      "achie": 3586,
      "incred": 3587,
      "crisis": 3588,
      "wouldn": 3589,
      "animals": 3590,
      "changes": 3591,
      "gay": 3592,
      "ok": 3593,
      "talking": 3594,
      "##ob": 3595,
      "scored": 3596,
      "aim": 3597,
      "broke": 3598,
      "##iation": 3599,
      "histor": 3600,
      "##aming": 3601,
      "unable": 3602,
      "##inary": 3603,
      "##lant": 3604,
      "throughout": 3605,
      "particularly": 3606,
      "sense": 3607,
      "##ado": 3608,
      "spread": 3609,
      "girlfriend": 3610,
      "mission": 3611,
      "##atory": 3612,
      "##lines": 3613,
      "armed": 3614,
      "heavy": 3615,
      "mexico": 3616,
      "burn": 3617,
      "##enger": 3618,
      "emerged": 3619,
      "eat": 3620,
      "##form": 3621,
      "dar": 3622,
      "motor": 3623,
      "western": 3624,
      "##ruct": 3625,
      "bomb": 3626,
      "victor": 3627,
      "favour": 3628,
      "prosecutors": 3629,
      "mobile": 3630,
      "ordered": 3631,
      "jew": 3632,
      "egy": 3633,
      "##iger": 3634,
      "avoid": 3635,
      "tor": 3636,
      "##iest": 3637,
      "scientists": 3638,
      "sud": 3639,
      "cere": 3640,
      "##rel": 3641,
      "example": 3642,
      "relig": 3643,
      "##back": 3644,
      "sale": 3645,
      "##oman": 3646,
      "issued": 3647,
      "development": 3648,
      "egypt": 3649,
      "completely": 3650,
      "chem": 3651,
      "eb": 3652,
      "charity": 3653,
      "luck": 3654,
      "higher": 3655,
      "alco": 3656,
      "introd": 3657,
      "cas": 3658,
      "bought": 3659,
      "##aked": 3660,
      "stad": 3661,
      "gather": 3662,
      "character": 3663,
      "protest": 3664,
      "chairman": 3665,
      "louis": 3666,
      "der": 3667,
      "document": 3668,
      "isis": 3669,
      "alcohol": 3670,
      "shop": 3671,
      "prior": 3672,
      "estab": 3673,
      "cold": 3674,
      "century": 3675,
      "madrid": 3676,
      "identified": 3677,
      "flood": 3678,
      "movie": 3679,
      "figure": 3680,
      "##eless": 3681,
      "supporters": 3682,
      "##essed": 3683,
      "seeing": 3684,
      "##iful": 3685,
      "terms": 3686,
      "##ini": 3687,
      "increasing": 3688,
      "veter": 3689,
      "lord": 3690,
      "suspect": 3691,
      "exact": 3692,
      "sar": 3693,
      "wales": 3694,
      "reportedly": 3695,
      "##rec": 3696,
      "date": 3697,
      "demonstr": 3698,
      "rid": 3699,
      "researchers": 3700,
      "##ih": 3701,
      "##ucle": 3702,
      "attend": 3703,
      "association": 3704,
      "prim": 3705,
      "whe": 3706,
      "spain": 3707,
      "pretty": 3708,
      "enfor": 3709,
      "wait": 3710,
      "##ature": 3711,
      "telling": 3712,
      "spr": 3713,
      "faces": 3714,
      "mary": 3715,
      "##set": 3716,
      "parliam": 3717,
      "spend": 3718,
      "##etic": 3719,
      "##ayed": 3720,
      "##vin": 3721,
      "arab": 3722,
      "rules": 3723,
      "nucle": 3724,
      "striker": 3725,
      "experi": 3726,
      "ult": 3727,
      "2006": 3728,
      "aircraft": 3729,
      "song": 3730,
      "ol": 3731,
      "parliament": 3732,
      "jose": 3733,
      "natural": 3734,
      "##oned": 3735,
      "rate": 3736,
      "newspaper": 3737,
      "gang": 3738,
      "millions": 3739,
      "##yl": 3740,
      "spir": 3741,
      "bey": 3742,
      "meant": 3743,
      "bush": 3744,
      "stadium": 3745,
      "rise": 3746,
      "##ki": 3747,
      "##phone": 3748,
      "suffering": 3749,
      "##anda": 3750,
      "psy": 3751,
      "levels": 3752,
      "normal": 3753,
      "##ha": 3754,
      "influ": 3755,
      "hy": 3756,
      "served": 3757,
      "##oms": 3758,
      "diagn": 3759,
      "improve": 3760,
      "easy": 3761,
      "absol": 3762,
      "footage": 3763,
      "lang": 3764,
      "##down": 3765,
      "request": 3766,
      "fan": 3767,
      "subst": 3768,
      "33": 3769,
      "managed": 3770,
      "##iles": 3771,
      "written": 3772,
      "twice": 3773,
      "dig": 3774,
      "explos": 3775,
      "doll": 3776,
      "placed": 3777,
      "##men": 3778,
      "andrew": 3779,
      "streets": 3780,
      "stars": 3781,
      "##ilities": 3782,
      "walking": 3783,
      "charl": 3784,
      "waiting": 3785,
      "##ground": 3786,
      "fine": 3787,
      "##itz": 3788,
      "nuclear": 3789,
      "ensure": 3790,
      "bath": 3791,
      "onto": 3792,
      "related": 3793,
      "reporters": 3794,
      "ty": 3795,
      "southern": 3796,
      "islamic": 3797,
      "##ounts": 3798,
      "##uth": 3799,
      "feeling": 3800,
      "lee": 3801,
      "holding": 3802,
      "disappear": 3803,
      "psych": 3804,
      "paris": 3805,
      "majority": 3806,
      "sett": 3807,
      "straight": 3808,
      "##isters": 3809,
      "##istry": 3810,
      "rub": 3811,
      "pun": 3812,
      "thomas": 3813,
      "fourth": 3814,
      "lay": 3815,
      "beg": 3816,
      "glass": 3817,
      "36": 3818,
      "dism": 3819,
      "##icks": 3820,
      "smart": 3821,
      "##ills": 3822,
      "ros": 3823,
      "regard": 3824,
      "responsible": 3825,
      "vac": 3826,
      "##hen": 3827,
      "ire": 3828,
      "item": 3829,
      "##reg": 3830,
      "tow": 3831,
      "##ches": 3832,
      "rescue": 3833,
      "block": 3834,
      "##ighters": 3835,
      "##ba": 3836,
      "##pton": 3837,
      "thanks": 3838,
      "sem": 3839,
      "reform": 3840,
      "daniel": 3841,
      "devast": 3842,
      "emotion": 3843,
      "grad": 3844,
      "##ram": 3845,
      "suit": 3846,
      "word": 3847,
      "intelligence": 3848,
      "senate": 3849,
      "frank": 3850,
      "nhs": 3851,
      "beautiful": 3852,
      "##online": 3853,
      "slow": 3854,
      "carrying": 3855,
      "##gers": 3856,
      "paper": 3857,
      "sched": 3858,
      "square": 3859,
      "numbers": 3860,
      "records": 3861,
      "material": 3862,
      "competition": 3863,
      "ut": 3864,
      "##oint": 3865,
      "itself": 3866,
      "##iate": 3867,
      "magazine": 3868,
      "double": 3869,
      "italy": 3870,
      "gets": 3871,
      "##iny": 3872,
      "easter": 3873,
      "obv": 3874,
      "##ruction": 3875,
      "penalty": 3876,
      "clearly": 3877,
      "##za": 3878,
      "jailed": 3879,
      "##woman": 3880,
      "##ashed": 3881,
      "certainly": 3882,
      "concerned": 3883,
      "standing": 3884,
      "mayor": 3885,
      "tear": 3886,
      "asking": 3887,
      "opposition": 3888,
      "##well": 3889,
      "##fl": 3890,
      "documents": 3891,
      "mic": 3892,
      "defence": 3893,
      "lower": 3894,
      "repeated": 3895,
      "removed": 3896,
      "collect": 3897,
      "syrian": 3898,
      "dogs": 3899,
      "village": 3900,
      "##mark": 3901,
      "##iling": 3902,
      "swim": 3903,
      "sales": 3904,
      "indian": 3905,
      "las": 3906,
      "shut": 3907,
      "lose": 3908,
      "presidential": 3909,
      "##ole": 3910,
      "lad": 3911,
      "occas": 3912,
      "flag": 3913,
      "##erve": 3914,
      "closed": 3915,
      "pulled": 3916,
      "##isl": 3917,
      "spl": 3918,
      "atlant": 3919,
      "##ucted": 3920,
      "focus": 3921,
      "##bled": 3922,
      "wish": 3923,
      "##ropri": 3924,
      "democratic": 3925,
      "reached": 3926,
      "winner": 3927,
      "proud": 3928,
      "counter": 3929,
      "##haps": 3930,
      "##ago": 3931,
      "planning": 3932,
      "pull": 3933,
      "modern": 3934,
      "harry": 3935,
      "##eed": 3936,
      "horri": 3937,
      "##ville": 3938,
      "alter": 3939,
      "quarter": 3940,
      "computer": 3941,
      "##istic": 3942,
      "original": 3943,
      "myself": 3944,
      "ce": 3945,
      "perhaps": 3946,
      "fix": 3947,
      "raise": 3948,
      "owners": 3949,
      "##akers": 3950,
      "commit": 3951,
      "memor": 3952,
      "transport": 3953,
      "##omp": 3954,
      "population": 3955,
      "mailonline": 3956,
      "##ression": 3957,
      "watching": 3958,
      "helping": 3959,
      "worst": 3960,
      "planned": 3961,
      "older": 3962,
      "deaths": 3963,
      "##erc": 3964,
      "##ny": 3965,
      "send": 3966,
      "products": 3967,
      "sentenced": 3968,
      "benefits": 3969,
      "bi": 3970,
      "bodies": 3971,
      "successful": 3972,
      "decades": 3973,
      "##inson": 3974,
      "messages": 3975,
      "hopes": 3976,
      "suicide": 3977,
      "suggested": 3978,
      "eth": 3979,
      "band": 3980,
      "##lement": 3981,
      "cerem": 3982,
      "##urred": 3983,
      "struck": 3984,
      "actions": 3985,
      "virgin": 3986,
      "transfer": 3987,
      "muse": 3988,
      "fired": 3989,
      "bedroom": 3990,
      "budget": 3991,
      "##alled": 3992,
      "##arr": 3993,
      "##jected": 3994,
      "##aves": 3995,
      "male": 3996,
      "pen": 3997,
      "attacked": 3998,
      "rare": 3999,
      "collection": 4000,
      "bird": 4001,
      "uns": 4002,
      "ital": 4003,
      "##ya": 4004,
      "##ube": 4005,
      "oh": 4006,
      "broken": 4007,
      "discover": 4008,
      "temp": 4009,
      "70": 4010,
      "whom": 4011,
      "palace": 4012,
      "##gl": 4013,
      "alongside": 4014,
      "champion": 4015,
      "professional": 4016,
      "##oul": 4017,
      "bridge": 4018,
      "mour": 4019,
      "##aud": 4020,
      "highest": 4021,
      "includes": 4022,
      "##lus": 4023,
      "fest": 4024,
      "starting": 4025,
      "lady": 4026,
      "##ties": 4027,
      "sorry": 4028,
      "winter": 4029,
      "breath": 4030,
      "jon": 4031,
      "max": 4032,
      "##cher": 4033,
      "ox": 4034,
      "##ey": 4035,
      "jim": 4036,
      "##bre": 4037,
      "dropped": 4038,
      "90": 4039,
      "##sequ": 4040,
      "mental": 4041,
      "email": 4042,
      "##iced": 4043,
      "##lor": 4044,
      "bright": 4045,
      "teams": 4046,
      "athlet": 4047,
      "##ocks": 4048,
      "compared": 4049,
      "confl": 4050,
      "apolog": 4051,
      "illegal": 4052,
      "34": 4053,
      "ram": 4054,
      "immigration": 4055,
      "##elly": 4056,
      "##don": 4057,
      "feed": 4058,
      "chann": 4059,
      "learn": 4060,
      "championship": 4061,
      "##ex": 4062,
      "volunt": 4063,
      "restaurant": 4064,
      "becoming": 4065,
      "screen": 4066,
      "##oked": 4067,
      "lux": 4068,
      "und": 4069,
      "##ari": 4070,
      "apartment": 4071,
      "teacher": 4072,
      "massive": 4073,
      "lew": 4074,
      "stab": 4075,
      "##esters": 4076,
      "##isc": 4077,
      "##aped": 4078,
      "choice": 4079,
      "putting": 4080,
      "##iple": 4081,
      "appearance": 4082,
      "stun": 4083,
      "##hib": 4084,
      "barack": 4085,
      "stone": 4086,
      "ways": 4087,
      "imag": 4088,
      "ton": 4089,
      "specific": 4090,
      "positive": 4091,
      "talks": 4092,
      "minor": 4093,
      "dream": 4094,
      "##aining": 4095,
      "francis": 4096,
      "farm": 4097,
      "##ements": 4098,
      "particip": 4099,
      "catch": 4100,
      "places": 4101,
      "##oking": 4102,
      "neighbor": 4103,
      "od": 4104,
      "aware": 4105,
      "piece": 4106,
      "thinking": 4107,
      "seemed": 4108,
      "covered": 4109,
      "##eda": 4110,
      "##car": 4111,
      "necess": 4112,
      "2005": 4113,
      "product": 4114,
      "##ils": 4115,
      "dad": 4116,
      "constit": 4117,
      "extremely": 4118,
      "##uled": 4119,
      "tas": 4120,
      "chec": 4121,
      "maintain": 4122,
      "cru": 4123,
      "flying": 4124,
      "300": 4125,
      "syd": 4126,
      "shared": 4127,
      "##ological": 4128,
      "color": 4129,
      "reasons": 4130,
      "80": 4131,
      "prepar": 4132,
      "apparently": 4133,
      "debate": 4134,
      "mix": 4135,
      "usually": 4136,
      "##owing": 4137,
      "republicans": 4138,
      "comfort": 4139,
      "steve": 4140,
      "protesters": 4141,
      "cooper": 4142,
      "facing": 4143,
      "survey": 4144,
      "museum": 4145,
      "beyond": 4146,
      "insisted": 4147,
      "##oted": 4148,
      "associated": 4149,
      "boat": 4150,
      "##iance": 4151,
      "shortly": 4152,
      "##he": 4153,
      "below": 4154,
      "citizens": 4155,
      "guy": 4156,
      "##adem": 4157,
      "strate": 4158,
      "##mit": 4159,
      "rang": 4160,
      "sant": 4161,
      "hang": 4162,
      "maybe": 4163,
      "continues": 4164,
      "##zz": 4165,
      "fresh": 4166,
      "seat": 4167,
      "sydney": 4168,
      "claiming": 4169,
      "scand": 4170,
      "organization": 4171,
      "type": 4172,
      "legisl": 4173,
      "##rey": 4174,
      "captured": 4175,
      "##jects": 4176,
      "anth": 4177,
      "##arian": 4178,
      "quality": 4179,
      "independent": 4180,
      "handed": 4181,
      "strike": 4182,
      "bond": 4183,
      "actor": 4184,
      "gall": 4185,
      "convers": 4186,
      "##bour": 4187,
      "tourn": 4188,
      "exist": 4189,
      "artic": 4190,
      "eu": 4191,
      "traffic": 4192,
      "amazing": 4193,
      "langu": 4194,
      "losing": 4195,
      "qa": 4196,
      "##off": 4197,
      "##ga": 4198,
      "provided": 4199,
      "exch": 4200,
      "conservative": 4201,
      "aggr": 4202,
      "pitch": 4203,
      "patient": 4204,
      "##bit": 4205,
      "adop": 4206,
      "brief": 4207,
      "##ze": 4208,
      "deputy": 4209,
      "academ": 4210,
      "committed": 4211,
      "healthy": 4212,
      "##bridge": 4213,
      "explained": 4214,
      "nas": 4215,
      "stock": 4216,
      "degree": 4217,
      "linked": 4218,
      "culture": 4219,
      "mp": 4220,
      "rape": 4221,
      "eating": 4222,
      "barcel": 4223,
      "soft": 4224,
      "affected": 4225,
      "holly": 4226,
      "expressed": 4227,
      "barcelona": 4228,
      "path": 4229,
      "sick": 4230,
      "defin": 4231,
      "luc": 4232,
      "yes": 4233,
      "thank": 4234,
      "hack": 4235,
      "arms": 4236,
      "##going": 4237,
      "lam": 4238,
      "ari": 4239,
      "##van": 4240,
      "names": 4241,
      "operations": 4242,
      "strength": 4243,
      "37": 4244,
      "filed": 4245,
      "gal": 4246,
      "##utely": 4247,
      "garden": 4248,
      "features": 4249,
      "clim": 4250,
      "progress": 4251,
      "£4": 4252,
      "##lands": 4253,
      "harm": 4254,
      "italian": 4255,
      "ring": 4256,
      "fbi": 4257,
      "##uk": 4258,
      "trag": 4259,
      "violent": 4260,
      "signs": 4261,
      "initially": 4262,
      "rose": 4263,
      "##ounding": 4264,
      "sitting": 4265,
      "ga": 4266,
      "behavi": 4267,
      "##ires": 4268,
      "movement": 4269,
      "connect": 4270,
      "giant": 4271,
      "bear": 4272,
      "ryan": 4273,
      "individual": 4274,
      "custody": 4275,
      "cub": 4276,
      "wide": 4277,
      "device": 4278,
      "##ero": 4279,
      "display": 4280,
      "teenager": 4281,
      "sup": 4282,
      "##night": 4283,
      "reality": 4284,
      "greater": 4285,
      "defeat": 4286,
      "georg": 4287,
      "ministry": 4288,
      "charles": 4289,
      "dip": 4290,
      "bol": 4291,
      "receive": 4292,
      "selling": 4293,
      "penn": 4294,
      "laur": 4295,
      "jul": 4296,
      "ones": 4297,
      "knows": 4298,
      "walked": 4299,
      "conduct": 4300,
      "mand": 4301,
      "ability": 4302,
      "##hold": 4303,
      "shel": 4304,
      "clash": 4305,
      "oce": 4306,
      "fox": 4307,
      "refle": 4308,
      "trade": 4309,
      "##nel": 4310,
      "advert": 4311,
      "version": 4312,
      "olympic": 4313,
      "prices": 4314,
      "argent": 4315,
      "causing": 4316,
      "murr": 4317,
      "fully": 4318,
      "ukraine": 4319,
      "##estic": 4320,
      "sav": 4321,
      "mac": 4322,
      "##rim": 4323,
      "exerc": 4324,
      "annual": 4325,
      "runs": 4326,
      "##ador": 4327,
      "jersey": 4328,
      "##rant": 4329,
      "tay": 4330,
      "spanish": 4331,
      "estimated": 4332,
      "ts": 4333,
      "##iring": 4334,
      "concern": 4335,
      "##rants": 4336,
      "##arm": 4337,
      "destroy": 4338,
      "window": 4339,
      "ker": 4340,
      "##wide": 4341,
      "finding": 4342,
      "##vent": 4343,
      "##ano": 4344,
      "##ider": 4345,
      "absolutely": 4346,
      "enforcement": 4347,
      "##asts": 4348,
      "bull": 4349,
      "ruled": 4350,
      "freedom": 4351,
      "younger": 4352,
      "eastern": 4353,
      "christian": 4354,
      "traditional": 4355,
      "nom": 4356,
      "murray": 4357,
      "voice": 4358,
      "unp": 4359,
      "38": 4360,
      "romney": 4361,
      "suspic": 4362,
      "upon": 4363,
      "singer": 4364,
      "birthday": 4365,
      "##imately": 4366,
      "cath": 4367,
      "tests": 4368,
      "cry": 4369,
      "pregnant": 4370,
      "origin": 4371,
      "##gu": 4372,
      "qaeda": 4373,
      "##ielder": 4374,
      "commer": 4375,
      "42": 4376,
      "dram": 4377,
      "ceremony": 4378,
      "propos": 4379,
      "nature": 4380,
      "boyfriend": 4381,
      "lic": 4382,
      "attended": 4383,
      "terr": 4384,
      "scen": 4385,
      "chic": 4386,
      "practice": 4387,
      "beginning": 4388,
      "unit": 4389,
      "estate": 4390,
      "##kins": 4391,
      "##imum": 4392,
      "blog": 4393,
      "##ector": 4394,
      "protection": 4395,
      "answer": 4396,
      "views": 4397,
      "employees": 4398,
      "politic": 4399,
      "addition": 4400,
      "crack": 4401,
      "fab": 4402,
      "flat": 4403,
      "laugh": 4404,
      "items": 4405,
      "##utch": 4406,
      "bob": 4407,
      "hen": 4408,
      "##arily": 4409,
      "##isions": 4410,
      "2004": 4411,
      "pool": 4412,
      "faced": 4413,
      "voters": 4414,
      "decade": 4415,
      "bost": 4416,
      "controversial": 4417,
      "meth": 4418,
      "##light": 4419,
      "ebola": 4420,
      "growth": 4421,
      "increased": 4422,
      "terrorist": 4423,
      "##ym": 4424,
      "spokeswoman": 4425,
      "mort": 4426,
      "recomm": 4427,
      "##fielder": 4428,
      "hurt": 4429,
      "##do": 4430,
      "tel": 4431,
      "entertain": 4432,
      "powerful": 4433,
      "kh": 4434,
      "youth": 4435,
      "ali": 4436,
      "##ula": 4437,
      "##uf": 4438,
      "coal": 4439,
      "actress": 4440,
      "analy": 4441,
      "visitors": 4442,
      "value": 4443,
      "exactly": 4444,
      "dun": 4445,
      "tra": 4446,
      "dub": 4447,
      "spotted": 4448,
      "bottom": 4449,
      "fish": 4450,
      "sort": 4451,
      "severe": 4452,
      "alive": 4453,
      "midfielder": 4454,
      "ign": 4455,
      "sound": 4456,
      "##anch": 4457,
      "joe": 4458,
      "sheriff": 4459,
      "##mond": 4460,
      "parties": 4461,
      "##cing": 4462,
      "##ae": 4463,
      "##iser": 4464,
      "sources": 4465,
      "lake": 4466,
      "responsibility": 4467,
      "##ume": 4468,
      "conflict": 4469,
      "##erved": 4470,
      "profile": 4471,
      "desper": 4472,
      "##igan": 4473,
      "crimes": 4474,
      "boston": 4475,
      "##ropriate": 4476,
      "spar": 4477,
      "haven": 4478,
      "physical": 4479,
      "keeping": 4480,
      "visited": 4481,
      "kate": 4482,
      "##ulted": 4483,
      "##keep": 4484,
      "mans": 4485,
      "text": 4486,
      "rail": 4487,
      "occurred": 4488,
      "behaviour": 4489,
      "wheel": 4490,
      "##dy": 4491,
      "negot": 4492,
      "rh": 4493,
      "highly": 4494,
      "##kes": 4495,
      "suspended": 4496,
      "48": 4497,
      "confident": 4498,
      "spect": 4499,
      "##omatic": 4500,
      "##here": 4501,
      "learned": 4502,
      "vice": 4503,
      "mum": 4504,
      "fraud": 4505,
      "regime": 4506,
      "watched": 4507,
      "remained": 4508,
      "controll": 4509,
      "determined": 4510,
      "grab": 4511,
      "matt": 4512,
      "doubt": 4513,
      "complex": 4514,
      "traged": 4515,
      "worse": 4516,
      "opinion": 4517,
      "##iber": 4518,
      "eld": 4519,
      "partners": 4520,
      "agreement": 4521,
      "clar": 4522,
      "##ette": 4523,
      "£5": 4524,
      "pounds": 4525,
      "serving": 4526,
      "pilot": 4527,
      "##entially": 4528,
      "hoping": 4529,
      "holl": 4530,
      "liby": 4531,
      "via": 4532,
      "diet": 4533,
      "purch": 4534,
      "assistant": 4535,
      "developed": 4536,
      "##icop": 4537,
      "drinking": 4538,
      "seeking": 4539,
      "expert": 4540,
      "cities": 4541,
      "##ointed": 4542,
      "favor": 4543,
      "missed": 4544,
      "democrats": 4545,
      "##ius": 4546,
      "fuel": 4547,
      "argu": 4548,
      "##any": 4549,
      "cool": 4550,
      "purp": 4551,
      "##eds": 4552,
      "##cious": 4553,
      "##bury": 4554,
      "programme": 4555,
      "##atures": 4556,
      "##aries": 4557,
      "##ighter": 4558,
      "tournament": 4559,
      "meaning": 4560,
      "channel": 4561,
      "worker": 4562,
      "spring": 4563,
      "banned": 4564,
      "authority": 4565,
      "prepared": 4566,
      "##antly": 4567,
      "pray": 4568,
      "proced": 4569,
      "attempted": 4570,
      "foundation": 4571,
      "pleaded": 4572,
      "mike": 4573,
      "lines": 4574,
      "##eme": 4575,
      "comple": 4576,
      "domestic": 4577,
      "mig": 4578,
      "dramatic": 4579,
      "science": 4580,
      "governor": 4581,
      "suspected": 4582,
      "kent": 4583,
      "regul": 4584,
      "protests": 4585,
      "picked": 4586,
      "simple": 4587,
      "nice": 4588,
      "multiple": 4589,
      "neck": 4590,
      "##ched": 4591,
      "suprem": 4592,
      "##ously": 4593,
      "shirt": 4594,
      "ronald": 4595,
      "bon": 4596,
      "shocked": 4597,
      "tweeted": 4598,
      "circum": 4599,
      "brook": 4600,
      "##oe": 4601,
      "44": 4602,
      "mile": 4603,
      "horse": 4604,
      "brad": 4605,
      "##castle": 4606,
      "ruling": 4607,
      "##cy": 4608,
      "##icate": 4609,
      "##ledge": 4610,
      "##uals": 4611,
      "hero": 4612,
      "taylor": 4613,
      "sudden": 4614,
      "43": 4615,
      "jord": 4616,
      "ven": 4617,
      "##gar": 4618,
      "separate": 4619,
      "resign": 4620,
      "##osh": 4621,
      "weigh": 4622,
      "required": 4623,
      "management": 4624,
      "divor": 4625,
      "wealth": 4626,
      "breaking": 4627,
      "tragic": 4628,
      "pup": 4629,
      "ii": 4630,
      "corpor": 4631,
      "flow": 4632,
      "measures": 4633,
      "sus": 4634,
      "finish": 4635,
      "editor": 4636,
      "note": 4637,
      "artist": 4638,
      "colour": 4639,
      "owned": 4640,
      "push": 4641,
      "kat": 4642,
      "##house": 4643,
      "ocean": 4644,
      "##ican": 4645,
      "scandal": 4646,
      "newcastle": 4647,
      "helicop": 4648,
      "seconds": 4649,
      "inquir": 4650,
      "subject": 4651,
      "paying": 4652,
      "drop": 4653,
      "uncle": 4654,
      "prosecutor": 4655,
      "##ani": 4656,
      "##ampton": 4657,
      "##ella": 4658,
      "##agues": 4659,
      "##alys": 4660,
      "organis": 4661,
      "tack": 4662,
      "dismiss": 4663,
      "credit": 4664,
      "##rect": 4665,
      "various": 4666,
      "investigating": 4667,
      "##illing": 4668,
      "insurance": 4669,
      "coff": 4670,
      "loan": 4671,
      "39": 4672,
      "recovery": 4673,
      "duty": 4674,
      "journey": 4675,
      "batter": 4676,
      "wilson": 4677,
      "amid": 4678,
      "location": 4679,
      "ireland": 4680,
      "##sex": 4681,
      "##ographer": 4682,
      "apart": 4683,
      "plant": 4684,
      "##itude": 4685,
      "47": 4686,
      "tragedy": 4687,
      "haw": 4688,
      "equal": 4689,
      "serve": 4690,
      "fant": 4691,
      "korean": 4692,
      "##apt": 4693,
      "nurs": 4694,
      "israeli": 4695,
      "##itation": 4696,
      "books": 4697,
      "ward": 4698,
      "##ennis": 4699,
      "gives": 4700,
      "##gus": 4701,
      "cart": 4702,
      "purs": 4703,
      "writing": 4704,
      "moham": 4705,
      "express": 4706,
      "alb": 4707,
      "ray": 4708,
      "wake": 4709,
      "command": 4710,
      "language": 4711,
      "bin": 4712,
      "finished": 4713,
      "threatened": 4714,
      "activity": 4715,
      "standards": 4716,
      "##ela": 4717,
      "55": 4718,
      "##ols": 4719,
      "seriously": 4720,
      "navy": 4721,
      "##inho": 4722,
      "##iot": 4723,
      "chemical": 4724,
      "##wich": 4725,
      "##board": 4726,
      "danc": 4727,
      "tun": 4728,
      "warm": 4729,
      "##acts": 4730,
      "article": 4731,
      "afford": 4732,
      "##ighted": 4733,
      "file": 4734,
      "400": 4735,
      "rule": 4736,
      "confidence": 4737,
      "jam": 4738,
      "vehicles": 4739,
      "belong": 4740,
      "sarah": 4741,
      "clothes": 4742,
      "stories": 4743,
      "emotional": 4744,
      "ble": 4745,
      "medic": 4746,
      "silver": 4747,
      "angry": 4748,
      "unus": 4749,
      "defender": 4750,
      "volunte": 4751,
      "41": 4752,
      "##ading": 4753,
      "require": 4754,
      "fears": 4755,
      "ambul": 4756,
      "##rupt": 4757,
      "memorial": 4758,
      "sites": 4759,
      "##asc": 4760,
      "drag": 4761,
      "ess": 4762,
      "victoria": 4763,
      "tree": 4764,
      "inspired": 4765,
      "religious": 4766,
      "tony": 4767,
      "setting": 4768,
      "counts": 4769,
      "legs": 4770,
      "stuff": 4771,
      "equip": 4772,
      "£6": 4773,
      "fifth": 4774,
      "electric": 4775,
      "lawyers": 4776,
      "heat": 4777,
      "46": 4778,
      "witnesses": 4779,
      "toward": 4780,
      "trouble": 4781,
      "length": 4782,
      "expensive": 4783,
      "videos": 4784,
      "turkey": 4785,
      "faith": 4786,
      "outr": 4787,
      "##enty": 4788,
      "194": 4789,
      "ther": 4790,
      "##ota": 4791,
      "hug": 4792,
      "comed": 4793,
      "ly": 4794,
      "195": 4795,
      "leadership": 4796,
      "08": 4797,
      "kil": 4798,
      "reading": 4799,
      "##tenham": 4800,
      "escape": 4801,
      "stands": 4802,
      "trail": 4803,
      "advice": 4804,
      "##ustr": 4805,
      "dinner": 4806,
      "politics": 4807,
      "guests": 4808,
      "scoring": 4809,
      "##oles": 4810,
      "except": 4811,
      "surface": 4812,
      "benefit": 4813,
      "cabin": 4814,
      "hollywood": 4815,
      "stret": 4816,
      "chicago": 4817,
      "##ushing": 4818,
      "agent": 4819,
      "##encies": 4820,
      "##kshire": 4821,
      "georgia": 4822,
      "##athan": 4823,
      "##hab": 4824,
      "dipl": 4825,
      "achieve": 4826,
      "##bel": 4827,
      "upset": 4828,
      "critical": 4829,
      "shopping": 4830,
      "mountain": 4831,
      "kidn": 4832,
      "beauty": 4833,
      "##izing": 4834,
      "diagnosed": 4835,
      "##fied": 4836,
      "commerc": 4837,
      "difference": 4838,
      "##ware": 4839,
      "adam": 4840,
      "hunt": 4841,
      "seek": 4842,
      "anthony": 4843,
      "2003": 4844,
      "jordan": 4845,
      "cuts": 4846,
      "syn": 4847,
      "ip": 4848,
      "scheduled": 4849,
      "drivers": 4850,
      "register": 4851,
      "##encing": 4852,
      "##iana": 4853,
      "illness": 4854,
      "moments": 4855,
      "boost": 4856,
      "breast": 4857,
      "##lying": 4858,
      "##rison": 4859,
      "palest": 4860,
      "recorded": 4861,
      "##eman": 4862,
      "sympt": 4863,
      "rates": 4864,
      "funeral": 4865,
      "49": 4866,
      "simon": 4867,
      "asp": 4868,
      "##iban": 4869,
      "ster": 4870,
      "carolina": 4871,
      "pac": 4872,
      "primary": 4873,
      "produced": 4874,
      "##min": 4875,
      "sides": 4876,
      "##apy": 4877,
      "equipment": 4878,
      "cos": 4879,
      "##iment": 4880,
      "aband": 4881,
      "##burg": 4882,
      "et": 4883,
      "kr": 4884,
      "responded": 4885,
      "taliban": 4886,
      "##usion": 4887,
      "##ilton": 4888,
      "tory": 4889,
      "surprise": 4890,
      "obviously": 4891,
      "##ein": 4892,
      "##ortion": 4893,
      "golf": 4894,
      "stress": 4895,
      "failure": 4896,
      "steps": 4897,
      "repeatedly": 4898,
      "tens": 4899,
      "impress": 4900,
      "supreme": 4901,
      "##know": 4902,
      "photographs": 4903,
      "score": 4904,
      "declined": 4905,
      "brothers": 4906,
      "candidate": 4907,
      "ell": 4908,
      "standard": 4909,
      "luxury": 4910,
      "jet": 4911,
      "stood": 4912,
      "matches": 4913,
      "remove": 4914,
      "magn": 4915,
      "jenn": 4916,
      "##ologist": 4917,
      "virginia": 4918,
      "dressed": 4919,
      "##arez": 4920,
      "production": 4921,
      "perm": 4922,
      "airlines": 4923,
      "resour": 4924,
      "stick": 4925,
      "iphone": 4926,
      "dozens": 4927,
      "struct": 4928,
      "underw": 4929,
      "colleagues": 4930,
      "pra": 4931,
      "willing": 4932,
      "cra": 4933,
      "circumst": 4934,
      "obtain": 4935,
      "acknow": 4936,
      "suppl": 4937,
      "mont": 4938,
      "jeff": 4939,
      "prosp": 4940,
      "##onym": 4941,
      "##omb": 4942,
      "eric": 4943,
      "innoc": 4944,
      "##uge": 4945,
      "proceed": 4946,
      "##aling": 4947,
      "quiet": 4948,
      "##ulated": 4949,
      "##ipe": 4950,
      "uses": 4951,
      "truck": 4952,
      "##ification": 4953,
      "commercial": 4954,
      "52": 4955,
      "##pper": 4956,
      "kitch": 4957,
      "mun": 4958,
      "coc": 4959,
      "worried": 4960,
      "connection": 4961,
      "limited": 4962,
      "lucky": 4963,
      "##outs": 4964,
      "##ros": 4965,
      "andy": 4966,
      "celebrate": 4967,
      "incredible": 4968,
      "status": 4969,
      "additional": 4970,
      "occasion": 4971,
      "##ruption": 4972,
      "income": 4973,
      "accounts": 4974,
      "##resp": 4975,
      "canada": 4976,
      "pap": 4977,
      "clubs": 4978,
      "content": 4979,
      "gaz": 4980,
      "##utions": 4981,
      "##ovic": 4982,
      "changing": 4983,
      "user": 4984,
      "lewis": 4985,
      "prove": 4986,
      "bang": 4987,
      "retired": 4988,
      "offers": 4989,
      "##va": 4990,
      "carl": 4991,
      "none": 4992,
      "relatives": 4993,
      "contest": 4994,
      "yell": 4995,
      "##ufact": 4996,
      "surge": 4997,
      "##mates": 4998,
      "measure": 4999,
      "manufact": 5000,
      "photographer": 5001,
      "gh": 5002,
      "directly": 5003,
      "hat": 5004,
      "ded": 5005,
      "aren": 5006,
      "worry": 5007,
      "##owed": 5008,
      "unique": 5009,
      "attract": 5010,
      "##itely": 5011,
      "saving": 5012,
      "institute": 5013,
      "nur": 5014,
      "flu": 5015,
      "plus": 5016,
      "anc": 5017,
      "ren": 5018,
      "retail": 5019,
      "##gen": 5020,
      "anger": 5021,
      "lie": 5022,
      "##essive": 5023,
      "##bon": 5024,
      "declared": 5025,
      "##icit": 5026,
      "passenger": 5027,
      "winds": 5028,
      "gaal": 5029,
      "struggling": 5030,
      "##aine": 5031,
      "temperatures": 5032,
      "##oma": 5033,
      "barb": 5034,
      "overse": 5035,
      "##igg": 5036,
      "niger": 5037,
      "##ulting": 5038,
      "mps": 5039,
      "audience": 5040,
      "hay": 5041,
      "feature": 5042,
      "parent": 5043,
      "lawsuit": 5044,
      "pu": 5045,
      "allowing": 5046,
      "brut": 5047,
      "cambridge": 5048,
      "frequ": 5049,
      "##cri": 5050,
      "hasn": 5051,
      "2001": 5052,
      "systems": 5053,
      "tan": 5054,
      "verd": 5055,
      "kevin": 5056,
      "corner": 5057,
      "supposed": 5058,
      "ec": 5059,
      "occup": 5060,
      "##ached": 5061,
      "machine": 5062,
      "pin": 5063,
      "targeted": 5064,
      "banks": 5065,
      "entered": 5066,
      "turning": 5067,
      "planet": 5068,
      "shots": 5069,
      "truth": 5070,
      "kenned": 5071,
      "tiny": 5072,
      "critics": 5073,
      "criticism": 5074,
      "offering": 5075,
      "whate": 5076,
      "##iar": 5077,
      "whatever": 5078,
      "falling": 5079,
      "rum": 5080,
      "founder": 5081,
      "gad": 5082,
      "sust": 5083,
      "nar": 5084,
      "punch": 5085,
      "princess": 5086,
      "joint": 5087,
      "yout": 5088,
      "##cepted": 5089,
      "plat": 5090,
      "ambulance": 5091,
      "ped": 5092,
      "fergus": 5093,
      "symptoms": 5094,
      "elections": 5095,
      "##anny": 5096,
      "vul": 5097,
      "climate": 5098,
      "hid": 5099,
      "##itting": 5100,
      "secure": 5101,
      "conclud": 5102,
      "mouth": 5103,
      "prost": 5104,
      "returning": 5105,
      "stephen": 5106,
      "individuals": 5107,
      "##sa": 5108,
      "coron": 5109,
      "generation": 5110,
      "cham": 5111,
      "scar": 5112,
      "labor": 5113,
      "##ids": 5114,
      "domin": 5115,
      "spirit": 5116,
      "tottenham": 5117,
      "09": 5118,
      "deadly": 5119,
      "suffer": 5120,
      "##pping": 5121,
      "province": 5122,
      "carri": 5123,
      "wing": 5124,
      "extr": 5125,
      "youtube": 5126,
      "##berts": 5127,
      "##olic": 5128,
      "kir": 5129,
      "moon": 5130,
      "##time": 5131,
      "jur": 5132,
      "urged": 5133,
      "##head": 5134,
      "militants": 5135,
      "initial": 5136,
      "celebrity": 5137,
      "##ta": 5138,
      "maria": 5139,
      "kelly": 5140,
      "soldier": 5141,
      "reaction": 5142,
      "active": 5143,
      "filled": 5144,
      "mention": 5145,
      "palestin": 5146,
      "unfortun": 5147,
      "##olen": 5148,
      "holland": 5149,
      "kennedy": 5150,
      "necessary": 5151,
      "unusual": 5152,
      "favourite": 5153,
      "##anced": 5154,
      "establish": 5155,
      "bringing": 5156,
      "virus": 5157,
      "devices": 5158,
      "reduce": 5159,
      "buildings": 5160,
      "##ihad": 5161,
      "reven": 5162,
      "agree": 5163,
      "everybody": 5164,
      "forg": 5165,
      "coalition": 5166,
      "##itals": 5167,
      "keen": 5168,
      "session": 5169,
      "oppon": 5170,
      "sending": 5171,
      "adults": 5172,
      "07": 5173,
      "sight": 5174,
      "manh": 5175,
      "unc": 5176,
      "firef": 5177,
      "confirm": 5178,
      "overall": 5179,
      "prosecution": 5180,
      "flights": 5181,
      "99": 5182,
      "affect": 5183,
      "effects": 5184,
      "icon": 5185,
      "neighbour": 5186,
      "scale": 5187,
      "altern": 5188,
      "noted": 5189,
      "ferguson": 5190,
      "##ifying": 5191,
      "agents": 5192,
      "originally": 5193,
      "ride": 5194,
      "wounded": 5195,
      "steven": 5196,
      "gradu": 5197,
      "##antage": 5198,
      "houses": 5199,
      "cow": 5200,
      "circumstances": 5201,
      "75": 5202,
      "##erous": 5203,
      "##cow": 5204,
      "limit": 5205,
      "grew": 5206,
      "##oom": 5207,
      "##billion": 5208,
      "zeal": 5209,
      "false": 5210,
      "##mingham": 5211,
      "fatal": 5212,
      "tight": 5213,
      "questioned": 5214,
      "##aughters": 5215,
      "chap": 5216,
      "##ctions": 5217,
      "receiving": 5218,
      "master": 5219,
      "signing": 5220,
      "analys": 5221,
      "weapon": 5222,
      "kitchen": 5223,
      "lind": 5224,
      "plot": 5225,
      "duch": 5226,
      "acting": 5227,
      "birmingham": 5228,
      "completed": 5229,
      "2002": 5230,
      "introduced": 5231,
      "##emen": 5232,
      "2015": 5233,
      "##ko": 5234,
      "bell": 5235,
      "roberts": 5236,
      "##awn": 5237,
      "involve": 5238,
      "putin": 5239,
      "nasa": 5240,
      "feels": 5241,
      "##kin": 5242,
      "neighborhood": 5243,
      "##aren": 5244,
      "##ua": 5245,
      "tall": 5246,
      "consult": 5247,
      "##ulate": 5248,
      "auction": 5249,
      "ford": 5250,
      "cameras": 5251,
      "fled": 5252,
      "festival": 5253,
      "contain": 5254,
      "##aze": 5255,
      "constitution": 5256,
      "switch": 5257,
      "06": 5258,
      "involving": 5259,
      "rising": 5260,
      "ariz": 5261,
      "##umn": 5262,
      "slight": 5263,
      "friendly": 5264,
      "enjo": 5265,
      "analyst": 5266,
      "##ulf": 5267,
      "terrorism": 5268,
      "providing": 5269,
      "##lets": 5270,
      "weak": 5271,
      "studies": 5272,
      "condem": 5273,
      "smoke": 5274,
      "historic": 5275,
      "##eing": 5276,
      "##pay": 5277,
      "threatening": 5278,
      "increasingly": 5279,
      "businesses": 5280,
      "enjoyed": 5281,
      "threats": 5282,
      "lunch": 5283,
      "54": 5284,
      "##bl": 5285,
      "debt": 5286,
      "##apping": 5287,
      "negoti": 5288,
      "recru": 5289,
      "southampton": 5290,
      "morgan": 5291,
      "##order": 5292,
      "subs": 5293,
      "decide": 5294,
      "##iner": 5295,
      "tast": 5296,
      "yor": 5297,
      "##icken": 5298,
      "tribute": 5299,
      "##ront": 5300,
      "stolen": 5301,
      "##ining": 5302,
      "disaster": 5303,
      "scottish": 5304,
      "affairs": 5305,
      "daughters": 5306,
      "exercise": 5307,
      "##20": 5308,
      "roman": 5309,
      "zim": 5310,
      "housing": 5311,
      "depart": 5312,
      "regularly": 5313,
      "activities": 5314,
      "fighters": 5315,
      "##ables": 5316,
      "##idel": 5317,
      "damaged": 5318,
      "resort": 5319,
      "japanese": 5320,
      "##mother": 5321,
      "guns": 5322,
      "abc": 5323,
      "matth": 5324,
      "ceo": 5325,
      "arizona": 5326,
      "rough": 5327,
      "joy": 5328,
      "consp": 5329,
      "51": 5330,
      "##ales": 5331,
      "##gas": 5332,
      "2000": 5333,
      "destroyed": 5334,
      "53": 5335,
      "heads": 5336,
      "exchange": 5337,
      "wine": 5338,
      "hong": 5339,
      "nut": 5340,
      "acqu": 5341,
      "edge": 5342,
      "monit": 5343,
      "facility": 5344,
      "bes": 5345,
      "##can": 5346,
      "miller": 5347,
      "saved": 5348,
      "##iano": 5349,
      "##anding": 5350,
      "##abeth": 5351,
      "lock": 5352,
      "refuge": 5353,
      "##keeper": 5354,
      "backed": 5355,
      "elder": 5356,
      "inquiry": 5357,
      "killer": 5358,
      "spoken": 5359,
      "##ova": 5360,
      "eliz": 5361,
      "jun": 5362,
      "tea": 5363,
      "revolution": 5364,
      "lands": 5365,
      "##da": 5366,
      "epis": 5367,
      "##lig": 5368,
      "larger": 5369,
      "soph": 5370,
      "memory": 5371,
      "adult": 5372,
      "##illy": 5373,
      "journalist": 5374,
      "legend": 5375,
      "##ipping": 5376,
      "rival": 5377,
      "##orted": 5378,
      "pushed": 5379,
      "option": 5380,
      "suspects": 5381,
      "nic": 5382,
      "##makers": 5383,
      "rooney": 5384,
      "drunk": 5385,
      "dating": 5386,
      "babies": 5387,
      "reco": 5388,
      "presence": 5389,
      "knife": 5390,
      "teachers": 5391,
      "sharp": 5392,
      "funding": 5393,
      "holds": 5394,
      "vulner": 5395,
      "designer": 5396,
      "communities": 5397,
      "gop": 5398,
      "extreme": 5399,
      "panel": 5400,
      "surrounding": 5401,
      "##elli": 5402,
      "##more": 5403,
      "duchess": 5404,
      "sons": 5405,
      "##inals": 5406,
      "atm": 5407,
      "experienced": 5408,
      "influence": 5409,
      "bigger": 5410,
      "05": 5411,
      "learning": 5412,
      "##airs": 5413,
      "nbc": 5414,
      "yellow": 5415,
      "failing": 5416,
      "shape": 5417,
      "stores": 5418,
      "taxpay": 5419,
      "leaves": 5420,
      "150": 5421,
      "##azi": 5422,
      "welcome": 5423,
      "##anged": 5424,
      "pieces": 5425,
      "villa": 5426,
      "debut": 5427,
      "split": 5428,
      "located": 5429,
      "chest": 5430,
      "understood": 5431,
      "raf": 5432,
      "creating": 5433,
      "correct": 5434,
      "hamp": 5435,
      "rug": 5436,
      "complaint": 5437,
      "models": 5438,
      "##iat": 5439,
      "##acked": 5440,
      "alan": 5441,
      "65": 5442,
      "species": 5443,
      "hell": 5444,
      "section": 5445,
      "suggests": 5446,
      "##arrass": 5447,
      "egg": 5448,
      "plastic": 5449,
      "##illa": 5450,
      "busy": 5451,
      "please": 5452,
      "atlanta": 5453,
      "drove": 5454,
      "##aled": 5455,
      "##works": 5456,
      "##break": 5457,
      "matthew": 5458,
      "56": 5459,
      "##atively": 5460,
      "exhib": 5461,
      "likes": 5462,
      "embarrass": 5463,
      "##ala": 5464,
      "wore": 5465,
      "potentially": 5466,
      "struggle": 5467,
      "##isa": 5468,
      "kong": 5469,
      "announcement": 5470,
      "method": 5471,
      "lying": 5472,
      "tort": 5473,
      "assad": 5474,
      "policies": 5475,
      "davis": 5476,
      "##road": 5477,
      "survived": 5478,
      "zealand": 5479,
      "wer": 5480,
      "explain": 5481,
      "ongoing": 5482,
      "##west": 5483,
      "exclus": 5484,
      "##iami": 5485,
      "annivers": 5486,
      "diego": 5487,
      "argentina": 5488,
      "hugh": 5489,
      "aston": 5490,
      "knowledge": 5491,
      "shocking": 5492,
      "##orary": 5493,
      "journalists": 5494,
      "iv": 5495,
      "closer": 5496,
      "trig": 5497,
      "route": 5498,
      "produce": 5499,
      "attempts": 5500,
      "argued": 5501,
      "gary": 5502,
      "##icket": 5503,
      "vast": 5504,
      "##ule": 5505,
      "hart": 5506,
      "##sem": 5507,
      "transform": 5508,
      "miami": 5509,
      "helicopter": 5510,
      "easily": 5511,
      "resources": 5512,
      "##dd": 5513,
      "allows": 5514,
      "meat": 5515,
      "olympics": 5516,
      "write": 5517,
      "happens": 5518,
      "driven": 5519,
      "complaints": 5520,
      "bac": 5521,
      "##ship": 5522,
      "kiss": 5523,
      "phones": 5524,
      "broadcast": 5525,
      "skills": 5526,
      "treas": 5527,
      "beaten": 5528,
      "yorkshire": 5529,
      "traum": 5530,
      "rand": 5531,
      "##ket": 5532,
      "dna": 5533,
      "##aham": 5534,
      "mourinho": 5535,
      "definitely": 5536,
      "academy": 5537,
      "lit": 5538,
      "relax": 5539,
      "embass": 5540,
      "anniversary": 5541,
      "##omes": 5542,
      "gam": 5543,
      "ko": 5544,
      "##illance": 5545,
      "contacted": 5546,
      "legislation": 5547,
      "sought": 5548,
      "everton": 5549,
      "vess": 5550,
      "##iband": 5551,
      "interested": 5552,
      "##fe": 5553,
      "punish": 5554,
      "costa": 5555,
      "anonym": 5556,
      "belg": 5557,
      "surveillance": 5558,
      "focused": 5559,
      "assess": 5560,
      "awards": 5561,
      "tears": 5562,
      "advantage": 5563,
      "subur": 5564,
      "investment": 5565,
      "bat": 5566,
      "affil": 5567,
      "colorado": 5568,
      "accepted": 5569,
      "decisions": 5570,
      "##ios": 5571,
      "saud": 5572,
      "perman": 5573,
      "unlik": 5574,
      "determine": 5575,
      "elizabeth": 5576,
      "prin": 5577,
      "evans": 5578,
      "medal": 5579,
      "prize": 5580,
      "##mate": 5581,
      "diam": 5582,
      "effective": 5583,
      "conversation": 5584,
      "pope": 5585,
      "miliband": 5586,
      "react": 5587,
      "jess": 5588,
      "blow": 5589,
      "##utation": 5590,
      "sac": 5591,
      "##orrow": 5592,
      "forec": 5593,
      "proved": 5594,
      "ba": 5595,
      "##ections": 5596,
      "##etts": 5597,
      "lights": 5598,
      "compar": 5599,
      "causes": 5600,
      "unlikely": 5601,
      "tum": 5602,
      "##coming": 5603,
      "astr": 5604,
      "tomorrow": 5605,
      "£7": 5606,
      "##osure": 5607,
      "happening": 5608,
      "liter": 5609,
      "tweet": 5610,
      "##aph": 5611,
      "jay": 5612,
      "##otic": 5613,
      "600": 5614,
      "passion": 5615,
      "##rial": 5616,
      "##enders": 5617,
      "map": 5618,
      "identity": 5619,
      "carr": 5620,
      "letters": 5621,
      "advoc": 5622,
      "background": 5623,
      "hole": 5624,
      "dance": 5625,
      "discovery": 5626,
      "les": 5627,
      "bern": 5628,
      "veteran": 5629,
      "object": 5630,
      "beating": 5631,
      "viewers": 5632,
      "feder": 5633,
      "possibility": 5634,
      "scheme": 5635,
      "passing": 5636,
      "57": 5637,
      "##anna": 5638,
      "identify": 5639,
      "waters": 5640,
      "##acing": 5641,
      "intended": 5642,
      "operating": 5643,
      "riv": 5644,
      "remar": 5645,
      "mostly": 5646,
      "tru": 5647,
      "fallen": 5648,
      "##igue": 5649,
      "abb": 5650,
      "hospitals": 5651,
      "staying": 5652,
      "inquest": 5653,
      "consequ": 5654,
      "impl": 5655,
      "ministers": 5656,
      "visiting": 5657,
      "crashed": 5658,
      "hung": 5659,
      "surprised": 5660,
      "rushed": 5661,
      "##achus": 5662,
      "##egr": 5663,
      "pad": 5664,
      "haz": 5665,
      "collaps": 5666,
      "mistake": 5667,
      "remark": 5668,
      "plays": 5669,
      "valley": 5670,
      "mu": 5671,
      "ticket": 5672,
      "ohio": 5673,
      "##wise": 5674,
      "tells": 5675,
      "marine": 5676,
      "slam": 5677,
      "numerous": 5678,
      "immediate": 5679,
      "grown": 5680,
      "deeply": 5681,
      "dutch": 5682,
      "dim": 5683,
      "findings": 5684,
      "blame": 5685,
      "##elt": 5686,
      "recovered": 5687,
      "bars": 5688,
      "notice": 5689,
      "rooms": 5690,
      "earned": 5691,
      "massachus": 5692,
      "tennis": 5693,
      "acknowled": 5694,
      "iraqi": 5695,
      "##ivity": 5696,
      "massachusetts": 5697,
      "##under": 5698,
      "choose": 5699,
      "##ijing": 5700,
      "verdict": 5701,
      "atmosp": 5702,
      "suarez": 5703,
      "##abor": 5704,
      "lots": 5705,
      "suc": 5706,
      "construction": 5707,
      "trained": 5708,
      "hod": 5709,
      "direction": 5710,
      "beijing": 5711,
      "greatest": 5712,
      "headed": 5713,
      "##usted": 5714,
      "portug": 5715,
      "##fast": 5716,
      "anderson": 5717,
      "rebels": 5718,
      "desperate": 5719,
      "nobody": 5720,
      "kur": 5721,
      "##dom": 5722,
      "dollars": 5723,
      "ronaldo": 5724,
      "##life": 5725,
      "##uana": 5726,
      "evac": 5727,
      "behavior": 5728,
      "rat": 5729,
      "empt": 5730,
      "featured": 5731,
      "conducted": 5732,
      "travelling": 5733,
      "indeed": 5734,
      "tourists": 5735,
      "fought": 5736,
      "blind": 5737,
      "murdered": 5738,
      "##andez": 5739,
      "log": 5740,
      "moscow": 5741,
      "publicly": 5742,
      "##ocol": 5743,
      "smaller": 5744,
      "testing": 5745,
      "##ifer": 5746,
      "##istr": 5747,
      "relief": 5748,
      "##istol": 5749,
      "heading": 5750,
      "bound": 5751,
      "politicians": 5752,
      "rejected": 5753,
      "nurse": 5754,
      "forest": 5755,
      "raising": 5756,
      "celebrates": 5757,
      "unve": 5758,
      "gathered": 5759,
      "pled": 5760,
      "91": 5761,
      "py": 5762,
      "household": 5763,
      "##ijuana": 5764,
      "proposed": 5765,
      "encoun": 5766,
      "swed": 5767,
      "##otten": 5768,
      "grandmother": 5769,
      "landing": 5770,
      "airline": 5771,
      "dj": 5772,
      "consist": 5773,
      "developing": 5774,
      "##sters": 5775,
      "client": 5776,
      "distance": 5777,
      "##worth": 5778,
      "grant": 5779,
      "cole": 5780,
      "800": 5781,
      "sparked": 5782,
      "harris": 5783,
      "combat": 5784,
      "##osis": 5785,
      "films": 5786,
      "##town": 5787,
      "knowing": 5788,
      "calm": 5789,
      "sexually": 5790,
      "##neys": 5791,
      "chances": 5792,
      "yard": 5793,
      "##bourne": 5794,
      "inches": 5795,
      "##eline": 5796,
      "lor": 5797,
      "ambass": 5798,
      "58": 5799,
      "cock": 5800,
      "lane": 5801,
      "larg": 5802,
      "metal": 5803,
      "possibly": 5804,
      "honest": 5805,
      "ian": 5806,
      "delivered": 5807,
      "torn": 5808,
      "gain": 5809,
      "activists": 5810,
      "stunning": 5811,
      "##agram": 5812,
      "##ques": 5813,
      "virt": 5814,
      "withdr": 5815,
      "widely": 5816,
      "##har": 5817,
      "native": 5818,
      "deploy": 5819,
      "##attan": 5820,
      "zone": 5821,
      "##rie": 5822,
      "buying": 5823,
      "##agers": 5824,
      "options": 5825,
      "unless": 5826,
      "entertainment": 5827,
      "£8": 5828,
      "dry": 5829,
      "acts": 5830,
      "presented": 5831,
      "stuck": 5832,
      "considering": 5833,
      "candidates": 5834,
      "performed": 5835,
      "##onic": 5836,
      "michelle": 5837,
      "neither": 5838,
      "privacy": 5839,
      "struggled": 5840,
      "prec": 5841,
      "hamilton": 5842,
      "click": 5843,
      "windows": 5844,
      "challenges": 5845,
      "henry": 5846,
      "cards": 5847,
      "personnel": 5848,
      "stayed": 5849,
      "coverage": 5850,
      "04": 5851,
      "noticed": 5852,
      "painting": 5853,
      "largely": 5854,
      "pink": 5855,
      "pub": 5856,
      "devastated": 5857,
      "saudi": 5858,
      "vulnerable": 5859,
      "##rah": 5860,
      "incidents": 5861,
      "beck": 5862,
      "lev": 5863,
      "compens": 5864,
      "somebody": 5865,
      "prefer": 5866,
      "imagine": 5867,
      "tech": 5868,
      "allen": 5869,
      "roof": 5870,
      "todd": 5871,
      "guys": 5872,
      "golden": 5873,
      "surviv": 5874,
      "adj": 5875,
      "refere": 5876,
      "##eland": 5877,
      "193": 5878,
      "imposs": 5879,
      "##lad": 5880,
      "jac": 5881,
      "##ran": 5882,
      "cells": 5883,
      "manhattan": 5884,
      "##igar": 5885,
      "trick": 5886,
      "abu": 5887,
      "basis": 5888,
      "marks": 5889,
      "factor": 5890,
      "employee": 5891,
      "##ouri": 5892,
      "funds": 5893,
      "rene": 5894,
      "trigger": 5895,
      "##ography": 5896,
      "da": 5897,
      "cruc": 5898,
      "brutal": 5899,
      "supported": 5900,
      "heavily": 5901,
      "robber": 5902,
      "distrib": 5903,
      "tend": 5904,
      "excited": 5905,
      "##attle": 5906,
      "teenage": 5907,
      "rig": 5908,
      "##isher": 5909,
      "tradition": 5910,
      "##een": 5911,
      "worldwide": 5912,
      "##ophy": 5913,
      "princip": 5914,
      "scenes": 5915,
      "promised": 5916,
      "divorce": 5917,
      "phill": 5918,
      "shad": 5919,
      "porn": 5920,
      "##mes": 5921,
      "trees": 5922,
      "##fall": 5923,
      "code": 5924,
      "fifa": 5925,
      "distr": 5926,
      "marc": 5927,
      "marijuana": 5928,
      "swimming": 5929,
      "elected": 5930,
      "detectives": 5931,
      "semi": 5932,
      "woods": 5933,
      "##olk": 5934,
      "clothing": 5935,
      "controversy": 5936,
      "plenty": 5937,
      "francisco": 5938,
      "roads": 5939,
      "shoes": 5940,
      "ultimately": 5941,
      "forget": 5942,
      "chain": 5943,
      "##quar": 5944,
      "##lished": 5945,
      "##agon": 5946,
      "cate": 5947,
      "jihad": 5948,
      "##mad": 5949,
      "yourself": 5950,
      "##ington": 5951,
      "##father": 5952,
      "embassy": 5953,
      "impressive": 5954,
      "established": 5955,
      "hate": 5956,
      "##iated": 5957,
      "courts": 5958,
      "##fit": 5959,
      "libya": 5960,
      "sterling": 5961,
      "recall": 5962,
      "lanc": 5963,
      "##ita": 5964,
      "fo": 5965,
      "belief": 5966,
      "##wart": 5967,
      "##oft": 5968,
      "##bling": 5969,
      "coffee": 5970,
      "59": 5971,
      "commissioner": 5972,
      "possession": 5973,
      "agencies": 5974,
      "strategy": 5975,
      "##rep": 5976,
      "hoped": 5977,
      "wonderful": 5978,
      "seats": 5979,
      "##bell": 5980,
      "accomp": 5981,
      "duke": 5982,
      "##izes": 5983,
      "weren": 5984,
      "restrict": 5985,
      "humans": 5986,
      "helps": 5987,
      "gym": 5988,
      "##win": 5989,
      "accus": 5990,
      "alexander": 5991,
      "impossible": 5992,
      "##essions": 5993,
      "bathroom": 5994,
      "brian": 5995,
      "retire": 5996,
      "##iform": 5997,
      "honor": 5998,
      "detective": 5999,
      "##umped": 6000,
      "thrown": 6001,
      "dur": 6002,
      "2016": 6003,
      "cutting": 6004,
      "##oured": 6005,
      "vital": 6006,
      "racing": 6007,
      "mate": 6008,
      "remaining": 6009,
      "##oses": 6010,
      "##whel": 6011,
      "asia": 6012,
      "resist": 6013,
      "charlie": 6014,
      "motiv": 6015,
      "pension": 6016,
      "##ization": 6017,
      "##estyle": 6018,
      "instagram": 6019,
      "##itzer": 6020,
      "disorder": 6021,
      "ib": 6022,
      "buried": 6023,
      "controlled": 6024,
      "gov": 6025,
      "supporting": 6026,
      "##ounced": 6027,
      "mars": 6028,
      "filmed": 6029,
      "islands": 6030,
      "marsh": 6031,
      "abandoned": 6032,
      "properly": 6033,
      "landed": 6034,
      "extraord": 6035,
      "##rian": 6036,
      "offences": 6037,
      "discip": 6038,
      "talent": 6039,
      "##borne": 6040,
      "cryst": 6041,
      "##ounted": 6042,
      "##ective": 6043,
      "resol": 6044,
      "terrorists": 6045,
      "ross": 6046,
      "##oster": 6047,
      "vent": 6048,
      "##osing": 6049,
      "isol": 6050,
      "supply": 6051,
      "blamed": 6052,
      "##ece": 6053,
      "##azy": 6054,
      "dismissed": 6055,
      "##omet": 6056,
      "##agger": 6057,
      "tam": 6058,
      "civilians": 6059,
      "listed": 6060,
      "mexican": 6061,
      "tie": 6062,
      "magistr": 6063,
      "outrage": 6064,
      "##iracy": 6065,
      "##okes": 6066,
      "milan": 6067,
      "approved": 6068,
      "terrible": 6069,
      "az": 6070,
      "suddenly": 6071,
      "parking": 6072,
      "wayne": 6073,
      "investigate": 6074,
      "truly": 6075,
      "pointed": 6076,
      "electron": 6077,
      "swan": 6078,
      "##enses": 6079,
      "uniform": 6080,
      "nfl": 6081,
      "##known": 6082,
      "##reek": 6083,
      "##mail": 6084,
      "doors": 6085,
      "sharing": 6086,
      "pupils": 6087,
      "goalkeeper": 6088,
      "division": 6089,
      "josh": 6090,
      "messi": 6091,
      "##inct": 6092,
      "bills": 6093,
      "tonight": 6094,
      "sweet": 6095,
      "copy": 6096,
      "jane": 6097,
      "##anded": 6098,
      "album": 6099,
      "prisoners": 6100,
      "oscar": 6101,
      "internal": 6102,
      "territ": 6103,
      "##aks": 6104,
      "drawn": 6105,
      "digital": 6106,
      "complained": 6107,
      "trend": 6108,
      "##istics": 6109,
      "defendant": 6110,
      "adds": 6111,
      "##nam": 6112,
      "##ucks": 6113,
      "##ulous": 6114,
      "talked": 6115,
      "##away": 6116,
      "classic": 6117,
      "capture": 6118,
      "platform": 6119,
      "thoughts": 6120,
      "task": 6121,
      "rick": 6122,
      "##born": 6123,
      "##weight": 6124,
      "##inder": 6125,
      "##pet": 6126,
      "ambassador": 6127,
      "tact": 6128,
      "offensive": 6129,
      "era": 6130,
      "iranian": 6131,
      "unn": 6132,
      "horrific": 6133,
      "appropriate": 6134,
      "appoint": 6135,
      "nato": 6136,
      "##burgh": 6137,
      "hou": 6138,
      "infection": 6139,
      "consumers": 6140,
      "##met": 6141,
      "novel": 6142,
      "##stein": 6143,
      "buck": 6144,
      "enem": 6145,
      "graham": 6146,
      "##ogue": 6147,
      "assistance": 6148,
      "elsewhere": 6149,
      "incredibly": 6150,
      "reputation": 6151,
      "spons": 6152,
      "tested": 6153,
      "##alf": 6154,
      "##izz": 6155,
      "mitch": 6156,
      "overwhel": 6157,
      "programs": 6158,
      "##oli": 6159,
      "canc": 6160,
      "math": 6161,
      "patrick": 6162,
      "continuing": 6163,
      "lav": 6164,
      "##ordon": 6165,
      "wrec": 6166,
      "waste": 6167,
      "exposed": 6168,
      "symb": 6169,
      "chose": 6170,
      "smile": 6171,
      "mcdon": 6172,
      "bags": 6173,
      "replaced": 6174,
      "hidden": 6175,
      "elderly": 6176,
      "fern": 6177,
      "jes": 6178,
      "knee": 6179,
      "##vania": 6180,
      "diamond": 6181,
      "drew": 6182,
      "##iev": 6183,
      "sugar": 6184,
      "##employ": 6185,
      "targets": 6186,
      "tower": 6187,
      "seized": 6188,
      "##tha": 6189,
      "250": 6190,
      "na": 6191,
      "astron": 6192,
      "comfortable": 6193,
      "dozen": 6194,
      "walker": 6195,
      "easier": 6196,
      "leon": 6197,
      "##ansas": 6198,
      "strict": 6199,
      "alt": 6200,
      "categ": 6201,
      "welf": 6202,
      "unemploy": 6203,
      "##rom": 6204,
      "##wal": 6205,
      "interests": 6206,
      "normally": 6207,
      "sty": 6208,
      "aer": 6209,
      "bottle": 6210,
      "queens": 6211,
      "cha": 6212,
      "locked": 6213,
      "integr": 6214,
      "newly": 6215,
      "disappeared": 6216,
      "cricket": 6217,
      "voted": 6218,
      "bowl": 6219,
      "##ellor": 6220,
      "granted": 6221,
      "pleas": 6222,
      "cigar": 6223,
      "##inent": 6224,
      "tank": 6225,
      "hull": 6226,
      "rugby": 6227,
      "commander": 6228,
      "##syl": 6229,
      "##aver": 6230,
      "arrival": 6231,
      "03": 6232,
      "mothers": 6233,
      "andre": 6234,
      "gif": 6235,
      "##lyn": 6236,
      "malays": 6237,
      "flash": 6238,
      "canad": 6239,
      "defending": 6240,
      "grounds": 6241,
      "breach": 6242,
      "wave": 6243,
      "pear": 6244,
      "pennsyl": 6245,
      "hern": 6246,
      "referred": 6247,
      "smoking": 6248,
      "turk": 6249,
      "kerry": 6250,
      "##vis": 6251,
      "stan": 6252,
      "brill": 6253,
      "somal": 6254,
      "jason": 6255,
      "lion": 6256,
      "##icient": 6257,
      "##acle": 6258,
      "patter": 6259,
      "negative": 6260,
      "ancient": 6261,
      "welfare": 6262,
      "pig": 6263,
      "string": 6264,
      "mah": 6265,
      "nose": 6266,
      "regional": 6267,
      "##hd": 6268,
      "opinions": 6269,
      "unknown": 6270,
      "reduced": 6271,
      "arrive": 6272,
      "muslims": 6273,
      "remote": 6274,
      "environmental": 6275,
      "joseph": 6276,
      "pennsylvania": 6277,
      "analysis": 6278,
      "satis": 6279,
      "rapid": 6280,
      "ment": 6281,
      "tickets": 6282,
      "hitting": 6283,
      "remarks": 6284,
      "##aken": 6285,
      "customer": 6286,
      "liberal": 6287,
      "balance": 6288,
      "satell": 6289,
      "basket": 6290,
      "##icip": 6291,
      "##opher": 6292,
      "realised": 6293,
      "rush": 6294,
      "##stone": 6295,
      "##hi": 6296,
      "frustr": 6297,
      "##ll": 6298,
      "stabbed": 6299,
      "cabinet": 6300,
      "basic": 6301,
      "watson": 6302,
      "strang": 6303,
      "intention": 6304,
      "khan": 6305,
      "##ingly": 6306,
      "##iration": 6307,
      "raid": 6308,
      "clinic": 6309,
      "##arre": 6310,
      "##rees": 6311,
      "highl": 6312,
      "irish": 6313,
      "closely": 6314,
      "advent": 6315,
      "wins": 6316,
      "laid": 6317,
      "##char": 6318,
      "stepped": 6319,
      "totally": 6320,
      "iron": 6321,
      "interv": 6322,
      "height": 6323,
      "thinks": 6324,
      "couples": 6325,
      "##abled": 6326,
      "insist": 6327,
      "distur": 6328,
      "rivals": 6329,
      "pock": 6330,
      "flowers": 6331,
      "thor": 6332,
      "statements": 6333,
      "pregnancy": 6334,
      "pit": 6335,
      "##aire": 6336,
      "fitness": 6337,
      "solution": 6338,
      "vacc": 6339,
      "sees": 6340,
      "strikes": 6341,
      "strip": 6342,
      "argument": 6343,
      "terry": 6344,
      "concluded": 6345,
      "independence": 6346,
      "mut": 6347,
      "discrim": 6348,
      "jr": 6349,
      "notes": 6350,
      "chanc": 6351,
      "conviction": 6352,
      "atmosphere": 6353,
      "outbreak": 6354,
      "##eld": 6355,
      "##acity": 6356,
      "chat": 6357,
      "awarded": 6358,
      "dir": 6359,
      "embr": 6360,
      "tied": 6361,
      "solar": 6362,
      "explosion": 6363,
      "gear": 6364,
      "##nell": 6365,
      "risks": 6366,
      "##east": 6367,
      "jonathan": 6368,
      "dish": 6369,
      "survive": 6370,
      "empty": 6371,
      "abroad": 6372,
      "tail": 6373,
      "stom": 6374,
      "rein": 6375,
      "##eding": 6376,
      "veterans": 6377,
      "vegas": 6378,
      "greg": 6379,
      "slightly": 6380,
      "corruption": 6381,
      "gulf": 6382,
      "mol": 6383,
      "concent": 6384,
      "toil": 6385,
      "vision": 6386,
      "innocent": 6387,
      "usa": 6388,
      "supermark": 6389,
      "fantastic": 6390,
      "##erves": 6391,
      "listen": 6392,
      "mall": 6393,
      "powers": 6394,
      "bench": 6395,
      "fake": 6396,
      "##ctv": 6397,
      "rice": 6398,
      "##fire": 6399,
      "##rell": 6400,
      "##inations": 6401,
      "lov": 6402,
      "wildlife": 6403,
      "oxford": 6404,
      "stomach": 6405,
      "lies": 6406,
      "surrounded": 6407,
      "episode": 6408,
      "coroner": 6409,
      "bron": 6410,
      "unfortunately": 6411,
      "knock": 6412,
      "prompted": 6413,
      "orange": 6414,
      "edward": 6415,
      "collapsed": 6416,
      "flew": 6417,
      "gon": 6418,
      "##uated": 6419,
      "revel": 6420,
      "santa": 6421,
      "zoo": 6422,
      "##icester": 6423,
      "understanding": 6424,
      "medicine": 6425,
      "##ias": 6426,
      "ashley": 6427,
      "recon": 6428,
      "judges": 6429,
      "myst": 6430,
      "inch": 6431,
      "core": 6432,
      "software": 6433,
      "sin": 6434,
      "deliber": 6435,
      "dealing": 6436,
      "communications": 6437,
      "##ouch": 6438,
      "earn": 6439,
      "approached": 6440,
      "replied": 6441,
      "palestinian": 6442,
      "prest": 6443,
      "houston": 6444,
      "00": 6445,
      "neighbours": 6446,
      "sporting": 6447,
      "dol": 6448,
      "pose": 6449,
      "##itan": 6450,
      "##ila": 6451,
      "##udd": 6452,
      "##reh": 6453,
      "bure": 6454,
      "dy": 6455,
      "patrol": 6456,
      "firefighters": 6457,
      "##mo": 6458,
      "##wall": 6459,
      "guar": 6460,
      "hills": 6461,
      "nich": 6462,
      "deter": 6463,
      "organisation": 6464,
      "##ads": 6465,
      "archit": 6466,
      "##osen": 6467,
      "ukip": 6468,
      "kl": 6469,
      "robinson": 6470,
      "radical": 6471,
      "anx": 6472,
      "gaza": 6473,
      "sanctions": 6474,
      "naked": 6475,
      "joining": 6476,
      "senator": 6477,
      "unclear": 6478,
      "rif": 6479,
      "encounter": 6480,
      "otherwise": 6481,
      "starts": 6482,
      "encourage": 6483,
      "##esty": 6484,
      "searching": 6485,
      "luis": 6486,
      "testified": 6487,
      "vig": 6488,
      "sets": 6489,
      "followers": 6490,
      "extraordinary": 6491,
      "drama": 6492,
      "toy": 6493,
      "moore": 6494,
      "criticised": 6495,
      "##inate": 6496,
      "##war": 6497,
      "indones": 6498,
      "emma": 6499,
      "##child": 6500,
      "anton": 6501,
      "##mon": 6502,
      "##ira": 6503,
      "leicester": 6504,
      "##oting": 6505,
      "grey": 6506,
      "procedure": 6507,
      "apprec": 6508,
      "awa": 6509,
      "##ien": 6510,
      "enjoying": 6511,
      "adopt": 6512,
      "cctv": 6513,
      "1999": 6514,
      "accompan": 6515,
      "appearances": 6516,
      "alternative": 6517,
      "hide": 6518,
      "subsequ": 6519,
      "badly": 6520,
      "immigrants": 6521,
      "enth": 6522,
      "convention": 6523,
      "##imp": 6524,
      "pent": 6525,
      "provides": 6526,
      "lifestyle": 6527,
      "testim": 6528,
      "posed": 6529,
      "hadn": 6530,
      "arriving": 6531,
      "strateg": 6532,
      "cruise": 6533,
      "fred": 6534,
      "function": 6535,
      "##elson": 6536,
      "plea": 6537,
      "dying": 6538,
      "whit": 6539,
      "##afi": 6540,
      "christopher": 6541,
      "predict": 6542,
      "tackle": 6543,
      "bureau": 6544,
      "por": 6545,
      "catholic": 6546,
      "##lah": 6547,
      "conce": 6548,
      "feared": 6549,
      "wash": 6550,
      "harass": 6551,
      "laden": 6552,
      "chancellor": 6553,
      "jennifer": 6554,
      "craig": 6555,
      "##ria": 6556,
      "wenger": 6557,
      "##allas": 6558,
      "shr": 6559,
      "pushing": 6560,
      "cocaine": 6561,
      "scared": 6562,
      "interior": 6563,
      "attacking": 6564,
      "philipp": 6565,
      "bayern": 6566,
      "christie": 6567,
      "michigan": 6568,
      "iconic": 6569,
      "reflect": 6570,
      "solely": 6571,
      "engaged": 6572,
      "gordon": 6573,
      "finger": 6574,
      "##right": 6575,
      "lung": 6576,
      "rural": 6577,
      "minimum": 6578,
      "explains": 6579,
      "relatively": 6580,
      "chocol": 6581,
      "prepare": 6582,
      "700": 6583,
      "theat": 6584,
      "sleeping": 6585,
      "zimmer": 6586,
      "##nic": 6587,
      "melbourne": 6588,
      "ta": 6589,
      "bike": 6590,
      "tatt": 6591,
      "grass": 6592,
      "canadian": 6593,
      "##bles": 6594,
      "recalled": 6595,
      "mine": 6596,
      "proposal": 6597,
      "##hal": 6598,
      "##pson": 6599,
      "favorite": 6600,
      "##amples": 6601,
      "depression": 6602,
      "crystal": 6603,
      "specialist": 6604,
      "cia": 6605,
      "gift": 6606,
      "cleared": 6607,
      "behalf": 6608,
      "ted": 6609,
      "milk": 6610,
      "discl": 6611,
      "##ishop": 6612,
      "##upted": 6613,
      "matters": 6614,
      "##dog": 6615,
      "remind": 6616,
      "connected": 6617,
      "rodgers": 6618,
      "preparing": 6619,
      "##icts": 6620,
      "birds": 6621,
      "decor": 6622,
      "meal": 6623,
      "brilliant": 6624,
      "gap": 6625,
      "permission": 6626,
      "administr": 6627,
      "marry": 6628,
      "stretch": 6629,
      "64": 6630,
      "yemen": 6631,
      "intent": 6632,
      "fruit": 6633,
      "invited": 6634,
      "colomb": 6635,
      "##mph": 6636,
      "lift": 6637,
      "##uties": 6638,
      "jewish": 6639,
      "wars": 6640,
      "celebrities": 6641,
      "leads": 6642,
      "walls": 6643,
      "thompson": 6644,
      "casual": 6645,
      "##iti": 6646,
      "rocket": 6647,
      "dedicated": 6648,
      "##erted": 6649,
      "aimed": 6650,
      "sentencing": 6651,
      "shouldn": 6652,
      "mates": 6653,
      "turns": 6654,
      "barr": 6655,
      "##standing": 6656,
      "entirely": 6657,
      "##apse": 6658,
      "pakistani": 6659,
      "##era": 6660,
      "escaped": 6661,
      "guide": 6662,
      "apparent": 6663,
      "moves": 6664,
      "jamie": 6665,
      "jumped": 6666,
      "devastating": 6667,
      "jere": 6668,
      "##aved": 6669,
      "##annah": 6670,
      "anne": 6671,
      "overseas": 6672,
      "guarant": 6673,
      "throw": 6674,
      "ending": 6675,
      "hughes": 6676,
      "cul": 6677,
      "biz": 6678,
      "campbell": 6679,
      "facilities": 6680,
      "atlantic": 6681,
      "##aska": 6682,
      "threw": 6683,
      "compensation": 6684,
      "weekly": 6685,
      "founded": 6686,
      "##orders": 6687,
      "summit": 6688,
      "assem": 6689,
      "##asted": 6690,
      "##atherine": 6691,
      "##enz": 6692,
      "##ints": 6693,
      "##ek": 6694,
      "wim": 6695,
      "recommend": 6696,
      "##arch": 6697,
      "spell": 6698,
      "instruct": 6699,
      "narrow": 6700,
      "org": 6701,
      "guards": 6702,
      "theft": 6703,
      "involvement": 6704,
      "01": 6705,
      "ski": 6706,
      "element": 6707,
      "##ja": 6708,
      "obtained": 6709,
      "rally": 6710,
      "rio": 6711,
      "sunn": 6712,
      "childhood": 6713,
      "therefore": 6714,
      "hernandez": 6715,
      "beer": 6716,
      "permanent": 6717,
      "mini": 6718,
      "191": 6719,
      "informed": 6720,
      "lob": 6721,
      "becomes": 6722,
      "solid": 6723,
      "detained": 6724,
      "##itarian": 6725,
      "replace": 6726,
      "sisters": 6727,
      "leeds": 6728,
      "bash": 6729,
      "interesting": 6730,
      "referee": 6731,
      "conspiracy": 6732,
      "greece": 6733,
      "chef": 6734,
      "rodr": 6735,
      "gib": 6736,
      "##azz": 6737,
      "jessica": 6738,
      "##ports": 6739,
      "ideas": 6740,
      "documentary": 6741,
      "chosen": 6742,
      "headquar": 6743,
      "reporting": 6744,
      "drinks": 6745,
      "sunder": 6746,
      "##cia": 6747,
      "##achel": 6748,
      "essex": 6749,
      "towns": 6750,
      "loy": 6751,
      "aven": 6752,
      "automatic": 6753,
      "accepting": 6754,
      "£10": 6755,
      "reaching": 6756,
      "grave": 6757,
      "diver": 6758,
      "orders": 6759,
      "familiar": 6760,
      "##amin": 6761,
      "danny": 6762,
      "wides": 6763,
      "wright": 6764,
      "turkish": 6765,
      "upper": 6766,
      "formed": 6767,
      "trapped": 6768,
      "02": 6769,
      "ay": 6770,
      "##fying": 6771,
      "waves": 6772,
      "##ici": 6773,
      "##odes": 6774,
      "neil": 6775,
      "territory": 6776,
      "tip": 6777,
      "consequences": 6778,
      "shadow": 6779,
      "investigated": 6780,
      "euro": 6781,
      "dispute": 6782,
      "marked": 6783,
      "maximum": 6784,
      "##irates": 6785,
      "commitment": 6786,
      "veget": 6787,
      "##raid": 6788,
      "##vey": 6789,
      "blast": 6790,
      "shoulder": 6791,
      "sixth": 6792,
      "loud": 6793,
      "suspicion": 6794,
      "democracy": 6795,
      "thin": 6796,
      "##adel": 6797,
      "##berry": 6798,
      "initi": 6799,
      "marath": 6800,
      "packed": 6801,
      "advance": 6802,
      "sunderland": 6803,
      "shares": 6804,
      "racist": 6805,
      "micros": 6806,
      "philip": 6807,
      "raped": 6808,
      "jen": 6809,
      "posting": 6810,
      "fewer": 6811,
      "jean": 6812,
      "anywhere": 6813,
      "concl": 6814,
      "##eller": 6815,
      "scores": 6816,
      "cheap": 6817,
      "perry": 6818,
      "##ito": 6819,
      "properties": 6820,
      "knocked": 6821,
      "dancing": 6822,
      "bullet": 6823,
      "blank": 6824,
      "commons": 6825,
      "stated": 6826,
      "enr": 6827,
      "disappearance": 6828,
      "sector": 6829,
      "pacific": 6830,
      "##ucing": 6831,
      "##pread": 6832,
      "hampshire": 6833,
      "shops": 6834,
      "nigeria": 6835,
      "aggressive": 6836,
      "widespread": 6837,
      "glam": 6838,
      "presenter": 6839,
      "fee": 6840,
      "fame": 6841,
      "##jo": 6842,
      "disappointed": 6843,
      "##care": 6844,
      "notor": 6845,
      "salt": 6846,
      "dust": 6847,
      "testimony": 6848,
      "purpose": 6849,
      "hors": 6850,
      "variety": 6851,
      "dave": 6852,
      "1998": 6853,
      "projects": 6854,
      "qat": 6855,
      "fighter": 6856,
      "characters": 6857,
      "diss": 6858,
      "clark": 6859,
      "delay": 6860,
      "62": 6861,
      "##antic": 6862,
      "campus": 6863,
      "gor": 6864,
      "jimmy": 6865,
      "crazy": 6866,
      "loving": 6867,
      "entit": 6868,
      "bizarre": 6869,
      "abused": 6870,
      "laura": 6871,
      "begins": 6872,
      "implement": 6873,
      "kicked": 6874,
      "nap": 6875,
      "scan": 6876,
      "cream": 6877,
      "cous": 6878,
      "##icking": 6879,
      "##rog": 6880,
      "hunting": 6881,
      "writer": 6882,
      "capable": 6883,
      "payments": 6884,
      "sandy": 6885,
      "profit": 6886,
      "shift": 6887,
      "promise": 6888,
      "shelter": 6889,
      "performing": 6890,
      "reun": 6891,
      "##mann": 6892,
      "opportunities": 6893,
      "inapp": 6894,
      "asian": 6895,
      "votes": 6896,
      "mansion": 6897,
      "adopted": 6898,
      "dallas": 6899,
      "describe": 6900,
      "burst": 6901,
      "highway": 6902,
      "enthus": 6903,
      "lt": 6904,
      "afraid": 6905,
      "admits": 6906,
      "brid": 6907,
      "commentary": 6908,
      "surprising": 6909,
      "teeth": 6910,
      "metres": 6911,
      "typically": 6912,
      "ale": 6913,
      "bone": 6914,
      "robin": 6915,
      "swansea": 6916,
      "67": 6917,
      "delighted": 6918,
      "zimmerman": 6919,
      "insists": 6920,
      "overt": 6921,
      "##oppers": 6922,
      "inspector": 6923,
      "affiliate": 6924,
      "poison": 6925,
      "follows": 6926,
      "taxes": 6927,
      "explo": 6928,
      "profession": 6929,
      "referring": 6930,
      "##person": 6931,
      "earning": 6932,
      "extended": 6933,
      "planes": 6934,
      "honour": 6935,
      "fu": 6936,
      "clegg": 6937,
      "##agan": 6938,
      "compete": 6939,
      "headquarters": 6940,
      "apply": 6941,
      "crucial": 6942,
      "rangers": 6943,
      "withdraw": 6944,
      "##orous": 6945,
      "vic": 6946,
      "rescued": 6947,
      "fill": 6948,
      "capacity": 6949,
      "pleased": 6950,
      "bombing": 6951,
      "generally": 6952,
      "hillary": 6953,
      "joke": 6954,
      "ye": 6955,
      "pover": 6956,
      "ties": 6957,
      "##inating": 6958,
      "mystery": 6959,
      "accom": 6960,
      "ukrainian": 6961,
      "intense": 6962,
      "enorm": 6963,
      "handle": 6964,
      "##place": 6965,
      "structure": 6966,
      "burgl": 6967,
      "unlike": 6968,
      "abbott": 6969,
      "brazilian": 6970,
      "taste": 6971,
      "branch": 6972,
      "breakfast": 6973,
      "burning": 6974,
      "tag": 6975,
      "egyptian": 6976,
      "bristol": 6977,
      "cruel": 6978,
      "battery": 6979,
      "missouri": 6980,
      "rehab": 6981,
      "congressional": 6982,
      "##areness": 6983,
      "attempting": 6984,
      "overnight": 6985,
      "##tle": 6986,
      "##echan": 6987,
      "gates": 6988,
      "speaker": 6989,
      "priority": 6990,
      "resolution": 6991,
      "awareness": 6992,
      "##umed": 6993,
      "##wa": 6994,
      "investigations": 6995,
      "unw": 6996,
      "##bledon": 6997,
      "magistrates": 6998,
      "hurr": 6999,
      "judg": 7000,
      "##oker": 7001,
      "serge": 7002,
      "poverty": 7003,
      "consumer": 7004,
      "##acks": 7005,
      "kay": 7006,
      "officially": 7007,
      "chocolate": 7008,
      "sed": 7009,
      "stoke": 7010,
      "wimbledon": 7011,
      "##hone": 7012,
      "oklah": 7013,
      "66": 7014,
      "anna": 7015,
      "yards": 7016,
      "athletes": 7017,
      "dubbed": 7018,
      "accompl": 7019,
      "rar": 7020,
      "taught": 7021,
      "sevent": 7022,
      "##itage": 7023,
      "shell": 7024,
      "##esc": 7025,
      "existing": 7026,
      "offence": 7027,
      "caps": 7028,
      "blair": 7029,
      "##asy": 7030,
      "trafford": 7031,
      "amazon": 7032,
      "##alling": 7033,
      "habit": 7034,
      "reward": 7035,
      "##mers": 7036,
      "temperature": 7037,
      "reveals": 7038,
      "innov": 7039,
      "anybody": 7040,
      "attending": 7041,
      "defended": 7042,
      "firms": 7043,
      "governments": 7044,
      "demanding": 7045,
      "ast": 7046,
      "cultural": 7047,
      "colon": 7048,
      "##olas": 7049,
      "regarding": 7050,
      "frame": 7051,
      "loves": 7052,
      "wounds": 7053,
      "justin": 7054,
      "studio": 7055,
      "##apes": 7056,
      "funny": 7057,
      "edwards": 7058,
      "72": 7059,
      "lan": 7060,
      "cro": 7061,
      "alert": 7062,
      "##ls": 7063,
      "demanded": 7064,
      "##see": 7065,
      "recording": 7066,
      "desire": 7067,
      "advis": 7068,
      "arrests": 7069,
      "libr": 7070,
      "exclusive": 7071,
      "unveiled": 7072,
      "columb": 7073,
      "loyal": 7074,
      "hyp": 7075,
      "pound": 7076,
      "apology": 7077,
      "rolling": 7078,
      "mitchell": 7079,
      "cher": 7080,
      "crying": 7081,
      "rebel": 7082,
      "infr": 7083,
      "63": 7084,
      "davies": 7085,
      "oklahoma": 7086,
      "##idelines": 7087,
      "teaching": 7088,
      "##rapped": 7089,
      "bombs": 7090,
      "label": 7091,
      "routine": 7092,
      "contained": 7093,
      "##laim": 7094,
      "lyn": 7095,
      "describes": 7096,
      "grandfather": 7097,
      "mohammed": 7098,
      "##iguez": 7099,
      "travelled": 7100,
      "mechan": 7101,
      "ww": 7102,
      "earthqu": 7103,
      "##gow": 7104,
      "exciting": 7105,
      "motion": 7106,
      "acknowledged": 7107,
      "clock": 7108,
      "punishment": 7109,
      "indic": 7110,
      "unex": 7111,
      "##itis": 7112,
      "teenagers": 7113,
      "telep": 7114,
      "nad": 7115,
      "factory": 7116,
      "grace": 7117,
      "promote": 7118,
      "carbon": 7119,
      "guest": 7120,
      "demands": 7121,
      "luke": 7122,
      "interviewed": 7123,
      "links": 7124,
      "pier": 7125,
      "kilomet": 7126,
      "basketball": 7127,
      "stem": 7128,
      "formula": 7129,
      "strange": 7130,
      "excell": 7131,
      "harv": 7132,
      "trophy": 7133,
      "restaurants": 7134,
      "##inn": 7135,
      "jurors": 7136,
      "sounds": 7137,
      "pist": 7138,
      "shout": 7139,
      "sits": 7140,
      "##agement": 7141,
      "exception": 7142,
      "hanging": 7143,
      "comedy": 7144,
      "effectively": 7145,
      "marathon": 7146,
      "##gun": 7147,
      "sean": 7148,
      "auth": 7149,
      "fault": 7150,
      "pace": 7151,
      "carter": 7152,
      "ade": 7153,
      "spokesperson": 7154,
      "robbery": 7155,
      "transportation": 7156,
      "warrant": 7157,
      "cbs": 7158,
      "##etime": 7159,
      "opponents": 7160,
      "clients": 7161,
      "portra": 7162,
      "rodriguez": 7163,
      "##rard": 7164,
      "##oln": 7165,
      "##ardo": 7166,
      "registered": 7167,
      "##minster": 7168,
      "stewart": 7169,
      "movies": 7170,
      "mood": 7171,
      "plain": 7172,
      "68": 7173,
      "##ora": 7174,
      "castle": 7175,
      "mirror": 7176,
      "appointed": 7177,
      "hopefully": 7178,
      "riding": 7179,
      "bru": 7180,
      "wire": 7181,
      "fees": 7182,
      "featuring": 7183,
      "fortun": 7184,
      "democrat": 7185,
      "combined": 7186,
      "edin": 7187,
      "bik": 7188,
      "celebration": 7189,
      "gab": 7190,
      "industrial": 7191,
      "crowds": 7192,
      "##iders": 7193,
      "improved": 7194,
      "pill": 7195,
      "checks": 7196,
      "regret": 7197,
      "##phia": 7198,
      "rent": 7199,
      "afterwards": 7200,
      "##inois": 7201,
      "temporary": 7202,
      "foster": 7203,
      "wolf": 7204,
      "formal": 7205,
      "delivery": 7206,
      "##water": 7207,
      "##ologists": 7208,
      "genu": 7209,
      "osborne": 7210,
      "pm": 7211,
      "gate": 7212,
      "prompt": 7213,
      "multi": 7214,
      "bruce": 7215,
      "911": 7216,
      "hodg": 7217,
      "##greg": 7218,
      "##ema": 7219,
      "linc": 7220,
      "execution": 7221,
      "prostit": 7222,
      "barely": 7223,
      "horror": 7224,
      "wreck": 7225,
      "##oard": 7226,
      "locations": 7227,
      "cardiff": 7228,
      "paramed": 7229,
      "collected": 7230,
      "coord": 7231,
      "satellite": 7232,
      "quit": 7233,
      "aside": 7234,
      "##athy": 7235,
      "tourist": 7236,
      "globe": 7237,
      "eleph": 7238,
      "##enda": 7239,
      "##adelphia": 7240,
      "disney": 7241,
      "gross": 7242,
      "jeremy": 7243,
      "##respond": 7244,
      "##gent": 7245,
      "hired": 7246,
      "##inez": 7247,
      "architect": 7248,
      "##mouth": 7249,
      "##bly": 7250,
      "correspond": 7251,
      "illinois": 7252,
      "nico": 7253,
      "unac": 7254,
      "russell": 7255,
      "volunteers": 7256,
      "lib": 7257,
      "accur": 7258,
      "##aring": 7259,
      "froz": 7260,
      "plants": 7261,
      "goods": 7262,
      "markets": 7263,
      "advertising": 7264,
      "observ": 7265,
      "##rance": 7266,
      "gil": 7267,
      "closing": 7268,
      "applied": 7269,
      "theory": 7270,
      "mam": 7271,
      "amanda": 7272,
      "bloom": 7273,
      "philadelphia": 7274,
      "gill": 7275,
      "poses": 7276,
      "##ateful": 7277,
      "chicken": 7278,
      "kingdom": 7279,
      "diplomatic": 7280,
      "##wick": 7281,
      "##aid": 7282,
      "usual": 7283,
      "falls": 7284,
      "##de": 7285,
      "constant": 7286,
      "lisa": 7287,
      "sib": 7288,
      "grade": 7289,
      "voting": 7290,
      "##crib": 7291,
      "transpl": 7292,
      "thick": 7293,
      "heath": 7294,
      "civilian": 7295,
      "##rest": 7296,
      "1997": 7297,
      "deals": 7298,
      "galax": 7299,
      "divers": 7300,
      "gained": 7301,
      "nig": 7302,
      "taxi": 7303,
      "types": 7304,
      "gender": 7305,
      "succeed": 7306,
      "liqu": 7307,
      "representatives": 7308,
      "##burn": 7309,
      "ups": 7310,
      "diab": 7311,
      "##gio": 7312,
      "##icut": 7313,
      "tries": 7314,
      "glas": 7315,
      "papers": 7316,
      "stu": 7317,
      "puts": 7318,
      "neighbors": 7319,
      "application": 7320,
      "##ucky": 7321,
      "screaming": 7322,
      "crews": 7323,
      "convin": 7324,
      "ipad": 7325,
      "lincoln": 7326,
      "##rene": 7327,
      "mixed": 7328,
      "winners": 7329,
      "producer": 7330,
      "##die": 7331,
      "##ray": 7332,
      "concept": 7333,
      "##ucking": 7334,
      "##uts": 7335,
      "substant": 7336,
      "cable": 7337,
      "contrast": 7338,
      "gerrard": 7339,
      "celebrated": 7340,
      "transl": 7341,
      "writes": 7342,
      "kenn": 7343,
      "stronger": 7344,
      "alab": 7345,
      "finals": 7346,
      "vessel": 7347,
      "rab": 7348,
      "spin": 7349,
      "brave": 7350,
      "sne": 7351,
      "taxpayers": 7352,
      "##igned": 7353,
      "occasions": 7354,
      "allies": 7355,
      "pump": 7356,
      "traveling": 7357,
      "chee": 7358,
      "##dale": 7359,
      "killings": 7360,
      "memories": 7361,
      "ingr": 7362,
      "85": 7363,
      "technical": 7364,
      "convinced": 7365,
      "posts": 7366,
      "positions": 7367,
      "cats": 7368,
      "fiance": 7369,
      "##och": 7370,
      "##lers": 7371,
      "chamber": 7372,
      "crist": 7373,
      "burned": 7374,
      "shark": 7375,
      "amy": 7376,
      "##owned": 7377,
      "celt": 7378,
      "creative": 7379,
      "fasc": 7380,
      "booked": 7381,
      "hiding": 7382,
      "zero": 7383,
      "shame": 7384,
      "gent": 7385,
      "thro": 7386,
      "worn": 7387,
      "77": 7388,
      "conver": 7389,
      "##boy": 7390,
      "partnership": 7391,
      "petition": 7392,
      "brooklyn": 7393,
      "appearing": 7394,
      "slowly": 7395,
      "breathing": 7396,
      "locals": 7397,
      "experiences": 7398,
      "##otte": 7399,
      "connecticut": 7400,
      "package": 7401,
      "pip": 7402,
      "##ommod": 7403,
      "spectac": 7404,
      "martinez": 7405,
      "##ears": 7406,
      "brom": 7407,
      "##arth": 7408,
      "monitor": 7409,
      "rav": 7410,
      "requires": 7411,
      "accommod": 7412,
      "detailed": 7413,
      "organizations": 7414,
      "##enez": 7415,
      "ech": 7416,
      "facts": 7417,
      "slo": 7418,
      "##pe": 7419,
      "remarkable": 7420,
      "gest": 7421,
      "bart": 7422,
      "represents": 7423,
      "marketing": 7424,
      "supplies": 7425,
      "tent": 7426,
      "landsc": 7427,
      "criminals": 7428,
      "ferr": 7429,
      "speculation": 7430,
      "counsel": 7431,
      "aboard": 7432,
      "##tery": 7433,
      "entry": 7434,
      "lap": 7435,
      "drone": 7436,
      "manufactur": 7437,
      "manner": 7438,
      "suggesting": 7439,
      "confront": 7440,
      "##uous": 7441,
      "##esco": 7442,
      "hotels": 7443,
      "values": 7444,
      "##ropol": 7445,
      "##phones": 7446,
      "##roid": 7447,
      "forever": 7448,
      "obvious": 7449,
      "tracks": 7450,
      "##issions": 7451,
      "toll": 7452,
      "manage": 7453,
      "##ci": 7454,
      "seattle": 7455,
      "relationships": 7456,
      "classes": 7457,
      "##ashing": 7458,
      "adams": 7459,
      "burns": 7460,
      "tab": 7461,
      "striking": 7462,
      "hawai": 7463,
      "ramp": 7464,
      "meals": 7465,
      "barri": 7466,
      "aviation": 7467,
      "61": 7468,
      "degrees": 7469,
      "balls": 7470,
      "wealthy": 7471,
      "firing": 7472,
      "representative": 7473,
      "youngest": 7474,
      "baghd": 7475,
      "##vens": 7476,
      "pc": 7477,
      "westminster": 7478,
      "mccain": 7479,
      "inspiration": 7480,
      "neur": 7481,
      "ethnic": 7482,
      "encouraged": 7483,
      "suspicious": 7484,
      "##ders": 7485,
      "ak": 7486,
      "minority": 7487,
      "##ality": 7488,
      "##ctic": 7489,
      "margar": 7490,
      "##ache": 7491,
      "inappropriate": 7492,
      "settlement": 7493,
      "meetings": 7494,
      "desert": 7495,
      "citizen": 7496,
      "gene": 7497,
      "celebrating": 7498,
      "munich": 7499,
      "approval": 7500,
      "infected": 7501,
      "tox": 7502,
      "entering": 7503,
      "baseball": 7504,
      "tape": 7505,
      "calc": 7506,
      "advised": 7507,
      "artists": 7508,
      "##attered": 7509,
      "foods": 7510,
      "condemned": 7511,
      "heritage": 7512,
      "cloud": 7513,
      "substit": 7514,
      "ends": 7515,
      "alabama": 7516,
      "appe": 7517,
      "religion": 7518,
      "fisher": 7519,
      "emph": 7520,
      "nerv": 7521,
      "##point": 7522,
      "hob": 7523,
      "aar": 7524,
      "hits": 7525,
      "personally": 7526,
      "derby": 7527,
      "accusations": 7528,
      "resulted": 7529,
      "##otherapy": 7530,
      "hag": 7531,
      "glad": 7532,
      "cancel": 7533,
      "##cedes": 7534,
      "homeless": 7535,
      "susan": 7536,
      "unh": 7537,
      "flooding": 7538,
      "kit": 7539,
      "twin": 7540,
      "snap": 7541,
      "debr": 7542,
      "throwing": 7543,
      "walks": 7544,
      "welcom": 7545,
      "attached": 7546,
      "belgium": 7547,
      "##gt": 7548,
      "keeps": 7549,
      "successfully": 7550,
      "attracted": 7551,
      "essential": 7552,
      "##rod": 7553,
      "attorneys": 7554,
      "bent": 7555,
      "button": 7556,
      "dor": 7557,
      "dict": 7558,
      "dele": 7559,
      "£9": 7560,
      "cord": 7561,
      "avo": 7562,
      "crossing": 7563,
      "##owa": 7564,
      "mario": 7565,
      "approx": 7566,
      "employment": 7567,
      "interviews": 7568,
      "1980s": 7569,
      "symp": 7570,
      "visits": 7571,
      "describing": 7572,
      "trium": 7573,
      "##box": 7574,
      "##erate": 7575,
      "dece": 7576,
      "acted": 7577,
      "apps": 7578,
      "lawmakers": 7579,
      "negotiations": 7580,
      "eve": 7581,
      "##endum": 7582,
      "urban": 7583,
      "baghdad": 7584,
      "roger": 7585,
      "mack": 7586,
      "vet": 7587,
      "albert": 7588,
      "##itable": 7589,
      "chase": 7590,
      "leban": 7591,
      "celtic": 7592,
      "griff": 7593,
      "gian": 7594,
      "downing": 7595,
      "##usal": 7596,
      "ordeal": 7597,
      "cited": 7598,
      "sensitive": 7599,
      "utah": 7600,
      "##uster": 7601,
      "ridic": 7602,
      "checked": 7603,
      "amp": 7604,
      "bitter": 7605,
      "##usive": 7606,
      "specifically": 7607,
      "##bie": 7608,
      "anticip": 7609,
      "anonymous": 7610,
      "forens": 7611,
      "cliff": 7612,
      "slim": 7613,
      "ug": 7614,
      "##ded": 7615,
      "praised": 7616,
      "peaceful": 7617,
      "portugal": 7618,
      "##yes": 7619,
      "outcome": 7620,
      "nov": 7621,
      "filming": 7622,
      "debris": 7623,
      "triumph": 7624,
      "ages": 7625,
      "switzer": 7626,
      "patri": 7627,
      "##aco": 7628,
      "referendum": 7629,
      "##tt": 7630,
      "##mitted": 7631,
      "searched": 7632,
      "enormous": 7633,
      "denies": 7634,
      "enh": 7635,
      "holder": 7636,
      "peak": 7637,
      "scientific": 7638,
      "##acement": 7639,
      "##uits": 7640,
      "##fa": 7641,
      "duncan": 7642,
      "proof": 7643,
      "##usting": 7644,
      "harder": 7645,
      "##aware": 7646,
      "importance": 7647,
      "smugg": 7648,
      "##icane": 7649,
      "##vant": 7650,
      "howard": 7651,
      "##iable": 7652,
      "##ima": 7653,
      "interp": 7654,
      "hurricane": 7655,
      "racial": 7656,
      "1990s": 7657,
      "switzerland": 7658,
      "glasgow": 7659,
      "liked": 7660,
      "humanitarian": 7661,
      "strongly": 7662,
      "##idays": 7663,
      "courage": 7664,
      "materials": 7665,
      "##ighth": 7666,
      "viet": 7667,
      "horses": 7668,
      "indicated": 7669,
      "containing": 7670,
      "significantly": 7671,
      "guess": 7672,
      "toilet": 7673,
      "probe": 7674,
      "opposite": 7675,
      "dyn": 7676,
      "rome": 7677,
      "sho": 7678,
      "roughly": 7679,
      "monitoring": 7680,
      "cav": 7681,
      "##ando": 7682,
      "opposed": 7683,
      "protected": 7684,
      "##lan": 7685,
      "##ictions": 7686,
      "appeals": 7687,
      "##cling": 7688,
      "emails": 7689,
      "##cles": 7690,
      "oldest": 7691,
      "metropol": 7692,
      "cope": 7693,
      "everywhere": 7694,
      "advanced": 7695,
      "##airo": 7696,
      "hiv": 7697,
      "procedures": 7698,
      "electricity": 7699,
      "hodgson": 7700,
      "##uls": 7701,
      "funded": 7702,
      "##endent": 7703,
      "tensions": 7704,
      "invas": 7705,
      "garcia": 7706,
      "cuba": 7707,
      "obser": 7708,
      "lamp": 7709,
      "visible": 7710,
      "managing": 7711,
      "1970s": 7712,
      "mountains": 7713,
      "diplom": 7714,
      "78": 7715,
      "dod": 7716,
      "##aft": 7717,
      "medication": 7718,
      "conscious": 7719,
      "spectacular": 7720,
      "bos": 7721,
      "gray": 7722,
      "colleague": 7723,
      "##lings": 7724,
      "##aya": 7725,
      "conservatives": 7726,
      "stable": 7727,
      "frag": 7728,
      "repair": 7729,
      "detention": 7730,
      "grabbed": 7731,
      "fundra": 7732,
      "titles": 7733,
      "escal": 7734,
      "persu": 7735,
      "rot": 7736,
      "bosses": 7737,
      "reforms": 7738,
      "lean": 7739,
      "rever": 7740,
      "stamp": 7741,
      "##yard": 7742,
      "iowa": 7743,
      "blocked": 7744,
      "fortune": 7745,
      "##oded": 7746,
      "select": 7747,
      "lod": 7748,
      "##ailand": 7749,
      "##borough": 7750,
      "stations": 7751,
      "snowden": 7752,
      "sams": 7753,
      "nurses": 7754,
      "proceedings": 7755,
      "wet": 7756,
      "disg": 7757,
      "predicted": 7758,
      "legit": 7759,
      "thailand": 7760,
      "statistics": 7761,
      "fishing": 7762,
      "ny": 7763,
      "##maker": 7764,
      "answers": 7765,
      "estimates": 7766,
      "cornwall": 7767,
      "gunman": 7768,
      "entitled": 7769,
      "##omy": 7770,
      "frozen": 7771,
      "mull": 7772,
      "expecting": 7773,
      "cert": 7774,
      "collapse": 7775,
      "covering": 7776,
      "notting": 7777,
      "networks": 7778,
      "katie": 7779,
      "therapy": 7780,
      "craw": 7781,
      "teens": 7782,
      "homeland": 7783,
      "ships": 7784,
      "gp": 7785,
      "soccer": 7786,
      "##iac": 7787,
      "brings": 7788,
      "drawing": 7789,
      "edinburgh": 7790,
      "95": 7791,
      "swift": 7792,
      "mete": 7793,
      "personality": 7794,
      "cin": 7795,
      "accompanied": 7796,
      "##esa": 7797,
      "1996": 7798,
      "interact": 7799,
      "grav": 7800,
      "arrang": 7801,
      "amend": 7802,
      "deny": 7803,
      "hosts": 7804,
      "speaks": 7805,
      "pride": 7806,
      "dial": 7807,
      "disgr": 7808,
      "faster": 7809,
      "revenue": 7810,
      "collins": 7811,
      "owns": 7812,
      "69": 7813,
      "extensive": 7814,
      "flames": 7815,
      "stuart": 7816,
      "balot": 7817,
      "pod": 7818,
      "deem": 7819,
      "purchase": 7820,
      "skull": 7821,
      "units": 7822,
      "boxing": 7823,
      "##omen": 7824,
      "offices": 7825,
      "seed": 7826,
      "##iatric": 7827,
      "prospect": 7828,
      "unco": 7829,
      "##aving": 7830,
      "requests": 7831,
      "stages": 7832,
      "anch": 7833,
      "contains": 7834,
      "competitive": 7835,
      "pilots": 7836,
      "toler": 7837,
      "balotelli": 7838,
      "factors": 7839,
      "paint": 7840,
      "belt": 7841,
      "witnessed": 7842,
      "sheff": 7843,
      "##pan": 7844,
      "##ellers": 7845,
      "192": 7846,
      "constantly": 7847,
      "trips": 7848,
      "pron": 7849,
      "chronic": 7850,
      "representing": 7851,
      "tiger": 7852,
      "trains": 7853,
      "sustained": 7854,
      "samsung": 7855,
      "shaw": 7856,
      "comprom": 7857,
      "##ois": 7858,
      "##ilst": 7859,
      "renew": 7860,
      "disabled": 7861,
      "ank": 7862,
      "furious": 7863,
      "discussed": 7864,
      "vowed": 7865,
      "##phy": 7866,
      "represented": 7867,
      "##pass": 7868,
      "songs": 7869,
      "phillips": 7870,
      "73": 7871,
      "74": 7872,
      "lovely": 7873,
      "##orse": 7874,
      "buff": 7875,
      "mcdonald": 7876,
      "assass": 7877,
      "pard": 7878,
      "regulations": 7879,
      "tired": 7880,
      "prohib": 7881,
      "bub": 7882,
      "citing": 7883,
      "##certain": 7884,
      "##bar": 7885,
      "bears": 7886,
      "riot": 7887,
      "confron": 7888,
      "1994": 7889,
      "dubai": 7890,
      "waited": 7891,
      "painful": 7892,
      "scor": 7893,
      "hearts": 7894,
      "wound": 7895,
      "##loaded": 7896,
      "syndr": 7897,
      "bacter": 7898,
      "mud": 7899,
      "£100": 7900,
      "sheffield": 7901,
      "activist": 7902,
      "sail": 7903,
      "##strong": 7904,
      "pulling": 7905,
      "knight": 7906,
      "missile": 7907,
      "##ulations": 7908,
      "##uay": 7909,
      "morris": 7910,
      "rebu": 7911,
      "underground": 7912,
      "lin": 7913,
      "reception": 7914,
      "beckham": 7915,
      "##ails": 7916,
      "studying": 7917,
      "bund": 7918,
      "actual": 7919,
      "handling": 7920,
      "kenya": 7921,
      "junior": 7922,
      "##wr": 7923,
      "twins": 7924,
      "operate": 7925,
      "furn": 7926,
      "error": 7927,
      "sudan": 7928,
      "discussion": 7929,
      "typical": 7930,
      "arts": 7931,
      "syndrome": 7932,
      "outs": 7933,
      "communication": 7934,
      "impressed": 7935,
      "equival": 7936,
      "rah": 7937,
      "tu": 7938,
      "cu": 7939,
      "managers": 7940,
      "##umes": 7941,
      "approximately": 7942,
      "centers": 7943,
      "err": 7944,
      "polls": 7945,
      "assaulted": 7946,
      "argue": 7947,
      "begun": 7948,
      "##ikh": 7949,
      "##oop": 7950,
      "ourselves": 7951,
      "retirement": 7952,
      "##ture": 7953,
      "swiss": 7954,
      "transferred": 7955,
      "survivors": 7956,
      "cycl": 7957,
      "shed": 7958,
      "elim": 7959,
      "freez": 7960,
      "electr": 7961,
      "##etch": 7962,
      "survival": 7963,
      "nelson": 7964,
      "exhibition": 7965,
      "cd": 7966,
      "amounts": 7967,
      "adviser": 7968,
      "##ni": 7969,
      "finance": 7970,
      "lifted": 7971,
      "migrants": 7972,
      "margaret": 7973,
      "computers": 7974,
      "bot": 7975,
      "##wan": 7976,
      "stal": 7977,
      "chile": 7978,
      "##uations": 7979,
      "odds": 7980,
      "hood": 7981,
      "lessons": 7982,
      "achieved": 7983,
      "qpr": 7984,
      "ry": 7985,
      "symbol": 7986,
      "aaron": 7987,
      "##cott": 7988,
      "dean": 7989,
      "grateful": 7990,
      "whist": 7991,
      "selection": 7992,
      "bones": 7993,
      "##math": 7994,
      "##asters": 7995,
      "hamas": 7996,
      "reid": 7997,
      "##ecca": 7998,
      "##gate": 7999,
      "abortion": 8000,
      "dressing": 8001,
      "extent": 8002,
      "maryland": 8003,
      "warren": 8004,
      "mercedes": 8005,
      "sanch": 8006,
      "prevention": 8007,
      "##rets": 8008,
      "whilst": 8009,
      "blaze": 8010,
      "telegr": 8011,
      "barbara": 8012,
      "armstrong": 8013,
      "greek": 8014,
      "directed": 8015,
      "hend": 8016,
      "##acking": 8017,
      "arena": 8018,
      "somewhere": 8019,
      "touched": 8020,
      "arabia": 8021,
      "forms": 8022,
      "sgt": 8023,
      "castro": 8024,
      "pages": 8025,
      "##ario": 8026,
      "##ensions": 8027,
      "##atched": 8028,
      "arth": 8029,
      "obst": 8030,
      "electronic": 8031,
      "##che": 8032,
      "nervous": 8033,
      "##rence": 8034,
      "pel": 8035,
      "helen": 8036,
      "va": 8037,
      "lifetime": 8038,
      "objects": 8039,
      "barcl": 8040,
      "holidays": 8041,
      "cheer": 8042,
      "##ami": 8043,
      "fing": 8044,
      "##how": 8045,
      "torture": 8046,
      "vinc": 8047,
      "demonstrators": 8048,
      "ky": 8049,
      "admit": 8050,
      "sanchez": 8051,
      "##ructure": 8052,
      "analysts": 8053,
      "##load": 8054,
      "physically": 8055,
      "wels": 8056,
      "##rated": 8057,
      "frequently": 8058,
      "mandela": 8059,
      "stroke": 8060,
      "optim": 8061,
      "itv": 8062,
      "sink": 8063,
      "supermarket": 8064,
      "trading": 8065,
      "races": 8066,
      "mainly": 8067,
      "elite": 8068,
      "eggs": 8069,
      "charlotte": 8070,
      "nin": 8071,
      "atlet": 8072,
      "discrimination": 8073,
      "##cr": 8074,
      "boots": 8075,
      "kurd": 8076,
      "silence": 8077,
      "headlines": 8078,
      "berlin": 8079,
      "warn": 8080,
      "1995": 8081,
      "garage": 8082,
      "bun": 8083,
      "avenue": 8084,
      "microsoft": 8085,
      "rarely": 8086,
      "exit": 8087,
      "sov": 8088,
      "legacy": 8089,
      "juan": 8090,
      "##icial": 8091,
      "highlight": 8092,
      "##etes": 8093,
      "library": 8094,
      "attitude": 8095,
      "consultant": 8096,
      "shore": 8097,
      "##roit": 8098,
      "equivalent": 8099,
      "overs": 8100,
      "telephone": 8101,
      "enemy": 8102,
      "traveled": 8103,
      "picking": 8104,
      "restrictions": 8105,
      "indict": 8106,
      "##rete": 8107,
      "gallery": 8108,
      "welsh": 8109,
      "lig": 8110,
      "##uting": 8111,
      "noise": 8112,
      "##shot": 8113,
      "##children": 8114,
      "fier": 8115,
      "mcl": 8116,
      "tweets": 8117,
      "shield": 8118,
      "##ooth": 8119,
      "disag": 8120,
      "settle": 8121,
      "nickn": 8122,
      "reference": 8123,
      "fright": 8124,
      "unemployment": 8125,
      "popularity": 8126,
      "relative": 8127,
      "concert": 8128,
      "footballer": 8129,
      "absence": 8130,
      "rib": 8131,
      "imprison": 8132,
      "magic": 8133,
      "announce": 8134,
      "smartphone": 8135,
      "##ati": 8136,
      "investors": 8137,
      "##lined": 8138,
      "midfield": 8139,
      "ax": 8140,
      "##cript": 8141,
      "hey": 8142,
      "ps": 8143,
      "posing": 8144,
      "graduate": 8145,
      "seasons": 8146,
      "##iece": 8147,
      "##lessly": 8148,
      "warnings": 8149,
      "clarke": 8150,
      "metropolitan": 8151,
      "##iro": 8152,
      "circuit": 8153,
      "##bul": 8154,
      "alarm": 8155,
      "beneath": 8156,
      "##tr": 8157,
      "smashed": 8158,
      "##etta": 8159,
      "##arms": 8160,
      "detroit": 8161,
      "bug": 8162,
      "malaysia": 8163,
      "##gage": 8164,
      "stealing": 8165,
      "delayed": 8166,
      "earthquake": 8167,
      "atletico": 8168,
      "brew": 8169,
      "backing": 8170,
      "unfair": 8171,
      "rounds": 8172,
      "rachel": 8173,
      "sequ": 8174,
      "##lb": 8175,
      "aftermath": 8176,
      "outfit": 8177,
      "militant": 8178,
      "distress": 8179,
      "steel": 8180,
      "dreams": 8181,
      "##estone": 8182,
      "gut": 8183,
      "perfectly": 8184,
      "feelings": 8185,
      "painted": 8186,
      "butt": 8187,
      "excellent": 8188,
      "nights": 8189,
      "recovering": 8190,
      "##enging": 8191,
      "donations": 8192,
      "tourism": 8193,
      "branded": 8194,
      "fi": 8195,
      "horn": 8196,
      "plate": 8197,
      "##real": 8198,
      "addressed": 8199,
      "phen": 8200,
      "lip": 8201,
      "pure": 8202,
      "instru": 8203,
      "resigned": 8204,
      "engineer": 8205,
      "welcomed": 8206,
      "cheese": 8207,
      "websites": 8208,
      "rocks": 8209,
      "poland": 8210,
      "##abilities": 8211,
      "businessman": 8212,
      "##ilit": 8213,
      "overwhelming": 8214,
      "infrast": 8215,
      "##urally": 8216,
      "safely": 8217,
      "reads": 8218,
      "ald": 8219,
      "71": 8220,
      "smell": 8221,
      "salv": 8222,
      "stunned": 8223,
      "forcing": 8224,
      "pentagon": 8225,
      "bailey": 8226,
      "intens": 8227,
      "honey": 8228,
      "midlands": 8229,
      "galaxy": 8230,
      "baker": 8231,
      "intim": 8232,
      "chaos": 8233,
      "seal": 8234,
      "##ippi": 8235,
      "conced": 8236,
      "pupp": 8237,
      "mug": 8238,
      "##low": 8239,
      "butter": 8240,
      "##athers": 8241,
      "##otyp": 8242,
      "nationwide": 8243,
      "targeting": 8244,
      "combination": 8245,
      "emily": 8246,
      "destination": 8247,
      "participants": 8248,
      "##itors": 8249,
      "##uable": 8250,
      "nottingham": 8251,
      "rely": 8252,
      "agu": 8253,
      "inher": 8254,
      "inmates": 8255,
      "stole": 8256,
      "dang": 8257,
      "payment": 8258,
      "##regon": 8259,
      "nazi": 8260,
      "reck": 8261,
      "rivers": 8262,
      "tsar": 8263,
      "oregon": 8264,
      "auto": 8265,
      "fields": 8266,
      "dawn": 8267,
      "spark": 8268,
      "raw": 8269,
      "clip": 8270,
      "##isation": 8271,
      "keith": 8272,
      "throat": 8273,
      "rear": 8274,
      "##nd": 8275,
      "fract": 8276,
      "gro": 8277,
      "carefully": 8278,
      "lawrence": 8279,
      "cafe": 8280,
      "entrance": 8281,
      "massac": 8282,
      "##ument": 8283,
      "islamist": 8284,
      "ordinary": 8285,
      "realized": 8286,
      "hook": 8287,
      "jesus": 8288,
      "crossed": 8289,
      "probation": 8290,
      "##uters": 8291,
      "lloy": 8292,
      "treating": 8293,
      "£20": 8294,
      "tiss": 8295,
      "mississ": 8296,
      "surrey": 8297,
      "salary": 8298,
      "tattoo": 8299,
      "rank": 8300,
      "##orage": 8301,
      "bottles": 8302,
      "reass": 8303,
      "##enson": 8304,
      "infrastructure": 8305,
      "sweep": 8306,
      "flown": 8307,
      "viewed": 8308,
      "shoppers": 8309,
      "bullying": 8310,
      "treasury": 8311,
      "biden": 8312,
      "76": 8313,
      "##ato": 8314,
      "challenging": 8315,
      "clashes": 8316,
      "tennes": 8317,
      "jong": 8318,
      "hawaii": 8319,
      "vigil": 8320,
      "fitted": 8321,
      "##chi": 8322,
      "explor": 8323,
      "mistakes": 8324,
      "autumn": 8325,
      "louisiana": 8326,
      "ingred": 8327,
      "##icing": 8328,
      "##aws": 8329,
      "refugees": 8330,
      "trace": 8331,
      "recommended": 8332,
      "paramedics": 8333,
      "##essing": 8334,
      "dates": 8335,
      "residence": 8336,
      "wol": 8337,
      "controls": 8338,
      "##case": 8339,
      "##cot": 8340,
      "dollar": 8341,
      "##chair": 8342,
      "pere": 8343,
      "stup": 8344,
      "tool": 8345,
      "odd": 8346,
      "imposed": 8347,
      "##stri": 8348,
      "donald": 8349,
      "lowest": 8350,
      "corporation": 8351,
      "hammer": 8352,
      "encouraging": 8353,
      "meteor": 8354,
      "lon": 8355,
      "ark": 8356,
      "designs": 8357,
      "regions": 8358,
      "intervention": 8359,
      "uncertain": 8360,
      "hip": 8361,
      "wy": 8362,
      "##encer": 8363,
      "sweden": 8364,
      "quoted": 8365,
      "singing": 8366,
      "oliver": 8367,
      "mississippi": 8368,
      "unexp": 8369,
      "jacket": 8370,
      "##ported": 8371,
      "category": 8372,
      "resem": 8373,
      "parade": 8374,
      "latin": 8375,
      "##hy": 8376,
      "dougl": 8377,
      "destruction": 8378,
      "minnes": 8379,
      "oblig": 8380,
      "##bits": 8381,
      "prol": 8382,
      "spurs": 8383,
      "camps": 8384,
      "kansas": 8385,
      "collision": 8386,
      "louise": 8387,
      "appointment": 8388,
      "carn": 8389,
      "photographed": 8390,
      "deployed": 8391,
      "##oral": 8392,
      "practices": 8393,
      "oxy": 8394,
      "##heim": 8395,
      "##iences": 8396,
      "parked": 8397,
      "devon": 8398,
      "instance": 8399,
      "cyber": 8400,
      "bucking": 8401,
      "gathering": 8402,
      "defensive": 8403,
      "institution": 8404,
      "oak": 8405,
      "grim": 8406,
      "employed": 8407,
      "performances": 8408,
      "austin": 8409,
      "license": 8410,
      "protecting": 8411,
      "infant": 8412,
      "krist": 8413,
      "trem": 8414,
      "unexpected": 8415,
      "##ettes": 8416,
      "tools": 8417,
      "##ustration": 8418,
      "offenders": 8419,
      "shif": 8420,
      "clay": 8421,
      "hunter": 8422,
      "##stre": 8423,
      "bread": 8424,
      "qatar": 8425,
      "obes": 8426,
      "promotion": 8427,
      "initiative": 8428,
      "prominent": 8429,
      "literally": 8430,
      "##bag": 8431,
      "minnesota": 8432,
      "##idency": 8433,
      "principal": 8434,
      "##nie": 8435,
      "outstanding": 8436,
      "guardian": 8437,
      "##aping": 8438,
      "roles": 8439,
      "##rus": 8440,
      "##elet": 8441,
      "cousin": 8442,
      "departure": 8443,
      "##walk": 8444,
      "murphy": 8445,
      "remembered": 8446,
      "recruit": 8447,
      "forensic": 8448,
      "deserve": 8449,
      "realise": 8450,
      "experiment": 8451,
      "hosted": 8452,
      "yach": 8453,
      "transplant": 8454,
      "obesity": 8455,
      "##ierra": 8456,
      "barry": 8457,
      "questioning": 8458,
      "indonesia": 8459,
      "##apper": 8460,
      "toys": 8461,
      "##iture": 8462,
      "regardless": 8463,
      "vs": 8464,
      "nether": 8465,
      "organised": 8466,
      "##kyo": 8467,
      "somalia": 8468,
      "wrapped": 8469,
      "thatcher": 8470,
      "obam": 8471,
      "seventh": 8472,
      "decline": 8473,
      "finds": 8474,
      "##cription": 8475,
      "##pts": 8476,
      "##pro": 8477,
      "licence": 8478,
      "broadc": 8479,
      "politician": 8480,
      "barclays": 8481,
      "##lec": 8482,
      "choices": 8483,
      "savile": 8484,
      "##bow": 8485,
      "kidnapping": 8486,
      "assets": 8487,
      "##beat": 8488,
      "breaks": 8489,
      "soviet": 8490,
      "criticized": 8491,
      "borders": 8492,
      "##yer": 8493,
      "##orius": 8494,
      "basically": 8495,
      "settled": 8496,
      "corporate": 8497,
      "alaska": 8498,
      "guidelines": 8499,
      "ultimate": 8500,
      "tokyo": 8501,
      "bloody": 8502,
      "deemed": 8503,
      "tips": 8504,
      "brend": 8505,
      "engineering": 8506,
      "##ahl": 8507,
      "120": 8508,
      "gardens": 8509,
      "##look": 8510,
      "sadd": 8511,
      "tennessee": 8512,
      "diabetes": 8513,
      "pole": 8514,
      "vlad": 8515,
      "exposure": 8516,
      "##abis": 8517,
      "somers": 8518,
      "petr": 8519,
      "##uz": 8520,
      "explan": 8521,
      "unaccept": 8522,
      "forb": 8523,
      "fleet": 8524,
      "wool": 8525,
      "parks": 8526,
      "aggrav": 8527,
      "emphas": 8528,
      "leaked": 8529,
      "pelle": 8530,
      "nigel": 8531,
      "##oir": 8532,
      "youngsters": 8533,
      "muscle": 8534,
      "hacking": 8535,
      "mentioned": 8536,
      "buckingham": 8537,
      "studied": 8538,
      "sustain": 8539,
      "executed": 8540,
      "pistorius": 8541,
      "colombia": 8542,
      "1992": 8543,
      "collabor": 8544,
      "illegally": 8545,
      "holy": 8546,
      "treatments": 8547,
      "separated": 8548,
      "hazard": 8549,
      "toxic": 8550,
      "##oen": 8551,
      "nev": 8552,
      "column": 8553,
      "swing": 8554,
      "pocket": 8555,
      "##star": 8556,
      "passport": 8557,
      "telegraph": 8558,
      "hind": 8559,
      "smiling": 8560,
      "gentle": 8561,
      "pending": 8562,
      "scul": 8563,
      "##mund": 8564,
      "##din": 8565,
      "han": 8566,
      "print": 8567,
      "corp": 8568,
      "fined": 8569,
      "eval": 8570,
      "thorough": 8571,
      "smiles": 8572,
      "##km": 8573,
      "prayers": 8574,
      "brun": 8575,
      "urug": 8576,
      "ri": 8577,
      "outdo": 8578,
      "venez": 8579,
      "battling": 8580,
      "stevens": 8581,
      "enthusi": 8582,
      "selected": 8583,
      "assessment": 8584,
      "entrep": 8585,
      "##mans": 8586,
      "##iques": 8587,
      "##amo": 8588,
      "gadh": 8589,
      "##hill": 8590,
      "sierra": 8591,
      "carries": 8592,
      "uruguay": 8593,
      "inspect": 8594,
      "##abe": 8595,
      "##guard": 8596,
      "defendants": 8597,
      "##umber": 8598,
      "1993": 8599,
      "compound": 8600,
      "##issa": 8601,
      "dominated": 8602,
      "trafficking": 8603,
      "feeding": 8604,
      "spy": 8605,
      "soil": 8606,
      "##ylum": 8607,
      "bishop": 8608,
      "coat": 8609,
      "##nity": 8610,
      "##oko": 8611,
      "airports": 8612,
      "increases": 8613,
      "hub": 8614,
      "##uan": 8615,
      "relie": 8616,
      "confessed": 8617,
      "britons": 8618,
      "ahmed": 8619,
      "barn": 8620,
      "entreprene": 8621,
      "##rate": 8622,
      "midnight": 8623,
      "clinical": 8624,
      "asylum": 8625,
      "theme": 8626,
      "roma": 8627,
      "benn": 8628,
      "misc": 8629,
      "proposals": 8630,
      "powered": 8631,
      "shirts": 8632,
      "venezuel": 8633,
      "soul": 8634,
      "sony": 8635,
      "cannabis": 8636,
      "ignored": 8637,
      "beloved": 8638,
      "troubled": 8639,
      "##ointing": 8640,
      "isolated": 8641,
      "nba": 8642,
      "radar": 8643,
      "uncons": 8644,
      "android": 8645,
      "holmes": 8646,
      "forth": 8647,
      "involves": 8648,
      "##stan": 8649,
      "herald": 8650,
      "lucy": 8651,
      "gadhafi": 8652,
      "impression": 8653,
      "admitting": 8654,
      "upcoming": 8655,
      "musical": 8656,
      "agenda": 8657,
      "cosm": 8658,
      "##ullah": 8659,
      "harassment": 8660,
      "dug": 8661,
      "libyan": 8662,
      "cycle": 8663,
      "lover": 8664,
      "diana": 8665,
      "corps": 8666,
      "##xual": 8667,
      "##olds": 8668,
      "powell": 8669,
      "vit": 8670,
      "transpar": 8671,
      "letting": 8672,
      "protective": 8673,
      "persp": 8674,
      "www": 8675,
      "##ili": 8676,
      "engagement": 8677,
      "##veland": 8678,
      "##working": 8679,
      "darren": 8680,
      "grap": 8681,
      "pursue": 8682,
      "fiction": 8683,
      "##wealth": 8684,
      "unacceptable": 8685,
      "legally": 8686,
      "blond": 8687,
      "maintained": 8688,
      "returns": 8689,
      "notorious": 8690,
      "##eem": 8691,
      "purchased": 8692,
      "transition": 8693,
      "stressed": 8694,
      "venue": 8695,
      "antonio": 8696,
      "anymore": 8697,
      "commonwealth": 8698,
      "rebecca": 8699,
      "netherlands": 8700,
      "courtroom": 8701,
      "genetic": 8702,
      "rou": 8703,
      "reign": 8704,
      "surgeon": 8705,
      "limits": 8706,
      "douglas": 8707,
      "dise": 8708,
      "82": 8709,
      "astronaut": 8710,
      "suburb": 8711,
      "theatre": 8712,
      "spencer": 8713,
      "rover": 8714,
      "stupid": 8715,
      "sentences": 8716,
      "##ello": 8717,
      "caution": 8718,
      "sha": 8719,
      "stopping": 8720,
      "lions": 8721,
      "fires": 8722,
      "cake": 8723,
      "##isan": 8724,
      "producing": 8725,
      "congrat": 8726,
      "opponent": 8727,
      "##mm": 8728,
      "concrete": 8729,
      "bever": 8730,
      "occur": 8731,
      "federer": 8732,
      "mcil": 8733,
      "burnley": 8734,
      "yan": 8735,
      "elements": 8736,
      "physic": 8737,
      "bris": 8738,
      "knox": 8739,
      "desk": 8740,
      "revealing": 8741,
      "##bley": 8742,
      "##agne": 8743,
      "liquid": 8744,
      "dick": 8745,
      "archae": 8746,
      "guid": 8747,
      "comedian": 8748,
      "boats": 8749,
      "moyes": 8750,
      "##hner": 8751,
      "wanting": 8752,
      "pronounced": 8753,
      "boom": 8754,
      "##apers": 8755,
      "viral": 8756,
      "berg": 8757,
      "reserve": 8758,
      "donated": 8759,
      "sussex": 8760,
      "kentucky": 8761,
      "dragged": 8762,
      "murders": 8763,
      "stim": 8764,
      "campaigns": 8765,
      "qc": 8766,
      "illustr": 8767,
      "stagger": 8768,
      "kyle": 8769,
      "youngster": 8770,
      "hopeful": 8771,
      "sque": 8772,
      "extend": 8773,
      "##ums": 8774,
      "dischar": 8775,
      "denver": 8776,
      "thir": 8777,
      "machines": 8778,
      "careful": 8779,
      "hannah": 8780,
      "##otions": 8781,
      "distinct": 8782,
      "vacation": 8783,
      "lun": 8784,
      "simpson": 8785,
      "manuel": 8786,
      "prix": 8787,
      "diagnosis": 8788,
      "shall": 8789,
      "spac": 8790,
      "farmers": 8791,
      "everyday": 8792,
      "30pm": 8793,
      "daw": 8794,
      "ideal": 8795,
      "1990": 8796,
      "##endous": 8797,
      "frustrated": 8798,
      "£50": 8799,
      "compreh": 8800,
      "seas": 8801,
      "screening": 8802,
      "requested": 8803,
      "install": 8804,
      "julie": 8805,
      "mitt": 8806,
      "bradley": 8807,
      "cleveland": 8808,
      "schedule": 8809,
      "climb": 8810,
      "resulting": 8811,
      "pic": 8812,
      "cem": 8813,
      "rifle": 8814,
      "mamm": 8815,
      "brendan": 8816,
      "tesco": 8817,
      "dropping": 8818,
      "##bean": 8819,
      "##apore": 8820,
      "##rov": 8821,
      "finishing": 8822,
      "volunteer": 8823,
      "overcome": 8824,
      "cens": 8825,
      "##ione": 8826,
      "fol": 8827,
      "extrad": 8828,
      "sacri": 8829,
      "sut": 8830,
      "whis": 8831,
      "alliance": 8832,
      "boeing": 8833,
      "##bian": 8834,
      "##ancing": 8835,
      "##naev": 8836,
      "ranked": 8837,
      "parker": 8838,
      "sportsmail": 8839,
      "reserved": 8840,
      "singapore": 8841,
      "##inely": 8842,
      "caring": 8843,
      "elev": 8844,
      "paed": 8845,
      "##mb": 8846,
      "fate": 8847,
      "dock": 8848,
      "tsarnaev": 8849,
      "##appy": 8850,
      "savings": 8851,
      "giants": 8852,
      "dign": 8853,
      "joh": 8854,
      "profits": 8855,
      "exha": 8856,
      "grief": 8857,
      "explosive": 8858,
      "##imir": 8859,
      "horrible": 8860,
      "nancy": 8861,
      "actors": 8862,
      "bour": 8863,
      "##mare": 8864,
      "boe": 8865,
      "ease": 8866,
      "boxes": 8867,
      "empire": 8868,
      "engineers": 8869,
      "scrut": 8870,
      "romantic": 8871,
      "sessions": 8872,
      "patch": 8873,
      "##oons": 8874,
      "##ucker": 8875,
      "eag": 8876,
      "signal": 8877,
      "replacement": 8878,
      "historical": 8879,
      "healthcare": 8880,
      "downtown": 8881,
      "championships": 8882,
      "brands": 8883,
      "fabric": 8884,
      "sacked": 8885,
      "tong": 8886,
      "##asty": 8887,
      "turner": 8888,
      "conservation": 8889,
      "ney": 8890,
      "talented": 8891,
      "indiana": 8892,
      "substance": 8893,
      "fence": 8894,
      "valuable": 8895,
      "##itated": 8896,
      "cooking": 8897,
      "landscape": 8898,
      "outp": 8899,
      "wider": 8900,
      "carib": 8901,
      "fare": 8902,
      "creation": 8903,
      "##opsy": 8904,
      "jumping": 8905,
      "mcilroy": 8906,
      "ivan": 8907,
      "##oos": 8908,
      "##kel": 8909,
      "athlete": 8910,
      "lauren": 8911,
      "voc": 8912,
      "chan": 8913,
      "##ii": 8914,
      "##jan": 8915,
      "siblings": 8916,
      "dear": 8917,
      "dale": 8918,
      "##ht": 8919,
      "##ussels": 8920,
      "borrow": 8921,
      "operated": 8922,
      "vietnam": 8923,
      "##rd": 8924,
      "shaped": 8925,
      "gifts": 8926,
      "##ulating": 8927,
      "unpre": 8928,
      "wage": 8929,
      "1960s": 8930,
      "handful": 8931,
      "trials": 8932,
      "oz": 8933,
      "##ixon": 8934,
      "harsh": 8935,
      "somehow": 8936,
      "ruth": 8937,
      "hollande": 8938,
      "##lie": 8939,
      "graphic": 8940,
      "tamp": 8941,
      "realize": 8942,
      "cape": 8943,
      "delays": 8944,
      "toddler": 8945,
      "tablet": 8946,
      "secured": 8947,
      "improving": 8948,
      "kurdish": 8949,
      "unpreced": 8950,
      "deport": 8951,
      "random": 8952,
      "unprecedented": 8953,
      "listening": 8954,
      "portrait": 8955,
      "myster": 8956,
      "examination": 8957,
      "stam": 8958,
      "addiction": 8959,
      "calories": 8960,
      "saint": 8961,
      "##opez": 8962,
      "recognition": 8963,
      "cass": 8964,
      "##eno": 8965,
      "remo": 8966,
      "consistent": 8967,
      "piz": 8968,
      "terrified": 8969,
      "bm": 8970,
      "felony": 8971,
      "discussions": 8972,
      "intimid": 8973,
      "##reen": 8974,
      "nightmare": 8975,
      "invasion": 8976,
      "remem": 8977,
      "detain": 8978,
      "##atican": 8979,
      "differences": 8980,
      "##bac": 8981,
      "##emic": 8982,
      "swept": 8983,
      "bride": 8984,
      "blocks": 8985,
      "##hall": 8986,
      "sue": 8987,
      "bleeding": 8988,
      "foul": 8989,
      "dealt": 8990,
      "neymar": 8991,
      "minim": 8992,
      "kab": 8993,
      "stafford": 8994,
      "theater": 8995,
      "tories": 8996,
      "parliamentary": 8997,
      "unconscious": 8998,
      "mansl": 8999,
      "##lu": 9000,
      "facial": 9001,
      "hud": 9002,
      "promising": 9003,
      "vatican": 9004,
      "shake": 9005,
      "polar": 9006,
      "winger": 9007,
      "lag": 9008,
      "hardly": 9009,
      "panic": 9010,
      "##li": 9011,
      "boot": 9012,
      "engage": 9013,
      "runner": 9014,
      "classroom": 9015,
      "diseases": 9016,
      "##bey": 9017,
      "heroin": 9018,
      "micro": 9019,
      "manslaughter": 9020,
      "institutions": 9021,
      "wooden": 9022,
      "conversations": 9023,
      "catherine": 9024,
      "explosives": 9025,
      "##umm": 9026,
      "##olved": 9027,
      "recre": 9028,
      "emirates": 9029,
      "heroes": 9030,
      "wisc": 9031,
      "wem": 9032,
      "evil": 9033,
      "seemingly": 9034,
      "##icy": 9035,
      "agric": 9036,
      "assembly": 9037,
      "recip": 9038,
      "##onsin": 9039,
      "##onia": 9040,
      "sophie": 9041,
      "nevada": 9042,
      "84": 9043,
      "indec": 9044,
      "claire": 9045,
      "pledged": 9046,
      "generations": 9047,
      "passes": 9048,
      "##club": 9049,
      "kilometers": 9050,
      "vib": 9051,
      "catal": 9052,
      "brady": 9053,
      "##isons": 9054,
      "##oning": 9055,
      "starring": 9056,
      "##ouring": 9057,
      "##uten": 9058,
      "laughing": 9059,
      "oliv": 9060,
      "genuine": 9061,
      "ric": 9062,
      "##gb": 9063,
      "loose": 9064,
      "terminal": 9065,
      "depth": 9066,
      "constitutional": 9067,
      "##armed": 9068,
      "pointing": 9069,
      "trauma": 9070,
      "oxygen": 9071,
      "flex": 9072,
      "airstri": 9073,
      "##lett": 9074,
      "reasonable": 9075,
      "tribun": 9076,
      "sergeant": 9077,
      "agricult": 9078,
      "##tershire": 9079,
      "maur": 9080,
      "##stream": 9081,
      "wisconsin": 9082,
      "hostage": 9083,
      "ori": 9084,
      "##iveness": 9085,
      "anxiety": 9086,
      "deficit": 9087,
      "dresses": 9088,
      "dw": 9089,
      "3d": 9090,
      "kirk": 9091,
      "cad": 9092,
      "bite": 9093,
      "runway": 9094,
      "undergo": 9095,
      "##unction": 9096,
      "competing": 9097,
      "arguing": 9098,
      "dolph": 9099,
      "awful": 9100,
      "##aba": 9101,
      "schol": 9102,
      "mosque": 9103,
      "massacre": 9104,
      "responding": 9105,
      "plun": 9106,
      "intensive": 9107,
      "refusing": 9108,
      "aims": 9109,
      "inner": 9110,
      "##otes": 9111,
      "brooks": 9112,
      "rapidly": 9113,
      "methods": 9114,
      "wembley": 9115,
      "gps": 9116,
      "##ested": 9117,
      "difficulties": 9118,
      "holes": 9119,
      "ine": 9120,
      "affects": 9121,
      "homicide": 9122,
      "##ructed": 9123,
      "gram": 9124,
      "bou": 9125,
      "keeper": 9126,
      "underwent": 9127,
      "hond": 9128,
      "nathan": 9129,
      "naturally": 9130,
      "monaco": 9131,
      "urging": 9132,
      "chiefs": 9133,
      "##pa": 9134,
      "affordable": 9135,
      "judgment": 9136,
      "examined": 9137,
      "conclusion": 9138,
      "launching": 9139,
      "garner": 9140,
      "gig": 9141,
      "fulf": 9142,
      "bald": 9143,
      "##ares": 9144,
      "convictions": 9145,
      "owen": 9146,
      "##ashire": 9147,
      "relaxed": 9148,
      "elig": 9149,
      "equally": 9150,
      "1989": 9151,
      "boasts": 9152,
      "stream": 9153,
      "damages": 9154,
      "boehner": 9155,
      "##ses": 9156,
      "79": 9157,
      "##rent": 9158,
      "covers": 9159,
      "dal": 9160,
      "arrives": 9161,
      "brussels": 9162,
      "racism": 9163,
      "lancashire": 9164,
      "helm": 9165,
      "incor": 9166,
      "maid": 9167,
      "terrifying": 9168,
      "##rick": 9169,
      "caribbean": 9170,
      "1991": 9171,
      "bacteria": 9172,
      "##tv": 9173,
      "##bish": 9174,
      "exter": 9175,
      "triggered": 9176,
      "##antha": 9177,
      "disturbing": 9178,
      "cott": 9179,
      "buzz": 9180,
      "grie": 9181,
      "brig": 9182,
      "kath": 9183,
      "paraly": 9184,
      "sized": 9185,
      "nightclub": 9186,
      "suspension": 9187,
      "nutr": 9188,
      "confronted": 9189,
      "robot": 9190,
      "##erg": 9191,
      "skir": 9192,
      "gotten": 9193,
      "samples": 9194,
      "expenses": 9195,
      "severely": 9196,
      "organized": 9197,
      "##itious": 9198,
      "parole": 9199,
      "executives": 9200,
      "leather": 9201,
      "beth": 9202,
      "angela": 9203,
      "lut": 9204,
      "##icked": 9205,
      "phoen": 9206,
      "demonstrations": 9207,
      "##dles": 9208,
      "##emor": 9209,
      "wheelchair": 9210,
      "carlos": 9211,
      "elementary": 9212,
      "kidnapped": 9213,
[...]
