{
  "version": "1.0",
  "truncation": null,
  "padding": null,
  "added_tokens": [
    {
      "id": 0,
      "content": "[START]",
      "single_word": false,
      "lstrip": false,
      "rstrip": false,
      "normalized": false,
      "special": true
    },
    {
      "id": 1,
      "content": "[END]",
      "single_word": false,
      "lstrip": false,
      "rstrip": false,
      "normalized": false,
      "special": true
    },
    {
      "id": 2,
      "content": "[SEP]",
      "single_word": false,
      "lstrip": false,
      "rstrip": false,
      "normalized": false,
      "special": true
    },
    {
      "id": 3,
      "content": "[UNK]",
      "single_word": false,
      "lstrip": false,
      "rstrip": false,
      "normalized": false,
      "special": true
    },
    {
      "id": 4,
      "content": "[FILL]",
      "single_word": false,
      "lstrip": false,
      "rstrip": false,
      "normalized": false,
      "special": true
    }
  ],
  "normalizer": {
    "type": "BertNormalizer",
    "clean_text": true,
    "handle_chinese_chars": true,
    "strip_accents": null,
    "lowercase": true
  },
  "pre_tokenizer": {
    "type": "BertPreTokenizer"
  },
  "post_processor": {
    "type": "TemplateProcessing",
    "single": [
      {
        "SpecialToken": {
          "id": "[START]",
          "type_id": 0
        }
      },
      {
        "Sequence": {
          "id": "A",
          "type_id": 0
        }
      },
      {
        "SpecialToken": {
          "id": "[END]",
          "type_id": 0
        }
      }
    ],
    "pair": [
      {
        "SpecialToken": {
          "id": "[START]",
          "type_id": 0
        }
      },
      {
        "Sequence": {
          "id": "A",
          "type_id": 0
        }
      },
      {
        "SpecialToken": {
          "id": "[SEP]",
          "type_id": 0
        }
      },
      {
        "Sequence": {
          "id": "B",
          "type_id": 1
        }
      },
      {
        "SpecialToken": {
          "id": "[END]",
          "type_id": 1
        }
      }
    ],
    "special_tokens": {
      "[END]": {
        "id": "[END]",
        "ids": [
          1
        ],
        "tokens": [
          "[END]"
        ]
      },
      "[SEP]": {
        "id": "[SEP]",
        "ids": [
          2
        ],
        "tokens": [
          "[SEP]"
        ]
      },
      "[START]": {
        "id": "[START]",
        "ids": [
          0
        ],
        "tokens": [
          "[START]"
        ]
      }
    }
  },
  "decoder": {
    "type": "WordPiece",
    "prefix": "##",
    "cleanup": true
  },
  "model": {
    "type": "WordPiece",
    "unk_token": "[UNK]",
    "continuing_subword_prefix": "##",
    "max_input_chars_per_word": 100,
    "vocab": {
      "[START]": 0,
      "[END]": 1,
      "[SEP]": 2,
      "[UNK]": 3,
      "[FILL]": 4,
      "!": 5,
      "\"": 6,
      "#": 7,
      "$": 8,
      "%": 9,
      "&": 10,
      "'": 11,
      "(": 12,
      ")": 13,
      "*": 14,
      "+": 15,
      ",": 16,
      "-": 17,
      ".": 18,
      "/": 19,
      "0": 20,
      "1": 21,
      "2": 22,
      "3": 23,
      "4": 24,
      "5": 25,
      "6": 26,
      "7": 27,
      "8": 28,
      "9": 29,
      ":": 30,
      ";": 31,
      "<": 32,
      "=": 33,
      ">": 34,
      "?": 35,
      "@": 36,
      "[": 37,
      "\\": 38,
      "]": 39,
      "^": 40,
      "_": 41,
      "`": 42,
      "a": 43,
      "b": 44,
      "c": 45,
      "d": 46,
      "e": 47,
      "f": 48,
      "g": 49,
      "h": 50,
      "i": 51,
      "j": 52,
      "k": 53,
      "l": 54,
      "m": 55,
      "n": 56,
      "o": 57,
      "p": 58,
      "q": 59,
      "r": 60,
      "s": 61,
      "t": 62,
      "u": 63,
      "v": 64,
      "w": 65,
      "x": 66,
      "y": 67,
      "z": 68,
      "{": 69,
      "|": 70,
      "}": 71,
      "¯": 72,
      "°": 73,
      "´": 74,
      "¿": 75,
      "–": 76,
      "—": 77,
      "‘": 78,
      "’": 79,
      "“": 80,
      "”": 81,
      "•": 82,
      "…": 83,
      "☑": 84,
      "➡": 85,
      "ツ": 86,
      "##r": 87,
      "##e": 88,
      "##n": 89,
      "##g": 90,
      "##a": 91,
      "##l": 92,
      "##y": 93,
      "##m": 94,
      "##o": 95,
      "##t": 96,
      "##x": 97,
      "##p": 98,
      "##i": 99,
      "##c": 100,
      "##h": 101,
      "##s": 102,
      "##u": 103,
      "##k": 104,
      "##d": 105,
      "##v": 106,
      "##f": 107,
      "##b": 108,
      "##w": 109,
      "##7": 110,
      "##3": 111,
      "##1": 112,
      "##z": 113,
      "##j": 114,
      "##8": 115,
      "##2": 116,
      "##0": 117,
      "##6": 118,
      "##5": 119,
      "##q": 120,
      "##4": 121,
      "##9": 122,
      "##´": 123,
      "##°": 124,
      "th": 125,
      "##er": 126,
      "the": 127,
      "##in": 128,
      "##on": 129,
      "##at": 130,
      "##en": 131,
      "##es": 132,
      "##ed": 133,
      "##or": 134,
      "##an": 135,
      "in": 136,
      "##al": 137,
      "##it": 138,
      "##ing": 139,
      "to": 140,
      "##ar": 141,
      "an": 142,
      "##ic": 143,
      "##is": 144,
      "##ion": 145,
      "of": 146,
      "##ou": 147,
      "##id": 148,
      "##as": 149,
      "##ent": 150,
      "re": 151,
      "and": 152,
      "##om": 153,
      "##il": 154,
      "##re": 155,
      "on": 156,
      "sa": 157,
      "##ter": 158,
      "pr": 159,
      "##ec": 160,
      "for": 161,
      "##el": 162,
      "st": 163,
      "##ur": 164,
      "##ad": 165,
      "wh": 166,
      "##ot": 167,
      "##ation": 168,
      "##ig": 169,
      "said": 170,
      "##us": 171,
      "##ol": 172,
      "##mp": 173,
      "##ut": 174,
      "##ve": 175,
      "tr": 176,
      "##et": 177,
      "##ay": 178,
      "##ac": 179,
      "##os": 180,
      "that": 181,
      "##le": 182,
      "##ment": 183,
      "be": 184,
      "##ts": 185,
      "##ate": 186,
      "is": 187,
      "##ver": 188,
      "##ld": 189,
      "con": 190,
      "##ow": 191,
      "he": 192,
      "de": 193,
      "##ill": 194,
      "##ce": 195,
      "##ly": 196,
      "##th": 197,
      "##ir": 198,
      "as": 199,
      "##ith": 200,
      "##im": 201,
      "##ers": 202,
      "was": 203,
      "with": 204,
      "##am": 205,
      "fr": 206,
      "##tr": 207,
      "al": 208,
      "##ump": 209,
      "ch": 210,
      "un": 211,
      "##op": 212,
      "trump": 213,
      "##ess": 214,
      "ne": 215,
      "##ould": 216,
      "com": 217,
      "rep": 218,
      "it": 219,
      "##ul": 220,
      "##est": 221,
      "##oc": 222,
      "at": 223,
      "##pp": 224,
      "by": 225,
      "##ect": 226,
      "has": 227,
      "##oun": 228,
      "##ial": 229,
      "su": 230,
      "le": 231,
      "##ters": 232,
      "##ain": 233,
      "sh": 234,
      "##and": 235,
      "ha": 236,
      "##ies": 237,
      "##ak": 238,
      "##ia": 239,
      "##ch": 240,
      "we": 241,
      "##st": 242,
      "##art": 243,
      "pres": 244,
      "##ity": 245,
      "##ere": 246,
      "##ident": 247,
      "his": 248,
      "##se": 249,
      "not": 250,
      "##day": 251,
      "from": 252,
      "##ore": 253,
      "##un": 254,
      "##ub": 255,
      "##ge": 256,
      "##iv": 257,
      "go": 258,
      "president": 259,
      "ac": 260,
      "have": 261,
      "##ican": 262,
      "ex": 263,
      "##igh": 264,
      "sp": 265,
      "##ort": 266,
      "##ud": 267,
      "ag": 268,
      "se": 269,
      "ad": 270,
      "##ubl": 271,
      "##fic": 272,
      "would": 273,
      "pol": 274,
      "##ive": 275,
      "##ign": 276,
      "##ian": 277,
      "me": 278,
      "##ab": 279,
      "##ack": 280,
      "##ear": 281,
      "pro": 282,
      "ab": 283,
      "af": 284,
      "##our": 285,
      "state": 286,
      "en": 287,
      "are": 288,
      "##ions": 289,
      "##all": 290,
      "##uters": 291,
      "##ary": 292,
      "reuters": 293,
      "##end": 294,
      "who": 295,
      "##ast": 296,
      "or": 297,
      "cl": 298,
      "##mer": 299,
      "20": 300,
      "will": 301,
      "but": 302,
      "##ist": 303,
      "res": 304,
      "##ich": 305,
      "part": 306,
      "##ie": 307,
      "had": 308,
      "new": 309,
      "ar": 310,
      "##ton": 311,
      "##ates": 312,
      "cr": 313,
      "##vern": 314,
      "##uc": 315,
      "##der": 316,
      "##ations": 317,
      "##aw": 318,
      "ca": 319,
      "govern": 320,
      "br": 321,
      "##mb": 322,
      "el": 323,
      "offic": 324,
      "republ": 325,
      "gr": 326,
      "##out": 327,
      "republican": 328,
      "##man": 329,
      "##ence": 330,
      "##gh": 331,
      "##inis": 332,
      "##if": 333,
      "year": 334,
      "inc": 335,
      "##ome": 336,
      "its": 337,
      "pl": 338,
      "##ok": 339,
      "coun": 340,
      "they": 341,
      "##ip": 342,
      "sec": 343,
      "##ong": 344,
      "##gr": 345,
      "sen": 346,
      "wor": 347,
      "mon": 348,
      "dem": 349,
      "##ib": 350,
      "this": 351,
      "which": 352,
      "##uss": 353,
      "##hing": 354,
      "dis": 355,
      "over": 356,
      "pe": 357,
      "after": 358,
      "##ell": 359,
      "government": 360,
      "##iz": 361,
      "comm": 362,
      "been": 363,
      "##ant": 364,
      "##od": 365,
      "##ited": 366,
      "elect": 367,
      "all": 368,
      "hou": 369,
      "were": 370,
      "##ost": 371,
      "law": 372,
      "##ight": 373,
      "##ure": 374,
      "##itic": 375,
      "##ice": 376,
      "##ust": 377,
      "##ard": 378,
      "dec": 379,
      "tw": 380,
      "inter": 381,
      "acc": 382,
      "exp": 383,
      "##ther": 384,
      "##ocr": 385,
      "##ated": 386,
      "##ap": 387,
      "democr": 388,
      "about": 389,
      "201": 390,
      "more": 391,
      "int": 392,
      "out": 393,
      "##ding": 394,
      "##her": 395,
      "house": 396,
      "##ek": 397,
      "##ag": 398,
      "per": 399,
      "states": 400,
      "don": 401,
      "##ition": 402,
      "their": 403,
      "##ik": 404,
      "##pt": 405,
      "democrat": 406,
      "##ine": 407,
      "##so": 408,
      "lead": 409,
      "##esday": 410,
      "##ite": 411,
      "no": 412,
      "##ue": 413,
      "comp": 414,
      "say": 415,
      "##ey": 416,
      "also": 417,
      "ob": 418,
      "##anc": 419,
      "##ose": 420,
      "##ough": 421,
      "united": 422,
      "##ade": 423,
      "app": 424,
      "##eral": 425,
      "##for": 426,
      "peop": 427,
      "##ely": 428,
      "people": 429,
      "##ace": 430,
      "##cent": 431,
      "##ational": 432,
      "##ous": 433,
      "man": 434,
      "inv": 435,
      "official": 436,
      "##ra": 437,
      "russ": 438,
      "##ire": 439,
      "##ass": 440,
      "##fer": 441,
      "##ime": 442,
      "##ans": 443,
      "do": 444,
      "##try": 445,
      "##ail": 446,
      "nor": 447,
      "up": 448,
      "##ep": 449,
      "str": 450,
      "ind": 451,
      "##ish": 452,
      "##enc": 453,
      "##ree": 454,
      "##em": 455,
      "##qu": 456,
      "att": 457,
      "co": 458,
      "##ilit": 459,
      "##av": 460,
      "told": 461,
      "could": 462,
      "cons": 463,
      "reg": 464,
      "##age": 465,
      "supp": 466,
      "some": 467,
      "##ors": 468,
      "##ob": 469,
      "##itt": 470,
      "##ile": 471,
      "##ake": 472,
      "##lud": 473,
      "bill": 474,
      "one": 475,
      "fir": 476,
      "camp": 477,
      "washing": 478,
      "washington": 479,
      "##ide": 480,
      "##ied": 481,
      "##ance": 482,
      "last": 483,
      "minis": 484,
      "##oup": 485,
      "ta": 486,
      "two": 487,
      "##ound": 488,
      "##oll": 489,
      "again": 490,
      "##ens": 491,
      "if": 492,
      "##ang": 493,
      "party": 494,
      "call": 495,
      "milit": 496,
      "##ks": 497,
      "##own": 498,
      "mar": 499,
      "election": 500,
      "##act": 501,
      "includ": 502,
      "##ict": 503,
      "dep": 504,
      "##erv": 505,
      "imp": 506,
      "##00": 507,
      "##gress": 508,
      "than": 509,
      "##are": 510,
      "##iss": 511,
      "she": 512,
      "other": 513,
      "##ran": 514,
      "vot": 515,
      "there": 516,
      "cour": 517,
      "act": 518,
      "mo": 519,
      "##aign": 520,
      "campaign": 521,
      "sy": 522,
      "##ally": 523,
      "obam": 524,
      "##con": 525,
      "week": 526,
      "##ald": 527,
      "politic": 528,
      "can": 529,
      "work": 530,
      "group": 531,
      "chin": 532,
      "any": 533,
      "against": 534,
      "##um": 535,
      "her": 536,
      "secur": 537,
      "##oss": 538,
      "north": 539,
      "##ct": 540,
      "##ase": 541,
      "former": 542,
      "bl": 543,
      "##ince": 544,
      "##ments": 545,
      "percent": 546,
      "##mm": 547,
      "tax": 548,
      "so": 549,
      "when": 550,
      "invest": 551,
      "donald": 552,
      "pre": 553,
      "hel": 554,
      "##mber": 555,
      "##lear": 556,
      "bec": 557,
      "under": 558,
      "back": 559,
      "##ro": 560,
      "fin": 561,
      "leg": 562,
      "rel": 563,
      "amer": 564,
      "ev": 565,
      "security": 566,
      "adm": 567,
      "op": 568,
      "##arl": 569,
      "kore": 570,
      "qu": 571,
      "war": 572,
      "clin": 573,
      "##we": 574,
      "bet": 575,
      "##ope": 576,
      "##ative": 577,
      "court": 578,
      "white": 579,
      "def": 580,
      "##ff": 581,
      "##ond": 582,
      "him": 583,
      "dr": 584,
      "into": 585,
      "##ked": 586,
      "cont": 587,
      "##oin": 588,
      "clinton": 589,
      "am": 590,
      "##arg": 591,
      "obama": 592,
      "national": 593,
      "may": 594,
      "congress": 595,
      "senate": 596,
      "##urs": 597,
      "##ert": 598,
      "month": 599,
      "ter": 600,
      "##reat": 601,
      "##ned": 602,
      "##ency": 603,
      "adminis": 604,
      "ban": 605,
      "ma": 606,
      "##eign": 607,
      "##tration": 608,
      "te": 609,
      "##uring": 610,
      "##og": 611,
      "##use": 612,
      "##uct": 613,
      "support": 614,
      "contr": 615,
      "us": 616,
      "minister": 617,
      "just": 618,
      "country": 619,
      "first": 620,
      "fl": 621,
      "##ator": 622,
      "##ach": 623,
      "opp": 624,
      "##res": 625,
      "ass": 626,
      "med": 627,
      "china": 628,
      "imm": 629,
      "##form": 630,
      "officials": 631,
      "foreign": 632,
      "##oy": 633,
      "tu": 634,
      "##ected": 635,
      "lik": 636,
      "spok": 637,
      "what": 638,
      "add": 639,
      "conf": 640,
      "tur": 641,
      "resp": 642,
      "eur": 643,
      "##ee": 644,
      "##iew": 645,
      "isl": 646,
      "administration": 647,
      "democratic": 648,
      "bus": 649,
      "gen": 650,
      "##able": 651,
      "##ug": 652,
      "them": 653,
      "since": 654,
      "tuesday": 655,
      "russia": 656,
      "mill": 657,
      "meet": 658,
      "iss": 659,
      "wed": 660,
      "military": 661,
      "##ft": 662,
      "day": 663,
      "including": 664,
      "did": 665,
      "##ower": 666,
      "presidential": 667,
      "##ious": 668,
      "##ret": 669,
      "committ": 670,
      "##fore": 671,
      "rem": 672,
      "plan": 673,
      "##nesday": 674,
      "wednesday": 675,
      "##ons": 676,
      "sc": 677,
      "##one": 678,
      "##ities": 679,
      "##ives": 680,
      "polic": 681,
      "prot": 682,
      "rec": 683,
      "cor": 684,
      "##ating": 685,
      "##ces": 686,
      "years": 687,
      "##old": 688,
      "car": 689,
      "publ": 690,
      "before": 691,
      "des": 692,
      "##air": 693,
      "econ": 694,
      "econom": 695,
      "deal": 696,
      "##ult": 697,
      "##ween": 698,
      "thurs": 699,
      "##iday": 700,
      "thursday": 701,
      "between": 702,
      "political": 703,
      "sou": 704,
      "##ning": 705,
      "spe": 706,
      "news": 707,
      "##ief": 708,
      "adv": 709,
      "statement": 710,
      "fed": 711,
      "our": 712,
      "american": 713,
      "##ier": 714,
      "ins": 715,
      "prov": 716,
      "during": 717,
      "tal": 718,
      "##ecut": 719,
      "time": 720,
      "how": 721,
      "##ah": 722,
      "friday": 723,
      "##ior": 724,
      "most": 725,
      "iran": 726,
      "korea": 727,
      "report": 728,
      "##aking": 729,
      "disc": 730,
      "bar": 731,
      "while": 732,
      "prop": 733,
      "##ision": 734,
      "monday": 735,
      "maj": 736,
      "attack": 737,
      "accor": 738,
      "need": 739,
      "major": 740,
      "##ether": 741,
      "syr": 742,
      "conc": 743,
      "##alth": 744,
      "##resent": 745,
      "depart": 746,
      "end": 747,
      "aut": 748,
      "represent": 749,
      "rul": 750,
      "##ased": 751,
      "vote": 752,
      "republicans": 753,
      "fun": 754,
      "called": 755,
      "##lin": 756,
      "##ame": 757,
      "spokes": 758,
      "should": 759,
      "cent": 760,
      "##urr": 761,
      "europe": 762,
      "##ged": 763,
      "office": 764,
      "##ional": 765,
      "##oth": 766,
      "##orters": 767,
      "many": 768,
      "investig": 769,
      "##iness": 770,
      "kn": 771,
      "critic": 772,
      "russian": 773,
      "ref": 774,
      "##ork": 775,
      "intern": 776,
      "requ": 777,
      "##hn": 778,
      "public": 779,
      "million": 780,
      "##vel": 781,
      "help": 782,
      "now": 783,
      "ra": 784,
      "##ved": 785,
      "federal": 786,
      "secret": 787,
      "fe": 788,
      "##ause": 789,
      "sign": 790,
      "dire": 791,
      "such": 792,
      "committee": 793,
      "made": 794,
      "ret": 795,
      "business": 796,
      "##vers": 797,
      "##ory": 798,
      "19": 799,
      "long": 800,
      "##als": 801,
      "nom": 802,
      "leaders": 803,
      "compan": 804,
      "bor": 805,
      "##ights": 806,
      "high": 807,
      "where": 808,
      "direct": 809,
      "you": 810,
      "##xt": 811,
      "000": 812,
      "put": 813,
      "##ings": 814,
      "##oint": 815,
      "sch": 816,
      "##hip": 817,
      "south": 818,
      "my": 819,
      "police": 820,
      "##erson": 821,
      "according": 822,
      "because": 823,
      "##ook": 824,
      "islam": 825,
      "department": 826,
      "##osition": 827,
      "air": 828,
      "only": 829,
      "##me": 830,
      "general": 831,
      "vi": 832,
      "##ink": 833,
      "trade": 834,
      "trans": 835,
      "##arly": 836,
      "##osed": 837,
      "##owing": 838,
      "saying": 839,
      "##ise": 840,
      "serv": 841,
      "policy": 842,
      "ver": 843,
      "##view": 844,
      "##isl": 845,
      "bu": 846,
      "those": 847,
      "##ents": 848,
      "cand": 849,
      "thr": 850,
      "##ism": 851,
      "##ind": 852,
      "health": 853,
      "##wn": 854,
      "##ible": 855,
      "candid": 856,
      "##owed": 857,
      "cap": 858,
      "arm": 859,
      "miss": 860,
      "brit": 861,
      "gu": 862,
      "legisl": 863,
      "power": 864,
      "##ants": 865,
      "##ility": 866,
      "leader": 867,
      "secretary": 868,
      "##ting": 869,
      "ann": 870,
      "##ful": 871,
      "##ater": 872,
      "##tries": 873,
      "##ange": 874,
      "ph": 875,
      "##ists": 876,
      "three": 877,
      "par": 878,
      "vo": 879,
      "run": 880,
      "city": 881,
      "##ized": 882,
      "##ick": 883,
      "both": 884,
      "get": 885,
      "##mbers": 886,
      "set": 887,
      "##uclear": 888,
      "##uch": 889,
      "next": 890,
      "make": 891,
      "##ild": 892,
      "bel": 893,
      "del": 894,
      "##orn": 895,
      "down": 896,
      "kill": 897,
      "take": 898,
      "want": 899,
      "##gan": 900,
      "prom": 901,
      "nuclear": 902,
      "##io": 903,
      "##ene": 904,
      "det": 905,
      "democrats": 906,
      "off": 907,
      "being": 908,
      "whether": 909,
      "##used": 910,
      "billion": 911,
      "countries": 912,
      "##mak": 913,
      "order": 914,
      "rights": 915,
      "immig": 916,
      "eu": 917,
      "##ual": 918,
      "##ds": 919,
      "##ward": 920,
      "vis": 921,
      "##hor": 922,
      "##gram": 923,
      "##atives": 924,
      "##ying": 925,
      "##tern": 926,
      "move": 927,
      "##ution": 928,
      "bo": 929,
      "##ress": 930,
      "200": 931,
      "world": 932,
      "hu": 933,
      "##erman": 934,
      "##ues": 935,
      "terr": 936,
      "##led": 937,
      "##other": 938,
      "program": 939,
      "senator": 940,
      "jud": 941,
      "cond": 942,
      "head": 943,
      "##ath": 944,
      "##ands": 945,
      "##ised": 946,
      "##ock": 947,
      "ser": 948,
      "##ern": 949,
      "york": 950,
      "wr": 951,
      "through": 952,
      "em": 953,
      "meeting": 954,
      "international": 955,
      "author": 956,
      "den": 957,
      "##gy": 958,
      "agree": 959,
      "##cc": 960,
      "har": 961,
      "##ady": 962,
      "deb": 963,
      "##ru": 964,
      "##ica": 965,
      "##leg": 966,
      "viol": 967,
      "ro": 968,
      "far": 969,
      "##ital": 970,
      "##par": 971,
      "pass": 972,
      "##ical": 973,
      "sub": 974,
      "##ests": 975,
      "inf": 976,
      "ira": 977,
      "lawmak": 978,
      "top": 979,
      "##ling": 980,
      "##ese": 981,
      "sun": 982,
      "main": 983,
      "way": 984,
      "iraq": 985,
      "turk": 986,
      "like": 987,
      "##anct": 988,
      "##att": 989,
      "sanct": 990,
      "fam": 991,
      "spokesman": 992,
      "members": 993,
      "##ets": 994,
      "german": 995,
      "conserv": 996,
      "mex": 997,
      "agency": 998,
      "prev": 999,
      "##ico": 1000,
      "bre": 1001,
      "win": 1002,
      "##ced": 1003,
      "##ense": 1004,
      "##its": 1005,
      "##ices": 1006,
      "##ms": 1007,
      "sour": 1008,
      "##ood": 1009,
      "##ily": 1010,
      "coal": 1011,
      "still": 1012,
      "european": 1013,
      "min": 1014,
      "commun": 1015,
      "##ider": 1016,
      "##ending": 1017,
      "##stit": 1018,
      "est": 1019,
      "very": 1020,
      "##ven": 1021,
      "mus": 1022,
      "mark": 1023,
      "##epend": 1024,
      "media": 1025,
      "independ": 1026,
      "contin": 1027,
      "even": 1028,
      "asked": 1029,
      "##mar": 1030,
      "##ought": 1031,
      "economic": 1032,
      "reporters": 1033,
      "##orts": 1034,
      "think": 1035,
      "comment": 1036,
      "threat": 1037,
      "foll": 1038,
      "##lim": 1039,
      "ever": 1040,
      "chief": 1041,
      "press": 1042,
      "##ention": 1043,
      "relations": 1044,
      "talks": 1045,
      "bud": 1046,
      "prime": 1047,
      "##ave": 1048,
      "prob": 1049,
      "going": 1050,
      "##way": 1051,
      "neg": 1052,
      "decision": 1053,
      "well": 1054,
      "##ead": 1055,
      "execut": 1056,
      "appro": 1057,
      "##ty": 1058,
      "forces": 1059,
      "pay": 1060,
      "id": 1061,
      "border": 1062,
      "##ner": 1063,
      "##ving": 1064,
      "##ash": 1065,
      "sanctions": 1066,
      "spec": 1067,
      "islamic": 1068,
      "##ix": 1069,
      "sur": 1070,
      "proc": 1071,
      "poss": 1072,
      "jo": 1073,
      "ke": 1074,
      "##ech": 1075,
      "poll": 1076,
      "clear": 1077,
      "sever": 1078,
      "##ained": 1079,
      "regul": 1080,
      "soc": 1081,
      "recent": 1082,
      "seek": 1083,
      "##reed": 1084,
      "##ures": 1085,
      "##az": 1086,
      "groups": 1087,
      "curr": 1088,
      "intell": 1089,
      "financ": 1090,
      "##oti": 1091,
      "right": 1092,
      "##ya": 1093,
      "oper": 1094,
      "sup": 1095,
      "##ry": 1096,
      "lawmakers": 1097,
      "##ference": 1098,
      "own": 1099,
      "##ration": 1100,
      "##els": 1101,
      "parl": 1102,
      "big": 1103,
      "syria": 1104,
      "ed": 1105,
      "##ately": 1106,
      "##ians": 1107,
      "discuss": 1108,
      "quest": 1109,
      "parlia": 1110,
      "##elf": 1111,
      "2016": 1112,
      "human": 1113,
      "##igence": 1114,
      "rele": 1115,
      "eff": 1116,
      "parliament": 1117,
      "pros": 1118,
      "four": 1119,
      "incre": 1120,
      "open": 1121,
      "isra": 1122,
      "israel": 1123,
      "opposition": 1124,
      "cut": 1125,
      "la": 1126,
      "##ipl": 1127,
      "fight": 1128,
      "mos": 1129,
      "sunday": 1130,
      "##ators": 1131,
      "muslim": 1132,
      "intelligence": 1133,
      "cit": 1134,
      "##ull": 1135,
      "loc": 1136,
      "nu": 1137,
      "earl": 1138,
      "arr": 1139,
      "##ole": 1140,
      "senior": 1141,
      "##gest": 1142,
      "sm": 1143,
      "let": 1144,
      "##red": 1145,
      "##med": 1146,
      "compl": 1147,
      "chair": 1148,
      "expected": 1149,
      "##eal": 1150,
      "fac": 1151,
      "##get": 1152,
      "job": 1153,
      "among": 1154,
      "post": 1155,
      "earlier": 1156,
      "case": 1157,
      "##ont": 1158,
      "another": 1159,
      "##imes": 1160,
      "ve": 1161,
      "##stem": 1162,
      "il": 1163,
      "led": 1164,
      "system": 1165,
      "##ued": 1166,
      "civ": 1167,
      "wom": 1168,
      "##ides": 1169,
      "companies": 1170,
      "kur": 1171,
      "reform": 1172,
      "##ri": 1173,
      "union": 1174,
      "##istan": 1175,
      "region": 1176,
      "legislation": 1177,
      "sus": 1178,
      "##atur": 1179,
      "##udi": 1180,
      "defense": 1181,
      "##ber": 1182,
      "##ential": 1183,
      "negoti": 1184,
      "insur": 1185,
      "announ": 1186,
      "without": 1187,
      "concern": 1188,
      "control": 1189,
      "##loy": 1190,
      "see": 1191,
      "killed": 1192,
      "##ather": 1193,
      "civil": 1194,
      "lib": 1195,
      "candidate": 1196,
      "use": 1197,
      "consider": 1198,
      "several": 1199,
      "bank": 1200,
      "protect": 1201,
      "inform": 1202,
      "##ize": 1203,
      "ant": 1204,
      "arab": 1205,
      "voters": 1206,
      "##acy": 1207,
      "dif": 1208,
      "##ject": 1209,
      "months": 1210,
      "budget": 1211,
      "##ination": 1212,
      "##eng": 1213,
      "##ades": 1214,
      "added": 1215,
      "does": 1216,
      "around": 1217,
      "found": 1218,
      "meas": 1219,
      "##iplom": 1220,
      "diplom": 1221,
      "##ified": 1222,
      "col": 1223,
      "##rupt": 1224,
      "change": 1225,
      "fail": 1226,
      "organ": 1227,
      "director": 1228,
      "days": 1229,
      "sl": 1230,
      "britain": 1231,
      "##ific": 1232,
      "left": 1233,
      "10": 1234,
      "justice": 1235,
      "old": 1236,
      "reported": 1237,
      "##ided": 1238,
      "majority": 1239,
      "issue": 1240,
      "refer": 1241,
      "executive": 1242,
      "based": 1243,
      "barack": 1244,
      "belie": 1245,
      "face": 1246,
      "ur": 1247,
      "then": 1248,
      "governor": 1249,
      "legal": 1250,
      "##uge": 1251,
      "investigation": 1252,
      "susp": 1253,
      "es": 1254,
      "jan": 1255,
      "##truct": 1256,
      "prod": 1257,
      "##opul": 1258,
      "look": 1259,
      "advis": 1260,
      "emp": 1261,
      "agreement": 1262,
      "likely": 1263,
      "##pr": 1264,
      "nations": 1265,
      "mexico": 1266,
      "##gin": 1267,
      "confir": 1268,
      "financial": 1269,
      "##ission": 1270,
      "aff": 1271,
      "says": 1272,
      "john": 1273,
      "held": 1274,
      "every": 1275,
      "person": 1276,
      "coalition": 1277,
      "ste": 1278,
      "interview": 1279,
      "refuge": 1280,
      "capital": 1281,
      "##ended": 1282,
      "remain": 1283,
      "##ili": 1284,
      "strong": 1285,
      "much": 1286,
      "hill": 1287,
      "##thern": 1288,
      "##ted": 1289,
      "cre": 1290,
      "gl": 1291,
      "current": 1292,
      "mer": 1293,
      "##uel": 1294,
      "sent": 1295,
      "saudi": 1296,
      "priv": 1297,
      "stand": 1298,
      "retur": 1299,
      "##velop": 1300,
      "##cept": 1301,
      "conservative": 1302,
      "##aly": 1303,
      "red": 1304,
      "attacks": 1305,
      "immigration": 1306,
      "develop": 1307,
      "##iving": 1308,
      "larg": 1309,
      "must": 1310,
      "ru": 1311,
      "visit": 1312,
      "took": 1313,
      "diplomat": 1314,
      "ef": 1315,
      "popul": 1316,
      "pa": 1317,
      "chr": 1318,
      "##ank": 1319,
      "social": 1320,
      "##ects": 1321,
      "sta": 1322,
      "##trict": 1323,
      "sal": 1324,
      "process": 1325,
      "ministry": 1326,
      "step": 1327,
      "##cow": 1328,
      "##ugh": 1329,
      "member": 1330,
      "ext": 1331,
      "##ev": 1332,
      "good": 1333,
      "moscow": 1334,
      "show": 1335,
      "form": 1336,
      "term": 1337,
      "conv": 1338,
      "##ij": 1339,
      "appear": 1340,
      "cla": 1341,
      "##edi": 1342,
      "coll": 1343,
      "##ord": 1344,
      "##ivers": 1345,
      "peace": 1346,
      "plans": 1347,
      "tak": 1348,
      "##mbass": 1349,
      "cris": 1350,
      "information": 1351,
      "hand": 1352,
      "terror": 1353,
      "##ders": 1354,
      "ris": 1355,
      "start": 1356,
      "invol": 1357,
      "activ": 1358,
      "##ened": 1359,
      "##emp": 1360,
      "##land": 1361,
      "import": 1362,
      "turkey": 1363,
      "unt": 1364,
      "later": 1365,
      "##son": 1366,
      "av": 1367,
      "hal": 1368,
      "##ral": 1369,
      "gre": 1370,
      "##ready": 1371,
      "already": 1372,
      "##apan": 1373,
      "corp": 1374,
      "speech": 1375,
      "these": 1376,
      "2015": 1377,
      "home": 1378,
      "mid": 1379,
      "test": 1380,
      "##les": 1381,
      "##atch": 1382,
      "force": 1383,
      "issues": 1384,
      "representatives": 1385,
      "##cil": 1386,
      "##reme": 1387,
      "##ush": 1388,
      "hun": 1389,
      "japan": 1390,
      "##itter": 1391,
      "child": 1392,
      "ah": 1393,
      "##ger": 1394,
      "charg": 1395,
      "anti": 1396,
      "##ails": 1397,
      "know": 1398,
      "nomine": 1399,
      "##ov": 1400,
      "##ike": 1401,
      "##aring": 1402,
      "fund": 1403,
      "sw": 1404,
      "free": 1405,
      "##ared": 1406,
      "trav": 1407,
      "beh": 1408,
      "ruling": 1409,
      "used": 1410,
      "chall": 1411,
      "satur": 1412,
      "council": 1413,
      "##cr": 1414,
      "saturday": 1415,
      "local": 1416,
      "##anmar": 1417,
      "myanmar": 1418,
      "jun": 1419,
      "commission": 1420,
      "possible": 1421,
      "women": 1422,
      "prosecut": 1423,
      "##imin": 1424,
      "##oad": 1425,
      "crisis": 1426,
      "##forts": 1427,
      "immedi": 1428,
      "efforts": 1429,
      "##ines": 1430,
      "pot": 1431,
      "real": 1432,
      "##unch": 1433,
      "##ization": 1434,
      "until": 1435,
      "indus": 1436,
      "er": 1437,
      "sept": 1438,
      "##ived": 1439,
      "past": 1440,
      "syrian": 1441,
      "##ember": 1442,
      "##ute": 1443,
      "##ount": 1444,
      "rule": 1445,
      "propos": 1446,
      "missile": 1447,
      "chang": 1448,
      "vict": 1449,
      "infl": 1450,
      "met": 1451,
      "backed": 1452,
      "place": 1453,
      "##line": 1454,
      "won": 1455,
      "seen": 1456,
      "hillary": 1457,
      "##ever": 1458,
      "oil": 1459,
      "travel": 1460,
      "fur": 1461,
      "##olution": 1462,
      "army": 1463,
      "hold": 1464,
      "##ote": 1465,
      "tel": 1466,
      "pal": 1467,
      "##iver": 1468,
      "keep": 1469,
      "cas": 1470,
      "##arge": 1471,
      "economy": 1472,
      "conference": 1473,
      "close": 1474,
      "cal": 1475,
      "chairman": 1476,
      "supreme": 1477,
      "##iven": 1478,
      "lawy": 1479,
      "six": 1480,
      "stop": 1481,
      "##ool": 1482,
      "action": 1483,
      "15": 1484,
      "come": 1485,
      "##ren": 1486,
      "ju": 1487,
      "same": 1488,
      "##rants": 1489,
      "nov": 1490,
      "##omb": 1491,
      "kurd": 1492,
      "known": 1493,
      "##orney": 1494,
      "attorney": 1495,
      "least": 1496,
      "laws": 1497,
      "targ": 1498,
      "wall": 1499,
      "five": 1500,
      "previous": 1501,
      "number": 1502,
      "oct": 1503,
      "som": 1504,
      "##ony": 1505,
      "allow": 1506,
      "americans": 1507,
      "##uck": 1508,
      "working": 1509,
      "staff": 1510,
      "arg": 1511,
      "##ested": 1512,
      "##ife": 1513,
      "pen": 1514,
      "##ban": 1515,
      "##lined": 1516,
      "germany": 1517,
      "chinese": 1518,
      "money": 1519,
      "prof": 1520,
      "disp": 1521,
      "center": 1522,
      "authorities": 1523,
      "second": 1524,
      "##olog": 1525,
      "company": 1526,
      "early": 1527,
      "sand": 1528,
      "constit": 1529,
      "accused": 1530,
      "twitter": 1531,
      "##ves": 1532,
      "broad": 1533,
      "respond": 1534,
      "pos": 1535,
      "sit": 1536,
      "mc": 1537,
      "korean": 1538,
      "##ages": 1539,
      "parties": 1540,
      "##imate": 1541,
      "lim": 1542,
      "citiz": 1543,
      "fut": 1544,
      "##ired": 1545,
      "weap": 1546,
      "america": 1547,
      "lat": 1548,
      "##af": 1549,
      "congressional": 1550,
      "review": 1551,
      "great": 1552,
      "came": 1553,
      "rules": 1554,
      "##ina": 1555,
      "strate": 1556,
      "potential": 1557,
      "nominee": 1558,
      "buil": 1559,
      "level": 1560,
      "central": 1561,
      "##care": 1562,
      "christ": 1563,
      "eas": 1564,
      "glob": 1565,
      "confl": 1566,
      "view": 1567,
      "till": 1568,
      "doc": 1569,
      "hard": 1570,
      "nation": 1571,
      "march": 1572,
      "##oman": 1573,
      "elections": 1574,
      "following": 1575,
      "further": 1576,
      "##rem": 1577,
      "##side": 1578,
      "##ics": 1579,
      "team": 1580,
      "##idence": 1581,
      "ener": 1582,
      "lab": 1583,
      "mat": 1584,
      "sug": 1585,
      "allies": 1586,
      "cat": 1587,
      "due": 1588,
      "however": 1589,
      "eng": 1590,
      "judge": 1591,
      "repl": 1592,
      "env": 1593,
      "##nn": 1594,
      "ties": 1595,
      "acr": 1596,
      "##ph": 1597,
      "independence": 1598,
      "je": 1599,
      "reb": 1600,
      "##yan": 1601,
      "healthcare": 1602,
      "tillerson": 1603,
      "##itions": 1604,
      "rece": 1605,
      "might": 1606,
      "alleg": 1607,
      "partic": 1608,
      "short": 1609,
      "ahead": 1610,
      "##iel": 1611,
      "desp": 1612,
      "##eration": 1613,
      "role": 1614,
      "future": 1615,
      "offer": 1616,
      "exper": 1617,
      "claim": 1618,
      "putin": 1619,
      "##lement": 1620,
      "afr": 1621,
      "div": 1622,
      "east": 1623,
      "uk": 1624,
      "question": 1625,
      "stre": 1626,
      "pu": 1627,
      "near": 1628,
      "energy": 1629,
      "respon": 1630,
      "fil": 1631,
      "reach": 1632,
      "address": 1633,
      "late": 1634,
      "continue": 1635,
      "foc": 1636,
      "making": 1637,
      "separ": 1638,
      "##ody": 1639,
      "play": 1640,
      "representative": 1641,
      "hol": 1642,
      "##cal": 1643,
      "illeg": 1644,
      "care": 1645,
      "brief": 1646,
      "##acare": 1647,
      "obamacare": 1648,
      "stud": 1649,
      "##ertain": 1650,
      "##lish": 1651,
      "special": 1652,
      "mich": 1653,
      "market": 1654,
      "speak": 1655,
      "employ": 1656,
      "ball": 1657,
      "##ustr": 1658,
      "times": 1659,
      "##ury": 1660,
      "family": 1661,
      "##pped": 1662,
      "school": 1663,
      "net": 1664,
      "sanders": 1665,
      "showed": 1666,
      "sources": 1667,
      "global": 1668,
      "agreed": 1669,
      "##ify": 1670,
      "denied": 1671,
      "##encies": 1672,
      "##estern": 1673,
      "fact": 1674,
      "toward": 1675,
      "spending": 1676,
      "few": 1677,
      "return": 1678,
      "##amed": 1679,
      "along": 1680,
      "mor": 1681,
      "push": 1682,
      "##ising": 1683,
      "saf": 1684,
      "declined": 1685,
      "univers": 1686,
      "##bi": 1687,
      "##eted": 1688,
      "12": 1689,
      "concerns": 1690,
      "ge": 1691,
      "violence": 1692,
      "##ees": 1693,
      "##kel": 1694,
      "ir": 1695,
      "weapons": 1696,
      "comments": 1697,
      "private": 1698,
      "aug": 1699,
      "taking": 1700,
      "##iting": 1701,
      "##thers": 1702,
      "across": 1703,
      "beij": 1704,
      "expl": 1705,
      "supporters": 1706,
      "workers": 1707,
      "small": 1708,
      "beijing": 1709,
      "weeks": 1710,
      "aim": 1711,
      "give": 1712,
      "cru": 1713,
      "refugees": 1714,
      "become": 1715,
      "others": 1716,
      "debate": 1717,
      "letter": 1718,
      "launch": 1719,
      "point": 1720,
      "rohing": 1721,
      "july": 1722,
      "source": 1723,
      "##sh": 1724,
      "rev": 1725,
      "30": 1726,
      "##cement": 1727,
      "key": 1728,
      "british": 1729,
      "never": 1730,
      "##ually": 1731,
      "fav": 1732,
      "##itor": 1733,
      "cover": 1734,
      "militants": 1735,
      "influ": 1736,
      "##au": 1737,
      "cred": 1738,
      "2014": 1739,
      "nearly": 1740,
      "hour": 1741,
      "too": 1742,
      "citizens": 1743,
      "regional": 1744,
      "##rain": 1745,
      "##iet": 1746,
      "votes": 1747,
      "##king": 1748,
      "non": 1749,
      "##ibility": 1750,
      "services": 1751,
      "fo": 1752,
      "catal": 1753,
      "less": 1754,
      "inst": 1755,
      "rohingya": 1756,
      "children": 1757,
      "##te": 1758,
      "thous": 1759,
      "happ": 1760,
      "kurdish": 1761,
      "despite": 1762,
      "suggest": 1763,
      "##uty": 1764,
      "taken": 1765,
      "merkel": 1766,
      "enter": 1767,
      "tens": 1768,
      "##ured": 1769,
      "riv": 1770,
      "proble": 1771,
      "##eated": 1772,
      "##ison": 1773,
      "##ames": 1774,
      "trad": 1775,
      "mac": 1776,
      "aid": 1777,
      "trying": 1778,
      "important": 1779,
      "##ness": 1780,
      "pressure": 1781,
      "industry": 1782,
      "list": 1783,
      "##dle": 1784,
      "flor": 1785,
      "##uary": 1786,
      "fbi": 1787,
      "position": 1788,
      "wants": 1789,
      "bloc": 1790,
      "##oub": 1791,
      "mal": 1792,
      "released": 1793,
      "immediately": 1794,
      "cub": 1795,
      "##over": 1796,
      "carr": 1797,
      "##ench": 1798,
      "##ha": 1799,
      "##ador": 1800,
      "adding": 1801,
      "dom": 1802,
      "pan": 1803,
      "respons": 1804,
      "##iance": 1805,
      "##ently": 1806,
      "response": 1807,
      "access": 1808,
      "bring": 1809,
      "fear": 1810,
      "vice": 1811,
      "##iles": 1812,
      "hist": 1813,
      "counter": 1814,
      "given": 1815,
      "funding": 1816,
      "yet": 1817,
      "request": 1818,
      "thir": 1819,
      "agencies": 1820,
      "rob": 1821,
      "adviser": 1822,
      "corrupt": 1823,
      "whose": 1824,
      "express": 1825,
      "needed": 1826,
      "mess": 1827,
      "##woman": 1828,
      "##oci": 1829,
      "mig": 1830,
      "analy": 1831,
      "hope": 1832,
      "mass": 1833,
      "coop": 1834,
      "nat": 1835,
      "within": 1836,
      "decl": 1837,
      "lond": 1838,
      "race": 1839,
      "hop": 1840,
      "london": 1841,
      "attemp": 1842,
      "somet": 1843,
      "##ins": 1844,
      "##raft": 1845,
      "clos": 1846,
      "##ida": 1847,
      "##ecess": 1848,
      "eth": 1849,
      "differ": 1850,
      "##iron": 1851,
      "wrote": 1852,
      "##crib": 1853,
      "thousands": 1854,
      "resign": 1855,
      "june": 1856,
      "##uation": 1857,
      "afgh": 1858,
      "dead": 1859,
      "nomination": 1860,
      "hom": 1861,
      "associ": 1862,
      "allegations": 1863,
      "join": 1864,
      "western": 1865,
      "##ening": 1866,
      "lower": 1867,
      "##bs": 1868,
      "11": 1869,
      "indiv": 1870,
      "199": 1871,
      "though": 1872,
      "##ana": 1873,
      "environ": 1874,
      "sim": 1875,
      "##alia": 1876,
      "tre": 1877,
      "ago": 1878,
      "twe": 1879,
      "environment": 1880,
      "austr": 1881,
      "##aged": 1882,
      "northern": 1883,
      "sess": 1884,
      "##ourn": 1885,
      "init": 1886,
      "effect": 1887,
      "unc": 1888,
      "university": 1889,
      "proposed": 1890,
      "lo": 1891,
      "announced": 1892,
      "dam": 1893,
      "fly": 1894,
      "conflict": 1895,
      "favor": 1896,
      "rest": 1897,
      "##aper": 1898,
      "final": 1899,
      "##ops": 1900,
      "afghan": 1901,
      "docu": 1902,
      "speaking": 1903,
      "brex": 1904,
      "cruz": 1905,
      "palest": 1906,
      "individ": 1907,
      "pat": 1908,
      "deep": 1909,
      "tex": 1910,
      "##ring": 1911,
      "describ": 1912,
      "brexit": 1913,
      "##ners": 1914,
      "##sel": 1915,
      "##ially": 1916,
      "##ai": 1917,
      "vir": 1918,
      "25": 1919,
      "ryan": 1920,
      "##ten": 1921,
      "##ones": 1922,
      "##eg": 1923,
      "##usal": 1924,
      "bas": 1925,
      "litt": 1926,
      "arabia": 1927,
      "##echn": 1928,
      "provide": 1929,
      "leban": 1930,
      "##ata": 1931,
      "emer": 1932,
      "gun": 1933,
      "bomb": 1934,
      "event": 1935,
      "middle": 1936,
      "little": 1937,
      "##itional": 1938,
      "jobs": 1939,
      "##ron": 1940,
      "men": 1941,
      "##ient": 1942,
      "climate": 1943,
      "equ": 1944,
      "##though": 1945,
      "although": 1946,
      "accus": 1947,
      "spokeswoman": 1948,
      "opt": 1949,
      "appoint": 1950,
      "turn": 1951,
      "policies": 1952,
      "##oor": 1953,
      "florida": 1954,
      "jer": 1955,
      "candidates": 1956,
      "front": 1957,
      "batt": 1958,
      "relationship": 1959,
      "reports": 1960,
      "largest": 1961,
      "outside": 1962,
      "fire": 1963,
      "##ences": 1964,
      "leave": 1965,
      "cost": 1966,
      "death": 1967,
      "seeking": 1968,
      "geor": 1969,
      "polls": 1970,
      "techn": 1971,
      "changes": 1972,
      "building": 1973,
      "ident": 1974,
      "failed": 1975,
      "stat": 1976,
      "##aining": 1977,
      "##aph": 1978,
      "ide": 1979,
      "bur": 1980,
      "drug": 1981,
      "full": 1982,
      "##ances": 1983,
      "charges": 1984,
      "january": 1985,
      "service": 1986,
      "val": 1987,
      "effort": 1988,
      "low": 1989,
      "debt": 1990,
      "journ": 1991,
      "bene": 1992,
      "seat": 1993,
      "ambass": 1994,
      "believe": 1995,
      "west": 1996,
      "enfor": 1997,
      "interest": 1998,
      "conduct": 1999,
      "deter": 2000,
      "##amb": 2001,
      "cy": 2002,
      "insurance": 2003,
      "texas": 2004,
      "away": 2005,
      "##ability": 2006,
      "class": 2007,
      "board": 2008,
      "fis": 2009,
      "shar": 2010,
      "##amp": 2011,
      "##idents": 2012,
      "criticized": 2013,
      "urged": 2014,
      "##uce": 2015,
      "##ically": 2016,
      "areas": 2017,
      "estab": 2018,
      "include": 2019,
      "land": 2020,
      "deputy": 2021,
      "decades": 2022,
      "cho": 2023,
      "illegal": 2024,
      "fighting": 2025,
      "ukrain": 2026,
      "palestin": 2027,
      "repeal": 2028,
      "proposal": 2029,
      "progress": 2030,
      "##endum": 2031,
      "referendum": 2032,
      "##app": 2033,
      "corruption": 2034,
      "line": 2035,
      "island": 2036,
      "##uit": 2037,
      "ens": 2038,
      "unl": 2039,
      "comey": 2040,
      "produc": 2041,
      "accept": 2042,
      "##vember": 2043,
      "november": 2044,
      "bang": 2045,
      "measures": 2046,
      "once": 2047,
      "here": 2048,
      "large": 2049,
      "tro": 2050,
      "##atory": 2051,
      "measure": 2052,
      "sold": 2053,
      "area": 2054,
      "planned": 2055,
      "sect": 2056,
      "host": 2057,
      "corpor": 2058,
      "##arian": 2059,
      "trip": 2060,
      "mad": 2061,
      "##co": 2062,
      "town": 2063,
      "cases": 2064,
      "france": 2065,
      "repeated": 2066,
      "hearing": 2067,
      "##port": 2068,
      "##wh": 2069,
      "sex": 2070,
      "##ugg": 2071,
      "pak": 2072,
      "##ason": 2073,
      "succ": 2074,
      "grow": 2075,
      "calif": 2076,
      "stay": 2077,
      "third": 2078,
      "fell": 2079,
      "xi": 2080,
      "latest": 2081,
      "able": 2082,
      "##isions": 2083,
      "ce": 2084,
      "success": 2085,
      "##itive": 2086,
      "2018": 2087,
      "paul": 2088,
      "##ott": 2089,
      "freed": 2090,
      "##ender": 2091,
      "firm": 2092,
      "confirm": 2093,
      "##ends": 2094,
      "iraqi": 2095,
      "sing": 2096,
      "enc": 2097,
      "biggest": 2098,
      "##self": 2099,
      "email": 2100,
      "ambassador": 2101,
      "##ara": 2102,
      "passed": 2103,
      "telev": 2104,
      "##go": 2105,
      "situation": 2106,
      "##by": 2107,
      "using": 2108,
      "prevent": 2109,
      "pakistan": 2110,
      "canad": 2111,
      "##asing": 2112,
      "behind": 2113,
      "instit": 2114,
      "##ensive": 2115,
      "##izing": 2116,
      "ber": 2117,
      "require": 2118,
      "##ively": 2119,
      "better": 2120,
      "crimin": 2121,
      "temp": 2122,
      "##itch": 2123,
      "neigh": 2124,
      "neighb": 2125,
      "treat": 2126,
      "##ards": 2127,
      "leav": 2128,
      "french": 2129,
      "##ished": 2130,
      "criticism": 2131,
      "journal": 2132,
      "##dr": 2133,
      "seven": 2134,
      "summ": 2135,
      "sol": 2136,
      "pled": 2137,
      "questions": 2138,
      "100": 2139,
      "cle": 2140,
      "dev": 2141,
      "establish": 2142,
      "##up": 2143,
      "watch": 2144,
      "negotiations": 2145,
      "##istic": 2146,
      "night": 2147,
      "serious": 2148,
      "unders": 2149,
      "block": 2150,
      "avo": 2151,
      "nato": 2152,
      "##usalem": 2153,
      "jerusalem": 2154,
      "py": 2155,
      "##aster": 2156,
      "##thing": 2157,
      "black": 2158,
      "raised": 2159,
      "leadership": 2160,
      "community": 2161,
      "18": 2162,
      "##iff": 2163,
      "##yl": 2164,
      "armed": 2165,
      "##uction": 2166,
      "##ars": 2167,
      "prim": 2168,
      "turkish": 2169,
      "enough": 2170,
      "command": 2171,
      "result": 2172,
      "lawyer": 2173,
      "confirmed": 2174,
      "californ": 2175,
      "data": 2176,
      "tot": 2177,
      "increase": 2178,
      "##ults": 2179,
      "cann": 2180,
      "matter": 2181,
      "doll": 2182,
      "evidence": 2183,
      "lin": 2184,
      "##ging": 2185,
      "##dog": 2186,
      "ent": 2187,
      "fall": 2188,
      "immigrants": 2189,
      "ground": 2190,
      "organization": 2191,
      "##iw": 2192,
      "leading": 2193,
      "signed": 2194,
      "##ications": 2195,
      "senators": 2196,
      "replace": 2197,
      "restrict": 2198,
      "victory": 2199,
      "focus": 2200,
      "troops": 2201,
      "##ither": 2202,
      "benef": 2203,
      "california": 2204,
      "##ki": 2205,
      "king": 2206,
      "wanted": 2207,
      "tough": 2208,
      "each": 2209,
      "transition": 2210,
      "50": 2211,
      "##irc": 2212,
      "tog": 2213,
      "##oming": 2214,
      "district": 2215,
      "influence": 2216,
      "calls": 2217,
      "challen": 2218,
      "soon": 2219,
      "gas": 2220,
      "running": 2221,
      "having": 2222,
      "details": 2223,
      "diplomatic": 2224,
      "wa": 2225,
      "build": 2226,
      "together": 2227,
      "bush": 2228,
      "13": 2229,
      "cab": 2230,
      "remar": 2231,
      "certain": 2232,
      "opin": 2233,
      "bal": 2234,
      "ear": 2235,
      "mis": 2236,
      "voting": 2237,
      "issued": 2238,
      "rival": 2239,
      "##ift": 2240,
      "forward": 2241,
      "august": 2242,
      "paris": 2243,
      "muslims": 2244,
      "experts": 2245,
      "income": 2246,
      "##arr": 2247,
      "mean": 2248,
      "investment": 2249,
      "##jected": 2250,
      "begin": 2251,
      "coup": 2252,
      "##nell": 2253,
      "##work": 2254,
      "street": 2255,
      "pred": 2256,
      "himself": 2257,
      "##utions": 2258,
      "##down": 2259,
      "##dred": 2260,
      "hundred": 2261,
      "joint": 2262,
      "pence": 2263,
      "resol": 2264,
      "development": 2265,
      "flynn": 2266,
      "account": 2267,
      "terrorism": 2268,
      "youn": 2269,
      "##iding": 2270,
      "prior": 2271,
      "##gency": 2272,
      "freedom": 2273,
      "circ": 2274,
      "lot": 2275,
      "taxes": 2276,
      "##adesh": 2277,
      "risk": 2278,
      "macron": 2279,
      "yem": 2280,
      "prepar": 2281,
      "relig": 2282,
      "##ogn": 2283,
      "hack": 2284,
      "impro": 2285,
      "finance": 2286,
      "newsp": 2287,
      "hit": 2288,
      "warned": 2289,
      "yemen": 2290,
      "bid": 2291,
      "sought": 2292,
      "rad": 2293,
      "fri": 2294,
      "nomin": 2295,
      "operations": 2296,
      "bangl": 2297,
      "often": 2298,
      "calling": 2299,
      "included": 2300,
      "panel": 2301,
      "##rew": 2302,
      "##ises": 2303,
      "##usion": 2304,
      "politics": 2305,
      "rich": 2306,
      "partners": 2307,
      "programs": 2308,
      "bangladesh": 2309,
      "alle": 2310,
      "done": 2311,
      "dav": 2312,
      "find": 2313,
      "##ges": 2314,
      "##inc": 2315,
      "try": 2316,
      "elected": 2317,
      "##han": 2318,
      "simil": 2319,
      "cannot": 2320,
      "water": 2321,
      "##yang": 2322,
      "##erto": 2323,
      "recogn": 2324,
      "##imp": 2325,
      "release": 2326,
      "demand": 2327,
      "2013": 2328,
      "apr": 2329,
      "fle": 2330,
      "##aced": 2331,
      "sk": 2332,
      "judic": 2333,
      "april": 2334,
      "pyong": 2335,
      "rub": 2336,
      "began": 2337,
      "rene": 2338,
      "voted": 2339,
      "suf": 2340,
      "taiw": 2341,
      "taiwan": 2342,
      "ken": 2343,
      "san": 2344,
      "##ceed": 2345,
      "environmental": 2346,
      "cabin": 2347,
      "break": 2348,
      "pyongyang": 2349,
      "previously": 2350,
      "fiscal": 2351,
      "advoc": 2352,
      "##uk": 2353,
      "today": 2354,
      "##ford": 2355,
      "2012": 2356,
      "minor": 2357,
      "strateg": 2358,
      "feb": 2359,
      "moder": 2360,
      "businesses": 2361,
      "target": 2362,
      "##owers": 2363,
      "appeared": 2364,
      "##rop": 2365,
      "popular": 2366,
      "rate": 2367,
      "related": 2368,
      "doz": 2369,
      "expressed": 2370,
      "fig": 2371,
      "emb": 2372,
      "hours": 2373,
      "half": 2374,
      "##pect": 2375,
      "independent": 2376,
      "ri": 2377,
      "coming": 2378,
      "protests": 2379,
      "something": 2380,
      "name": 2381,
      "pur": 2382,
      "exch": 2383,
      "cross": 2384,
      "affair": 2385,
      "quick": 2386,
      "cabinet": 2387,
      "##ker": 2388,
      "16": 2389,
      "occ": 2390,
      "doub": 2391,
      "##idency": 2392,
      "funds": 2393,
      "deleg": 2394,
      "ap": 2395,
      "challeng": 2396,
      "september": 2397,
      "##ature": 2398,
      "surve": 2399,
      "##ength": 2400,
      "##tain": 2401,
      "##ural": 2402,
      "growth": 2403,
      "figh": 2404,
      "dism": 2405,
      "needs": 2406,
      "doing": 2407,
      "overse": 2408,
      "conservatives": 2409,
      "constitution": 2410,
      "##val": 2411,
      "asia": 2412,
      "mexican": 2413,
      "pac": 2414,
      "##uing": 2415,
      "commit": 2416,
      "things": 2417,
      "##omm": 2418,
      "mot": 2419,
      "##ium": 2420,
      "ukraine": 2421,
      "bruss": 2422,
      "remarks": 2423,
      "brussels": 2424,
      "lost": 2425,
      "mu": 2426,
      "life": 2427,
      "speaker": 2428,
      "involved": 2429,
      "best": 2430,
      "prison": 2431,
      "iranian": 2432,
      "criminal": 2433,
      "mcc": 2434,
      "nav": 2435,
      "##ns": 2436,
      "ang": 2437,
      "actions": 2438,
      "analys": 2439,
      "afghanistan": 2440,
      "similar": 2441,
      "protection": 2442,
      "##ale": 2443,
      "##ficult": 2444,
      "difficult": 2445,
      "sett": 2446,
      "##iers": 2447,
      "expand": 2448,
      "carol": 2449,
      "cuts": 2450,
      "mccon": 2451,
      "vide": 2452,
      "##ots": 2453,
      "southern": 2454,
      "puerto": 2455,
      "mcconnell": 2456,
      "labor": 2457,
      "described": 2458,
      "approved": 2459,
      "##ped": 2460,
      "##aging": 2461,
      "fired": 2462,
      "oppon": 2463,
      "alleged": 2464,
      "gave": 2465,
      "##osp": 2466,
      "eastern": 2467,
      "##ield": 2468,
      "ensure": 2469,
      "hundreds": 2470,
      "##isan": 2471,
      "##aft": 2472,
      "crime": 2473,
      "concer": 2474,
      "deliver": 2475,
      "assist": 2476,
      "cooperation": 2477,
      "##book": 2478,
      "project": 2479,
      "tell": 2480,
      "##ober": 2481,
      "message": 2482,
      "##ming": 2483,
      "particul": 2484,
      "char": 2485,
      "expect": 2486,
      "##anger": 2487,
      "authority": 2488,
      "educ": 2489,
      "television": 2490,
      "sides": 2491,
      "##ras": 2492,
      "##ama": 2493,
      "spoke": 2494,
      "received": 2495,
      "critics": 2496,
      "art": 2497,
      "##ology": 2498,
      "side": 2499,
      "newspaper": 2500,
      "14": 2501,
      "##akes": 2502,
      "intr": 2503,
      "trial": 2504,
      "cust": 2505,
      "ll": 2506,
      "helped": 2507,
      "delay": 2508,
      "record": 2509,
      "signif": 2510,
      "stor": 2511,
      "arrested": 2512,
      "alliance": 2513,
      "october": 2514,
      "base": 2515,
      "##ined": 2516,
      "##ows": 2517,
      "##ably": 2518,
      "allowed": 2519,
      "##ley": 2520,
      "significan": 2521,
      "presidency": 2522,
      "complet": 2523,
      "sea": 2524,
      "brought": 2525,
      "drop": 2526,
      "strugg": 2527,
      "citing": 2528,
      "opinion": 2529,
      "ally": 2530,
      "interests": 2531,
      "##oints": 2532,
      "regulations": 2533,
      "implement": 2534,
      "webs": 2535,
      "embass": 2536,
      "comes": 2537,
      "food": 2538,
      "impact": 2539,
      "ty": 2540,
      "##iod": 2541,
      "##osing": 2542,
      "esp": 2543,
      "port": 2544,
      "israeli": 2545,
      "aimed": 2546,
      "history": 2547,
      "##que": 2548,
      "sessions": 2549,
      "##nel": 2550,
      "appeal": 2551,
      "remo": 2552,
      "instead": 2553,
      "##earch": 2554,
      "research": 2555,
      "##ilities": 2556,
      "##oring": 2557,
      "##oric": 2558,
      "unf": 2559,
      "sched": 2560,
      "##ilipp": 2561,
      "treas": 2562,
      "battle": 2563,
      "kim": 2564,
      "carolina": 2565,
      "##wer": 2566,
      "looking": 2567,
      "17": 2568,
      "son": 2569,
      "virgin": 2570,
      "##come": 2571,
      "period": 2572,
      "rather": 2573,
      "december": 2574,
      "##ude": 2575,
      "##uted": 2576,
      "##ham": 2577,
      "brok": 2578,
      "##pa": 2579,
      "comb": 2580,
      "means": 2581,
      "avoid": 2582,
      "##most": 2583,
      "increasing": 2584,
      "crack": 2585,
      "draw": 2586,
      "##gypt": 2587,
      "african": 2588,
      "dismiss": 2589,
      "##iled": 2590,
      "cuba": 2591,
      "##draw": 2592,
      "##oted": 2593,
      "withdraw": 2594,
      "egypt": 2595,
      "##ounts": 2596,
      "philipp": 2597,
      "emails": 2598,
      "summit": 2599,
      "matt": 2600,
      "eight": 2601,
      "##ung": 2602,
      "##ortun": 2603,
      "worked": 2604,
      "enforcement": 2605,
      "underst": 2606,
      "total": 2607,
      "rally": 2608,
      "residents": 2609,
      "approach": 2610,
      "##osts": 2611,
      "mur": 2612,
      "mod": 2613,
      "rico": 2614,
      "really": 2615,
      "##ience": 2616,
      "province": 2617,
      "affairs": 2618,
      "determ": 2619,
      "tensions": 2620,
      "cur": 2621,
      "##ex": 2622,
      "personal": 2623,
      "significant": 2624,
      "lebanon": 2625,
      "repeatedly": 2626,
      "ba": 2627,
      "##onia": 2628,
      "##olled": 2629,
      "draft": 2630,
      "##hic": 2631,
      "##bc": 2632,
      "2017": 2633,
      "appl": 2634,
      "primary": 2635,
      "why": 2636,
      "mult": 2637,
      "24": 2638,
      "boost": 2639,
      "##ored": 2640,
      "##akh": 2641,
      "fuel": 2642,
      "vol": 2643,
      "necess": 2644,
      "##enda": 2645,
      "green": 2646,
      "george": 2647,
      "growing": 2648,
      "prompt": 2649,
      "got": 2650,
      "mand": 2651,
      "heav": 2652,
      "ruled": 2653,
      "##ety": 2654,
      "mn": 2655,
      "star": 2656,
      "commer": 2657,
      "young": 2658,
      "##ael": 2659,
      "##bur": 2660,
      "##nam": 2661,
      "franc": 2662,
      "spain": 2663,
      "different": 2664,
      "vers": 2665,
      "millions": 2666,
      "##uter": 2667,
      "##ma": 2668,
      "##ager": 2669,
      "documents": 2670,
      "powerful": 2671,
      "treasury": 2672,
      "respect": 2673,
      "reached": 2674,
      "##lad": 2675,
      "reven": 2676,
      "additional": 2677,
      "lob": 2678,
      "vill": 2679,
      "##ateral": 2680,
      "exc": 2681,
      "governments": 2682,
      "40": 2683,
      "##itory": 2684,
      "resolution": 2685,
      "profess": 2686,
      "cyber": 2687,
      "tempor": 2688,
      "wel": 2689,
      "liberal": 2690,
      "convention": 2691,
      "##utional": 2692,
      "discl": 2693,
      "wrong": 2694,
      "mike": 2695,
      "facebook": 2696,
      "points": 2697,
      "simp": 2698,
      "almost": 2699,
      "##aps": 2700,
      "challenge": 2701,
      "##eals": 2702,
      "movement": 2703,
      "inj": 2704,
      "##ilateral": 2705,
      "poor": 2706,
      "estim": 2707,
      "legislative": 2708,
      "##rant": 2709,
      "##umer": 2710,
      "terms": 2711,
      "holding": 2712,
      "launched": 2713,
      "##arch": 2714,
      "present": 2715,
      "exist": 2716,
      "talk": 2717,
      "distr": 2718,
      "prosecutors": 2719,
      "erdog": 2720,
      "embassy": 2721,
      "erdogan": 2722,
      "territory": 2723,
      "famil": 2724,
      "##truction": 2725,
      "##tered": 2726,
      "ordered": 2727,
      "##eat": 2728,
      "lawyers": 2729,
      "concerned": 2730,
      "oh": 2731,
      "compet": 2732,
      "##ne": 2733,
      "##na": 2734,
      "design": 2735,
      "hosp": 2736,
      "your": 2737,
      "ethn": 2738,
      "35": 2739,
      "pet": 2740,
      "ful": 2741,
      "tv": 2742,
      "pract": 2743,
      "nothing": 2744,
      "agenda": 2745,
      "opposed": 2746,
      "60": 2747,
      "hur": 2748,
      "lack": 2749,
      "berlin": 2750,
      "protest": 2751,
      "198": 2752,
      "probe": 2753,
      "corporate": 2754,
      "families": 2755,
      "briefing": 2756,
      "##van": 2757,
      "##graph": 2758,
      "remains": 2759,
      "##overs": 2760,
      "##itarian": 2761,
      "##tructure": 2762,
      "separate": 2763,
      "##hood": 2764,
      "became": 2765,
      "strategy": 2766,
      "regis": 2767,
      "leaving": 2768,
      "bure": 2769,
      "202": 2770,
      "rubio": 2771,
      "##agement": 2772,
      "amid": 2773,
      "safety": 2774,
      "##ways": 2775,
      "considered": 2776,
      "pers": 2777,
      "critical": 2778,
      "##erate": 2779,
      "james": 2780,
      "obs": 2781,
      "##lex": 2782,
      "currently": 2783,
      "##acts": 2784,
      "##esh": 2785,
      "##omp": 2786,
      "##read": 2787,
      "particip": 2788,
      "michael": 2789,
      "robert": 2790,
      "##eb": 2791,
      "vehic": 2792,
      "status": 2793,
      "tried": 2794,
      "website": 2795,
      "##iary": 2796,
      "contrib": 2797,
      "palestinian": 2798,
      "##ett": 2799,
      "africa": 2800,
      "religious": 2801,
      "##less": 2802,
      "##uf": 2803,
      "##wa": 2804,
      "##icts": 2805,
      "##ikes": 2806,
      "longer": 2807,
      "results": 2808,
      "fighters": 2809,
      "bad": 2810,
      "abs": 2811,
      "organiz": 2812,
      "assad": 2813,
      "virginia": 2814,
      "appeals": 2815,
      "strength": 2816,
      "specific": 2817,
      "problem": 2818,
      "##men": 2819,
      "##iri": 2820,
      "counsel": 2821,
      "price": 2822,
      "##ky": 2823,
      "##ortion": 2824,
      "phone": 2825,
      "went": 2826,
      "militant": 2827,
      "angel": 2828,
      "self": 2829,
      "rejected": 2830,
      "share": 2831,
      "democracy": 2832,
      "soldiers": 2833,
      "ham": 2834,
      "powers": 2835,
      "forced": 2836,
      "##uled": 2837,
      "##ried": 2838,
      "##gn": 2839,
      "##den": 2840,
      "story": 2841,
      "ethnic": 2842,
      "rh": 2843,
      "##ode": 2844,
      "protes": 2845,
      "recently": 2846,
      "discussed": 2847,
      "tour": 2848,
      "condem": 2849,
      "canada": 2850,
      "im": 2851,
      "##ension": 2852,
      "##0s": 2853,
      "##int": 2854,
      "parts": 2855,
      "##ape": 2856,
      "teh": 2857,
      "david": 2858,
      "islamist": 2859,
      "mag": 2860,
      "ul": 2861,
      "supported": 2862,
      "create": 2863,
      "##ez": 2864,
      "frank": 2865,
      "##semb": 2866,
      "referring": 2867,
      "##ection": 2868,
      "##eller": 2869,
      "reforms": 2870,
      "died": 2871,
      "23": 2872,
      "##icted": 2873,
      "controvers": 2874,
      "filed": 2875,
      "pacific": 2876,
      "pack": 2877,
      "##aries": 2878,
      "education": 2879,
      "wid": 2880,
      "assemb": 2881,
      "##ailed": 2882,
      "defend": 2883,
      "##enez": 2884,
      "created": 2885,
      "costs": 2886,
      "weak": 2887,
      "abd": 2888,
      "vlad": 2889,
      "##icated": 2890,
      "regard": 2891,
      "infras": 2892,
      "mattis": 2893,
      "infrastructure": 2894,
      "medical": 2895,
      "decade": 2896,
      "politicians": 2897,
      "introd": 2898,
      "##ago": 2899,
      "fre": 2900,
      "##aud": 2901,
      "steps": 2902,
      "conn": 2903,
      "demons": 2904,
      "fellow": 2905,
      "22": 2906,
      "ran": 2907,
      "vet": 2908,
      "##ains": 2909,
      "venez": 2910,
      "ready": 2911,
      "road": 2912,
      "johnson": 2913,
      "venezuel": 2914,
      "##vement": 2915,
      "problems": 2916,
      "canc": 2917,
      "danger": 2918,
      "banks": 2919,
      "meetings": 2920,
      "committed": 2921,
      "served": 2922,
      "hot": 2923,
      "ple": 2924,
      "##rid": 2925,
      "##ping": 2926,
      "##uals": 2927,
      "charged": 2928,
      "quickly": 2929,
      "##hold": 2930,
      "##uses": 2931,
      "##abe": 2932,
      "getting": 2933,
      "domest": 2934,
      "hear": 2935,
      "sho": 2936,
      "indian": 2937,
      "##onym": 2938,
      "migrants": 2939,
      "either": 2940,
      "##dp": 2941,
      "india": 2942,
      "ben": 2943,
      "##oting": 2944,
      "higher": 2945,
      "confirmation": 2946,
      "21": 2947,
      "shut": 2948,
      "officer": 2949,
      "##ollah": 2950,
      "wealth": 2951,
      "scr": 2952,
      "colle": 2953,
      "##orter": 2954,
      "named": 2955,
      "##arily": 2956,
      "credit": 2957,
      "##eing": 2958,
      "feel": 2959,
      "series": 2960,
      "##ropri": 2961,
      "ach": 2962,
      "gul": 2963,
      "opportun": 2964,
      "tehran": 2965,
      "2011": 2966,
      "##kn": 2967,
      "##ona": 2968,
      "wal": 2969,
      "##ula": 2970,
      "wife": 2971,
      "seem": 2972,
      "ire": 2973,
      "mayor": 2974,
      "condition": 2975,
      "estate": 2976,
      "pra": 2977,
      "deals": 2978,
      "refugee": 2979,
      "round": 2980,
      "##ectr": 2981,
      "investors": 2982,
      "catalan": 2983,
      "##ps": 2984,
      "##iliar": 2985,
      "hurr": 2986,
      "##zb": 2987,
      "decided": 2988,
      "promised": 2989,
      "500": 2990,
      "libya": 2991,
      "extr": 2992,
      "crow": 2993,
      "extrem": 2994,
      "giving": 2995,
      "mug": 2996,
      "##cing": 2997,
      "electr": 2998,
      "suggested": 2999,
      "achie": 3000,
      "##eland": 3001,
      "defic": 3002,
      "published": 3003,
      "cast": 3004,
      "##imir": 3005,
      "paid": 3006,
      "aides": 3007,
      "mom": 3008,
      "hariri": 3009,
      "believed": 3010,
      "rac": 3011,
      "spent": 3012,
      "common": 3013,
      "hous": 3014,
      "raise": 3015,
      "domestic": 3016,
      "cities": 3017,
      "##jects": 3018,
      "##acted": 3019,
      "ohio": 3020,
      "accusations": 3021,
      "vladimir": 3022,
      "activists": 3023,
      "protesters": 3024,
      "tim": 3025,
      "controlled": 3026,
      "convers": 3027,
      "kind": 3028,
      "officers": 3029,
      "reduce": 3030,
      "individuals": 3031,
      "online": 3032,
      "##iring": 3033,
      "coverage": 3034,
      "minority": 3035,
      "necessary": 3036,
      "read": 3037,
      "##ecially": 3038,
      "2010": 3039,
      "familiar": 3040,
      "attempt": 3041,
      "especially": 3042,
      "ow": 3043,
      "capt": 3044,
      "##oul": 3045,
      "shi": 3046,
      "idea": 3047,
      "hon": 3048,
      "##iam": 3049,
      "includes": 3050,
      "overha": 3051,
      "deport": 3052,
      "threatened": 3053,
      "technology": 3054,
      "humanitarian": 3055,
      "fox": 3056,
      "australia": 3057,
      "suffer": 3058,
      "ank": 3059,
      "mem": 3060,
      "##uced": 3061,
      "offered": 3062,
      "##erc": 3063,
      "##iter": 3064,
      "afford": 3065,
      "statements": 3066,
      "largely": 3067,
      "employees": 3068,
      "und": 3069,
      "mugabe": 3070,
      "markets": 3071,
      "27": 3072,
      "gather": 3073,
      "announcement": 3074,
      "ankara": 3075,
      "fair": 3076,
      "##fully": 3077,
      "association": 3078,
      "exchange": 3079,
      "scheduled": 3080,
      "lif": 3081,
      "sure": 3082,
      "viet": 3083,
      "typ": 3084,
      "restrictions": 3085,
      "##ream": 3086,
      "custom": 3087,
      "hurrican": 3088,
      "overhaul": 3089,
      "##oud": 3090,
      "saw": 3091,
      "ability": 3092,
      "courts": 3093,
      "subs": 3094,
      "ballistic": 3095,
      "kel": 3096,
      "##oral": 3097,
      "whom": 3098,
      "catalonia": 3099,
      "carried": 3100,
      "vietnam": 3101,
      "##artisan": 3102,
      "closed": 3103,
      "amend": 3104,
      "rakh": 3105,
      "charge": 3106,
      "partner": 3107,
      "standing": 3108,
      "population": 3109,
      "broadc": 3110,
      "dollars": 3111,
      "deploy": 3112,
      "nine": 3113,
      "prosecutor": 3114,
      "video": 3115,
      "body": 3116,
      "businessman": 3117,
      "vowed": 3118,
      "coast": 3119,
      "buy": 3120,
      "##ias": 3121,
      "killing": 3122,
      "operation": 3123,
      "##ties": 3124,
      "thought": 3125,
      "ans": 3126,
      "ireland": 3127,
      "krem": 3128,
      "##ogue": 3129,
      "da": 3130,
      "reason": 3131,
      "##utes": 3132,
      "unp": 3133,
      "kremlin": 3134,
      "live": 3135,
      "willing": 3136,
      "sexual": 3137,
      "##ean": 3138,
      "sud": 3139,
      "##itted": 3140,
      "arrest": 3141,
      "opponents": 3142,
      "range": 3143,
      "##ault": 3144,
      "underm": 3145,
      "rakhine": 3146,
      "declared": 3147,
      "sector": 3148,
      "encour": 3149,
      "renew": 3150,
      "francis": 3151,
      "decide": 3152,
      "loss": 3153,
      "victim": 3154,
      "##ounded": 3155,
      "##dad": 3156,
      "detained": 3157,
      "communications": 3158,
      "threats": 3159,
      "gold": 3160,
      "##body": 3161,
      "##oyal": 3162,
      "turned": 3163,
      "arms": 3164,
      "bureau": 3165,
      "choice": 3166,
      "zone": 3167,
      "understand": 3168,
      "solution": 3169,
      "##ani": 3170,
      "strikes": 3171,
      "var": 3172,
      "emergency": 3173,
      "resc": 3174,
      "morning": 3175,
      "individual": 3176,
      "dial": 3177,
      "##action": 3178,
      "purs": 3179,
      "ministers": 3180,
      "##erty": 3181,
      "accounts": 3182,
      "demonstr": 3183,
      "##inent": 3184,
      "##itorial": 3185,
      "seats": 3186,
      "##imb": 3187,
      "##itting": 3188,
      "bagh": 3189,
      "mission": 3190,
      "conditions": 3191,
      "hezb": 3192,
      "payments": 3193,
      "28": 3194,
      "##igin": 3195,
      "analysts": 3196,
      "assembly": 3197,
      "hezbollah": 3198,
      "limit": 3199,
      "##ays": 3200,
      "##iety": 3201,
      "father": 3202,
      "##ailable": 3203,
      "##angu": 3204,
      "mostly": 3205,
      "domin": 3206,
      "thing": 3207,
      "##ali": 3208,
      "strike": 3209,
      "26": 3210,
      "##ication": 3211,
      "denies": 3212,
      "approval": 3213,
      "christian": 3214,
      "chanc": 3215,
      "diplomats": 3216,
      "claims": 3217,
      "baghdad": 3218,
      "cnn": 3219,
      "annual": 3220,
      "lawsuit": 3221,
      "firms": 3222,
      "terrorist": 3223,
      "rein": 3224,
      "grand": 3225,
      "manuf": 3226,
      "trib": 3227,
      "provided": 3228,
      "manufact": 3229,
      "##agon": 3230,
      "ded": 3231,
      "anything": 3232,
      "positions": 3233,
      "mueller": 3234,
      "pun": 3235,
      "send": 3236,
      "always": 3237,
      "origin": 3238,
      "crimes": 3239,
      "caused": 3240,
      "woman": 3241,
      "##berg": 3242,
      "kelly": 3243,
      "##anish": 3244,
      "faced": 3245,
      "doesn": 3246,
      "suspected": 3247,
      "interior": 3248,
      "ended": 3249,
      "2008": 3250,
      "investigating": 3251,
      "county": 3252,
      "anonym": 3253,
      "##ika": 3254,
      "euro": 3255,
      "network": 3256,
      "version": 3257,
      "##ota": 3258,
      "##ney": 3259,
      "riy": 3260,
      "##ires": 3261,
      "##ellor": 3262,
      "journalists": 3263,
      "missiles": 3264,
      "single": 3265,
      "crackdown": 3266,
      "subsid": 3267,
      "dist": 3268,
      "hus": 3269,
      "miles": 3270,
      "abe": 3271,
      "cause": 3272,
      "chancellor": 3273,
      "followed": 3274,
      "continued": 3275,
      "bern": 3276,
      "path": 3277,
      "##lus": 3278,
      "##ys": 3279,
      "##erve": 3280,
      "imposed": 3281,
      "moving": 3282,
      "parliamentary": 3283,
      "artic": 3284,
      "rhet": 3285,
      "publicly": 3286,
      "mention": 3287,
      "resour": 3288,
      "else": 3289,
      "japanese": 3290,
      "70": 3291,
      "guard": 3292,
      "organizations": 3293,
      "cited": 3294,
      "##any": 3295,
      "ship": 3296,
      "aggress": 3297,
      "incident": 3298,
      "disapp": 3299,
      "weekend": 3300,
      "course": 3301,
      "##road": 3302,
      "recor": 3303,
      "##ruary": 3304,
      "february": 3305,
      "rex": 3306,
      "warning": 3307,
      "sell": 3308,
      "trust": 3309,
      "fraud": 3310,
      "ways": 3311,
      "available": 3312,
      "sn": 3313,
      "initi": 3314,
      "judiciary": 3315,
      "##adh": 3316,
      "braz": 3317,
      "takes": 3318,
      "mccain": 3319,
      "swe": 3320,
      "##mal": 3321,
      "aide": 3322,
      "##pping": 3323,
      "##uma": 3324,
      "responsibility": 3325,
      "hopes": 3326,
      "##ware": 3327,
      "bey": 3328,
      "chec": 3329,
      "foundation": 3330,
      "dialogue": 3331,
      "ut": 3332,
      "proposals": 3333,
      "jeff": 3334,
      "responsible": 3335,
      "stability": 3336,
      "accord": 3337,
      "##going": 3338,
      "search": 3339,
      "production": 3340,
      "km": 3341,
      "makes": 3342,
      "rates": 3343,
      "##imum": 3344,
      "moment": 3345,
      "lu": 3346,
      "trig": 3347,
      "itself": 3348,
      "electoral": 3349,
      "serve": 3350,
      "maintain": 3351,
      "pick": 3352,
      "internet": 3353,
      "##aire": 3354,
      "##iger": 3355,
      "corre": 3356,
      "##know": 3357,
      "track": 3358,
      "acknow": 3359,
      "##ancy": 3360,
      "##aily": 3361,
      "civilians": 3362,
      "acknowled": 3363,
      "mart": 3364,
      "consult": 3365,
      "retired": 3366,
      "argued": 3367,
      "daily": 3368,
      "mob": 3369,
      "diss": 3370,
      "decisions": 3371,
      "constitutional": 3372,
      "views": 3373,
      "conducted": 3374,
      "hurricane": 3375,
      "##ew": 3376,
      "prices": 3377,
      "##troy": 3378,
      "##ession": 3379,
      "investigations": 3380,
      "rhetoric": 3381,
      "mater": 3382,
      "ross": 3383,
      "italy": 3384,
      "examp": 3385,
      "voter": 3386,
      "systems": 3387,
      "##com": 3388,
      "##alian": 3389,
      "##cons": 3390,
      "safe": 3391,
      "altern": 3392,
      "exerc": 3393,
      "destroy": 3394,
      "##ument": 3395,
      "prem": 3396,
      "recomm": 3397,
      "##ois": 3398,
      "requests": 3399,
      "communist": 3400,
      "ky": 3401,
      "posted": 3402,
      "started": 3403,
      "##dem": 3404,
      "homeland": 3405,
      "fill": 3406,
      "particularly": 3407,
      "##ric": 3408,
      "##oon": 3409,
      "uncertain": 3410,
      "philippines": 3411,
      "hospital": 3412,
      "required": 3413,
      "subject": 3414,
      "spd": 3415,
      "increased": 3416,
      "friend": 3417,
      "langu": 3418,
      "pact": 3419,
      "chance": 3420,
      "uns": 3421,
      "quoted": 3422,
      "improve": 3423,
      "riyadh": 3424,
      "beyond": 3425,
      "##atic": 3426,
      "tom": 3427,
      "asyl": 3428,
      "super": 3429,
      "asylum": 3430,
      "backing": 3431,
      "internal": 3432,
      "winning": 3433,
      "facing": 3434,
      "trigger": 3435,
      "faces": 3436,
      "immediate": 3437,
      "revenue": 3438,
      "##umb": 3439,
      "##joy": 3440,
      "allowing": 3441,
      "##anced": 3442,
      "sharp": 3443,
      "sens": 3444,
      "activities": 3445,
      "mnuch": 3446,
      "brazil": 3447,
      "students": 3448,
      "tweet": 3449,
      "mnuchin": 3450,
      "page": 3451,
      "vac": 3452,
      "cha": 3453,
      "sales": 3454,
      "existing": 3455,
      "##craft": 3456,
      "detention": 3457,
      "estimated": 3458,
      "fully": 3459,
      "pent": 3460,
      "sil": 3461,
      "discr": 3462,
      "considering": 3463,
      "management": 3464,
      "joined": 3465,
      "##esa": 3466,
      "hoped": 3467,
      "##selves": 3468,
      "billionaire": 3469,
      "dismissed": 3470,
      "bit": 3471,
      "shot": 3472,
      "targeted": 3473,
      "fel": 3474,
      "iow": 3475,
      "deficit": 3476,
      "compr": 3477,
      "themselves": 3478,
      "numbers": 3479,
      "##he": 3480,
      "##band": 3481,
      "##idel": 3482,
      "##sequ": 3483,
      "aircraft": 3484,
      "veter": 3485,
      "##ols": 3486,
      "ask": 3487,
      "pentagon": 3488,
      "rise": 3489,
      "chic": 3490,
      "##iders": 3491,
      "##ask": 3492,
      "stance": 3493,
      "adop": 3494,
      "refl": 3495,
      "focused": 3496,
      "amb": 3497,
      "bip": 3498,
      "##la": 3499,
      "fled": 3500,
      "ten": 3501,
      "traf": 3502,
      "overs": 3503,
      "chicago": 3504,
      "spar": 3505,
      "surpr": 3506,
      "establishment": 3507,
      "traffic": 3508,
      "##east": 3509,
      "ther": 3510,
      "moved": 3511,
      "advance": 3512,
      "iowa": 3513,
      "##verage": 3514,
      "2009": 3515,
      "autom": 3516,
      "judges": 3517,
      "resources": 3518,
      "che": 3519,
      "spanish": 3520,
      "anyone": 3521,
      "site": 3522,
      "##po": 3523,
      "manager": 3524,
      "room": 3525,
      "##ality": 3526,
      "bond": 3527,
      "kas": 3528,
      "##mit": 3529,
      "princ": 3530,
      "grant": 3531,
      "resignation": 3532,
      "anonymity": 3533,
      "elimin": 3534,
      "##oses": 3535,
      "lawmaker": 3536,
      "involvement": 3537,
      "appointed": 3538,
      "clar": 3539,
      "flag": 3540,
      "options": 3541,
      "duter": 3542,
      "wind": 3543,
      "duterte": 3544,
      "##amber": 3545,
      "phot": 3546,
      "##enced": 3547,
      "proced": 3548,
      "boy": 3549,
      "##ases": 3550,
      "##lines": 3551,
      "##hner": 3552,
      "##ordin": 3553,
      "benefits": 3554,
      "##ein": 3555,
      "indones": 3556,
      "escal": 3557,
      "blocked": 3558,
      "document": 3559,
      "defeat": 3560,
      "dozens": 3561,
      "dangerous": 3562,
      "date": 3563,
      "living": 3564,
      "##igan": 3565,
      "clash": 3566,
      "##eping": 3567,
      "attend": 3568,
      "##orse": 3569,
      "##aled": 3570,
      "##aks": 3571,
      "##iple": 3572,
      "##ahu": 3573,
      "commitment": 3574,
      "bipartisan": 3575,
      "meant": 3576,
      "scand": 3577,
      "survey": 3578,
      "example": 3579,
      "abortion": 3580,
      "abroad": 3581,
      "manaf": 3582,
      "transport": 3583,
      "discussions": 3584,
      "unclear": 3585,
      "pledged": 3586,
      "manafort": 3587,
      "##aint": 3588,
      "goal": 3589,
      "republic": 3590,
      "madrid": 3591,
      "commander": 3592,
      "kir": 3593,
      "##dom": 3594,
      "##ague": 3595,
      "medica": 3596,
      "directly": 3597,
      "sale": 3598,
      "zika": 3599,
      "##stant": 3600,
      "professor": 3601,
      "venezuela": 3602,
      "language": 3603,
      "medicaid": 3604,
      "gors": 3605,
      "##ler": 3606,
      "anger": 3607,
      "##using": 3608,
      "chamber": 3609,
      "damage": 3610,
      "clean": 3611,
      "45": 3612,
      "cel": 3613,
      "lives": 3614,
      "refused": 3615,
      "raising": 3616,
      "happen": 3617,
      "widely": 3618,
      "spons": 3619,
      "##issions": 3620,
      "owned": 3621,
      "answer": 3622,
      "rock": 3623,
      "##ih": 3624,
      "##und": 3625,
      "drill": 3626,
      "everything": 3627,
      "prince": 3628,
      "##ushing": 3629,
      "##amin": 3630,
      "assess": 3631,
      "radio": 3632,
      "mind": 3633,
      "##ece": 3634,
      "tweeted": 3635,
      "charl": 3636,
      "197": 3637,
      "niger": 3638,
      "linked": 3639,
      "gorsuch": 3640,
      "worst": 3641,
      "impose": 3642,
      "planning": 3643,
      "airport": 3644,
      "currency": 3645,
      "levels": 3646,
      "sudan": 3647,
      "bin": 3648,
      "material": 3649,
      "##qq": 3650,
      "acting": 3651,
      "euros": 3652,
      "##ification": 3653,
      "ballot": 3654,
      "pushed": 3655,
      "institute": 3656,
      "challenges": 3657,
      "veto": 3658,
      "crowd": 3659,
      "epa": 3660,
      "kh": 3661,
      "##ae": 3662,
      "##abil": 3663,
      "compared": 3664,
      "frequ": 3665,
      "christie": 3666,
      "31": 3667,
      "##eth": 3668,
      "contract": 3669,
      "figure": 3670,
      "mitch": 3671,
      "##eless": 3672,
      "temporary": 3673,
      "##ua": 3674,
      "bills": 3675,
      "born": 3676,
      "funded": 3677,
      "strategic": 3678,
      "roll": 3679,
      "wing": 3680,
      "heard": 3681,
      "cult": 3682,
      "stock": 3683,
      "victims": 3684,
      "narr": 3685,
      "##dling": 3686,
      "##luded": 3687,
      "finding": 3688,
      "content": 3689,
      "promise": 3690,
      "illin": 3691,
      "homes": 3692,
      "2019": 3693,
      "schools": 3694,
      "article": 3695,
      "illinois": 3696,
      "jers": 3697,
      "ram": 3698,
      "##of": 3699,
      "hamp": 3700,
      "identified": 3701,
      "jersey": 3702,
      "##nest": 3703,
      "##sa": 3704,
      "##ered": 3705,
      "##eline": 3706,
      "##illion": 3707,
      "abo": 3708,
      "houth": 3709,
      "moore": 3710,
      "drive": 3711,
      "scott": 3712,
      "greater": 3713,
      "jim": 3714,
      "mr": 3715,
      "##pl": 3716,
      "##ino": 3717,
      "assets": 3718,
      "stage": 3719,
      "session": 3720,
      "delegates": 3721,
      "##non": 3722,
      "##back": 3723,
      "chan": 3724,
      "carry": 3725,
      "dispute": 3726,
      "netany": 3727,
      "resolve": 3728,
      "opportunity": 3729,
      "29": 3730,
      "ted": 3731,
      "noted": 3732,
      "basis": 3733,
      "classified": 3734,
      "##where": 3735,
      "increasingly": 3736,
      "od": 3737,
      "moham": 3738,
      "sel": 3739,
      "##oned": 3740,
      "projects": 3741,
      "ly": 3742,
      "##itness": 3743,
      "secure": 3744,
      "netanyahu": 3745,
      "##hone": 3746,
      "chur": 3747,
      "##ibly": 3748,
      "recover": 3749,
      "talking": 3750,
      "guil": 3751,
      "foot": 3752,
      "##egr": 3753,
      "events": 3754,
      "transg": 3755,
      "follow": 3756,
      "ult": 3757,
      "station": 3758,
      "entering": 3759,
      "products": 3760,
      "prepared": 3761,
      "zuma": 3762,
      "chem": 3763,
      "object": 3764,
      "confidence": 3765,
      "opened": 3766,
      "transgender": 3767,
      "bir": 3768,
      "kus": 3769,
      "##anda": 3770,
      "percentage": 3771,
      "helping": 3772,
      "era": 3773,
      "sis": 3774,
      "tight": 3775,
      "kurds": 3776,
      "assistance": 3777,
      "theresa": 3778,
      "remained": 3779,
      "highest": 3780,
      "kushner": 3781,
      "##hen": 3782,
      "##ari": 3783,
      "appropri": 3784,
      "closely": 3785,
      "##wide": 3786,
      "##iab": 3787,
      "proceed": 3788,
      "supporting": 3789,
      "violent": 3790,
      "##arant": 3791,
      "integr": 3792,
      "inside": 3793,
      "capit": 3794,
      "treatment": 3795,
      "fa": 3796,
      "pap": 3797,
      "rout": 3798,
      "rap": 3799,
      "hands": 3800,
      "##ches": 3801,
      "worth": 3802,
      "limited": 3803,
      "jew": 3804,
      "cuban": 3805,
      "mun": 3806,
      "##umpt": 3807,
      "ite": 3808,
      "possibility": 3809,
      "affect": 3810,
      "celeb": 3811,
      "formal": 3812,
      "claimed": 3813,
      "unlik": 3814,
      "##ground": 3815,
      "worried": 3816,
      "positive": 3817,
      "lebanese": 3818,
      "unlikely": 3819,
      "##aching": 3820,
      "##igdem": 3821,
      "property": 3822,
      "displ": 3823,
      "palestinians": 3824,
      "entire": 3825,
      "praised": 3826,
      "##igdemont": 3827,
      "natur": 3828,
      "ali": 3829,
      "puigdemont": 3830,
      "friends": 3831,
      "affordable": 3832,
      "records": 3833,
      "ok": 3834,
      "advisers": 3835,
      "labour": 3836,
      "towards": 3837,
      "asian": 3838,
      "comprom": 3839,
      "lose": 3840,
      "didn": 3841,
      "shows": 3842,
      "angela": 3843,
      "ign": 3844,
      "##ront": 3845,
      "##bo": 3846,
      "administr": 3847,
      "surv": 3848,
      "malays": 3849,
      "alternative": 3850,
      "bab": 3851,
      "##vert": 3852,
      "attr": 3853,
      "lee": 3854,
      "haw": 3855,
      "commerce": 3856,
      "##onom": 3857,
      "regulation": 3858,
      "attention": 3859,
      "rebels": 3860,
      "complete": 3861,
      "fix": 3862,
      "##aug": 3863,
      "##icip": 3864,
      "400": 3865,
      "light": 3866,
      "##ipped": 3867,
      "struck": 3868,
      "someone": 3869,
      "trading": 3870,
      "tar": 3871,
      "##ients": 3872,
      "quar": 3873,
      "dozen": 3874,
      "richard": 3875,
      "hurt": 3876,
      "outl": 3877,
      "guarant": 3878,
      "posts": 3879,
      "lobby": 3880,
      "guilty": 3881,
      "##ats": 3882,
      "inaug": 3883,
      "##iction": 3884,
      "banned": 3885,
      "potentially": 3886,
      "oversight": 3887,
      "showing": 3888,
      "putting": 3889,
      "##ented": 3890,
      "insist": 3891,
      "civilian": 3892,
      "murder": 3893,
      "sat": 3894,
      "polling": 3895,
      "greens": 3896,
      "modern": 3897,
      "der": 3898,
      "naft": 3899,
      "##zy": 3900,
      "regime": 3901,
      "contest": 3902,
      "collusion": 3903,
      "##per": 3904,
      "reject": 3905,
      "editorial": 3906,
      "witness": 3907,
      "##icer": 3908,
      "words": 3909,
      "##lying": 3910,
      "##amer": 3911,
      "196": 3912,
      "navy": 3913,
      "combat": 3914,
      "##vin": 3915,
      "cauc": 3916,
      "insurg": 3917,
      "built": 3918,
      "introduced": 3919,
      "90": 3920,
      "sac": 3921,
      "construction": 3922,
      "confident": 3923,
      "runner": 3924,
      "dropped": 3925,
      "prompted": 3926,
      "nafta": 3927,
      "fal": 3928,
      "heart": 3929,
      "resist": 3930,
      "probably": 3931,
      "zimb": 3932,
      "trillion": 3933,
      "##abwe": 3934,
      "camb": 3935,
      "sar": 3936,
      "##set": 3937,
      "zimbabwe": 3938,
      "package": 3939,
      "training": 3940,
      "##iban": 3941,
      "bannon": 3942,
      "retire": 3943,
      "schumer": 3944,
      "spicer": 3945,
      "exports": 3946,
      "##mark": 3947,
      "##eva": 3948,
      "dollar": 3949,
      "tests": 3950,
      "##hib": 3951,
      "whole": 3952,
      "##imately": 3953,
      "##iling": 3954,
      "attacked": 3955,
      "failure": 3956,
      "##ughter": 3957,
      "formally": 3958,
      "taliban": 3959,
      "society": 3960,
      "mandate": 3961,
      "sap": 3962,
      "gener": 3963,
      "harm": 3964,
      "revolution": 3965,
      "fears": 3966,
      "mist": 3967,
      "shift": 3968,
      "opening": 3969,
      "overseas": 3970,
      "vehicles": 3971,
      "natural": 3972,
      "autonom": 3973,
      "michigan": 3974,
      "kingdom": 3975,
      "300": 3976,
      "ey": 3977,
      "orders": 3978,
      "meddling": 3979,
      "strongly": 3980,
      "returned": 3981,
      "hacking": 3982,
      "relief": 3983,
      "book": 3984,
      "rating": 3985,
      "insurers": 3986,
      "experience": 3987,
      "massive": 3988,
      "storm": 3989,
      "code": 3990,
      "pip": 3991,
      "##aded": 3992,
      "poland": 3993,
      "monitor": 3994,
      "perman": 3995,
      "standards": 3996,
      "rising": 3997,
      "spl": 3998,
      "door": 3999,
      "endorse": 4000,
      "rebel": 4001,
      "bernie": 4002,
      "foun": 4003,
      "##ery": 4004,
      "##arm": 4005,
      "##aces": 4006,
      "alab": 4007,
      "##ficient": 4008,
      "blamed": 4009,
      "telep": 4010,
      "##oing": 4011,
      "##uro": 4012,
      "neighbor": 4013,
      "curb": 4014,
      "husband": 4015,
      "##nes": 4016,
      "plat": 4017,
      "intended": 4018,
      "bilateral": 4019,
      "##ering": 4020,
      "reporting": 4021,
      "everyone": 4022,
      "lie": 4023,
      "##reg": 4024,
      "afd": 4025,
      "ess": 4026,
      "partnership": 4027,
      "hy": 4028,
      "##lig": 4029,
      "##manuel": 4030,
      "interference": 4031,
      "arrived": 4032,
      "played": 4033,
      "alabama": 4034,
      "##ef": 4035,
      "##ulation": 4036,
      "regulatory": 4037,
      "welcom": 4038,
      "jail": 4039,
      "pushing": 4040,
      "yes": 4041,
      "zeal": 4042,
      "outcome": 4043,
      "geneva": 4044,
      "##ylvan": 4045,
      "asking": 4046,
      "suc": 4047,
      "##stein": 4048,
      "borders": 4049,
      "##insula": 4050,
      "benefit": 4051,
      "figures": 4052,
      "##ny": 4053,
      "##ci": 4054,
      "##oke": 4055,
      "involving": 4056,
      "penns": 4057,
      "peninsula": 4058,
      "pennsylvan": 4059,
      "cash": 4060,
      "##icate": 4061,
      "serving": 4062,
      "qat": 4063,
      "##ouse": 4064,
      "##pper": 4065,
      "patr": 4066,
      "ros": 4067,
      "##light": 4068,
      "##ke": 4069,
      "slow": 4070,
      "activity": 4071,
      "predecess": 4072,
      "##adi": 4073,
      "troub": 4074,
      "outs": 4075,
      "circuit": 4076,
      "suppl": 4077,
      "oppose": 4078,
      "phil": 4079,
      "believes": 4080,
      "personnel": 4081,
      "reality": 4082,
      "ceo": 4083,
      "cancel": 4084,
      "pennsylvania": 4085,
      "alex": 4086,
      "surr": 4087,
      "questioned": 4088,
      "initial": 4089,
      "gulf": 4090,
      "##qqa": 4091,
      "celebr": 4092,
      "dig": 4093,
      "raqqa": 4094,
      "brother": 4095,
      "uncertainty": 4096,
      "zealand": 4097,
      "spread": 4098,
      "heavy": 4099,
      "amendment": 4100,
      "dan": 4101,
      "##iest": 4102,
      "##onald": 4103,
      "shel": 4104,
      "soft": 4105,
      "haley": 4106,
      "wealthy": 4107,
      "rod": 4108,
      "##uff": 4109,
      "explos": 4110,
      "simply": 4111,
      "drew": 4112,
      "tank": 4113,
      "communities": 4114,
      "suspended": 4115,
      "##ax": 4116,
      "seoul": 4117,
      "inspect": 4118,
      "carrying": 4119,
      "judicial": 4120,
      "wis": 4121,
      "institutions": 4122,
      "tay": 4123,
      "##iny": 4124,
      "##olf": 4125,
      "##unt": 4126,
      "##ught": 4127,
      "behav": 4128,
      "setting": 4129,
      "maduro": 4130,
      "floor": 4131,
      "heads": 4132,
      "remaining": 4133,
      "differences": 4134,
      "pledge": 4135,
      "##kyo": 4136,
      "ips": 4137,
      "tokyo": 4138,
      "anton": 4139,
      "shared": 4140,
      "driving": 4141,
      "independently": 4142,
      "affected": 4143,
      "platform": 4144,
      "responded": 4145,
      "##ni": 4146,
      "##erry": 4147,
      "##antage": 4148,
      "##rov": 4149,
      "corker": 4150,
      "perm": 4151,
      "absol": 4152,
      "telephone": 4153,
      "lav": 4154,
      "providing": 4155,
      "kirk": 4156,
      "cambod": 4157,
      "rough": 4158,
      "##alled": 4159,
      "legislature": 4160,
      "age": 4161,
      "sum": 4162,
      "appar": 4163,
      "offensive": 4164,
      "executives": 4165,
      "links": 4166,
      "remove": 4167,
      "succeed": 4168,
      "##ival": 4169,
      "investigate": 4170,
      "priority": 4171,
      "occup": 4172,
      "cop": 4173,
      "hong": 4174,
      "##quir": 4175,
      "ipsos": 4176,
      "mel": 4177,
      "##ansas": 4178,
      "emissions": 4179,
      "discussion": 4180,
      "bringing": 4181,
      "welcomed": 4182,
      "field": 4183,
      "southeast": 4184,
      "migration": 4185,
      "neighboring": 4186,
      "advocates": 4187,
      "cia": 4188,
      "gar": 4189,
      "li": 4190,
      "pru": 4191,
      "##oph": 4192,
      "abb": 4193,
      "amount": 4194,
      "steel": 4195,
      "contact": 4196,
      "deeply": 4197,
      "purch": 4198,
      "settlement": 4199,
      "52": 4200,
      "unity": 4201,
      "politically": 4202,
      "wars": 4203,
      "parents": 4204,
      "georg": 4205,
      "hotel": 4206,
      "wounded": 4207,
      "##ously": 4208,
      "separat": 4209,
      "pruitt": 4210,
      "kr": 4211,
      "contacts": 4212,
      "gaz": 4213,
      "actually": 4214,
      "moves": 4215,
      "assault": 4216,
      "investigators": 4217,
      "ill": 4218,
      "stopped": 4219,
      "jong": 4220,
      "unable": 4221,
      "flights": 4222,
      "huge": 4223,
      "photo": 4224,
      "inaugur": 4225,
      "lou": 4226,
      "disaster": 4227,
      "changed": 4228,
      "nominating": 4229,
      "acknowledged": 4230,
      "jose": 4231,
      "##lant": 4232,
      "##rel": 4233,
      "##iro": 4234,
      "##shire": 4235,
      "resigned": 4236,
      "48": 4237,
      "ts": 4238,
      "##orr": 4239,
      "shown": 4240,
      "aband": 4241,
      "sense": 4242,
      "evening": 4243,
      "##ille": 4244,
      "sty": 4245,
      "beir": 4246,
      "agents": 4247,
      "text": 4248,
      "keeping": 4249,
      "matters": 4250,
      "divided": 4251,
      "drugs": 4252,
      "condemned": 4253,
      "rom": 4254,
      "##ada": 4255,
      "addition": 4256,
      "conflicts": 4257,
      "shares": 4258,
      "treaty": 4259,
      "electric": 4260,
      "pul": 4261,
      "##wor": 4262,
      "##ila": 4263,
      "##essed": 4264,
      "mainly": 4265,
      "scandal": 4266,
      "consequ": 4267,
      "farm": 4268,
      "michel": 4269,
      "deadline": 4270,
      "housing": 4271,
      "hampshire": 4272,
      "presence": 4273,
      "scient": 4274,
      "endors": 4275,
      "dar": 4276,
      "ongoing": 4277,
      "defence": 4278,
      "undermine": 4279,
      "beirut": 4280,
      "bash": 4281,
      "oblig": 4282,
      "signs": 4283,
      "attempts": 4284,
      "canadian": 4285,
      "various": 4286,
      "average": 4287,
      "##ifying": 4288,
      "flood": 4289,
      "banking": 4290,
      "ethics": 4291,
      "qatar": 4292,
      "jin": 4293,
      "lines": 4294,
      "##itz": 4295,
      "overt": 4296,
      "profile": 4297,
      "rivals": 4298,
      "birth": 4299,
      "##lements": 4300,
      "##ulate": 4301,
      "export": 4302,
      "##argo": 4303,
      "prominent": 4304,
      "chris": 4305,
      "receive": 4306,
      "traditional": 4307,
      "sometimes": 4308,
      "recognize": 4309,
      "heavily": 4310,
      "80": 4311,
      "mother": 4312,
      "##df": 4313,
      "##imony": 4314,
      "##ieb": 4315,
      "investments": 4316,
      "presidents": 4317,
      "drawn": 4318,
      "medic": 4319,
      "unless": 4320,
      "##off": 4321,
      "unit": 4322,
      "expert": 4323,
      "normal": 4324,
      "##idelines": 4325,
      "squ": 4326,
      "unve": 4327,
      "permanent": 4328,
      "fif": 4329,
      "link": 4330,
      "inquir": 4331,
      "##alf": 4332,
      "##vereign": 4333,
      "accomp": 4334,
      "sovereign": 4335,
      "paying": 4336,
      "citizenship": 4337,
      "closer": 4338,
      "carl": 4339,
      "##ria": 4340,
      "lear": 4341,
      "##erem": 4342,
      "supports": 4343,
      "campaigns": 4344,
      "kurdistan": 4345,
      "moderate": 4346,
      "ultimately": 4347,
      "quarter": 4348,
      "##lu": 4349,
      "##ze": 4350,
      "promises": 4351,
      "illegally": 4352,
      "pope": 4353,
      "##aj": 4354,
      "##cl": 4355,
      "##imination": 4356,
      "ariz": 4357,
      "##ume": 4358,
      "happened": 4359,
      "felt": 4360,
      "##kov": 4361,
      "transfer": 4362,
      "regular": 4363,
      "failing": 4364,
      "behalf": 4365,
      "equip": 4366,
      "injured": 4367,
      "owners": 4368,
      "college": 4369,
      "rank": 4370,
      "##uth": 4371,
      "neither": 4372,
      "##inish": 4373,
      "works": 4374,
      "blue": 4375,
      "##nr": 4376,
      "##dh": 4377,
      "##icked": 4378,
      "demands": 4379,
      "##itten": 4380,
      "commerc": 4381,
      "##ocked": 4382,
      "brid": 4383,
      "becoming": 4384,
      "fourth": 4385,
      "steve": 4386,
      "importance": 4387,
      "arizona": 4388,
      "pension": 4389,
      "##fire": 4390,
      "brown": 4391,
      "targeting": 4392,
      "church": 4393,
      "dest": 4394,
      "##be": 4395,
      "##ocks": 4396,
      "colomb": 4397,
      "meaning": 4398,
      "controversial": 4399,
      "chemical": 4400,
      "essential": 4401,
      "via": 4402,
      "acqu": 4403,
      "prohib": 4404,
      "grass": 4405,
      "justices": 4406,
      "telling": 4407,
      "##ena": 4408,
      "interv": 4409,
      "advantage": 4410,
      "para": 4411,
      "creation": 4412,
      "leaves": 4413,
      "gay": 4414,
      "wide": 4415,
      "##ories": 4416,
      "visa": 4417,
      "values": 4418,
      "##lo": 4419,
      "highly": 4420,
      "testimony": 4421,
      "##iffs": 4422,
      "##oom": 4423,
      "agric": 4424,
      "defended": 4425,
      "minimum": 4426,
      "penal": 4427,
      "##ields": 4428,
      "irish": 4429,
      "certainly": 4430,
      "kong": 4431,
      "tack": 4432,
      "##ining": 4433,
      "expans": 4434,
      "attended": 4435,
      "sentence": 4436,
      "sites": 4437,
      "broke": 4438,
      "martin": 4439,
      "agricult": 4440,
      "naz": 4441,
      "islands": 4442,
      "initially": 4443,
      "behavior": 4444,
      "gm": 4445,
      "##ta": 4446,
      "##uster": 4447,
      "consum": 4448,
      "effective": 4449,
      "jinping": 4450,
      "commercial": 4451,
      "bul": 4452,
      "por": 4453,
      "river": 4454,
      "##ane": 4455,
      "anth": 4456,
      "coordin": 4457,
      "signature": 4458,
      "visited": 4459,
      "esc": 4460,
      "declar": 4461,
      "lobb": 4462,
      "recommend": 4463,
      "paper": 4464,
      "##asons": 4465,
      "abuse": 4466,
      "supporter": 4467,
      "denoun": 4468,
      "allows": 4469,
      "doubt": 4470,
      "##burg": 4471,
      "sensitive": 4472,
      "capitol": 4473,
      "fdp": 4474,
      "##olic": 4475,
      "phase": 4476,
      "clearly": 4477,
      "starting": 4478,
      "daughter": 4479,
      "equipment": 4480,
      "pes": 4481,
      "vul": 4482,
      "adj": 4483,
      "approve": 4484,
      "apart": 4485,
      "surveill": 4486,
      "francisco": 4487,
      "paragraph": 4488,
      "seized": 4489,
      "disag": 4490,
      "committees": 4491,
      "##aham": 4492,
      "32": 4493,
      "fast": 4494,
      "ending": 4495,
      "##anging": 4496,
      "above": 4497,
      "camer": 4498,
      "tun": 4499,
      "##to": 4500,
      "##iced": 4501,
      "bran": 4502,
      "overall": 4503,
      "shortly": 4504,
      "shooting": 4505,
      "dod": 4506,
      "mary": 4507,
      "rall": 4508,
      "thom": 4509,
      "arch": 4510,
      "requires": 4511,
      "option": 4512,
      "beginning": 4513,
      "false": 4514,
      "kirkuk": 4515,
      "table": 4516,
      "##ayed": 4517,
      "consumer": 4518,
      "2001": 4519,
      "convicted": 4520,
      "peaceful": 4521,
      "commissioner": 4522,
      "conversation": 4523,
      "surveillance": 4524,
      "tort": 4525,
      "anc": 4526,
      "disrupt": 4527,
      "designed": 4528,
      "entry": 4529,
      "confront": 4530,
      "broader": 4531,
      "irma": 4532,
      "multiple": 4533,
      "disappoint": 4534,
      "predecessor": 4535,
      "losing": 4536,
      "mic": 4537,
      "sending": 4538,
      "struct": 4539,
      "scale": 4540,
      "century": 4541,
      "2005": 4542,
      "agreements": 4543,
      "risks": 4544,
      "particular": 4545,
      "bod": 4546,
      "##asc": 4547,
      "hav": 4548,
      "exemp": 4549,
      "emmanuel": 4550,
      "cutting": 4551,
      "disputed": 4552,
      "english": 4553,
      "study": 4554,
      "card": 4555,
      "hall": 4556,
      "william": 4557,
      "evac": 4558,
      "limits": 4559,
      "##whel": 4560,
      "suffered": 4561,
      "##ulated": 4562,
      "negotiating": 4563,
      "urging": 4564,
      "cd": 4565,
      "gain": 4566,
      "##pay": 4567,
      "reasons": 4568,
      "overwhel": 4569,
      "assert": 4570,
      "2007": 4571,
      "targets": 4572,
      "kyi": 4573,
      "bat": 4574,
      "##hi": 4575,
      "##reh": 4576,
      "isol": 4577,
      "suu": 4578,
      "accusing": 4579,
      "nbc": 4580,
      "##ado": 4581,
      "suspects": 4582,
      "memo": 4583,
      "split": 4584,
      "dub": 4585,
      "fought": 4586,
      "loyal": 4587,
      "##ounds": 4588,
      "blood": 4589,
      "cars": 4590,
      "requested": 4591,
      "broadcast": 4592,
      "65": 4593,
      "##da": 4594,
      "##eda": 4595,
      "product": 4596,
      "bob": 4597,
      "rare": 4598,
      "wat": 4599,
      "inn": 4600,
      "buddh": 4601,
      "strategist": 4602,
      "founder": 4603,
      "georgia": 4604,
      "names": 4605,
      "##arland": 4606,
      "provision": 4607,
      "prospect": 4608,
      "stepped": 4609,
      "consequences": 4610,
      "mach": 4611,
      "##aur": 4612,
      "streets": 4613,
      "requirements": 4614,
      "dream": 4615,
      "ep": 4616,
      "mut": 4617,
      "##isive": 4618,
      "trail": 4619,
      "announce": 4620,
      "removed": 4621,
      "aware": 4622,
      "os": 4623,
      "lew": 4624,
      "retali": 4625,
      "fu": 4626,
      "departure": 4627,
      "indonesia": 4628,
      "exit": 4629,
      "brand": 4630,
      "##quar": 4631,
      "headquar": 4632,
      "accepted": 4633,
      "couple": 4634,
      "achieve": 4635,
      "##bed": 4636,
      "##ishing": 4637,
      "##ucing": 4638,
      "##ction": 4639,
      "##uments": 4640,
      "recon": 4641,
      "russians": 4642,
      "serge": 4643,
      "facilities": 4644,
      "##ieto": 4645,
      "qa": 4646,
      "sdf": 4647,
      "##cy": 4648,
      "##ko": 4649,
      "##ites": 4650,
      "written": 4651,
      "kept": 4652,
      "hung": 4653,
      "determine": 4654,
      "sweeping": 4655,
      "##consin": 4656,
      "wisconsin": 4657,
      "summer": 4658,
      "ho": 4659,
      "oust": 4660,
      "forec": 4661,
      "imports": 4662,
      "taxpay": 4663,
      "operating": 4664,
      "eventually": 4665,
      "scrut": 4666,
      "jr": 4667,
      "rose": 4668,
      "complex": 4669,
      "represents": 4670,
      "##ullah": 4671,
      "halt": 4672,
      "doct": 4673,
      "goes": 4674,
      "supply": 4675,
      "voice": 4676,
      "visas": 4677,
      "engine": 4678,
      "cease": 4679,
      "village": 4680,
      "bos": 4681,
      "alone": 4682,
      "chuck": 4683,
      "##ounding": 4684,
      "weigh": 4685,
      "firing": 4686,
      "career": 4687,
      "radical": 4688,
      "vehicle": 4689,
      "connect": 4690,
      "pipeline": 4691,
      "##ular": 4692,
      "cruc": 4693,
      "apply": 4694,
      "##room": 4695,
      "violations": 4696,
      "latin": 4697,
      "expansion": 4698,
      "##house": 4699,
      "##oma": 4700,
      "atlant": 4701,
      "##agers": 4702,
      "maint": 4703,
      "value": 4704,
      "extra": 4705,
      "roughly": 4706,
      "creat": 4707,
      "##bon": 4708,
      "spend": 4709,
      "##oked": 4710,
      "militias": 4711,
      "din": 4712,
      "tension": 4713,
      "australian": 4714,
      "practice": 4715,
      "75": 4716,
      "graft": 4717,
      "active": 4718,
      "negotiate": 4719,
      "fier": 4720,
      "##eed": 4721,
      "##ept": 4722,
      "##coming": 4723,
      "##och": 4724,
      "plant": 4725,
      "concluded": 4726,
      "continuing": 4727,
      "insurgency": 4728,
      "nieto": 4729,
      "##akers": 4730,
      "donors": 4731,
      "goods": 4732,
      "handling": 4733,
      "emerged": 4734,
      "cath": 4735,
      "dim": 4736,
      "##bul": 4737,
      "stra": 4738,
      "##aked": 4739,
      "margin": 4740,
      "prec": 4741,
      "centers": 4742,
      "fleeing": 4743,
      "captured": 4744,
      "sparked": 4745,
      "faith": 4746,
      "gaza": 4747,
      "inauguration": 4748,
      "louis": 4749,
      "dut": 4750,
      "pending": 4751,
      "ren": 4752,
      "##nc": 4753,
      "##pects": 4754,
      "fresh": 4755,
      "transpar": 4756,
      "analyst": 4757,
      "tougher": 4758,
      "cler": 4759,
      "graham": 4760,
      "depend": 4761,
      "##iously": 4762,
      "established": 4763,
      "temporarily": 4764,
      "controversy": 4765,
      "kasich": 4766,
      "rs": 4767,
      "provisions": 4768,
      "breach": 4769,
      "##crip": 4770,
      "pena": 4771,
      "smaller": 4772,
      "reneg": 4773,
      "manufacturing": 4774,
      "channel": 4775,
      "overwhelming": 4776,
      "##mad": 4777,
      "##osh": 4778,
      "##abor": 4779,
      "flight": 4780,
      "wins": 4781,
      "balance": 4782,
      "disclos": 4783,
      "jord": 4784,
      "kid": 4785,
      "lands": 4786,
      "##erties": 4787,
      "emph": 4788,
      "corporations": 4789,
      "wrongd": 4790,
      "garland": 4791,
      "##inary": 4792,
      "unn": 4793,
      "except": 4794,
      "##ailand": 4795,
      "##ological": 4796,
      "compromise": 4797,
      "caucus": 4798,
      "600": 4799,
      "ic": 4800,
      "wides": 4801,
      "##equ": 4802,
      "##pread": 4803,
      "thailand": 4804,
      "##era": 4805,
      "##ensus": 4806,
      "widespread": 4807,
      "##utely": 4808,
      "##stand": 4809,
      "grad": 4810,
      "word": 4811,
      "billions": 4812,
      "prefer": 4813,
      "##urred": 4814,
      "bashar": 4815,
      "fifth": 4816,
      "headquarters": 4817,
      "bail": 4818,
      "sad": 4819,
      "##ashed": 4820,
      "associates": 4821,
      "indiana": 4822,
      "bodies": 4823,
      "dh": 4824,
      "##trial": 4825,
      "shr": 4826,
      "effectively": 4827,
      "##igned": 4828,
      "entered": 4829,
      "struggling": 4830,
      "endorsed": 4831,
      "lind": 4832,
      "##ball": 4833,
      "##veland": 4834,
      "immigrant": 4835,
      "mining": 4836,
      "rebu": 4837,
      "cleveland": 4838,
      "preparing": 4839,
      "##ihad": 4840,
      "declaration": 4841,
      "pull": 4842,
      "##atively": 4843,
      "prieb": 4844,
      "enem": 4845,
      "standard": 4846,
      "practices": 4847,
      "cambodia": 4848,
      "crucial": 4849,
      "wrongdoing": 4850,
      "priebus": 4851,
      "forum": 4852,
      "beg": 4853,
      "lean": 4854,
      "interp": 4855,
      "scen": 4856,
      "regarding": 4857,
      "mobil": 4858,
      "clashes": 4859,
      "cerem": 4860,
      "dict": 4861,
      "speed": 4862,
      "seekers": 4863,
      "casual": 4864,
      "vulner": 4865,
      "33": 4866,
      "log": 4867,
      "##fort": 4868,
      "##west": 4869,
      "sem": 4870,
      "grounds": 4871,
      "tayy": 4872,
      "lit": 4873,
      "po": 4874,
      "wage": 4875,
      "##ga": 4876,
      "##apore": 4877,
      "##enses": 4878,
      "marked": 4879,
      "##actions": 4880,
      "collect": 4881,
      "terrorists": 4882,
      "singapore": 4883,
      "extremely": 4884,
      "mohammed": 4885,
      "consumers": 4886,
      "gone": 4887,
      "ms": 4888,
      "sant": 4889,
      "##cel": 4890,
      "##acing": 4891,
      "##apse": 4892,
      "legit": 4893,
      "ideas": 4894,
      "unfair": 4895,
      "initiative": 4896,
      "insurgents": 4897,
      "style": 4898,
      "reass": 4899,
      "unus": 4900,
      "violated": 4901,
      "termin": 4902,
      "conversations": 4903,
      "correct": 4904,
      "retirement": 4905,
      "pict": 4906,
      "wil": 4907,
      "league": 4908,
      "peter": 4909,
      "consist": 4910,
      "pret": 4911,
      "qual": 4912,
      "signal": 4913,
      "below": 4914,
      "continues": 4915,
      "seeks": 4916,
      "delegation": 4917,
      "strengthen": 4918,
      "creating": 4919,
      "emphas": 4920,
      "que": 4921,
      "##ville": 4922,
      "##entions": 4923,
      "arran": 4924,
      "honor": 4925,
      "impl": 4926,
      "romney": 4927,
      "arrange": 4928,
      "jack": 4929,
      "mate": 4930,
      "##hel": 4931,
      "##ounted": 4932,
      "presumpt": 4933,
      "blow": 4934,
      "suspic": 4935,
      "subsidies": 4936,
      "gab": 4937,
      "##ores": 4938,
      "##aca": 4939,
      "##aker": 4940,
      "##assment": 4941,
      "annex": 4942,
      "alongside": 4943,
      "completely": 4944,
      "inquiry": 4945,
      "fem": 4946,
      "pain": 4947,
      "royal": 4948,
      "quit": 4949,
      "##ledge": 4950,
      "returns": 4951,
      "eliminate": 4952,
      "36": 4953,
      "pel": 4954,
      "touch": 4955,
      "##aming": 4956,
      "narrow": 4957,
      "37": 4958,
      "cert": 4959,
      "los": 4960,
      "tone": 4961,
      "true": 4962,
      "##acity": 4963,
      "worry": 4964,
      "plane": 4965,
      "appears": 4966,
      "successful": 4967,
      "punish": 4968,
      "tayyip": 4969,
      "nas": 4970,
      "scalia": 4971,
      "generally": 4972,
      "promote": 4973,
      "kevin": 4974,
      "nominees": 4975,
      "somalia": 4976,
      "rescue": 4977,
      "veteran": 4978,
      "44": 4979,
      "jailed": 4980,
      "ash": 4981,
      "uncon": 4982,
      "manila": 4983,
      "mcm": 4984,
      "filing": 4985,
      "historic": 4986,
      "aggressive": 4987,
      "check": 4988,
      "##lah": 4989,
      "##ano": 4990,
      "##icit": 4991,
      "##tering": 4992,
      "chances": 4993,
      "visiting": 4994,
      "tradition": 4995,
      "hearings": 4996,
      "renegoti": 4997,
      "mix": 4998,
      "abuses": 4999,
      "##elled": 5000,
      "marria": 5001,
      "politician": 5002,
      "student": 5003,
      "love": 5004,
      "appointment": 5005,
      "deportation": 5006,
      "jordan": 5007,
      "38": 5008,
      "core": 5009,
      "##gar": 5010,
      "##bull": 5011,
      "exact": 5012,
      "offices": 5013,
      "secession": 5014,
      "max": 5015,
      "passage": 5016,
      "##mas": 5017,
      "##osi": 5018,
      "sees": 5019,
      "##awi": 5020,
      "##agues": 5021,
      "nationalist": 5022,
      "color": 5023,
      "sentenced": 5024,
      "nearby": 5025,
      "skept": 5026,
      "assistant": 5027,
      "registered": 5028,
      "gathered": 5029,
      "lavrov": 5030,
      "award": 5031,
      "kerry": 5032,
      "pi": 5033,
      "##wise": 5034,
      "##onic": 5035,
      "club": 5036,
      "indicated": 5037,
      "##anged": 5038,
      "holds": 5039,
      "unpre": 5040,
      "qaeda": 5041,
      "bi": 5042,
      "noting": 5043,
      "places": 5044,
      "contrast": 5045,
      "industrial": 5046,
      "turnbull": 5047,
      "seriously": 5048,
      "replacement": 5049,
      "##nski": 5050,
      "##erly": 5051,
      "##icide": 5052,
      "spot": 5053,
      "allied": 5054,
      "spoken": 5055,
      "stronger": 5056,
      "collins": 5057,
      "messages": 5058,
      "watchdog": 5059,
      "analysis": 5060,
      "fake": 5061,
      "jihad": 5062,
      "ads": 5063,
      "##iana": 5064,
      "##iev": 5065,
      "brib": 5066,
      "substant": 5067,
      "priorities": 5068,
      "discrimination": 5069,
      "frequently": 5070,
      "sergei": 5071,
      "dak": 5072,
      "eld": 5073,
      "##ports": 5074,
      "##itude": 5075,
      "fort": 5076,
      "stood": 5077,
      "##vey": 5078,
      "##rog": 5079,
      "possibly": 5080,
      "circum": 5081,
      "##hani": 5082,
      "malaysia": 5083,
      "##zynski": 5084,
      "presumptive": 5085,
      "##osa": 5086,
      "##ander": 5087,
      "collaps": 5088,
      "elsewhere": 5089,
      "800": 5090,
      "ease": 5091,
      "##n1": 5092,
      "##ka": 5093,
      "##stream": 5094,
      "edt": 5095,
      "citizen": 5096,
      "mount": 5097,
      "##uits": 5098,
      "sharing": 5099,
      "studies": 5100,
      "jones": 5101,
      "pover": 5102,
      "tpp": 5103,
      "zor": 5104,
      "##ched": 5105,
      "resort": 5106,
      "harder": 5107,
      "looks": 5108,
      "attorneys": 5109,
      "offering": 5110,
      "withdrawal": 5111,
      "abbas": 5112,
      "poverty": 5113,
      "##ris": 5114,
      "##tion": 5115,
      "shif": 5116,
      "##andez": 5117,
      "enr": 5118,
      "##elling": 5119,
      "warren": 5120,
      "advanced": 5121,
      "airlines": 5122,
      "waiting": 5123,
      "2020": 5124,
      "rapid": 5125,
      "rat": 5126,
      "revers": 5127,
      "frame": 5128,
      "camps": 5129,
      "negative": 5130,
      "larger": 5131,
      "separately": 5132,
      "restore": 5133,
      "wait": 5134,
      "motiv": 5135,
      "cf": 5136,
      "cold": 5137,
      "task": 5138,
      "##icop": 5139,
      "rever": 5140,
      "abadi": 5141,
      "reserv": 5142,
      "parent": 5143,
      "server": 5144,
      "referred": 5145,
      "villages": 5146,
      "dominated": 5147,
      "triggered": 5148,
      "42": 5149,
      "deir": 5150,
      "blame": 5151,
      "complain": 5152,
      "consideration": 5153,
      "colon": 5154,
      "nominated": 5155,
      "opponent": 5156,
      "39": 5157,
      "bes": 5158,
      "gian": 5159,
      "##uana": 5160,
      "twice": 5161,
      "requiring": 5162,
      "privacy": 5163,
      "developing": 5164,
      "activist": 5165,
      "deaths": 5166,
      "apolog": 5167,
      "crimea": 5168,
      "absolutely": 5169,
      "lic": 5170,
      "tech": 5171,
      "##urb": 5172,
      "champ": 5173,
      "obv": 5174,
      "belg": 5175,
      "headed": 5176,
      "demanded": 5177,
      "colleagues": 5178,
      "pursue": 5179,
      "##head": 5180,
      "reve": 5181,
      "sean": 5182,
      "##cedented": 5183,
      "recognized": 5184,
      "presented": 5185,
      "customs": 5186,
      "surprise": 5187,
      "oklah": 5188,
      "unprecedented": 5189,
      "41": 5190,
      "ech": 5191,
      "sust": 5192,
      "##eas": 5193,
      "##ading": 5194,
      "exam": 5195,
      "enjoy": 5196,
      "##ikh": 5197,
      "##nedy": 5198,
      "emir": 5199,
      "complained": 5200,
      "argent": 5201,
      "kennedy": 5202,
      "pelosi": 5203,
      "53": 5204,
      "match": 5205,
      "advert": 5206,
      "arres": 5207,
      "cairo": 5208,
      "##rage": 5209,
      "marco": 5210,
      "dealing": 5211,
      "writing": 5212,
      "extend": 5213,
      "collapse": 5214,
      "hamas": 5215,
      "losses": 5216,
      "arrests": 5217,
      "wish": 5218,
      "##tan": 5219,
      "##irl": 5220,
      "unac": 5221,
      "cohn": 5222,
      "naval": 5223,
      "dodd": 5224,
      "havana": 5225,
      "none": 5226,
      "rural": 5227,
      "tower": 5228,
      "reiter": 5229,
      "goog": 5230,
      "knowledge": 5231,
      "playing": 5232,
      "holiday": 5233,
      "produced": 5234,
      "egyptian": 5235,
      "oklahoma": 5236,
      "leads": 5237,
      "advocacy": 5238,
      "mul": 5239,
      "rail": 5240,
      "comply": 5241,
      "carbon": 5242,
      "rajoy": 5243,
      "highlight": 5244,
      "buildings": 5245,
      "lock": 5246,
      "ton": 5247,
      "##acter": 5248,
      "graph": 5249,
      "plot": 5250,
      "interf": 5251,
      "donations": 5252,
      "invited": 5253,
      "contests": 5254,
      "contracts": 5255,
      "##resp": 5256,
      "joe": 5257,
      "customers": 5258,
      "47": 5259,
      "fat": 5260,
      "upon": 5261,
      "guards": 5262,
      "throughout": 5263,
      "houses": 5264,
      "granted": 5265,
      "##nbc": 5266,
      "stick": 5267,
      "fundra": 5268,
      "choose": 5269,
      "towns": 5270,
      "purp": 5271,
      "goldman": 5272,
      "supplies": 5273,
      "mil": 5274,
      "##haps": 5275,
      "##sen": 5276,
      "##err": 5277,
      "tol": 5278,
      "pray": 5279,
      "tra": 5280,
      "aside": 5281,
      "shin": 5282,
      "perhaps": 5283,
      "defin": 5284,
      "driven": 5285,
      "runs": 5286,
      "killings": 5287,
      "swed": 5288,
      "traveling": 5289,
      "solid": 5290,
      "adopted": 5291,
      "bah": 5292,
      "gives": 5293,
      "##uten": 5294,
      "##unes": 5295,
      "##agwa": 5296,
      "##forman": 5297,
      "##angagwa": 5298,
      "youth": 5299,
      "controls": 5300,
      "##ucky": 5301,
      "neighbors": 5302,
      "mnangagwa": 5303,
      "seems": 5304,
      "lieuten": 5305,
      "gained": 5306,
      "##mitted": 5307,
      "##hol": 5308,
      "##asion": 5309,
      "beat": 5310,
      "##illa": 5311,
      "turning": 5312,
      "organized": 5313,
      "viewed": 5314,
      "virus": 5315,
      "expanded": 5316,
      "delivered": 5317,
      "model": 5318,
      "scrutiny": 5319,
      "ay": 5320,
      "ak": 5321,
      "jur": 5322,
      "rou": 5323,
      "sued": 5324,
      "regions": 5325,
      "background": 5326,
      "serb": 5327,
      "engage": 5328,
      "condemn": 5329,
      "thin": 5330,
      "##orm": 5331,
      "reaching": 5332,
      "restr": 5333,
      "##adem": 5334,
      "sunni": 5335,
      "suggesting": 5336,
      "devast": 5337,
      "challenged": 5338,
      "revolutionary": 5339,
      "ranking": 5340,
      "marriage": 5341,
      "34": 5342,
      "aud": 5343,
      "investor": 5344,
      "science": 5345,
      "raid": 5346,
      "mainland": 5347,
      "ukrainian": 5348,
      "file": 5349,
      "kuc": 5350,
      "train": 5351,
      "reserve": 5352,
      "barred": 5353,
      "voiced": 5354,
      "violation": 5355,
      "breaking": 5356,
      "minutes": 5357,
      "surge": 5358,
      "odds": 5359,
      "##iable": 5360,
      "municip": 5361,
      "size": 5362,
      "##cker": 5363,
      "ones": 5364,
      "##ston": 5365,
      "academ": 5366,
      "blast": 5367,
      "representing": 5368,
      "direction": 5369,
      "interviews": 5370,
      "welcome": 5371,
      "discrimin": 5372,
      "oding": 5373,
      "picked": 5374,
      "tear": 5375,
      "neut": 5376,
      "count": 5377,
      "##gry": 5378,
      "moon": 5379,
      "dakota": 5380,
      "vital": 5381,
      "unw": 5382,
      "symb": 5383,
      "protecting": 5384,
      "affili": 5385,
      "sufficient": 5386,
      "districts": 5387,
      "ceasefire": 5388,
      "casualties": 5389,
      "odinga": 5390,
      "yell": 5391,
      "##mo": 5392,
      "##pan": 5393,
      "stations": 5394,
      "resett": 5395,
      "##others": 5396,
      "diplomacy": 5397,
      "150": 5398,
      "identify": 5399,
      "determined": 5400,
      "colombia": 5401,
      "torture": 5402,
      "dinner": 5403,
      "neutral": 5404,
      "kansas": 5405,
      "##gu": 5406,
      "##ounting": 5407,
      "suicide": 5408,
      "aftern": 5409,
      "maria": 5410,
      "christmas": 5411,
      "deadly": 5412,
      "earth": 5413,
      "lieutenant": 5414,
      "kuczynski": 5415,
      "43": 5416,
      "roy": 5417,
      "##iation": 5418,
      "reaction": 5419,
      "##under": 5420,
      "mog": 5421,
      "capacity": 5422,
      "belong": 5423,
      "receiving": 5424,
      "reflect": 5425,
      "jewish": 5426,
      "thomas": 5427,
      "die": 5428,
      "fine": 5429,
      "khan": 5430,
      "reference": 5431,
      "istan": 5432,
      "upd": 5433,
      "protections": 5434,
      "commitments": 5435,
      "afternoon": 5436,
      "istanbul": 5437,
      "46": 5438,
      "49": 5439,
      "roman": 5440,
      "##za": 5441,
      "##aine": 5442,
      "##ansing": 5443,
      "dram": 5444,
      "provides": 5445,
      "schem": 5446,
      "returning": 5447,
      "ballots": 5448,
      "gathering": 5449,
      "deployed": 5450,
      "exercise": 5451,
      "sisi": 5452,
      "graphic": 5453,
      "game": 5454,
      "##lusion": 5455,
      "##ito": 5456,
      "##ancing": 5457,
      "dog": 5458,
      "missing": 5459,
      "counterp": 5460,
      "tweets": 5461,
      "restaur": 5462,
      "original": 5463,
      "gmt": 5464,
      "mas": 5465,
      "##rig": 5466,
      "##bit": 5467,
      "compreh": 5468,
      "knew": 5469,
      "payment": 5470,
      "##riel": 5471,
      "image": 5472,
      "disagree": 5473,
      "bols": 5474,
      "finish": 5475,
      "##ror": 5476,
      "strict": 5477,
      "consensus": 5478,
      "defeated": 5479,
      "eric": 5480,
      "lawsuits": 5481,
      "struggled": 5482,
      "audi": 5483,
      "rand": 5484,
      "##xon": 5485,
      "##cts": 5486,
      "##enn": 5487,
      "intention": 5488,
      "195": 5489,
      "membership": 5490,
      "extended": 5491,
      "easier": 5492,
      "earnest": 5493,
      "##owski": 5494,
      "broadcaster": 5495,
      "encourage": 5496,
      "wang": 5497,
      "beach": 5498,
      "##une": 5499,
      "space": 5500,
      "perform": 5501,
      "otherwise": 5502,
      "capable": 5503,
      "threatening": 5504,
      "bankrupt": 5505,
      "suspect": 5506,
      "joining": 5507,
      "disclose": 5508,
      "boyc": 5509,
      "unveiled": 5510,
      "lobbying": 5511,
      "kis": 5512,
      "tact": 5513,
      "unions": 5514,
      "unilateral": 5515,
      "salv": 5516,
      "struggle": 5517,
      "deduction": 5518,
      "appropriate": 5519,
      "gabriel": 5520,
      "gains": 5521,
      "nev": 5522,
      "exxon": 5523,
      "recru": 5524,
      "compliance": 5525,
      "changing": 5526,
      "arguing": 5527,
      "fewer": 5528,
      "nonp": 5529,
      "persu": 5530,
      "lifted": 5531,
      "exercises": 5532,
      "adjust": 5533,
      "begun": 5534,
      "kent": 5535,
      "lay": 5536,
      "ranging": 5537,
      "acts": 5538,
      "##cond": 5539,
      "prosecution": 5540,
      "jean": 5541,
      "sarah": 5542,
      "cs": 5543,
      "mort": 5544,
      "rid": 5545,
      "wake": 5546,
      "congressman": 5547,
      "2006": 5548,
      "##riers": 5549,
      "reducing": 5550,
      "##while": 5551,
      "cleansing": 5552,
      "houthis": 5553,
      "##works": 5554,
      "buddhist": 5555,
      "ceremony": 5556,
      "counterpart": 5557,
      "##thr": 5558,
      "crown": 5559,
      "governors": 5560,
      "placed": 5561,
      "warrant": 5562,
      "cooper": 5563,
      "rallies": 5564,
      "55": 5565,
      "##omes": 5566,
      "optim": 5567,
      "crossing": 5568,
      "prompting": 5569,
      "hawai": 5570,
      "gender": 5571,
      "vent": 5572,
      "##mental": 5573,
      "##agan": 5574,
      "nationals": 5575,
      "submar": 5576,
      "happy": 5577,
      "1990s": 5578,
      "successor": 5579,
      "delayed": 5580,
      "typically": 5581,
      "veterans": 5582,
      "attract": 5583,
      "bull": 5584,
      "rig": 5585,
      "##ipp": 5586,
      "save": 5587,
      "##uries": 5588,
      "expects": 5589,
      "helicop": 5590,
      "provoc": 5591,
      "represented": 5592,
      "nationwide": 5593,
      "envoy": 5594,
      "pointed": 5595,
      "damasc": 5596,
      "basic": 5597,
      "turnout": 5598,
      "implementation": 5599,
      "##standing": 5600,
      "comprehensive": 5601,
      "damascus": 5602,
      "daca": 5603,
      "##uate": 5604,
      "##itable": 5605,
      "##itals": 5606,
      "##etts": 5607,
      "partisan": 5608,
      "##ibb": 5609,
      "accur": 5610,
      "advice": 5611,
      "minute": 5612,
      "numer": 5613,
      "looked": 5614,
      "moral": 5615,
      "gulen": 5616,
      "autonomous": 5617,
      "erupt": 5618,
      "##icks": 5619,
      "formed": 5620,
      "stake": 5621,
      "##etary": 5622,
      "adam": 5623,
      "##enders": 5624,
      "##mant": 5625,
      "militia": 5626,
      "directed": 5627,
      "industries": 5628,
      "argue": 5629,
      "identity": 5630,
      "distrib": 5631,
      "renewed": 5632,
      "##igible": 5633,
      "construct": 5634,
      "barn": 5635,
      "juncker": 5636,
      "hopeful": 5637,
      "estimates": 5638,
      "houthi": 5639,
      "nevada": 5640,
      "ug": 5641,
      "##ca": 5642,
      "##zo": 5643,
      "##itation": 5644,
      "andrew": 5645,
      "sab": 5646,
      "mont": 5647,
      "##anges": 5648,
      "users": 5649,
      "remov": 5650,
      "carter": 5651,
      "appearance": 5652,
      "employment": 5653,
      "sharply": 5654,
      "vulnerable": 5655,
      "iv": 5656,
      "notice": 5657,
      "hoping": 5658,
      "escalation": 5659,
      "atlantic": 5660,
      "leaning": 5661,
      "diver": 5662,
      "tms": 5663,
      "##igation": 5664,
      "##uctions": 5665,
      "discover": 5666,
      "phys": 5667,
      "detain": 5668,
      "negotiated": 5669,
      "steven": 5670,
      "salman": 5671,
      "cooperate": 5672,
      "manufactur": 5673,
      "rodrig": 5674,
      "##nrt": 5675,
      "intervention": 5676,
      "collapsed": 5677,
      "tmsnrt": 5678,
      "bay": 5679,
      "vision": 5680,
      "yang": 5681,
      "##ioned": 5682,
      "boat": 5683,
      "passeng": 5684,
      "founded": 5685,
      "profits": 5686,
      "aims": 5687,
      "treated": 5688,
      "motor": 5689,
      "simple": 5690,
      "magn": 5691,
      "reiterated": 5692,
      "municipal": 5693,
      "forcing": 5694,
      "trude": 5695,
      "alar": 5696,
      "resident": 5697,
      "##izes": 5698,
      "consp": 5699,
      "marine": 5700,
      "canceled": 5701,
      "trudeau": 5702,
      "wild": 5703,
      "##ease": 5704,
      "alb": 5705,
      "italian": 5706,
      "causing": 5707,
      "##achus": 5708,
      "park": 5709,
      "harassment": 5710,
      "mainstream": 5711,
      "increases": 5712,
      "influential": 5713,
      "demanding": 5714,
      "angeles": 5715,
      "friendly": 5716,
      "##stances": 5717,
      "abu": 5718,
      "associated": 5719,
      "pakistani": 5720,
      "expanding": 5721,
      "professional": 5722,
      "mentioned": 5723,
      "guarantee": 5724,
      "nl": 5725,
      "nik": 5726,
      "##mont": 5727,
      "##ental": 5728,
      "performan": 5729,
      "worker": 5730,
      "histor": 5731,
      "keny": 5732,
      "kenya": 5733,
      "tsai": 5734,
      "destabil": 5735,
      "jets": 5736,
      "reporter": 5737,
      "incidents": 5738,
      "barcel": 5739,
      "propag": 5740,
      "subpo": 5741,
      "massachus": 5742,
      "magaz": 5743,
      "pulled": 5744,
      "interpret": 5745,
      "numerous": 5746,
      "massachusetts": 5747,
      "54": 5748,
      "rome": 5749,
      "react": 5750,
      "sav": 5751,
      "##unity": 5752,
      "spr": 5753,
      "delib": 5754,
      "editing": 5755,
      "division": 5756,
      "austria": 5757,
      "51": 5758,
      "bath": 5759,
      "vess": 5760,
      "##har": 5761,
      "grown": 5762,
      "worr": 5763,
      "intens": 5764,
      "obtain": 5765,
      "campaigned": 5766,
      "detail": 5767,
      "harsh": 5768,
      "character": 5769,
      "kentucky": 5770,
      "barcelona": 5771,
      "prol": 5772,
      "peters": 5773,
      "plants": 5774,
      "completed": 5775,
      "testify": 5776,
      "funda": 5777,
      "biden": 5778,
      "shutdown": 5779,
      "##vant": 5780,
      "##ania": 5781,
      "##isation": 5782,
      "temer": 5783,
      "generation": 5784,
      "deny": 5785,
      "socialist": 5786,
      "disputes": 5787,
      "replaced": 5788,
      "divisions": 5789,
      "televised": 5790,
      "entities": 5791,
      "meanwhile": 5792,
      "denounced": 5793,
      "framework": 5794,
      "hawaii": 5795,
      "girl": 5796,
      "##rest": 5797,
      "##bel": 5798,
      "##oles": 5799,
      "##fici": 5800,
      "quite": 5801,
      "handed": 5802,
      "juan": 5803,
      "reviewing": 5804,
      "challenging": 5805,
      "petr": 5806,
      "connection": 5807,
      "bridge": 5808,
      "grassley": 5809,
      "unaccept": 5810,
      "##eo": 5811,
      "enacted": 5812,
      "teach": 5813,
      "##wards": 5814,
      "seeing": 5815,
      "ratings": 5816,
      "tan": 5817,
      "##bre": 5818,
      "##ateg": 5819,
      "##tro": 5820,
      "dismant": 5821,
      "string": 5822,
      "mah": 5823,
      "ends": 5824,
      "gets": 5825,
      "sixth": 5826,
      "reviewed": 5827,
      "equity": 5828,
      "section": 5829,
      "embr": 5830,
      "participate": 5831,
      "chaos": 5832,
      "branch": 5833,
      "lived": 5834,
      "##dict": 5835,
      "sheikh": 5836,
      "vermont": 5837,
      "regulators": 5838,
      "greece": 5839,
      "addressed": 5840,
      "employers": 5841,
      "##vaney": 5842,
      "krg": 5843,
      "abandon": 5844,
      "mulvaney": 5845,
      "bound": 5846,
      "vat": 5847,
      "truck": 5848,
      "deg": 5849,
      "unemp": 5850,
      "item": 5851,
      "considers": 5852,
      "produce": 5853,
      "calm": 5854,
      "guns": 5855,
      "hospitals": 5856,
      "ships": 5857,
      "transportation": 5858,
      "nigeria": 5859,
      "pretty": 5860,
      "propaganda": 5861,
      "unemploy": 5862,
      "gang": 5863,
      "wave": 5864,
      "peru": 5865,
      "prep": 5866,
      "detailed": 5867,
      "launder": 5868,
      "stein": 5869,
      "addressing": 5870,
      "watched": 5871,
      "double": 5872,
      "pleaded": 5873,
      "premium": 5874,
      "charles": 5875,
      "agriculture": 5876,
      "van": 5877,
      "stem": 5878,
      "stocks": 5879,
      "##uner": 5880,
      "2000": 5881,
      "elabor": 5882,
      "obt": 5883,
      "thinking": 5884,
      "damaged": 5885,
      "bombing": 5886,
      "religion": 5887,
      "drilling": 5888,
      "peskov": 5889,
      "waters": 5890,
      "taxpayers": 5891,
      "golf": 5892,
      "##inn": 5893,
      "##atri": 5894,
      "speculation": 5895,
      "##anka": 5896,
      "responding": 5897,
      "loans": 5898,
      "monitoring": 5899,
      "overtur": 5900,
      "unusual": 5901,
      "hond": 5902,
      "rick": 5903,
      "vast": 5904,
      "##tra": 5905,
      "spir": 5906,
      "##abilities": 5907,
      "prove": 5908,
      "monetary": 5909,
      "scar": 5910,
      "rauner": 5911,
      "handle": 5912,
      "utah": 5913,
      "catholic": 5914,
      "google": 5915,
      "unacceptable": 5916,
      "josh": 5917,
      "lift": 5918,
      "##aut": 5919,
      "##hua": 5920,
      "##ero": 5921,
      "relatively": 5922,
      "carson": 5923,
      "authorized": 5924,
      "##atta": 5925,
      "knows": 5926,
      "divor": 5927,
      "credibility": 5928,
      "prisoners": 5929,
      "shoot": 5930,
      "culture": 5931,
      "displaced": 5932,
      "hatch": 5933,
      "chamb": 5934,
      "hispan": 5935,
      "abc": 5936,
      "brady": 5937,
      "##apt": 5938,
      "officially": 5939,
      "##aves": 5940,
      "maybe": 5941,
      "financing": 5942,
      "facts": 5943,
      "arguments": 5944,
      "weapon": 5945,
      "modi": 5946,
      "alexander": 5947,
      "categ": 5948,
      "ku": 5949,
      "tit": 5950,
      "##put": 5951,
      "##eck": 5952,
      "##ression": 5953,
      "deadl": 5954,
      "miscond": 5955,
      "resistance": 5956,
      "neighborhood": 5957,
      "reconc": 5958,
      "hate": 5959,
      "wy": 5960,
      "##aff": 5961,
      "##oo": 5962,
      "##itors": 5963,
      "##isf": 5964,
      "unan": 5965,
      "desire": 5966,
      "switch": 5967,
      "predict": 5968,
      "davis": 5969,
      "contributions": 5970,
      "corrects": 5971,
      "misconduct": 5972,
      "jump": 5973,
      "kos": 5974,
      "xin": 5975,
      "caribb": 5976,
      "buying": 5977,
      "visits": 5978,
      "surf": 5979,
      "profit": 5980,
      "blocking": 5981,
      "occurred": 5982,
      "custody": 5983,
      "implemented": 5984,
      "tariffs": 5985,
      "caribbean": 5986,
      "##osen": 5987,
      "##sey": 5988,
      "note": 5989,
      "stressed": 5990,
      "candidacy": 5991,
      "laid": 5992,
      "briefed": 5993,
      "technical": 5994,
      "sharif": 5995,
      "seemed": 5996,
      "suffering": 5997,
      "complaints": 5998,
      "bathroom": 5999,
      "700": 6000,
      "##lan": 6001,
      "##asts": 6002,
      "smugg": 6003,
      "easy": 6004,
      "covered": 6005,
      "declare": 6006,
      "babis": 6007,
      "cdu": 6008,
      "maximum": 6009,
      "circumstances": 6010,
      "boss": 6011,
      "##ori": 6012,
      "##ala": 6013,
      "reput": 6014,
      "scre": 6015,
      "ramp": 6016,
      "boeing": 6017,
      "leftist": 6018,
      "exchanges": 6019,
      "obser": 6020,
      "mutual": 6021,
      "ko": 6022,
      "god": 6023,
      "orland": 6024,
      "manh": 6025,
      "backl": 6026,
      "relatives": 6027,
      "instruct": 6028,
      "pressed": 6029,
      "palace": 6030,
      "totally": 6031,
      "performance": 6032,
      "orlando": 6033,
      "bol": 6034,
      "duty": 6035,
      "kar": 6036,
      "sidelines": 6037,
      "##field": 6038,
      "newly": 6039,
      "caught": 6040,
      "governing": 6041,
      "worse": 6042,
      "providers": 6043,
      "investigated": 6044,
      "airports": 6045,
      "stephen": 6046,
      "employee": 6047,
      "undersc": 6048,
      "##uke": 6049,
      "chambers": 6050,
      "jac": 6051,
      "mech": 6052,
      "##pb": 6053,
      "manip": 6054,
      "##ques": 6055,
      "banning": 6056,
      "##lining": 6057,
      "194": 6058,
      "networks": 6059,
      "attempted": 6060,
      "sponsor": 6061,
      "gh": 6062,
      "rif": 6063,
      "reagan": 6064,
      "##ocal": 6065,
      "computer": 6066,
      "upset": 6067,
      "winner": 6068,
      "libyan": 6069,
      "engaged": 6070,
      "motion": 6071,
      "female": 6072,
      "##eastern": 6073,
      "kenyatta": 6074,
      "vatican": 6075,
      "aung": 6076,
      "jon": 6077,
      "tor": 6078,
      "##fl": 6079,
      "ord": 6080,
      "##ipe": 6081,
      "outrage": 6082,
      "severe": 6083,
      "privately": 6084,
      "developed": 6085,
      "nature": 6086,
      "revenues": 6087,
      "competition": 6088,
      "##iment": 6089,
      "##western": 6090,
      "angry": 6091,
      "symp": 6092,
      "securities": 6093,
      "flint": 6094,
      "guid": 6095,
      "operate": 6096,
      "owner": 6097,
      "reduced": 6098,
      "philippine": 6099,
      "bonds": 6100,
      "sovereignty": 6101,
      "mechan": 6102,
      "wages": 6103,
      "admitted": 6104,
      "borr": 6105,
      "2003": 6106,
      "prospects": 6107,
      "questioning": 6108,
      "describing": 6109,
      "hosted": 6110,
      "##iami": 6111,
      "destroyed": 6112,
      "angered": 6113,
      "route": 6114,
      "endorsement": 6115,
      "fate": 6116,
      "miami": 6117,
      "native": 6118,
      "nunes": 6119,
      "##time": 6120,
      "congo": 6121,
      "interfer": 6122,
      "fees": 6123,
      "bigger": 6124,
      "interviewed": 6125,
      "migrant": 6126,
      "abdullah": 6127,
      "joseph": 6128,
      "reverse": 6129,
      "scheme": 6130,
      "divorce": 6131,
      "unanim": 6132,
      "ale": 6133,
      "nic": 6134,
      "pil": 6135,
      "##jamin": 6136,
      "##atures": 6137,
      "##illed": 6138,
      "##oking": 6139,
      "##ahn": 6140,
      "divisive": 6141,
      "drawing": 6142,
      "benjamin": 6143,
      "disclosure": 6144,
      "prepare": 6145,
      "ath": 6146,
      "##inder": 6147,
      "goals": 6148,
      "eliz": 6149,
      "apple": 6150,
      "imposs": 6151,
      "sov": 6152,
      "fein": 6153,
      "##attan": 6154,
      "facility": 6155,
      "urg": 6156,
      "fulf": 6157,
      "apparent": 6158,
      "tackle": 6159,
      "maryland": 6160,
      "transparency": 6161,
      "motivated": 6162,
      "hers": 6163,
      "nancy": 6164,
      "##atically": 6165,
      "stable": 6166,
      "isn": 6167,
      "##abeth": 6168,
      "##astic": 6169,
      "amnest": 6170,
      "journalist": 6171,
      "charity": 6172,
      "extrad": 6173,
      "momentum": 6174,
      "surrounding": 6175,
      "digital": 6176,
      "purchase": 6177,
      "barnier": 6178,
      "impossible": 6179,
      "soviet": 6180,
      "kab": 6181,
      "tick": 6182,
      "vig": 6183,
      "height": 6184,
      "unrest": 6185,
      "preced": 6186,
      "kurz": 6187,
      "negotiator": 6188,
      "urban": 6189,
      "250": 6190,
      "soldier": 6191,
      "checks": 6192,
      "magazine": 6193,
      "guidance": 6194,
      "interested": 6195,
      "passing": 6196,
      "personally": 6197,
      "progressive": 6198,
      "deployment": 6199,
      "encouraged": 6200,
      "integrity": 6201,
      "square": 6202,
      "cfpb": 6203,
      "elizabeth": 6204,
      "amnesty": 6205,
      "63": 6206,
      "72": 6207,
      "haven": 6208,
      "regularly": 6209,
      "hardline": 6210,
      "requirement": 6211,
      "aw": 6212,
      "gary": 6213,
      "##kin": 6214,
      "ford": 6215,
      "##trump": 6216,
      "alt": 6217,
      "hass": 6218,
      "##odo": 6219,
      "nobody": 6220,
      "##ijuana": 6221,
      "travelers": 6222,
      "saleh": 6223,
      "antonio": 6224,
      "separatist": 6225,
      "ousted": 6226,
      "manhattan": 6227,
      "length": 6228,
      "sort": 6229,
      "##pg": 6230,
      "whate": 6231,
      "campaigning": 6232,
      "flow": 6233,
      "negotiators": 6234,
      "sworn": 6235,
      "explain": 6236,
      "##itories": 6237,
      "resolutions": 6238,
      "disappointed": 6239,
      "hondur": 6240,
      "reputation": 6241,
      "whatever": 6242,
      "awa": 6243,
      "hub": 6244,
      "mir": 6245,
      "##gment": 6246,
      "##bl": 6247,
      "frustr": 6248,
      "##aba": 6249,
      "clients": 6250,
      "auto": 6251,
      "hostile": 6252,
      "embarr": 6253,
      "disclosed": 6254,
      "findings": 6255,
      "pin": 6256,
      "##outs": 6257,
      "sach": 6258,
      "##ocument": 6259,
      "incoming": 6260,
      "discussing": 6261,
      "##iliation": 6262,
      "crew": 6263,
      "listed": 6264,
      "tourism": 6265,
      "undocument": 6266,
      "understanding": 6267,
      "##held": 6268,
      "undocumented": 6269,
      "posed": 6270,
      "##adel": 6271,
      "##abad": 6272,
      "##roit": 6273,
      "detroit": 6274,
      "prosper": 6275,
      "susan": 6276,
      "announcing": 6277,
      "liberties": 6278,
      "inflation": 6279,
      "resolved": 6280,
      "roads": 6281,
      "cancer": 6282,
      "doctors": 6283,
      "piece": 6284,
      "shinzo": 6285,
      "62": 6286,
      "bott": 6287,
      "dy": 6288,
      "muse": 6289,
      "pd": 6290,
      "wire": 6291,
      "onto": 6292,
      "truth": 6293,
      "##ivals": 6294,
      "##iang": 6295,
      "indict": 6296,
      "opposes": 6297,
      "territories": 6298,
      "mosul": 6299,
      "populist": 6300,
      "##aphosa": 6301,
      "conducting": 6302,
      "fighter": 6303,
      "ramaphosa": 6304,
      "exactly": 6305,
      "colorado": 6306,
      "csu": 6307,
      "sitting": 6308,
      "trem": 6309,
      "##ulz": 6310,
      "elite": 6311,
      "expensive": 6312,
      "reluct": 6313,
      "debates": 6314,
      "corps": 6315,
      "recognition": 6316,
      "multi": 6317,
      "opportunities": 6318,
      "mcmaster": 6319,
      "emirates": 6320,
      "##ograph": 6321,
      "##ule": 6322,
      "##kk": 6323,
      "##itely": 6324,
      "miller": 6325,
      "box": 6326,
      "mosque": 6327,
      "enforce": 6328,
      "registration": 6329,
      "electronic": 6330,
      "rosen": 6331,
      "58": 6332,
      "fields": 6333,
      "pock": 6334,
      "upper": 6335,
      "##sch": 6336,
      "##acek": 6337,
      "recip": 6338,
      "schulz": 6339,
      "complaint": 6340,
      "informed": 6341,
      "revive": 6342,
      "##lusive": 6343,
      "automakers": 6344,
      "assessment": 6345,
      "papers": 6346,
      "##iate": 6347,
      "##ble": 6348,
      "##ongh": 6349,
      "stret": 6350,
      "##aped": 6351,
      "managed": 6352,
      "backers": 6353,
      "driver": 6354,
      "superv": 6355,
      "anticip": 6356,
      "urge": 6357,
      "equal": 6358,
      "broken": 6359,
      "lux": 6360,
      "premier": 6361,
      "materials": 6362,
      "dark": 6363,
      "parenthood": 6364,
      "66": 6365,
      "##well": 6366,
      "recons": 6367,
      "store": 6368,
      "suit": 6369,
      "weather": 6370,
      "season": 6371,
      "strongh": 6372,
      "impe": 6373,
      "label": 6374,
      "nominate": 6375,
      "type": 6376,
      "louisiana": 6377,
      "rouhani": 6378,
      "removal": 6379,
      "mechanism": 6380,
      "stronghold": 6381,
      "gap": 6382,
      "lady": 6383,
      "##ashing": 6384,
      "##ucr": 6385,
      "marijuana": 6386,
      "usually": 6387,
      "talked": 6388,
      "refin": 6389,
      "promoting": 6390,
      "meth": 6391,
      "constitu": 6392,
      "memor": 6393,
      "bankruptcy": 6394,
      "jared": 6395,
      "##oz": 6396,
      "##ura": 6397,
      "shop": 6398,
      "##ivity": 6399,
      "agent": 6400,
      "crude": 6401,
      "perry": 6402,
      "married": 6403,
      "bloom": 6404,
      "harvey": 6405,
      "freeze": 6406,
      "credits": 6407,
      "criminals": 6408,
      "competitive": 6409,
      "lobbyists": 6410,
      "insisted": 6411,
      "farmers": 6412,
      "anthem": 6413,
      "exempt": 6414,
      "sachs": 6415,
      "sle": 6416,
      "##fall": 6417,
      "##rah": 6418,
      "##encing": 6419,
      "protected": 6420,
      "centre": 6421,
      "suspend": 6422,
      "burden": 6423,
      "rocket": 6424,
      "mistake": 6425,
      "hungary": 6426,
      "legitimate": 6427,
      "traditionally": 6428,
      "manufacturers": 6429,
      "unemployment": 6430,
      "impeach": 6431,
      "57": 6432,
      "hed": 6433,
      "##astr": 6434,
      "##ulian": 6435,
      "grab": 6436,
      "incumb": 6437,
      "everybody": 6438,
      "speeches": 6439,
      "advocate": 6440,
      "autonomy": 6441,
      "fierce": 6442,
      "nasr": 6443,
      "bed": 6444,
      "cable": 6445,
      "##asse": 6446,
      "reald": 6447,
      "outbre": 6448,
      "##umed": 6449,
      "quality": 6450,
      "foreigners": 6451,
      "corresp": 6452,
      "insp": 6453,
      "barz": 6454,
      "complicated": 6455,
      "##rique": 6456,
      "jeb": 6457,
      "hackers": 6458,
      "select": 6459,
      "##onaldtrump": 6460,
      "obviously": 6461,
      "audience": 6462,
      "games": 6463,
      "##eel": 6464,
      "stalled": 6465,
      "deem": 6466,
      "click": 6467,
      "##assing": 6468,
      "finally": 6469,
      "opposing": 6470,
      "desert": 6471,
      "schiff": 6472,
      "arrivals": 6473,
      "columb": 6474,
      "extension": 6475,
      "thirds": 6476,
      "ceiling": 6477,
      "oversees": 6478,
      "lifting": 6479,
      "witnesses": 6480,
      "barzani": 6481,
      "hiring": 6482,
      "sor": 6483,
      "##mond": 6484,
      "defer": 6485,
      "spring": 6486,
      "gross": 6487,
      "grants": 6488,
      "consol": 6489,
      "planes": 6490,
      "traveled": 6491,
      "stream": 6492,
      "minorities": 6493,
      "embargo": 6494,
      "trouble": 6495,
      "echo": 6496,
      "laundering": 6497,
      "method": 6498,
      "realdonaldtrump": 6499,
      "rog": 6500,
      "wider": 6501,
      "partly": 6502,
      "##rete": 6503,
      "promising": 6504,
      "maine": 6505,
      "postp": 6506,
      "extent": 6507,
      "players": 6508,
      "solutions": 6509,
      "observ": 6510,
      "selling": 6511,
      "pomp": 6512,
      "ypg": 6513,
      "##oli": 6514,
      "wearing": 6515,
      "##anted": 6516,
      "threaten": 6517,
      "castro": 6518,
      "##appropri": 6519,
      "petition": 6520,
      "occupied": 6521,
      "enemy": 6522,
      "sok": 6523,
      "##gl": 6524,
      "##can": 6525,
      "##oni": 6526,
      "congr": 6527,
      "##essions": 6528,
      "resume": 6529,
      "##awa": 6530,
      "hern": 6531,
      "##inking": 6532,
      "swift": 6533,
      "closing": 6534,
      "doubts": 6535,
      "procedure": 6536,
      "fcc": 6537,
      "gal": 6538,
      "jak": 6539,
      "ron": 6540,
      "##dy": 6541,
      "##aya": 6542,
      "aligned": 6543,
      "arbit": 6544,
      "brook": 6545,
      "counties": 6546,
      "accuse": 6547,
      "##cont": 6548,
      "criticizing": 6549,
      "slight": 6550,
      "developer": 6551,
      "swing": 6552,
      "##phia": 6553,
      "explo": 6554,
      "predicted": 6555,
      "register": 6556,
      "racial": 6557,
      "philadel": 6558,
      "medicare": 6559,
      "philadelphia": 6560,
      "tha": 6561,
      "##lyak": 6562,
      "peacek": 6563,
      "politico": 6564,
      "economist": 6565,
      "concrete": 6566,
      "guter": 6567,
      "relevant": 6568,
      "visitors": 6569,
      "factions": 6570,
      "factory": 6571,
      "devices": 6572,
      "kislyak": 6573,
      "herself": 6574,
      "hassan": 6575,
      "peaceke": 6576,
      "elements": 6577,
      "zh": 6578,
      "##rick": 6579,
      "##lor": 6580,
      "##cle": 6581,
      "isis": 6582,
      "spy": 6583,
      "caution": 6584,
      "##antly": 6585,
      "becomes": 6586,
      "scene": 6587,
      "signing": 6588,
      "harare": 6589,
      "smith": 6590,
      "advisory": 6591,
      "easily": 6592,
      "favored": 6593,
      "fallen": 6594,
      "ranks": 6595,
      "scientists": 6596,
      "guterres": 6597,
      "69": 6598,
      "##let": 6599,
      "##uated": 6600,
      "##icating": 6601,
      "eligible": 6602,
      "decline": 6603,
      "strained": 6604,
      "regret": 6605,
      "pharm": 6606,
      "specifically": 6607,
      "##aska": 6608,
      "submarine": 6609,
      "burr": 6610,
      "preserve": 6611,
      "restruct": 6612,
      "marawi": 6613,
      "harry": 6614,
      "communication": 6615,
      "unlike": 6616,
      "sectors": 6617,
      "liberals": 6618,
      "snap": 6619,
      "bahrain": 6620,
      "bloomberg": 6621,
      "congrat": 6622,
      "kiev": 6623,
      "ot": 6624,
      "pm": 6625,
      "row": 6626,
      "##dney": 6627,
      "##bil": 6628,
      "##istics": 6629,
      "obst": 6630,
      "sydney": 6631,
      "sanctuary": 6632,
      "feared": 6633,
      "scrap": 6634,
      "initiatives": 6635,
      "fundraising": 6636,
      "teachers": 6637,
      "hind": 6638,
      "ib": 6639,
      "pow": 6640,
      "pace": 6641,
      "ze": 6642,
      "stands": 6643,
      "##usk": 6644,
      "chosen": 6645,
      "abort": 6646,
      "brothers": 6647,
      "##lude": 6648,
      "conclusion": 6649,
      "offsh": 6650,
      "heading": 6651,
      "write": 6652,
      "violate": 6653,
      "##iveness": 6654,
      "argument": 6655,
      "damaging": 6656,
      "appealed": 6657,
      "dissent": 6658,
      "forecast": 6659,
      "unconstit": 6660,
      "les": 6661,
      "pesh": 6662,
      "##wood": 6663,
      "##ola": 6664,
      "leaked": 6665,
      "grace": 6666,
      "##ensions": 6667,
      "amaz": 6668,
      "landmark": 6669,
      "flags": 6670,
      "sister": 6671,
      "retaliation": 6672,
      "annexation": 6673,
      "belgium": 6674,
      "toll": 6675,
      "sweden": 6676,
      "pompeo": 6677,
      "hernandez": 6678,
      "85": 6679,
      "sick": 6680,
      "##wart": 6681,
      "##omin": 6682,
      "##olved": 6683,
      "compens": 6684,
      "##force": 6685,
      "retail": 6686,
      "hacked": 6687,
      "injuries": 6688,
      "dubai": 6689,
      "tied": 6690,
      "##list": 6691,
      "##lib": 6692,
      "##uan": 6693,
      "##30": 6694,
      "##ati": 6695,
      "leaks": 6696,
      "##unte": 6697,
      "enact": 6698,
      "##ucci": 6699,
      "idlib": 6700,
      "##iples": 6701,
      "handful": 6702,
      "tested": 6703,
      "experi": 6704,
      "volunte": 6705,
      "honest": 6706,
      "aggression": 6707,
      "recovery": 6708,
      "deliber": 6709,
      "hispanic": 6710,
      "reconciliation": 6711,
      "xinhua": 6712,
      "obstac": 6713,
      "lope": 6714,
      "mitt": 6715,
      "rape": 6716,
      "##yr": 6717,
      "##ario": 6718,
      "##isa": 6719,
      "units": 6720,
      "legally": 6721,
      "islamabad": 6722,
      "keen": 6723,
      "testing": 6724,
      "patients": 6725,
      "lowest": 6726,
      "falling": 6727,
      "accompan": 6728,
      "overwhelmingly": 6729,
      "erupted": 6730,
      "consolid": 6731,
      "bio": 6732,
      "eager": 6733,
      "hired": 6734,
      "##gen": 6735,
      "alaska": 6736,
      "comfort": 6737,
      "shape": 6738,
      "##ouri": 6739,
      "nobel": 6740,
      "index": 6741,
      "##obi": 6742,
      "refusal": 6743,
      "transactions": 6744,
      "setback": 6745,
      "territorial": 6746,
      "submitted": 6747,
      "revised": 6748,
      "closest": 6749,
      "applications": 6750,
      "procedural": 6751,
      "eye": 6752,
      "dreamers": 6753,
      "interfere": 6754,
      "mortg": 6755,
      "nasrall": 6756,
      "lopez": 6757,
      "56": 6758,
      "pf": 6759,
      "ped": 6760,
      "rain": 6761,
      "##ique": 6762,
      "upheld": 6763,
      "imposing": 6764,
      "moh": 6765,
      "reduction": 6766,
      "convoy": 6767,
      "##ushed": 6768,
      "120": 6769,
      "happens": 6770,
      "principles": 6771,
      "jet": 6772,
      "nair": 6773,
      "ria": 6774,
      "stol": 6775,
      "##aken": 6776,
      "warner": 6777,
      "scot": 6778,
      "attacking": 6779,
      "##inke": 6780,
      "violating": 6781,
      "##attle": 6782,
      "earning": 6783,
      "significantly": 6784,
      "volunt": 6785,
      "persecut": 6786,
      "##holders": 6787,
      "proceedings": 6788,
      "recommendations": 6789,
      "maintaining": 6790,
      "savings": 6791,
      "68": 6792,
      "cell": 6793,
      "ronald": 6794,
      "##zi": 6795,
      "##enty": 6796,
      "##ucc": 6797,
      "pregn": 6798,
      "legacy": 6799,
      "finances": 6800,
      "strongest": 6801,
      "macri": 6802,
      "opinions": 6803,
      "originally": 6804,
      "cultural": 6805,
      "straight": 6806,
      "restructuring": 6807,
      "##sy": 6808,
      "sher": 6809,
      "impr": 6810,
      "contain": 6811,
      "verdict": 6812,
      "boats": 6813,
      "2002": 6814,
      "conviction": 6815,
      "credible": 6816,
      "bombs": 6817,
      "repealing": 6818,
      "flew": 6819,
      "bitter": 6820,
      "cbs": 6821,
      "fpo": 6822,
      "oce": 6823,
      "tusk": 6824,
      "##pers": 6825,
      "##ini": 6826,
      "##itage": 6827,
      "##arta": 6828,
      "enh": 6829,
      "2004": 6830,
      "ahmed": 6831,
      "demonstrations": 6832,
      "tribal": 6833,
      "principle": 6834,
      "argentina": 6835,
      "observers": 6836,
      "unconstitutional": 6837,
      "bought": 6838,
      "gi": 6839,
      "zinke": 6840,
      "tool": 6841,
      "topp": 6842,
      "reince": 6843,
      "##abled": 6844,
      "intends": 6845,
      "backs": 6846,
      "defect": 6847,
      "economies": 6848,
      "christians": 6849,
      "briefly": 6850,
      "improved": 6851,
      "races": 6852,
      "drills": 6853,
      "outlets": 6854,
      "obligations": 6855,
      "litigation": 6856,
      "nikki": 6857,
      "nairobi": 6858,
      "cu": 6859,
      "##rees": 6860,
      "##acher": 6861,
      "chap": 6862,
      "##ucks": 6863,
      "outgoing": 6864,
      "manage": 6865,
      "contested": 6866,
      "teen": 6867,
      "asset": 6868,
      "signaled": 6869,
      "serves": 6870,
      "##ternal": 6871,
      "engagement": 6872,
      "preventing": 6873,
      "delays": 6874,
      "electricity": 6875,
      "constructive": 6876,
      "cz": 6877,
      "nsa": 6878,
      "##ardo": 6879,
      "intent": 6880,
      "belief": 6881,
      "cleared": 6882,
      "suprem": 6883,
      "difference": 6884,
      "extreme": 6885,
      "carrier": 6886,
      "staying": 6887,
      "watching": 6888,
      "flex": 6889,
      "fueled": 6890,
      "tenure": 6891,
      "bosn": 6892,
      "msnbc": 6893,
      "fundamental": 6894,
      "zones": 6895,
      "##rin": 6896,
      "##inces": 6897,
      "##icing": 6898,
      "##illing": 6899,
      "wouldn": 6900,
      "##iano": 6901,
      "capabilities": 6902,
      "sets": 6903,
      "located": 6904,
      "smart": 6905,
      "suspension": 6906,
      "ensuring": 6907,
      "flee": 6908,
      "popularity": 6909,
      "mobile": 6910,
      "procedures": 6911,
      "bolster": 6912,
      "jury": 6913,
      "nau": 6914,
      "pose": 6915,
      "tie": 6916,
      "##hab": 6917,
      "##icals": 6918,
      "repeat": 6919,
      "securing": 6920,
      "admir": 6921,
      "warming": 6922,
      "advised": 6923,
      "follows": 6924,
      "effects": 6925,
      "convince": 6926,
      "accountability": 6927,
      "videos": 6928,
      "demonstrators": 6929,
      "nazi": 6930,
      "yellen": 6931,
      "correspond": 6932,
      "columbia": 6933,
      "jakarta": 6934,
      "2j": 6935,
      "61": 6936,
      "ele": 6937,
      "sana": 6938,
      "##arc": 6939,
      "proud": 6940,
      "enth": 6941,
      "enrique": 6942,
      "plaint": 6943,
      "thanks": 6944,
      "heritage": 6945,
      "chiefs": 6946,
      "valley": 6947,
      "solve": 6948,
      "charter": 6949,
      "1980s": 6950,
      "satisf": 6951,
      "sacked": 6952,
      "micro": 6953,
      "picture": 6954,
      "venture": 6955,
      "conspir": 6956,
      "hedge": 6957,
      "##wr": 6958,
      "unex": 6959,
      "proof": 6960,
      "secre": 6961,
      "houston": 6962,
      "missouri": 6963,
      "guidelines": 6964,
      "deterior": 6965,
      "focusing": 6966,
      "##place": 6967,
      "persuade": 6968,
      "dual": 6969,
      "ec": 6970,
      "kem": 6971,
      "koch": 6972,
      "lies": 6973,
      "forb": 6974,
      "waste": 6975,
      "brut": 6976,
      "upcoming": 6977,
      "eval": 6978,
      "defending": 6979,
      "##parts": 6980,
      "##ologies": 6981,
      "divide": 6982,
      "counterparts": 6983,
      "producer": 6984,
      "producing": 6985,
      "younger": 6986,
      "images": 6987,
      "amendments": 6988,
      "renewable": 6989,
      "inspector": 6990,
      "mahm": 6991,
      "bench": 6992,
      "sir": 6993,
      "norm": 6994,
      "immunity": 6995,
      "rulings": 6996,
      "refusing": 6997,
      "feed": 6998,
      "##hips": 6999,
      "euph": 7000,
      "pressing": 7001,
      "##azi": 7002,
      "enterpr": 7003,
      "improving": 7004,
      "settlements": 7005,
      "determination": 7006,
      "learned": 7007,
      "tunis": 7008,
      "dmit": 7009,
      "sway": 7010,
      "wood": 7011,
      "inappropri": 7012,
      "##uting": 7013,
      "##rove": 7014,
      "retain": 7015,
      "chairs": 7016,
      "clapper": 7017,
      "favorite": 7018,
      "accountable": 7019,
      "regardless": 7020,
      "structure": 7021,
      "obtained": 7022,
      "az": 7023,
      "bans": 7024,
      "rely": 7025,
      "reop": 7026,
      "##amucci": 7027,
      "shock": 7028,
      "##aceut": 7029,
      "stress": 7030,
      "bars": 7031,
      "concessions": 7032,
      "minnes": 7033,
      "smo": 7034,
      "sentiment": 7035,
      "##ordination": 7036,
      "##apping": 7037,
      "avoided": 7038,
      "tribun": 7039,
      "sponsored": 7040,
      "frequent": 7041,
      "photograph": 7042,
      "escape": 7043,
      "ivanka": 7044,
      "discovered": 7045,
      "detainees": 7046,
      "scaramucci": 7047,
      "kabul": 7048,
      "bon": 7049,
      "dup": 7050,
      "dnc": 7051,
      "jub": 7052,
      "mine": 7053,
      "pod": 7054,
      "rud": 7055,
      "##nels": 7056,
      "##pet": 7057,
      "conway": 7058,
      "wasn": 7059,
      "chile": 7060,
      "weight": 7061,
      "strip": 7062,
      "attending": 7063,
      "acted": 7064,
      "guy": 7065,
      "wells": 7066,
      "##rypt": 7067,
      "sentences": 7068,
      "bombers": 7069,
      "expectations": 7070,
      "schedule": 7071,
      "participation": 7072,
      "walk": 7073,
      "renegotiate": 7074,
      "advertising": 7075,
      "backlash": 7076,
      "ga": 7077,
      "##gers": 7078,
      "##itious": 7079,
      "##istr": 7080,
      "saud": 7081,
      "forms": 7082,
      "stabil": 7083,
      "adults": 7084,
      "perce": 7085,
      "donor": 7086,
      "indication": 7087,
      "##ileaks": 7088,
      "drag": 7089,
      "drone": 7090,
      "recess": 7091,
      "insult": 7092,
      "subsequ": 7093,
      "arriving": 7094,
      "swiss": 7095,
      "timing": 7096,
      "##orrow": 7097,
      "abandoned": 7098,
      "skeptical": 7099,
      "pharmaceut": 7100,
      "minnesota": 7101,
      "sound": 7102,
      "wik": 7103,
      "##hal": 7104,
      "##drew": 7105,
      "##war": 7106,
      "##otic": 7107,
      "withdrew": 7108,
      "frag": 7109,
      "##grade": 7110,
      "contained": 7111,
      "##makers": 7112,
      "1994": 7113,
      "stories": 7114,
      "racist": 7115,
      "explosion": 7116,
      "innov": 7117,
      "dutch": 7118,
      "worries": 7119,
      "gates": 7120,
      "ports": 7121,
      "repair": 7122,
      "##ighth": 7123,
      "caut": 7124,
      "##iph": 7125,
      "##izer": 7126,
      "thank": 7127,
      "##umm": 7128,
      "destruction": 7129,
      "liberation": 7130,
      "tourists": 7131,
      "tenness": 7132,
      "administrative": 7133,
      "surviv": 7134,
      "penalty": 7135,
      "earthqu": 7136,
      "passengers": 7137,
      "alarmed": 7138,
      "items": 7139,
      "scotland": 7140,
      "enthus": 7141,
      "fan": 7142,
      "jam": 7143,
      "jason": 7144,
      "##ros": 7145,
      "reid": 7146,
      "bear": 7147,
      "lev": 7148,
      "marc": 7149,
      "respected": 7150,
      "battling": 7151,
      "pursuing": 7152,
      "adopt": 7153,
      "learn": 7154,
      "anthony": 7155,
      "mixed": 7156,
      "revealed": 7157,
      "indictment": 7158,
      "wikileaks": 7159,
      "bell": 7160,
      "zarr": 7161,
      "##inger": 7162,
      "##thy": 7163,
      "##ublin": 7164,
      "intercept": 7165,
      "intim": 7166,
      "managing": 7167,
      "coordination": 7168,
      "therefore": 7169,
      "usa": 7170,
      "turmo": 7171,
      "estimate": 7172,
      "erbil": 7173,
      "holy": 7174,
      "happening": 7175,
      "costly": 7176,
      "contribute": 7177,
      "hotels": 7178,
      "maintained": 7179,
      "suspicion": 7180,
      "thinks": 7181,
      "optimistic": 7182,
      "zarrab": 7183,
      "turmoil": 7184,
      "64": 7185,
      "song": 7186,
      "prize": 7187,
      "chose": 7188,
      "repatri": 7189,
      "ark": 7190,
      "##oko": 7191,
      "secured": 7192,
      "propose": 7193,
      "centr": 7194,
      "threatens": 7195,
      "facilit": 7196,
      "##opular": 7197,
      "declaring": 7198,
      "stayed": 7199,
      "crowds": 7200,
      "achieved": 7201,
      "unpopular": 7202,
      "willingness": 7203,
      "disappear": 7204,
      "clarify": 7205,
      "contractors": 7206,
      "administrator": 7207,
      "innoc": 7208,
      "rebuild": 7209,
      "apologized": 7210,
      "dismantle": 7211,
      "premiums": 7212,
      "jacob": 7213,
      "incumbent": 7214,
      "dublin": 7215,
      "##rates": 7216,
      "##gas": 7217,
      "shah": 7218,
      "##sein": 7219,
      "##awed": 7220,
      "blas": 7221,
      "quiet": 7222,
      "advances": 7223,
      "federation": 7224,
      "puts": 7225,
      "offers": 7226,
      "mandatory": 7227,
      "recommended": 7228,
      "binding": 7229,
      "lyn": 7230,
      "subpoena": 7231,
      "degree": 7232,
      "dmitry": 7233,
      "tennessee": 7234,
      "hire": 7235,
      "oval": 7236,
      "##uly": 7237,
      "##vent": 7238,
      "retr": 7239,
      "shout": 7240,
      "resh": 7241,
      "##oken": 7242,
      "overcome": 7243,
      "amounts": 7244,
      "boris": 7245,
      "worldwide": 7246,
      "judgment": 7247,
      "edge": 7248,
      "##ovo": 7249,
      "##phaly": 7250,
      "relationships": 7251,
      "burning": 7252,
      "encrypt": 7253,
      "creditors": 7254,
      "contentious": 7255,
      "integration": 7256,
      "software": 7257,
      "antonin": 7258,
      "apparently": 7259,
      "juris": 7260,
      "dramatic": 7261,
      "sokha": 7262,
      "offshore": 7263,
      "horr": 7264,
      "ours": 7265,
      "##lands": 7266,
      "##iti": 7267,
      "##cephaly": 7268,
      "sue": 7269,
      "##endez": 7270,
      "grave": 7271,
      "overr": 7272,
      "accident": 7273,
      "prelim": 7274,
      "flake": 7275,
      "recount": 7276,
      "verified": 7277,
      "limiting": 7278,
      "technologies": 7279,
      "balt": 7280,
      "excess": 7281,
      "designated": 7282,
      "plea": 7283,
      "malaysian": 7284,
      "separatists": 7285,
      "jackson": 7286,
      "##rahim": 7287,
      "microcephaly": 7288,
      "intimid": 7289,
      "preliminary": 7290,
      "kil": 7291,
      "##iated": 7292,
      "##olas": 7293,
      "leverage": 7294,
      "wein": 7295,
      "mediter": 7296,
      "adds": 7297,
      "regulator": 7298,
      "##azar": 7299,
      "##iffe": 7300,
      "venezuelan": 7301,
      "surprised": 7302,
      "trafficking": 7303,
      "patrick": 7304,
      "icahn": 7305,
      "resettlement": 7306,
      "rodrigo": 7307,
      "spirit": 7308,
      "powell": 7309,
      "mediterran": 7310,
      "bbc": 7311,
      "hat": 7312,
      "sole": 7313,
      "##emb": 7314,
      "##anu": 7315,
      "##anes": 7316,
      "sam": 7317,
      "saad": 7318,
      "##ustration": 7319,
      "frustration": 7320,
      "household": 7321,
      "scope": 7322,
      "spokesp": 7323,
      "longest": 7324,
      "guerr": 7325,
      "virt": 7326,
      "accepting": 7327,
      "vetting": 7328,
      "reading": 7329,
      "tomorrow": 7330,
      "mohammad": 7331,
      "consistent": 7332,
      "74": 7333,
      "dump": 7334,
      "##wers": 7335,
      "##icut": 7336,
      "trucks": 7337,
      "chain": 7338,
      "entr": 7339,
      "weekly": 7340,
      "assass": 7341,
      "recession": 7342,
      "telec": 7343,
      "##phy": 7344,
      "facto": 7345,
      "emerging": 7346,
      "earned": 7347,
      "##etta": 7348,
      "capture": 7349,
      "ambitions": 7350,
      "football": 7351,
      "arrangement": 7352,
      "serbia": 7353,
      "giulian": 7354,
      "smooth": 7355,
      "dun": 7356,
      "ice": 7357,
      "lunch": 7358,
      "##fers": 7359,
      "##irts": 7360,
      "##merga": 7361,
      "incent": 7362,
      "issuing": 7363,
      "aviation": 7364,
      "breaks": 7365,
      "praise": 7366,
      "reinst": 7367,
      "indonesian": 7368,
      "isolated": 7369,
      "duties": 7370,
      "mogul": 7371,
      "peshmerga": 7372,
      "giuliani": 7373,
      "divers": 7374,
      "##min": 7375,
      "##erts": 7376,
      "##oms": 7377,
      "##otte": 7378,
      "##endous": 7379,
      "quake": 7380,
      "param": 7381,
      "delhi": 7382,
      "risen": 7383,
      "suggestion": 7384,
      "settle": 7385,
      "filled": 7386,
      "vacancy": 7387,
      "footage": 7388,
      "connecticut": 7389,
      "dhs": 7390,
      "sympath": 7391,
      "precedent": 7392,
      "kick": 7393,
      "slim": 7394,
      "##20": 7395,
      "thres": 7396,
      "##iant": 7397,
      "##away": 7398,
      "disease": 7399,
      "##oded": 7400,
      "accel": 7401,
      "doors": 7402,
      "remember": 7403,
      "longtime": 7404,
      "slash": 7405,
      "##ception": 7406,
      "replacing": 7407,
      "murphy": 7408,
      "application": 7409,
      "winds": 7410,
      "##henko": 7411,
      "warsaw": 7412,
      "highlighted": 7413,
      "czech": 7414,
      "inappropriate": 7415,
      "mediterranean": 7416,
      "threshold": 7417,
      "##my": 7418,
      "##don": 7419,
      "##reach": 7420,
      "##reci": 7421,
      "trained": 7422,
      "sports": 7423,
      "reloc": 7424,
      "transform": 7425,
      "openly": 7426,
      "location": 7427,
      "slam": 7428,
      "frontier": 7429,
      "crossed": 7430,
      "combined": 7431,
      "participants": 7432,
      "contributed": 7433,
      "weaken": 7434,
      "patrol": 7435,
      "tribunal": 7436,
      "hor": 7437,
      "pkk": 7438,
      "tab": 7439,
      "tall": 7440,
      "##lave": 7441,
      "##uls": 7442,
      "##ips": 7443,
      "##raid": 7444,
      "defiance": 7445,
      "reck": 7446,
      "barb": 7447,
      "internationally": 7448,
      "grew": 7449,
      "broadly": 7450,
      "patri": 7451,
      "deeper": 7452,
      "##egu": 7453,
      "successfully": 7454,
      "blockade": 7455,
      "encouraging": 7456,
      "cleric": 7457,
      "unnecess": 7458,
      "tactics": 7459,
      "accuracy": 7460,
      "urgent": 7461,
      "deemed": 7462,
      "euphrates": 7463,
      "59": 7464,
      "band": 7465,
      "bog": 7466,
      "drove": 7467,
      "pounds": 7468,
      "rice": 7469,
      "tend": 7470,
      "vocal": 7471,
      "##col": 7472,
      "thai": 7473,
      "inequ": 7474,
      "##ente": 7475,
      "##tery": 7476,
      "forth": 7477,
      "constant": 7478,
      "unh": 7479,
      "intense": 7480,
      "contrad": 7481,
      "genoc": 7482,
      "discour": 7483,
      "annivers": 7484,
      "annually": 7485,
      "harv": 7486,
      "harb": 7487,
      "forming": 7488,
      "##ova": 7489,
      "wonder": 7490,
      "tripoli": 7491,
      "holdings": 7492,
      "rescind": 7493,
      "permits": 7494,
      "ownership": 7495,
      "nauert": 7496,
      "bag": 7497,
      "naj": 7498,
      "ry": 7499,
      "tipped": 7500,
      "anx": 7501,
      "afraid": 7502,
      "craft": 7503,
      "invitation": 7504,
      "blank": 7505,
      "barriers": 7506,
      "caps": 7507,
      "guine": 7508,
      "emot": 7509,
      "older": 7510,
      "replied": 7511,
      "encoun": 7512,
      "unfortun": 7513,
      "drafted": 7514,
      "imag": 7515,
      "weakened": 7516,
      "michelle": 7517,
      "scientific": 7518,
      "##cription": 7519,
      "symbol": 7520,
      "ocean": 7521,
      "normally": 7522,
      "9th": 7523,
      "kam": 7524,
      "kaine": 7525,
      "##va": 7526,
      "threw": 7527,
      "stated": 7528,
      "##erald": 7529,
      "manner": 7530,
      "supposed": 7531,
      "marks": 7532,
      "##arling": 7533,
      "193": 7534,
      "responses": 7535,
      "battles": 7536,
      "removing": 7537,
      "strengthening": 7538,
      "extremist": 7539,
      "penalties": 7540,
      "portr": 7541,
      "dictators": 7542,
      "nonpartisan": 7543,
      "ticket": 7544,
      "conspiracy": 7545,
      "pis": 7546,
      "pad": 7547,
      "##point": 7548,
      "##kok": 7549,
      "##dam": 7550,
      "stir": 7551,
      "polish": 7552,
      "##abb": 7553,
      "complying": 7554,
      "cox": 7555,
      "##aving": 7556,
      "northeast": 7557,
      "uses": 7558,
      "assur": 7559,
      "barring": 7560,
      "endanger": 7561,
      "airline": 7562,
      "overseeing": 7563,
      "absence": 7564,
      "distance": 7565,
      "unsucc": 7566,
      "brazilian": 7567,
      "accomplish": 7568,
      "confrontation": 7569,
      "lindsey": 7570,
      "supremac": 7571,
      "earthquake": 7572,
      "arkansas": 7573,
      "unsuccess": 7574,
      "pensions": 7575,
      "##right": 7576,
      "##aka": 7577,
      "extensive": 7578,
      "bangkok": 7579,
      "garc": 7580,
      "##itzer": 7581,
      "scenario": 7582,
      "substantial": 7583,
      "elaborate": 7584,
      "unanimously": 7585,
      "frustrated": 7586,
      "prosperity": 7587,
      "sanaa": 7588,
      "anniversary": 7589,
      "dia": 7590,
      "overn": 7591,
      "pair": 7592,
      "tally": 7593,
      "zanu": 7594,
      "##ius": 7595,
      "##ills": 7596,
      "alarm": 7597,
      "compar": 7598,
      "blog": 7599,
      "scal": 7600,
      "liberty": 7601,
      "flying": 7602,
      "recorded": 7603,
      "ambitious": 7604,
      "rosenstein": 7605,
      "overnight": 7606,
      "aer": 7607,
      "dou": 7608,
      "wolf": 7609,
      "##comm": 7610,
      "##ede": 7611,
      "##rey": 7612,
      "alert": 7613,
      "alph": 7614,
      "atm": 7615,
      "advers": 7616,
      "managers": 7617,
      "##ictions": 7618,
      "scra": 7619,
      "slog": 7620,
      "halted": 7621,
      "easing": 7622,
      "explicit": 7623,
      "emailed": 7624,
      "primaries": 7625,
      "fleet": 7626,
      "applied": 7627,
      "greenhouse": 7628,
      "burea": 7629,
      "extremism": 7630,
      "hussein": 7631,
      "dependent": 7632,
      "purpose": 7633,
      "yangon": 7634,
      "slightly": 7635,
      "et": 7636,
      "gut": 7637,
      "welf": 7638,
      "zero": 7639,
      "##gests": 7640,
      "##uous": 7641,
      "##orate": 7642,
      "##orough": 7643,
      "##icism": 7644,
      "preserv": 7645,
      "##ighter": 7646,
      "contacted": 7647,
      "flo": 7648,
      "proper": 7649,
      "palm": 7650,
      "suggests": 7651,
      "launching": 7652,
      "volat": 7653,
      "abdel": 7654,
      "sudden": 7655,
      "princip": 7656,
      "##umption": 7657,
      "honduras": 7658,
      "welfare": 7659,
      "ki": 7660,
      "ven": 7661,
      "##fur": 7662,
      "plun": 7663,
      "expire": 7664,
      "koreans": 7665,
      "airb": 7666,
      "missions": 7667,
      "voices": 7668,
      "offset": 7669,
      "authorization": 7670,
      "banker": 7671,
      "iron": 7672,
      "allegedly": 7673,
      "introduce": 7674,
      "##oulos": 7675,
      "warnings": 7676,
      "objections": 7677,
      "jews": 7678,
      "insurgent": 7679,
      "outsp": 7680,
      "agricultural": 7681,
      "boston": 7682,
      "elderly": 7683,
      "aoun": 7684,
      "holl": 7685,
      "hens": 7686,
      "hitting": 7687,
      "sie": 7688,
      "za": 7689,
      "##asters": 7690,
      "##ils": 7691,
      "northeastern": 7692,
      "blind": 7693,
      "undert": 7694,
      "helps": 7695,
      "thrown": 7696,
      "swath": 7697,
      "2025": 7698,
      "badly": 7699,
      "reasonable": 7700,
      "aboard": 7701,
      "entirely": 7702,
      "giant": 7703,
      "physical": 7704,
      "kuwa": 7705,
      "stretch": 7706,
      "lynch": 7707,
      "genocide": 7708,
      "hum": 7709,
      "tas": 7710,
      "##ipping": 7711,
      "##fect": 7712,
      "##fast": 7713,
      "##br": 7714,
      "##erb": 7715,
      "##eded": 7716,
      "toler": 7717,
      "##atemal": 7718,
      "##opoulos": 7719,
      "##alling": 7720,
      "##ello": 7721,
      "##angel": 7722,
      "departments": 7723,
      "raises": 7724,
      "guatemal": 7725,
      "staunch": 7726,
      "safegu": 7727,
      "poison": 7728,
      "condemnation": 7729,
      "morales": 7730,
      "##ington": 7731,
      "counted": 7732,
      "provinc": 7733,
      "greg": 7734,
      "stopping": 7735,
      "walls": 7736,
      "sky": 7737,
      "papua": 7738,
      "jihadist": 7739,
      "colonel": 7740,
      "spokesperson": 7741,
      "provincial": 7742,
      "catch": 7743,
      "kal": 7744,
      "piv": 7745,
      "##eating": 7746,
      "##kar": 7747,
      "##oration": 7748,
      "inher": 7749,
      "##arely": 7750,
      "trend": 7751,
      "atom": 7752,
      "appreci": 7753,
      "usual": 7754,
      "longstanding": 7755,
      "##athan": 7756,
      "economics": 7757,
      "testified": 7758,
      "irreg": 7759,
      "loan": 7760,
      "accuses": 7761,
      "institution": 7762,
      "##laim": 7763,
      "ignored": 7764,
      "daniel": 7765,
      "carles": 7766,
      "unnamed": 7767,
      "ordinary": 7768,
      "abortions": 7769,
      "irregular": 7770,
      "93": 7771,
      "cbo": 7772,
      "uae": 7773,
      "##oshenko": 7774,
      "concent": 7775,
      "neil": 7776,
      "mans": 7777,
      "throw": 7778,
      "followers": 7779,
      "greek": 7780,
      "junior": 7781,
      "error": 7782,
      "entertain": 7783,
      "listen": 7784,
      "robust": 7785,
      "associate": 7786,
      "settled": 7787,
      "tracking": 7788,
      "appropriations": 7789,
      "sustained": 7790,
      "boycott": 7791,
      "wyden": 7792,
      "bottom": 7793,
      "thaad": 7794,
      "mortgage": 7795,
      "mohamed": 7796,
      "perceived": 7797,
      "cards": 7798,
      "na": 7799,
      "nam": 7800,
      "roles": 7801,
      "wary": 7802,
      "##itb": 7803,
      "##etic": 7804,
      "adequ": 7805,
      "brian": 7806,
      "grid": 7807,
      "plus": 7808,
      "deciding": 7809,
      "##apers": 7810,
      "feet": 7811,
      "farc": 7812,
      "##rific": 7813,
      "england": 7814,
      "##phere": 7815,
      "filib": 7816,
      "valid": 7817,
      "##board": 7818,
      "books": 7819,
      "extraordin": 7820,
      "narrowly": 7821,
      "rapidly": 7822,
      "sustain": 7823,
      "category": 7824,
      "kosovo": 7825,
      "plaintiffs": 7826,
      "lad": 7827,
      "ol": 7828,
      "##gb": 7829,
      "##pected": 7830,
      "##iy": 7831,
      "shield": 7832,
      "##unction": 7833,
      "flat": 7834,
      "transl": 7835,
      "locked": 7836,
      "##print": 7837,
      "attempting": 7838,
      "pledges": 7839,
      "feeling": 7840,
      "clashed": 7841,
      "satell": 7842,
      "permission": 7843,
      "obligation": 7844,
      "semi": 7845,
      "wilbur": 7846,
      "tremendous": 7847,
      "unexpected": 7848,
      "survivors": 7849,
      "dil": 7850,
      "fern": 7851,
      "nick": 7852,
      "stead": 7853,
      "chad": 7854,
      "##stance": 7855,
      "##stone": 7856,
      "orban": 7857,
      "wors": 7858,
      "interrog": 7859,
      "##rof": 7860,
      "scores": 7861,
      "barrel": 7862,
      "letters": 7863,
      "negotiation": 7864,
      "puz": 7865,
      "ideological": 7866,
      "versus": 7867,
      "demonstrate": 7868,
      "deductions": 7869,
      "photos": 7870,
      "scandals": 7871,
      "license": 7872,
      "garcia": 7873,
      "bureaucr": 7874,
      "hensarling": 7875,
      "dign": 7876,
      "foss": 7877,
      "gon": 7878,
      "lists": 7879,
      "##enna": 7880,
      "##etime": 7881,
      "abrupt": 7882,
      "northwest": 7883,
      "maung": 7884,
      "##ache": 7885,
      "remote": 7886,
      "shouldn": 7887,
      "transit": 7888,
      "johan": 7889,
      "merc": 7890,
      "pai": 7891,
      "involve": 7892,
      "factor": 7893,
      "bases": 7894,
      "device": 7895,
      "implementing": 7896,
      "selection": 7897,
      "qualified": 7898,
      "certify": 7899,
      "shifting": 7900,
      "dogged": 7901,
      "helicopter": 7902,
      "unnecessary": 7903,
      "han": 7904,
      "lone": 7905,
      "##ng": 7906,
      "output": 7907,
      "imper": 7908,
      "drivers": 7909,
      "##vened": 7910,
      "surp": 7911,
      "owns": 7912,
      "liber": 7913,
      "advisor": 7914,
      "developments": 7915,
      "commanders": 7916,
      "entit": 7917,
      "predomin": 7918,
      "portion": 7919,
      "eyes": 7920,
      "shootings": 7921,
      "imprison": 7922,
      "outspoken": 7923,
      "fossil": 7924,
      "bow": 7925,
      "oly": 7926,
      "pages": 7927,
      "##kowski": 7928,
      "##fe": 7929,
      "##organ": 7930,
      "reaff": 7931,
      "##opard": 7932,
      "##ulating": 7933,
      "##assed": 7934,
      "consulate": 7935,
      "dealings": 7936,
      "provinces": 7937,
      "##urray": 7938,
      "refiled": 7939,
      "generals": 7940,
      "##maker": 7941,
      "breitb": 7942,
      "operates": 7943,
      "hunt": 7944,
      "greatest": 7945,
      "teams": 7946,
      "engaging": 7947,
      "favors": 7948,
      "delivering": 7949,
      "reflects": 7950,
      "##iability": 7951,
      "administrations": 7952,
      "shelter": 7953,
      "melania": 7954,
      "restaurant": 7955,
      "restaurants": 7956,
      "koike": 7957,
      "centrist": 7958,
      "guinea": 7959,
      "olymp": 7960,
      "reaffir": 7961,
      "breitbart": 7962,
      "bhar": 7963,
      "fol": 7964,
      "las": 7965,
      "murray": 7966,
      "##hr": 7967,
      "anim": 7968,
      "stun": 7969,
      "conce": 7970,
      "shan": 7971,
      "external": 7972,
      "gren": 7973,
      "##ibilities": 7974,
      "exposed": 7975,
      "soil": 7976,
      "stamp": 7977,
      "mali": 7978,
      "villagers": 7979,
      "defendants": 7980,
      "poroshenko": 7981,
      "enemies": 7982,
      "pictures": 7983,
      "colonial": 7984,
      "compensation": 7985,
      "biof": 7986,
      "67": 7987,
      "gate": 7988,
      "ldp": 7989,
      "mile": 7990,
      "tools": 7991,
      "pri": 7992,
      "##iances": 7993,
      "climb": 7994,
      "cro": 7995,
      "causes": 7996,
      "overthr": 7997,
      "accomm": 7998,
      "permit": 7999,
      "warm": 8000,
      "contemp": 8001,
      "advancing": 8002,
      "topic": 8003,
      "jeopard": 8004,
      "boosting": 8005,
      "reflected": 8006,
      "acquis": 8007,
      "cdc": 8008,
      "definitely": 8009,
      "##continent": 8010,
      "ott": 8011,
      "inequality": 8012,
      "accommod": 8013,
      "doss": 8014,
      "lor": 8015,
      "lying": 8016,
      "##rich": 8017,
      "##eu": 8018,
      "##inced": 8019,
      "stuck": 8020,
      "stakes": 8021,
      "fron": 8022,
      "unite": 8023,
      "shake": 8024,
      "examin": 8025,
      "orth": 8026,
      "client": 8027,
      "monarch": 8028,
      "perpet": 8029,
      "##iking": 8030,
      "contender": 8031,
      "function": 8032,
      "clearance": 8033,
      "bankers": 8034,
      "convinced": 8035,
      "carefully": 8036,
      "faction": 8037,
      "cruise": 8038,
      "massac": 8039,
      "1992": 8040,
      "devos": 8041,
      "misle": 8042,
      "newspapers": 8043,
      "mexicans": 8044,
      "clarity": 8045,
      "dubbed": 8046,
      "lewis": 8047,
      "terminal": 8048,
      "awarded": 8049,
      "purposes": 8050,
      "discriminatory": 8051,
      "destabilizing": 8052,
      "innocent": 8053,
      "lam": 8054,
      "luc": 8055,
      "mounting": 8056,
      "sig": 8057,
      "##xy": 8058,
      "thorn": 8059,
      "##amo": 8060,
      "##cht": 8061,
      "seattle": 8062,
      "clay": 8063,
      "incred": 8064,
      "interim": 8065,
      "marit": 8066,
      "relative": 8067,
      "nationalists": 8068,
      "oppos": 8069,
      "confusion": 8070,
      "schae": 8071,
      "healthy": 8072,
      "germans": 8073,
      "releasing": 8074,
      "##oleum": 8075,
      "holly": 8076,
      "covering": 8077,
      "challenger": 8078,
      "deficits": 8079,
      "##amini": 8080,
      "recovered": 8081,
      "caucuses": 8082,
      "reversed": 8083,
      "overturn": 8084,
      "nasralla": 8085,
      "pivot": 8086,
      "atomic": 8087,
      "##continental": 8088,
      "cass": 8089,
      "gall": 8090,
      "##vili": 8091,
      "##recht": 8092,
      "##aware": 8093,
      "intercontinental": 8094,
      "evangel": 8095,
      "quo": 8096,
      "refuse": 8097,
      "probes": 8098,
      "effici": 8099,
      "crises": 8100,
      "appointments": 8101,
      "130": 8102,
      "portf": 8103,
      "window": 8104,
      "1967": 8105,
      "cameroon": 8106,
      "fuels": 8107,
      "santos": 8108,
      "emphasized": 8109,
      "boycot": 8110,
      "rigged": 8111,
      "accompanied": 8112,
      "paramilit": 8113,
      "73": 8114,
      "dat": 8115,
      "oreg": 8116,
      "pard": 8117,
      "##kins": 8118,
      "##db": 8119,
      "##etz": 8120,
      "hailed": 8121,
      "exceed": 8122,
      "enable": 8123,
      "coinc": 8124,
      "somebody": 8125,
      "default": 8126,
      "justin": 8127,
      "meets": 8128,
      "legislators": 8129,
      "agreeing": 8130,
      "intellect": 8131,
      "switzer": 8132,
      "waiver": 8133,
      "persist": 8134,
      "tourist": 8135,
      "magistr": 8136,
      "consulting": 8137,
      "##heed": 8138,
      "finished": 8139,
      "uganda": 8140,
      "nicolas": 8141,
      "echoed": 8142,
      "rogers": 8143,
      "persecution": 8144,
      "##committ": 8145,
      "maritime": 8146,
      "switzerland": 8147,
      "71": 8148,
      "900": 8149,
      "fer": 8150,
      "gaining": 8151,
      "gamb": 8152,
      "hide": 8153,
      "jama": 8154,
      "loud": 8155,
      "##more": 8156,
      "##ster": 8157,
      "thorough": 8158,
      "andre": 8159,
      "hash": 8160,
      "##anded": 8161,
      "##cher": 8162,
      "residence": 8163,
      "##antan": 8164,
      "decisive": 8165,
      "invasion": 8166,
      "consent": 8167,
      "mariano": 8168,
      "##coni": 8169,
      "signals": 8170,
      "retreat": 8171,
      "directive": 8172,
      "vienna": 8173,
      "populations": 8174,
      "catastr": 8175,
      "claiming": 8176,
      "menendez": 8177,
      "cycle": 8178,
      "enclave": 8179,
      "begins": 8180,
      "yemeni": 8181,
      "eliminating": 8182,
      "contractor": 8183,
      "examine": 8184,
      "devastating": 8185,
      "title": 8186,
      "reluctant": 8187,
      "chapter": 8188,
      "dossier": 8189,
      "oregon": 8190,
      "barg": 8191,
      "bias": 8192,
      "cnr": 8193,
      "mou": 8194,
      "mental": 8195,
      "##yn": 8196,
      "##idi": 8197,
      "##omo": 8198,
      "stal": 8199,
      "tries": 8200,
      "heather": 8201,
      "unident": 8202,
      "unkn": 8203,
      "properties": 8204,
      "submit": 8205,
      "glass": 8206,
      "privile": 8207,
      "standoff": 8208,
      "latino": 8209,
      "rebell": 8210,
      "allegation": 8211,
      "player": 8212,
      "universities": 8213,
      "carries": 8214,
      "1998": 8215,
      "nominations": 8216,
      "modest": 8217,
      "luis": 8218,
      "essentially": 8219,
      "fuj": 8220,
      "lockheed": 8221,
      "vessels": 8222,
      "95": 8223,
      "dl": 8224,
      "kiss": 8225,
      "##rising": 8226,
      "##rador": 8227,
      "##mission": 8228,
      "##here": 8229,
      "##arity": 8230,
      "##urg": 8231,
      "fract": 8232,
      "##opol": 8233,
      "##oca": 8234,
      "seize": 8235,
      "meters": 8236,
      "crash": 8237,
      "outlined": 8238,
      "uphold": 8239,
      "improp": 8240,
      "businessmen": 8241,
      "appearing": 8242,
      "collection": 8243,
      "careful": 8244,
      "berlus": 8245,
      "vacc": 8246,
      "guarantees": 8247,
      "cardin": 8248,
      "arrangements": 8249,
      "salvador": 8250,
      "helicopters": 8251,
      "secrets": 8252,
      "dictatorship": 8253,
      "kuwait": 8254,
      "cnrp": 8255,
      "unidentified": 8256,
      "lt": 8257,
      "pere": 8258,
      "##lers": 8259,
      "##ien": 8260,
      "ano": 8261,
      "revel": 8262,
      "##utsch": 8263,
      "##acas": 8264,
      "##ima": 8265,
      "web": 8266,
      "##ficial": 8267,
      "enorm": 8268,
      "aren": 8269,
      "##iferation": 8270,
      "insults": 8271,
      "verify": 8272,
      "guantan": 8273,
      "freedoms": 8274,
      "breakthr": 8275,
      "connected": 8276,
      "##chester": 8277,
      "explosive": 8278,
      "nazis": 8279,
      "reassure": 8280,
      "reserves": 8281,
      "girls": 8282,
      "hindu": 8283,
      "pregnant": 8284,
      "mahmoud": 8285,
      "dlamini": 8286,
      "guantanamo": 8287,
      "breakthrough": 8288,
      "amm": 8289,
      "lighth": 8290,
      "tiny": 8291,
      "zar": 8292,
      "##elves": 8293,
      "unch": 8294,
      "##uble": 8295,
      "exile": 8296,
      "##odes": 8297,
      "monthly": 8298,
      "promoted": 8299,
      "respondents": 8300,
      "suggestions": 8301,
      "1990": 8302,
      "1999": 8303,
      "resulted": 8304,
      "remark": 8305,
      "brokered": 8306,
      "understood": 8307,
      "recording": 8308,
      "kaspers": 8309,
      "channels": 8310,
      "liqu": 8311,
      "academic": 8312,
      "blasted": 8313,
      "petroleum": 8314,
      "luxury": 8315,
      "inspired": 8316,
      "cautious": 8317,
      "ourselves": 8318,
      "opposite": 8319,
      "berlusconi": 8320,
      "kaspersky": 8321,
      "atr": 8322,
      "joy": 8323,
      "lump": 8324,
      "lago": 8325,
      "nur": 8326,
      "pop": 8327,
      "##kh": 8328,
      "##ja": 8329,
      "ing": 8330,
      "##imani": 8331,
      "chol": 8332,
      "haider": 8333,
      "decree": 8334,
      "##agen": 8335,
      "uprising": 8336,
      "attach": 8337,
      "coff": 8338,
      "promot": 8339,
      "terrible": 8340,
      "denying": 8341,
      "##veni": 8342,
      "populous": 8343,
      "1997": 8344,
      "journey": 8345,
      "trips": 8346,
      "organizers": 8347,
      "undermining": 8348,
      "hyd": 8349,
      "copy": 8350,
      "bribery": 8351,
      "provocative": 8352,
      "brutal": 8353,
      "alphab": 8354,
      "schaeuble": 8355,
      "unknown": 8356,
      "bazar": 8357,
      "gdp": 8358,
      "ni": 8359,
      "##rated": 8360,
      "##lishing": 8361,
      "##uels": 8362,
      "##ilding": 8363,
      "##ette": 8364,
      "exod": 8365,
      "spur": 8366,
      "partial": 8367,
      "partially": 8368,
      "governance": 8369,
      "grip": 8370,
      "counts": 8371,
      "caracas": 8372,
      "barr": 8373,
      "haram": 8374,
      "victories": 8375,
      "traded": 8376,
      "roberts": 8377,
      "occas": 8378,
      "##ebrecht": 8379,
      "packed": 8380,
      "1970s": 8381,
      "odebrecht": 8382,
      "alien": 8383,
      "reveal": 8384,
      "surfaced": 8385,
      "impeachment": 8386,
      "earnings": 8387,
      "johannes": 8388,
      "exodus": 8389,
      "1b": 8390,
      "duke": 8391,
      "gad": 8392,
      "master": 8393,
      "sed": 8394,
      "sina": 8395,
      "##rect": 8396,
      "##ete": 8397,
      "expense": 8398,
      "funeral": 8399,
      "capability": 8400,
      "subcommitt": 8401,
      "##ashvili": 8402,
      "locations": 8403,
      "arrival": 8404,
      "sla": 8405,
      "extending": 8406,
      "claude": 8407,
      "aiming": 8408,
      "walked": 8409,
      "survive": 8410,
      "williams": 8411,
      "scenes": 8412,
      "affiliated": 8413,
      "vessel": 8414,
      "feinstein": 8415,
      "postponed": 8416,
      "predominantly": 8417,
      "misleading": 8418,
      "hollywood": 8419,
      "catastrop": 8420,
      "emm": 8421,
      "nar": 8422,
      "til": 8423,
      "##pts": 8424,
      "##ionage": 8425,
      "asean": 8426,
      "alive": 8427,
      "brain": 8428,
      "alloc": 8429,
      "manus": 8430,
      "norway": 8431,
      "tamp": 8432,
      "northwestern": 8433,
      "corny": 8434,
      "topics": 8435,
      "minim": 8436,
      "arrive": 8437,
      "steady": 8438,
      "film": 8439,
      "filings": 8440,
      "oversee": 8441,
      "mccar": 8442,
      "curt": 8443,
      "competing": 8444,
      "swept": 8445,
      "display": 8446,
      "evacuation": 8447,
      "pharmaceutical": 8448,
      "alphabet": 8449,
      "cornyn": 8450,
      "bav": 8451,
      "dur": 8452,
      "dates": 8453,
      "lamb": 8454,
      "ring": 8455,
      "tip": 8456,
      "yield": 8457,
      "##lights": 8458,
      "##dled": 8459,
      "##enz": 8460,
      "forg": 8461,
      "asp": 8462,
      "unif": 8463,
      "shaba": 8464,
      "declining": 8465,
      "depos": 8466,
      "blunt": 8467,
      "southwest": 8468,
      "substance": 8469,
      "gunmen": 8470,
      "unlaw": 8471,
      "prevented": 8472,
      "primarily": 8473,
      "delegate": 8474,
      "websites": 8475,
      "curbing": 8476,
      "absolute": 8477,
      "kidn": 8478,
      "consistently": 8479,
      "sinai": 8480,
      "subcommittee": 8481,
      "shabaab": 8482,
      "ble": 8483,
      "eb": 8484,
      "nice": 8485,
      "##due": 8486,
      "spear": 8487,
      "brig": 8488,
      "plag": 8489,
      "monitors": 8490,
      "expires": 8491,
      "expenses": 8492,
      "outd": 8493,
      "##qual": 8494,
      "cook": 8495,
      "##aved": 8496,
      "anybody": 8497,
      "dealt": 8498,
      "properly": 8499,
      "editor": 8500,
      "posting": 8501,
      "christop": 8502,
      "instance": 8503,
      "gunman": 8504,
      "espionage": 8505,
      "necessarily": 8506,
      "affecting": 8507,
      "flooding": 8508,
      "blueprint": 8509,
      "recommendation": 8510,
      "evacuated": 8511,
      "doctor": 8512,
      "disclosures": 8513,
      "preferred": 8514,
      "museveni": 8515,
      "pocket": 8516,
      "saudis": 8517,
      "reckless": 8518,
      "guatemala": 8519,
      "lighthizer": 8520,
      "78": 8521,
      "boko": 8522,
      "di": 8523,
      "gear": 8524,
      "lisa": 8525,
      "mounted": 8526,
      "nich": 8527,
      "si": 8528,
      "sons": 8529,
      "vow": 8530,
      "##nis": 8531,
      "##pe": 8532,
      "##ppo": 8533,
      "projected": 8534,
      "disabled": 8535,
      "manuel": 8536,
      "manchester": 8537,
      "couldn": 8538,
      "headline": 8539,
      "organisation": 8540,
      "##ifications": 8541,
      "calc": 8542,
      "caliph": 8543,
      "expressing": 8544,
      "looph": 8545,
      "palestine": 8546,
      "emerge": 8547,
      "statute": 8548,
      "withdrawing": 8549,
      "undo": 8550,
      "daesh": 8551,
      "silence": 8552,
      "sponsors": 8553,
      "medicine": 8554,
      "carlos": 8555,
      "apartment": 8556,
      "shifted": 8557,
      "smuggling": 8558,
      "aleppo": 8559,
      "lengthy": 8560,
      "amazon": 8561,
      "volunteers": 8562,
      "unhcr": 8563,
      "irregularities": 8564,
      "filibuster": 8565,
      "satellite": 8566,
      "bharara": 8567,
      "rebellion": 8568,
      "mccarthy": 8569,
      "77": 8570,
      "fest": 8571,
      "hell": 8572,
      "hike": 8573,
      "kaz": 8574,
      "rt": 8575,
      "rum": 8576,
      "##rent": 8577,
      "##esville": 8578,
      "##iser": 8579,
      "##ayev": 8580,
      "aspects": 8581,
      "##umes": 8582,
      "underc": 8583,
      "opio": 8584,
      "miners": 8585,
      "fails": 8586,
      "privat": 8587,
      "explan": 8588,
      "pointing": 8589,
      "malta": 8590,
      "restoring": 8591,
      "purge": 8592,
      "coastal": 8593,
      "scottish": 8594,
      "coordinated": 8595,
      "weighing": 8596,
      "vigil": 8597,
      "reconsider": 8598,
      "assurances": 8599,
      "kiir": 8600,
      "extraordinary": 8601,
      "puzder": 8602,
      "biofuels": 8603,
      "opioid": 8604,
      "dian": 8605,
      "fence": 8606,
      "wan": 8607,
      "##town": 8608,
      "##water": 8609,
      "##irt": 8610,
      "impasse": 8611,
      "nationally": 8612,
      "highway": 8613,
      "subur": 8614,
      "pollution": 8615,
      "1991": 8616,
      "describe": 8617,
      "firmly": 8618,
      "##pective": 8619,
      "challengers": 8620,
      "battleground": 8621,
      "withdrawn": 8622,
      "shipping": 8623,
      "answers": 8624,
      "outlook": 8625,
      "legitim": 8626,
      "romania": 8627,
      "experienced": 8628,
      "fujim": 8629,
      "caliphate": 8630,
      "fit": 8631,
      "gill": 8632,
      "nether": 8633,
      "torn": 8634,
      "##oft": 8635,
      "##xide": 8636,
      "##zz": 8637,
      "##isc": 8638,
      "reimp": 8639,
      "stan": 8640,
      "staged": 8641,
      "##uda": 8642,
      "cloud": 8643,
      "##ifer": 8644,
      "##active": 8645,
      "formerly": 8646,
      "cordr": 8647,
      "carriers": 8648,
      "economists": 8649,
      "transcrip": 8650,
      "transfers": 8651,
      "israelis": 8652,
      "stepping": 8653,
      "prosecuted": 8654,
      "briefings": 8655,
      "expression": 8656,
      "choices": 8657,
      "cement": 8658,
      "blacklist": 8659,
      "bali": 8660,
      "crossings": 8661,
      "scramb": 8662,
      "rejecting": 8663,
      "confidential": 8664,
      "loyalty": 8665,
      "taxpayer": 8666,
      "connections": 8667,
      "queen": 8668,
      "bribes": 8669,
      "champion": 8670,
      "raids": 8671,
      "recruit": 8672,
      "proliferation": 8673,
      "awaiting": 8674,
      "ibrahim": 8675,
      "admiral": 8676,
      "enormous": 8677,
      "cordray": 8678,
      "faster": 8679,
      "gard": 8680,
      "hen": 8681,
      "ja": 8682,
      "##onents": 8683,
      "hasn": 8684,
      "leon": 8685,
      "##uded": 8686,
      "aged": 8687,
      "orches": 8688,
      "##gher": 8689,
      "overl": 8690,
      "perfect": 8691,
      "syrians": 8692,
      "missed": 8693,
      "passes": 8694,
      "##redict": 8695,
      "empire": 8696,
      "convictions": 8697,
      "handled": 8698,
      "actively": 8699,
      "victor": 8700,
      "credential": 8701,
      "favorable": 8702,
      "balanced": 8703,
      "applican": 8704,
      "absent": 8705,
      "hawk": 8706,
      "pulling": 8707,
      "punishment": 8708,
      "jihadists": 8709,
      "solidarity": 8710,
      "nonprof": 8711,
      "historical": 8712,
      "heightened": 8713,
      "lesb": 8714,
      "flexibility": 8715,
      "innovation": 8716,
      "entertainment": 8717,
      "fernandez": 8718,
      "atroc": 8719,
      "christopher": 8720,
      "netherlands": 8721,
      "rarely": 8722,
      "sid": 8723,
      "witch": 8724,
      "##rary": 8725,
      "##pm": 8726,
      "##sk": 8727,
      "##terday": 8728,
      "forge": 8729,
      "##esta": 8730,
      "accounting": 8731,
      "defensive": 8732,
      "generate": 8733,
      "highlights": 8734,
      "harris": 8735,
      "humanity": 8736,
      "affir": 8737,
      "steep": 8738,
      "aviv": 8739,
      "irre": 8740,
      "simon": 8741,
      "burned": 8742,
      "enforcing": 8743,
      "dismissal": 8744,
      "franken": 8745,
      "please": 8746,
      "undec": 8747,
      "types": 8748,
      "escalating": 8749,
      "objective": 8750,
      "yesterday": 8751,
      "enjoyed": 8752,
      "extradition": 8753,
      "memorial": 8754,
      "voluntary": 8755,
      "##utsche": 8756,
      "gest": 8757,
      "jay": 8758,
      "maker": 8759,
      "nerv": 8760,
      "tense": 8761,
      "##ao": 8762,
      "##mail": 8763,
      "##page": 8764,
      "##eno": 8765,
      "##oline": 8766,
      "##osphere": 8767,
      "chun": 8768,
      "shame": 8769,
      "##geon": 8770,
      "abol": 8771,
      "disgr": 8772,
      "##roots": 8773,
      "conte": 8774,
      "instr": 8775,
      "operated": 8776,
      "processing": 8777,
      "shortages": 8778,
      "factors": 8779,
      "jerry": 8780,
      "identification": 8781,
      "burn": 8782,
      "gasoline": 8783,
      "murkowski": 8784,
      "specifics": 8785,
      "regarded": 8786,
      "rounds": 8787,
      "lifetime": 8788,
      "vietnamese": 8789,
      "subsidy": 8790,
      "chao": 8791,
      "lobbyist": 8792,
      "surrender": 8793,
      "rallied": 8794,
      "transparent": 8795,
      "gradually": 8796,
      "collective": 8797,
      "fulfill": 8798,
      "encryption": 8799,
      "slammed": 8800,
      "najib": 8801,
      "atmosphere": 8802,
      "perez": 8803,
      "orchestr": 8804,
      "cnbc": 8805,
      "dow": 8806,
      "jae": 8807,
      "lag": 8808,
      "pitch": 8809,
      "tat": 8810,
      "##li": 8811,
      "##anch": 8812,
      "##amation": 8813,
      "orrin": 8814,
      "governed": 8815,
      "grapp": 8816,
      "striking": 8817,
      "indicate": 8818,
      "##emic": 8819,
      "tapped": 8820,
      "actual": 8821,
      "assured": 8822,
      "music": 8823,
      "##elson": 8824,
      "collected": 8825,
      "somali": 8826,
      "traders": 8827,
      "treason": 8828,
      "favoring": 8829,
      "eventual": 8830,
      "accusation": 8831,
      "concerning": 8832,
      "fairly": 8833,
      "resisted": 8834,
      "bridges": 8835,
      "grassroots": 8836,
      "machines": 8837,
      "dictator": 8838,
      "deferred": 8839,
      "peacekeeping": 8840,
      "fujimori": 8841,
      "context": 8842,
      "uber": 8843,
      "##ffer": 8844,
      "thwart": 8845,
      "##arms": 8846,
      "##adish": 8847,
      "fred": 8848,
      "sham": 8849,
      "notably": 8850,
      "##ifies": 8851,
      "expelled": 8852,
      "obrador": 8853,
      "drones": 8854,
      "feels": 8855,
      "belt": 8856,
      "reviews": 8857,
      "listening": 8858,
      "firearms": 8859,
      "producers": 8860,
      "avoiding": 8861,
      "resolving": 8862,
      "circle": 8863,
      "delivery": 8864,
      "hurd": 8865,
      "participated": 8866,
      "unpredict": 8867,
      "varad": 8868,
      "tribe": 8869,
      "vetoed": 8870,
      "rolling": 8871,
      "troubled": 8872,
      "garner": 8873,
      "spotlight": 8874,
      "##holding": 8875,
      "audit": 8876,
      "mogadish": 8877,
      "blasio": 8878,
      "gonz": 8879,
      "ltd": 8880,
      "mogadishu": 8881,
      "84": 8882,
      "pool": 8883,
      "tent": 8884,
      "##yder": 8885,
      "##pace": 8886,
      "##cer": 8887,
      "stad": 8888,
      "##uru": 8889,
      "##osl": 8890,
      "neb": 8891,
      "##ourg": 8892,
      "indef": 8893,
      "blaming": 8894,
      "contenders": 8895,
      "##ressed": 8896,
      "colluded": 8897,
      "influx": 8898,
      "establishing": 8899,
      "researchers": 8900,
      "2021": 8901,
      "obstruction": 8902,
      "contribution": 8903,
      "abdul": 8904,
      "tribes": 8905,
      "snow": 8906,
      "snyder": 8907,
      "tighten": 8908,
      "branded": 8909,
      "besides": 8910,
      "interfered": 8911,
      "methods": 8912,
      "podesta": 8913,
      "imagine": 8914,
      "johannesburg": 8915,
      "spearhead": 8916,
      "cot": 8917,
      "cargo": 8918,
      "mail": 8919,
      "##ram": 8920,
      "##gets": 8921,
      "##aul": 8922,
      "##math": 8923,
      "##enos": 8924,
      "##eding": 8925,
      "##idden": 8926,
      "saak": 8927,
      "alban": 8928,
      "grav": 8929,
      "aftermath": 8930,
      "intend": 8931,
      "cool": 8932,
      "lasting": 8933,
      "##umn": 8934,
      "investing": 8935,
      "tea": 8936,
      "fla": 8937,
      "barely": 8938,
      "##enei": 8939,
      "surger": 8940,
      "laugh": 8941,
      "err": 8942,
      "##afi": 8943,
      "1995": 8944,
      "burd": 8945,
      "sectarian": 8946,
      "corporation": 8947,
      "##ottesville": 8948,
      "difficulties": 8949,
      "curiel": 8950,
      "participating": 8951,
      "charlottesville": 8952,
      "brotherhood": 8953,
      "platforms": 8954,
      "enroll": 8955,
      "reactors": 8956,
      "outbreak": 8957,
      "bund": 8958,
      "cart": 8959,
      "hug": 8960,
      "kham": 8961,
      "rnc": 8962,
      "##nd": 8963,
      "##ho": 8964,
      "##bers": 8965,
      "##ela": 8966,
      "##olio": 8967,
      "##oping": 8968,
      "neo": 8969,
      "bruce": 8970,
      "blames": 8971,
      "##ffetz": 8972,
      "protested": 8973,
      "recapt": 8974,
      "concert": 8975,
      "rapp": 8976,
      "clearing": 8977,
      "foe": 8978,
      "install": 8979,
      "appointees": 8980,
      "fallout": 8981,
      "couples": 8982,
      "1980": 8983,
      "racism": 8984,
      "variety": 8985,
      "##lusions": 8986,
      "triggering": 8987,
      "chaffetz": 8988,
      "neutrality": 8989,
      "prolong": 8990,
      "deadliest": 8991,
      "obstacles": 8992,
      "clayton": 8993,
      "portfolio": 8994,
      "liquid": 8995,
      "saakashvili": 8996,
      "aven": 8997,
      "dated": 8998,
      "fights": 8999,
      "mud": 9000,
      "##xual": 9001,
      "##ji": 9002,
      "inner": 9003,
      "##icon": 9004,
      "##eli": 9005,
      "##ira": 9006,
      "shad": 9007,
      "cloth": 9008,
      "outstanding": 9009,
      "fires": 9010,
      "clinics": 9011,
      "teacher": 9012,
      "schol": 9013,
      "schne": 9014,
      "throwing": 9015,
      "detected": 9016,
      "movements": 9017,
      "famine": 9018,
      "empty": 9019,
      "imported": 9020,
      "matth": 9021,
      "panama": 9022,
      "priorit": 9023,
      "compete": 9024,
      "extremists": 9025,
      "rescued": 9026,
      "consultant": 9027,
      "cheap": 9028,
      "spreading": 9029,
      "inspectors": 9030,
      "machine": 9031,
[...]
