{
  "version": "1.0",
  "truncation": null,
  "padding": null,
  "added_tokens": [
    {
      "id": 0,
      "content": "[START]",
      "single_word": false,
      "lstrip": false,
      "rstrip": false,
      "normalized": false,
      "special": true
    },
    {
      "id": 1,
      "content": "[END]",
      "single_word": false,
      "lstrip": false,
      "rstrip": false,
      "normalized": false,
      "special": true
    },
    {
      "id": 2,
      "content": "[SEP]",
      "single_word": false,
      "lstrip": false,
      "rstrip": false,
      "normalized": false,
      "special": true
    },
    {
      "id": 3,
      "content": "[UNK]",
      "single_word": false,
      "lstrip": false,
      "rstrip": false,
      "normalized": false,
      "special": true
    },
    {
      "id": 4,
      "content": "[FILL]",
      "single_word": false,
      "lstrip": false,
      "rstrip": false,
      "normalized": false,
      "special": true
    }
  ],
  "normalizer": {
    "type": "BertNormalizer",
    "clean_text": true,
    "handle_chinese_chars": true,
    "strip_accents": null,
    "lowercase": true
  },
  "pre_tokenizer": {
    "type": "BertPreTokenizer"
  },
  "post_processor": {
    "type": "TemplateProcessing",
    "single": [
      {
        "SpecialToken": {
          "id": "[START]",
          "type_id": 0
        }
      },
      {
        "Sequence": {
          "id": "A",
          "type_id": 0
        }
      },
      {
        "SpecialToken": {
          "id": "[END]",
          "type_id": 0
        }
      }
    ],
    "pair": [
      {
        "SpecialToken": {
          "id": "[START]",
          "type_id": 0
        }
      },
      {
        "Sequence": {
          "id": "A",
          "type_id": 0
        }
      },
      {
        "SpecialToken": {
          "id": "[SEP]",
          "type_id": 0
        }
      },
      {
        "Sequence": {
          "id": "B",
          "type_id": 1
        }
      },
      {
        "SpecialToken": {
          "id": "[END]",
          "type_id": 1
        }
      }
    ],
    "special_tokens": {
      "[END]": {
        "id": "[END]",
        "ids": [
          1
        ],
        "tokens": [
          "[END]"
        ]
      },
      "[SEP]": {
        "id": "[SEP]",
        "ids": [
          2
        ],
        "tokens": [
          "[SEP]"
        ]
      },
      "[START]": {
        "id": "[START]",
        "ids": [
          0
        ],
        "tokens": [
          "[START]"
        ]
      }
    }
  },
  "decoder": {
    "type": "WordPiece",
    "prefix": "##",
    "cleanup": true
  },
  "model": {
    "type": "WordPiece",
    "unk_token": "[UNK]",
    "continuing_subword_prefix": "##",
    "max_input_chars_per_word": 100,
    "vocab": {
      "[START]": 0,
      "[END]": 1,
      "[SEP]": 2,
      "[UNK]": 3,
      "[FILL]": 4,
      "!": 5,
      "\"": 6,
      "#": 7,
      "$": 8,
      "&": 9,
      "'": 10,
      "(": 11,
      ")": 12,
      ",": 13,
      "-": 14,
      ".": 15,
      "/": 16,
      "0": 17,
      "1": 18,
      "2": 19,
      "3": 20,
      "4": 21,
      "5": 22,
      "6": 23,
      "7": 24,
      "8": 25,
      "9": 26,
      ":": 27,
      ";": 28,
      "?": 29,
      "@": 30,
      "a": 31,
      "b": 32,
      "c": 33,
      "d": 34,
      "e": 35,
      "f": 36,
      "g": 37,
      "h": 38,
      "i": 39,
      "j": 40,
      "k": 41,
      "l": 42,
      "m": 43,
      "n": 44,
      "o": 45,
      "p": 46,
      "q": 47,
      "r": 48,
      "s": 49,
      "t": 50,
      "u": 51,
      "v": 52,
      "w": 53,
      "x": 54,
      "y": 55,
      "z": 56,
      "¿": 57,
      "‘": 58,
      "’": 59,
      "##e": 60,
      "##t": 61,
      "##o": 62,
      "##n": 63,
      "##a": 64,
      "##d": 65,
      "##q": 66,
      "##u": 67,
      "##i": 68,
      "##r": 69,
      "##s": 70,
      "##f": 71,
      "##y": 72,
      "##g": 73,
      "##5": 74,
      "##0": 75,
      "##h": 76,
      "##b": 77,
      "##v": 78,
      "##c": 79,
      "##k": 80,
      "##w": 81,
      "##l": 82,
      "##p": 83,
      "##m": 84,
      "##6": 85,
      "##x": 86,
      "##8": 87,
      "##3": 88,
      "##z": 89,
      "##2": 90,
      "##1": 91,
      "##j": 92,
      "##9": 93,
      "##7": 94,
      "##4": 95,
      "##er": 96,
      "##an": 97,
      "##in": 98,
      "##es": 99,
      "##on": 100,
      "##or": 101,
      "##en": 102,
      "##at": 103,
      "##al": 104,
      "##it": 105,
      "to": 106,
      "##ar": 107,
      "##is": 108,
      "tr": 109,
      "##ic": 110,
      "in": 111,
      "##mp": 112,
      "##ou": 113,
      "##ion": 114,
      "##il": 115,
      "##ing": 116,
      "tru": 117,
      "##ed": 118,
      "trump": 119,
      "##ay": 120,
      "re": 121,
      "##us": 122,
      "##ea": 123,
      "##ro": 124,
      "of": 125,
      "##ent": 126,
      "##el": 127,
      "##ac": 128,
      "for": 129,
      "##ec": 130,
      "##ur": 131,
      "on": 132,
      "##id": 133,
      "##ig": 134,
      "##ts": 135,
      "##ia": 136,
      "##ter": 137,
      "say": 138,
      "de": 139,
      "says": 140,
      "##ill": 141,
      "st": 142,
      "##ol": 143,
      "##as": 144,
      "##re": 145,
      "##th": 146,
      "##om": 147,
      "##ate": 148,
      "ch": 149,
      "##se": 150,
      "##ers": 151,
      "##am": 152,
      "##res": 153,
      "##ce": 154,
      "##ot": 155,
      "##et": 156,
      "con": 157,
      "##ver": 158,
      "##os": 159,
      "##ation": 160,
      "##tion": 161,
      "##le": 162,
      "##nd": 163,
      "pro": 164,
      "##ra": 165,
      "##iv": 166,
      "th": 167,
      "##ut": 168,
      "##ir": 169,
      "##ks": 170,
      "ne": 171,
      "##ith": 172,
      "##ment": 173,
      "with": 174,
      "as": 175,
      "rep": 176,
      "##uss": 177,
      "##pp": 178,
      "##ian": 179,
      "at": 180,
      "##im": 181,
      "##and": 182,
      "##our": 183,
      "##ead": 184,
      "##ain": 185,
      "##ub": 186,
      "##ad": 187,
      "hou": 188,
      "##ul": 189,
      "##ow": 190,
      "##ge": 191,
      "##ial": 192,
      "ex": 193,
      "house": 194,
      "##oc": 195,
      "##ican": 196,
      "af": 197,
      "cl": 198,
      "##igh": 199,
      "russ": 200,
      "sp": 201,
      "sen": 202,
      "##ee": 203,
      "##ak": 204,
      "##ist": 205,
      "pol": 206,
      "la": 207,
      "##all": 208,
      "##est": 209,
      "is": 210,
      "##ud": 211,
      "##st": 212,
      "wh": 213,
      "pres": 214,
      "##ch": 215,
      "##ran": 216,
      "##ies": 217,
      "##ack": 218,
      "over": 219,
      "##ubl": 220,
      "##ite": 221,
      "nor": 222,
      "ag": 223,
      "kor": 224,
      "##ey": 225,
      "me": 226,
      "off": 227,
      "sh": 228,
      "##end": 229,
      "new": 230,
      "after": 231,
      "su": 232,
      "##ie": 233,
      "north": 234,
      "republ": 235,
      "go": 236,
      "##ign": 237,
      "republican": 238,
      "##art": 239,
      "russia": 240,
      "be": 241,
      "##man": 242,
      "ob": 243,
      "##ident": 244,
      "he": 245,
      "law": 246,
      "##un": 247,
      "##op": 248,
      "##ice": 249,
      "##ity": 250,
      "##ina": 251,
      "pl": 252,
      "korea": 253,
      "##ive": 254,
      "cr": 255,
      "bill": 256,
      "ta": 257,
      "obam": 258,
      "el": 259,
      "##ve": 260,
      "##int": 261,
      "##ary": 262,
      "lead": 263,
      "##ld": 264,
      "##ort": 265,
      "white": 266,
      "##em": 267,
      "not": 268,
      "br": 269,
      "##ust": 270,
      "ar": 271,
      "ac": 272,
      "##ish": 273,
      "president": 274,
      "##ap": 275,
      "sy": 276,
      "al": 277,
      "cour": 278,
      "##rom": 279,
      "elec": 280,
      "state": 281,
      "##ces": 282,
      "an": 283,
      "co": 284,
      "senate": 285,
      "ad": 286,
      "eu": 287,
      "will": 288,
      "##if": 289,
      "from": 290,
      "##ly": 291,
      "un": 292,
      "china": 293,
      "res": 294,
      "##uc": 295,
      "court": 296,
      "vot": 297,
      "##ence": 298,
      "##vern": 299,
      "govern": 300,
      "##ip": 301,
      "com": 302,
      "##ab": 303,
      "se": 304,
      "dem": 305,
      "sec": 306,
      "min": 307,
      "syr": 308,
      "dis": 309,
      "##ges": 310,
      "##ress": 311,
      "fac": 312,
      "tax": 313,
      "##ition": 314,
      "##ould": 315,
      "election": 316,
      "tur": 317,
      "att": 318,
      "clint": 319,
      "##ight": 320,
      "clinton": 321,
      "may": 322,
      "##ore": 323,
      "##ell": 324,
      "##rat": 325,
      "ab": 326,
      "##mer": 327,
      "obama": 328,
      "##are": 329,
      "##ine": 330,
      "tal": 331,
      "and": 332,
      "ref": 333,
      "##ect": 334,
      "ban": 335,
      "##ail": 336,
      "deal": 337,
      "democ": 338,
      "plan": 339,
      "by": 340,
      "##tions": 341,
      "##ator": 342,
      "##ns": 343,
      "democrat": 344,
      "call": 345,
      "##ass": 346,
      "iran": 347,
      "##gress": 348,
      "##anc": 349,
      "##ib": 350,
      "##bo": 351,
      "##icial": 352,
      "see": 353,
      "war": 354,
      "the": 355,
      "##ens": 356,
      "vote": 357,
      "le": 358,
      "##yan": 359,
      "##ilit": 360,
      "def": 361,
      "part": 362,
      "turk": 363,
      "bl": 364,
      "##erman": 365,
      "##ik": 366,
      "official": 367,
      "##der": 368,
      "ind": 369,
      "sou": 370,
      "german": 371,
      "milit": 372,
      "pr": 373,
      "no": 374,
      "##iss": 375,
      "##gh": 376,
      "##ister": 377,
      "##ost": 378,
      "##ief": 379,
      "talks": 380,
      "en": 381,
      "##um": 382,
      "wor": 383,
      "##oun": 384,
      "south": 385,
      "tw": 386,
      "app": 387,
      "again": 388,
      "congress": 389,
      "prob": 390,
      "sa": 391,
      "##iz": 392,
      "mo": 393,
      "kill": 394,
      "uk": 395,
      "minister": 396,
      "##itic": 397,
      "##ters": 398,
      "ca": 399,
      "##ast": 400,
      "pm": 401,
      "##ess": 402,
      "##ure": 403,
      "##enc": 404,
      "str": 405,
      "exp": 406,
      "meet": 407,
      "up": 408,
      "syria": 409,
      "##ear": 410,
      "##av": 411,
      "##ration": 412,
      "##ree": 413,
      "##ico": 414,
      "dec": 415,
      "or": 416,
      "##rem": 417,
      "against": 418,
      "##mak": 419,
      "bo": 420,
      "senator": 421,
      "##pt": 422,
      "##ds": 423,
      "police": 424,
      "bre": 425,
      "ur": 426,
      "##mb": 427,
      "##og": 428,
      "##lear": 429,
      "government": 430,
      "##xit": 431,
      "fact": 432,
      "calls": 433,
      "##alth": 434,
      "brexit": 435,
      "##ide": 436,
      "sour": 437,
      "leader": 438,
      "brit": 439,
      "##to": 440,
      "chief": 441,
      "##ake": 442,
      "fir": 443,
      "##ans": 444,
      "##ations": 445,
      "it": 446,
      "qu": 447,
      "##box": 448,
      "factbox": 449,
      "##ps": 450,
      "##mar": 451,
      "russian": 452,
      "lawmak": 453,
      "##out": 454,
      "##ok": 455,
      "##ates": 456,
      "##ya": 457,
      "##lam": 458,
      "##mm": 459,
      "##ry": 460,
      "sanc": 461,
      "##ag": 462,
      "cont": 463,
      "back": 464,
      "##eak": 465,
      "ira": 466,
      "iraq": 467,
      "opp": 468,
      "cons": 469,
      "dr": 470,
      "##ft": 471,
      "health": 472,
      "gr": 473,
      "fin": 474,
      "##ant": 475,
      "end": 476,
      "##ue": 477,
      "turkey": 478,
      "vis": 479,
      "comm": 480,
      "rel": 481,
      "20": 482,
      "##ash": 483,
      "probe": 484,
      "med": 485,
      "##ug": 486,
      "prot": 487,
      "par": 488,
      "##ade": 489,
      "party": 490,
      "camp": 491,
      "##ency": 492,
      "cat": 493,
      "##ong": 494,
      "dep": 495,
      "##ff": 496,
      "##ond": 497,
      "op": 498,
      "jo": 499,
      "more": 500,
      "##ights": 501,
      "##ms": 502,
      "sanctions": 503,
      "mar": 504,
      "rul": 505,
      "saud": 506,
      "fu": 507,
      "mex": 508,
      "sc": 509,
      "islam": 510,
      "##get": 511,
      "fl": 512,
      "##ance": 513,
      "##acks": 514,
      "inter": 515,
      "republicans": 516,
      "secur": 517,
      "out": 518,
      "##cl": 519,
      "military": 520,
      "catal": 521,
      "fr": 522,
      "##eral": 523,
      "##ire": 524,
      "##lin": 525,
      "security": 526,
      "##eal": 527,
      "##ants": 528,
      "all": 529,
      "##ber": 530,
      "##uclear": 531,
      "##ard": 532,
      "saudi": 533,
      "##old": 534,
      "can": 535,
      "nuclear": 536,
      "##ors": 537,
      "win": 538,
      "##ep": 539,
      "##aign": 540,
      "supp": 541,
      "campaign": 542,
      "##age": 543,
      "top": 544,
      "deb": 545,
      "##ome": 546,
      "miss": 547,
      "conf": 548,
      "ir": 549,
      "oppos": 550,
      "put": 551,
      "##own": 552,
      "##orn": 553,
      "air": 554,
      "ro": 555,
      "##eas": 556,
      "##gy": 557,
      "rev": 558,
      "##ace": 559,
      "attack": 560,
      "##con": 561,
      "##ush": 562,
      "fran": 563,
      "##its": 564,
      "##reat": 565,
      "##erv": 566,
      "und": 567,
      "##od": 568,
      "##ene": 569,
      "nom": 570,
      "##ick": 571,
      "lo": 572,
      "##min": 573,
      "##ock": 574,
      "urges": 575,
      "am": 576,
      "##usp": 577,
      "democrats": 578,
      "bor": 579,
      "jud": 580,
      "ph": 581,
      "susp": 582,
      "adv": 583,
      "governor": 584,
      "man": 585,
      "lea": 586,
      "myan": 587,
      "inv": 588,
      "reg": 589,
      "myanmar": 590,
      "##iew": 591,
      "##eign": 592,
      "##orm": 593,
      "##erson": 594,
      "aid": 595,
      "hel": 596,
      "ret": 597,
      "work": 598,
      "kur": 599,
      "##ound": 600,
      "poll": 601,
      "disc": 602,
      "lawmakers": 603,
      "jap": 604,
      "japan": 605,
      "##ict": 606,
      "##ous": 607,
      "##ile": 608,
      "nomin": 609,
      "bud": 610,
      "201": 611,
      "if": 612,
      "ra": 613,
      "##ves": 614,
      "##care": 615,
      "##ions": 616,
      "##omb": 617,
      "presidential": 618,
      "islamic": 619,
      "car": 620,
      "##ath": 621,
      "fund": 622,
      "border": 623,
      "trade": 624,
      "##ase": 625,
      "##istan": 626,
      "putin": 627,
      "pu": 628,
      "foreign": 629,
      "##ects": 630,
      "about": 631,
      "britain": 632,
      "politic": 633,
      "sup": 634,
      "sources": 635,
      "healthcare": 636,
      "mexico": 637,
      "##qu": 638,
      "##ustr": 639,
      "ter": 640,
      "##ism": 641,
      "coal": 642,
      "coun": 643,
      "has": 644,
      "acc": 645,
      "ha": 646,
      "imm": 647,
      "char": 648,
      "seek": 649,
      "opposition": 650,
      "but": 651,
      "do": 652,
      "year": 653,
      "jer": 654,
      "former": 655,
      "##ives": 656,
      "austr": 657,
      "cor": 658,
      "##orts": 659,
      "budget": 660,
      "pan": 661,
      "would": 662,
      "##ret": 663,
      "two": 664,
      "##oy": 665,
      "##ther": 666,
      "##ech": 667,
      "could": 668,
      "fight": 669,
      "##ines": 670,
      "syrian": 671,
      "till": 672,
      "threat": 673,
      "##we": 674,
      "leg": 675,
      "discuss": 676,
      "imp": 677,
      "prop": 678,
      "##ments": 679,
      "visit": 680,
      "trav": 681,
      "##oss": 682,
      "##rael": 683,
      "israel": 684,
      "arres": 685,
      "grou": 686,
      "tillerson": 687,
      "##ean": 688,
      "##ern": 689,
      "germany": 690,
      "##ays": 691,
      "cris": 692,
      "travel": 693,
      "suprem": 694,
      "panel": 695,
      "##ists": 696,
      "press": 697,
      "first": 698,
      "under": 699,
      "supreme": 700,
      "comp": 701,
      "##ely": 702,
      "##act": 703,
      "crisis": 704,
      "##ational": 705,
      "ant": 706,
      "meeting": 707,
      "##att": 708,
      "rec": 709,
      "##istration": 710,
      "polic": 711,
      "his": 712,
      "##ense": 713,
      "##ands": 714,
      "##ows": 715,
      "admin": 716,
      "##clus": 717,
      "bid": 718,
      "rights": 719,
      "##ron": 720,
      "##pon": 721,
      "det": 722,
      "critic": 723,
      "immig": 724,
      "har": 725,
      "test": 726,
      "tell": 727,
      "france": 728,
      "gu": 729,
      "mon": 730,
      "hop": 731,
      "##itt": 732,
      "int": 733,
      "##rop": 734,
      "act": 735,
      "dead": 736,
      "mer": 737,
      "mac": 738,
      "##uge": 739,
      "##els": 740,
      "##ends": 741,
      "leaders": 742,
      "##clusive": 743,
      "##bi": 744,
      "##xt": 745,
      "chan": 746,
      "seeks": 747,
      "defense": 748,
      "media": 749,
      "administration": 750,
      "del": 751,
      "gen": 752,
      "pea": 753,
      "##ues": 754,
      "##acare": 755,
      "##oll": 756,
      "exclusive": 757,
      "speak": 758,
      "obamacare": 759,
      "em": 760,
      "hur": 761,
      "vi": 762,
      "we": 763,
      "##usal": 764,
      "peace": 765,
      "trans": 766,
      "officials": 767,
      "sign": 768,
      "##ime": 769,
      "secret": 770,
      "post": 771,
      "wants": 772,
      "##ose": 773,
      "##ru": 774,
      "##head": 775,
      "anti": 776,
      "##kel": 777,
      "bomb": 778,
      "##ipp": 779,
      "##air": 780,
      "support": 781,
      "near": 782,
      "jerusal": 783,
      "merkel": 784,
      "jerusalem": 785,
      "cit": 786,
      "fbi": 787,
      "##ild": 788,
      "##ims": 789,
      "strik": 790,
      "coalition": 791,
      "ahead": 792,
      "##ban": 793,
      "refuge": 794,
      "invest": 795,
      "per": 796,
      "high": 797,
      "sw": 798,
      "wee": 799,
      "##day": 800,
      "##io": 801,
      "##hing": 802,
      "##one": 803,
      "##ica": 804,
      "advis": 805,
      "head": 806,
      "##dog": 807,
      "report": 808,
      "push": 809,
      "clim": 810,
      "killed": 811,
      "judge": 812,
      "##ecut": 813,
      "catalan": 814,
      "tells": 815,
      "mill": 816,
      "##ails": 817,
      "ties": 818,
      "vo": 819,
      "kurd": 820,
      "pow": 821,
      "pass": 822,
      "set": 823,
      "##erto": 824,
      "conc": 825,
      "move": 826,
      "depart": 827,
      "rohing": 828,
      "puerto": 829,
      "##rican": 830,
      "next": 831,
      "arm": 832,
      "des": 833,
      "indep": 834,
      "help": 835,
      "rohingya": 836,
      "independ": 837,
      "te": 838,
      "rico": 839,
      "ass": 840,
      "reform": 841,
      "climate": 842,
      "lib": 843,
      "##ings": 844,
      "should": 845,
      "ev": 846,
      "##row": 847,
      "ext": 848,
      "##ected": 849,
      "phil": 850,
      "##ior": 851,
      "##ri": 852,
      "appro": 853,
      "##mbass": 854,
      "policy": 855,
      "run": 856,
      "##ory": 857,
      "##ise": 858,
      "##cess": 859,
      "##ipl": 860,
      "warns": 861,
      "wom": 862,
      "##00": 863,
      "general": 864,
      "amer": 865,
      "far": 866,
      "speaker": 867,
      "bus": 868,
      "##lia": 869,
      "democratic": 870,
      "##okes": 871,
      "parlia": 872,
      "philipp": 873,
      "parliament": 874,
      "leban": 875,
      "arrest": 876,
      "macron": 877,
      "secretary": 878,
      "##eland": 879,
      "immigration": 880,
      "den": 881,
      "##ang": 882,
      "##raft": 883,
      "iss": 884,
      "department": 885,
      "##iplom": 886,
      "diplom": 887,
      "national": 888,
      "##bs": 889,
      "##itter": 890,
      "##ises": 891,
      "##ision": 892,
      "env": 893,
      "mc": 894,
      "wat": 895,
      "##ative": 896,
      "##ease": 897,
      "austral": 898,
      "million": 899,
      "ru": 900,
      "##ests": 901,
      "##imb": 902,
      "debate": 903,
      "egy": 904,
      "ryan": 905,
      "into": 906,
      "rem": 907,
      "rules": 908,
      "egypt": 909,
      "bu": 910,
      "amid": 911,
      "case": 912,
      "pick": 913,
      "##nn": 914,
      "##ah": 915,
      "##ful": 916,
      "reb": 917,
      "afgh": 918,
      "attacks": 919,
      "turkish": 920,
      "senators": 921,
      "missile": 922,
      "cub": 923,
      "zimb": 924,
      "##akes": 925,
      "##abwe": 926,
      "week": 927,
      "independence": 928,
      "zimbabwe": 929,
      "key": 930,
      "sur": 931,
      "sch": 932,
      "tar": 933,
      "##ling": 934,
      "korean": 935,
      "##uel": 936,
      "##ption": 937,
      "rej": 938,
      "##eam": 939,
      "news": 940,
      "twitter": 941,
      "ruling": 942,
      "propos": 943,
      "cap": 944,
      "just": 945,
      "must": 946,
      "##ning": 947,
      "##uts": 948,
      "##raw": 949,
      "spe": 950,
      "resign": 951,
      "political": 952,
      "##ton": 953,
      "##ged": 954,
      "##les": 955,
      "##ork": 956,
      "##als": 957,
      "billion": 958,
      "army": 959,
      "afghan": 960,
      "cal": 961,
      "##ated": 962,
      "pros": 963,
      "right": 964,
      "some": 965,
      "contro": 966,
      "terr": 967,
      "sub": 968,
      "##aul": 969,
      "##ution": 970,
      "##fore": 971,
      "##hip": 972,
      "need": 973,
      "before": 974,
      "rule": 975,
      "down": 976,
      "##ikely": 977,
      "order": 978,
      "econ": 979,
      "race": 980,
      "sl": 981,
      "##iness": 982,
      "committ": 983,
      "retur": 984,
      "nominee": 985,
      "accus": 986,
      "desp": 987,
      "cand": 988,
      "##ich": 989,
      "##ally": 990,
      "have": 991,
      "econom": 992,
      "er": 993,
      "fed": 994,
      "spokes": 995,
      "bank": 996,
      "iraqi": 997,
      "kurdish": 998,
      "mig": 999,
      "pre": 1000,
      "so": 1001,
      "##ty": 1002,
      "##ting": 1003,
      "chair": 1004,
      "##ull": 1005,
      "candid": 1006,
      "##ix": 1007,
      "##ord": 1008,
      "agency": 1009,
      "##ible": 1010,
      "consid": 1011,
      "business": 1012,
      "eff": 1013,
      "##ets": 1014,
      "states": 1015,
      "cond": 1016,
      "plans": 1017,
      "group": 1018,
      "krem": 1019,
      "agree": 1020,
      "source": 1021,
      "viol": 1022,
      "kremlin": 1023,
      "don": 1024,
      "fe": 1025,
      "pak": 1026,
      "vene": 1027,
      "##zuel": 1028,
      "inf": 1029,
      "##ough": 1030,
      "##emen": 1031,
      "##uct": 1032,
      "investig": 1033,
      "venezuel": 1034,
      "cut": 1035,
      "take": 1036,
      "yemen": 1037,
      "##onia": 1038,
      "ins": 1039,
      "that": 1040,
      "pakistan": 1041,
      "bar": 1042,
      "rest": 1043,
      "##ders": 1044,
      "##ma": 1045,
      "##ians": 1046,
      "##allen": 1047,
      "conserv": 1048,
      "review": 1049,
      "pay": 1050,
      "xi": 1051,
      "##ner": 1052,
      "##eep": 1053,
      "power": 1054,
      "ara": 1055,
      "hack": 1056,
      "il": 1057,
      "na": 1058,
      "##land": 1059,
      "forces": 1060,
      "three": 1061,
      "face": 1062,
      "british": 1063,
      "ken": 1064,
      "read": 1065,
      "presid": 1066,
      "open": 1067,
      "##ruption": 1068,
      "adviser": 1069,
      "diplomat": 1070,
      "despite": 1071,
      "wash": 1072,
      "##uters": 1073,
      "##ier": 1074,
      "##par": 1075,
      "reuters": 1076,
      "challen": 1077,
      "##ains": 1078,
      "spain": 1079,
      "summ": 1080,
      "attorn": 1081,
      "appeal": 1082,
      "ukra": 1083,
      "attorney": 1084,
      "fire": 1085,
      "wall": 1086,
      "death": 1087,
      "##anders": 1088,
      "envoy": 1089,
      "presidency": 1090,
      "dir": 1091,
      "po": 1092,
      "##down": 1093,
      "##ying": 1094,
      "##ital": 1095,
      "tow": 1096,
      "inc": 1097,
      "##ach": 1098,
      "conv": 1099,
      "sees": 1100,
      "decision": 1101,
      "its": 1102,
      "ma": 1103,
      "mus": 1104,
      "lawy": 1105,
      "europ": 1106,
      "block": 1107,
      "lawmaker": 1108,
      "canad": 1109,
      "american": 1110,
      "lebanon": 1111,
      "terror": 1112,
      "##ned": 1113,
      "disp": 1114,
      "funding": 1115,
      "fo": 1116,
      "hold": 1117,
      "mal": 1118,
      "mos": 1119,
      "pop": 1120,
      "##ince": 1121,
      "##ones": 1122,
      "##ench": 1123,
      "##ington": 1124,
      "corruption": 1125,
      "legal": 1126,
      "washington": 1127,
      "aide": 1128,
      "pal": 1129,
      "sanders": 1130,
      "##gr": 1131,
      "refugees": 1132,
      "##ery": 1133,
      "##urs": 1134,
      "orders": 1135,
      "##easur": 1136,
      "##dogan": 1137,
      "erdogan": 1138,
      "gun": 1139,
      "##ugh": 1140,
      "one": 1141,
      "who": 1142,
      "mark": 1143,
      "catalonia": 1144,
      "ey": 1145,
      "##ink": 1146,
      "##acy": 1147,
      "##ole": 1148,
      "##unch": 1149,
      "hal": 1150,
      "nam": 1151,
      "soc": 1152,
      "french": 1153,
      "activ": 1154,
      "cuba": 1155,
      "bra": 1156,
      "col": 1157,
      "##rant": 1158,
      "2018": 1159,
      "arab": 1160,
      "ukraine": 1161,
      "ap": 1162,
      "four": 1163,
      "jail": 1164,
      "make": 1165,
      "oil": 1166,
      "was": 1167,
      "want": 1168,
      "york": 1169,
      "still": 1170,
      "##ending": 1171,
      "count": 1172,
      "hurrican": 1173,
      "women": 1174,
      "consider": 1175,
      "bro": 1176,
      "big": 1177,
      "backs": 1178,
      "id": 1179,
      "##go": 1180,
      "repeal": 1181,
      "justice": 1182,
      "spokesman": 1183,
      "bet": 1184,
      "pe": 1185,
      "poss": 1186,
      "##ional": 1187,
      "cla": 1188,
      "ques": 1189,
      "debt": 1190,
      "speech": 1191,
      "venezuela": 1192,
      "kills": 1193,
      "prosecut": 1194,
      "direct": 1195,
      "pence": 1196,
      "vict": 1197,
      "##ins": 1198,
      "##ating": 1199,
      "##uring": 1200,
      "hurricane": 1201,
      "likely": 1202,
      "##ious": 1203,
      "lab": 1204,
      "##ize": 1205,
      "hopes": 1206,
      "cou": 1207,
      "fly": 1208,
      "pen": 1209,
      "won": 1210,
      "##aff": 1211,
      "##yl": 1212,
      "##ese": 1213,
      "than": 1214,
      "spec": 1215,
      "##able": 1216,
      "change": 1217,
      "philippines": 1218,
      "calif": 1219,
      "sent": 1220,
      "##ert": 1221,
      "##ices": 1222,
      "##ical": 1223,
      "ital": 1224,
      "protest": 1225,
      "irma": 1226,
      "ready": 1227,
      "city": 1228,
      "hun": 1229,
      "lim": 1230,
      "vows": 1231,
      "launch": 1232,
      "alle": 1233,
      "ann": 1234,
      "##izes": 1235,
      "approves": 1236,
      "tv": 1237,
      "us": 1238,
      "##ention": 1239,
      "##tern": 1240,
      "##rants": 1241,
      "memb": 1242,
      "cru": 1243,
      "respon": 1244,
      "years": 1245,
      "californ": 1246,
      "cy": 1247,
      "gre": 1248,
      "lat": 1249,
      "sal": 1250,
      "##vers": 1251,
      "trial": 1252,
      "comey": 1253,
      "watch": 1254,
      "control": 1255,
      "get": 1256,
      "lif": 1257,
      "##nal": 1258,
      "##ied": 1259,
      "afr": 1260,
      "office": 1261,
      "charges": 1262,
      "rejects": 1263,
      "candidate": 1264,
      "canada": 1265,
      "palest": 1266,
      "braz": 1267,
      "possible": 1268,
      "california": 1269,
      "batt": 1270,
      "ear": 1271,
      "lond": 1272,
      "nat": 1273,
      "role": 1274,
      "##uch": 1275,
      "##ics": 1276,
      "##ents": 1277,
      "force": 1278,
      "asks": 1279,
      "##ult": 1280,
      "clos": 1281,
      "##eets": 1282,
      "##abe": 1283,
      "least": 1284,
      "pressure": 1285,
      "brazil": 1286,
      "london": 1287,
      "cam": 1288,
      "free": 1289,
      "ny": 1290,
      "time": 1291,
      "##ai": 1292,
      "##ual": 1293,
      "##lo": 1294,
      "##iger": 1295,
      "start": 1296,
      "strikes": 1297,
      "bel": 1298,
      "cur": 1299,
      "ed": 1300,
      "mid": 1301,
      "##ov": 1302,
      "##az": 1303,
      "##ger": 1304,
      "##wan": 1305,
      "requ": 1306,
      "##use": 1307,
      "action": 1308,
      "boost": 1309,
      "##agon": 1310,
      "peop": 1311,
      "pent": 1312,
      "serv": 1313,
      "##iwan": 1314,
      "##rist": 1315,
      "##line": 1316,
      "offer": 1317,
      "sho": 1318,
      "taiwan": 1319,
      "refer": 1320,
      "india": 1321,
      "does": 1322,
      "africa": 1323,
      "pentagon": 1324,
      "cent": 1325,
      "keep": 1326,
      "sk": 1327,
      "stop": 1328,
      "##ador": 1329,
      "##ension": 1330,
      "committee": 1331,
      "summit": 1332,
      "palestin": 1333,
      "niger": 1334,
      "christ": 1335,
      "##ender": 1336,
      "votes": 1337,
      "militants": 1338,
      "release": 1339,
      "wins": 1340,
      "lawyer": 1341,
      "cruz": 1342,
      "people": 1343,
      "jour": 1344,
      "ris": 1345,
      "##hu": 1346,
      "reports": 1347,
      "##imes": 1348,
      "hear": 1349,
      "laws": 1350,
      "urge": 1351,
      "hope": 1352,
      "concern": 1353,
      "maj": 1354,
      "nato": 1355,
      "civ": 1356,
      "doc": 1357,
      "net": 1358,
      "team": 1359,
      "trip": 1360,
      "asia": 1361,
      "defends": 1362,
      "ireland": 1363,
      "intell": 1364,
      "musl": 1365,
      "major": 1366,
      "civil": 1367,
      "div": 1368,
      "ep": 1369,
      "found": 1370,
      "ser": 1371,
      "##gl": 1372,
      "##icks": 1373,
      "##ros": 1374,
      "child": 1375,
      "##endum": 1376,
      "elect": 1377,
      "seen": 1378,
      "australia": 1379,
      "##gram": 1380,
      "special": 1381,
      "referendum": 1382,
      "ce": 1383,
      "takes": 1384,
      "##eat": 1385,
      "##way": 1386,
      "##oub": 1387,
      "##igence": 1388,
      "regul": 1389,
      "groups": 1390,
      "disput": 1391,
      "flynn": 1392,
      "journal": 1393,
      "intelligence": 1394,
      "east": 1395,
      "king": 1396,
      "mug": 1397,
      "pos": 1398,
      "##gent": 1399,
      "##got": 1400,
      "##ere": 1401,
      "##ints": 1402,
      "##ons": 1403,
      "##atives": 1404,
      "##isl": 1405,
      "##ility": 1406,
      "ste": 1407,
      "program": 1408,
      "show": 1409,
      "ener": 1410,
      "world": 1411,
      "drug": 1412,
      "##fta": 1413,
      "##inese": 1414,
      "return": 1415,
      "violence": 1416,
      "nafta": 1417,
      "arabia": 1418,
      "ambass": 1419,
      "eth": 1420,
      "fam": 1421,
      "##cow": 1422,
      "##ind": 1423,
      "tough": 1424,
      "chinese": 1425,
      "##ades": 1426,
      "what": 1427,
      "break": 1428,
      "mayor": 1429,
      "strong": 1430,
      "confir": 1431,
      "suspected": 1432,
      "strike": 1433,
      "capital": 1434,
      "moscow": 1435,
      "av": 1436,
      "clear": 1437,
      "embass": 1438,
      "fre": 1439,
      "long": 1440,
      "##gin": 1441,
      "##eration": 1442,
      "##eto": 1443,
      "##ify": 1444,
      "talk": 1445,
      "march": 1446,
      "flor": 1447,
      "voters": 1448,
      "cyber": 1449,
      "mugabe": 1450,
      "energy": 1451,
      "sess": 1452,
      "##ida": 1453,
      "star": 1454,
      "##oms": 1455,
      "northern": 1456,
      "statement": 1457,
      "backed": 1458,
      "denies": 1459,
      "battle": 1460,
      "florida": 1461,
      "du": 1462,
      "day": 1463,
      "graft": 1464,
      "last": 1465,
      "##ois": 1466,
      "##cent": 1467,
      "prov": 1468,
      "this": 1469,
      "senior": 1470,
      "resol": 1471,
      "final": 1472,
      "##linois": 1473,
      "email": 1474,
      "issues": 1475,
      "illinois": 1476,
      "coll": 1477,
      "##oop": 1478,
      "##ania": 1479,
      "any": 1480,
      "paris": 1481,
      "leave": 1482,
      "citiz": 1483,
      "passes": 1484,
      "tex": 1485,
      "announ": 1486,
      "embassy": 1487,
      "hu": 1488,
      "him": 1489,
      "how": 1490,
      "##te": 1491,
      "##uk": 1492,
      "##ker": 1493,
      "##ame": 1494,
      "##ember": 1495,
      "indones": 1496,
      "protests": 1497,
      "legisl": 1498,
      "target": 1499,
      "ambassador": 1500,
      "##port": 1501,
      "##iri": 1502,
      "withd": 1503,
      "##encies": 1504,
      "percent": 1505,
      "condem": 1506,
      "europe": 1507,
      "##goti": 1508,
      "during": 1509,
      "hand": 1510,
      "ria": 1511,
      "sold": 1512,
      "##ool": 1513,
      "##app": 1514,
      "##anish": 1515,
      "troop": 1516,
      "##each": 1517,
      "stay": 1518,
      "spending": 1519,
      "##iff": 1520,
      "mexican": 1521,
      "compl": 1522,
      "hariri": 1523,
      "insur": 1524,
      "social": 1525,
      "italy": 1526,
      "famil": 1527,
      "texas": 1528,
      "withdraw": 1529,
      "are": 1530,
      "cab": 1531,
      "cuts": 1532,
      "dam": 1533,
      "jun": 1534,
      "use": 1535,
      "##ren": 1536,
      "##co": 1537,
      "##wa": 1538,
      "treasur": 1539,
      "##iday": 1540,
      "close": 1541,
      "add": 1542,
      "faces": 1543,
      "members": 1544,
      "five": 1545,
      "glo": 1546,
      "ips": 1547,
      "main": 1548,
      "##ison": 1549,
      "##elf": 1550,
      "##idence": 1551,
      "prom": 1552,
      "repl": 1553,
      "clash": 1554,
      "arms": 1555,
      "jobs": 1556,
      "interv": 1557,
      "month": 1558,
      "pope": 1559,
      "director": 1560,
      "ipsos": 1561,
      "mn": 1562,
      "rally": 1563,
      "sm": 1564,
      "son": 1565,
      "wea": 1566,
      "##inet": 1567,
      "agencies": 1568,
      "beh": 1569,
      "sex": 1570,
      "joh": 1571,
      "delay": 1572,
      "school": 1573,
      "americans": 1574,
      "terrorism": 1575,
      "treasury": 1576,
      "eas": 1577,
      "fear": 1578,
      "gets": 1579,
      "matt": 1580,
      "other": 1581,
      "##ries": 1582,
      "##sc": 1583,
      "dev": 1584,
      "stud": 1585,
      "pled": 1586,
      "unit": 1587,
      "financ": 1588,
      "relations": 1589,
      "intern": 1590,
      "mcc": 1591,
      "afghanistan": 1592,
      "cabinet": 1593,
      "glob": 1594,
      "11": 1595,
      "home": 1596,
      "picks": 1597,
      "##bc": 1598,
      "##ection": 1599,
      "##uty": 1600,
      "##ocks": 1601,
      "shut": 1602,
      "finance": 1603,
      "irish": 1604,
      "detain": 1605,
      "weigh": 1606,
      "victory": 1607,
      "shoot": 1608,
      "docu": 1609,
      "cas": 1610,
      "canc": 1611,
      "mad": 1612,
      "rene": 1613,
      "veto": 1614,
      "##arch": 1615,
      "without": 1616,
      "ask": 1617,
      "execut": 1618,
      "##istry": 1619,
      "expects": 1620,
      "decl": 1621,
      "allow": 1622,
      "allies": 1623,
      "##conn": 1624,
      "kurds": 1625,
      "transition": 1626,
      "economy": 1627,
      "federal": 1628,
      "kenya": 1629,
      "mattis": 1630,
      "hit": 1631,
      "mur": 1632,
      "##eb": 1633,
      "##ood": 1634,
      "##nam": 1635,
      "##ike": 1636,
      "friday": 1637,
      "israeli": 1638,
      "arrested": 1639,
      "conservative": 1640,
      "challenge": 1641,
      "fut": 1642,
      "hol": 1643,
      "rub": 1644,
      "very": 1645,
      "##ving": 1646,
      "##orms": 1647,
      "##iles": 1648,
      "reach": 1649,
      "##omes": 1650,
      "overh": 1651,
      "offers": 1652,
      "shar": 1653,
      "argent": 1654,
      "unl": 1655,
      "protes": 1656,
      "emails": 1657,
      "signs": 1658,
      "economic": 1659,
      "chairman": 1660,
      "palestinian": 1661,
      "epa": 1662,
      "doub": 1663,
      "most": 1664,
      "mich": 1665,
      "sud": 1666,
      "way": 1667,
      "##ij": 1668,
      "resp": 1669,
      "ministry": 1670,
      "##bod": 1671,
      "congressional": 1672,
      "issue": 1673,
      "mcconn": 1674,
      "weapon": 1675,
      "overhaul": 1676,
      "mcconnell": 1677,
      "bal": 1678,
      "cle": 1679,
      "kn": 1680,
      "sol": 1681,
      "vir": 1682,
      "view": 1683,
      "##dle": 1684,
      "stand": 1685,
      "staff": 1686,
      "##etnam": 1687,
      "african": 1688,
      "voting": 1689,
      "elections": 1690,
      "build": 1691,
      "appeals": 1692,
      "market": 1693,
      "claims": 1694,
      "troops": 1695,
      "global": 1696,
      "fail": 1697,
      "mass": 1698,
      "pact": 1699,
      "red": 1700,
      "sea": 1701,
      "ve": 1702,
      "wel": 1703,
      "##oid": 1704,
      "##ires": 1705,
      "##ral": 1706,
      "##orate": 1707,
      "##orters": 1708,
      "##ures": 1709,
      "##olina": 1710,
      "##ama": 1711,
      "##ocus": 1712,
      "spy": 1713,
      "##ission": 1714,
      "deputy": 1715,
      "job": 1716,
      "carolina": 1717,
      "criticism": 1718,
      "vietnam": 1719,
      "refugee": 1720,
      "highl": 1721,
      "voter": 1722,
      "migrants": 1723,
      "soon": 1724,
      "eyes": 1725,
      "prosecutor": 1726,
      "response": 1727,
      "watchdog": 1728,
      "##ross": 1729,
      "mccain": 1730,
      "future": 1731,
      "protesters": 1732,
      "sudan": 1733,
      "000": 1734,
      "aim": 1735,
      "cnn": 1736,
      "gra": 1737,
      "grow": 1738,
      "host": 1739,
      "meets": 1740,
      "publ": 1741,
      "sit": 1742,
      "##rough": 1743,
      "##gender": 1744,
      "##ana": 1745,
      "##ald": 1746,
      "##ured": 1747,
      "##ivers": 1748,
      "##gets": 1749,
      "coop": 1750,
      "reforms": 1751,
      "parties": 1752,
      "transgender": 1753,
      "concer": 1754,
      "australian": 1755,
      "efforts": 1756,
      "questions": 1757,
      "labor": 1758,
      "cambod": 1759,
      "avoid": 1760,
      "rubio": 1761,
      "welc": 1762,
      "15": 1763,
      "draw": 1764,
      "emer": 1765,
      "tens": 1766,
      "zeal": 1767,
      "##tle": 1768,
      "##nes": 1769,
      "##red": 1770,
      "##ruct": 1771,
      "##ven": 1772,
      "##cil": 1773,
      "##porate": 1774,
      "##erry": 1775,
      "##atar": 1776,
      "##ities": 1777,
      "##ised": 1778,
      "##ott": 1779,
      "negoti": 1780,
      "##ift": 1781,
      "bangl": 1782,
      "priv": 1783,
      "drill": 1784,
      "commun": 1785,
      "releas": 1786,
      "corporate": 1787,
      "arrests": 1788,
      "libya": 1789,
      "jailed": 1790,
      "alleg": 1791,
      "##adesh": 1792,
      "sessions": 1793,
      "interview": 1794,
      "declar": 1795,
      "zealand": 1796,
      "bangladesh": 1797,
      "let": 1798,
      "link": 1799,
      "rom": 1800,
      "##umer": 1801,
      "##ph": 1802,
      "##ential": 1803,
      "##veil": 1804,
      "comments": 1805,
      "sept": 1806,
      "search": 1807,
      "saf": 1808,
      "join": 1809,
      "region": 1810,
      "compan": 1811,
      "conservatives": 1812,
      "coup": 1813,
      "latest": 1814,
      "freed": 1815,
      "human": 1816,
      "condemns": 1817,
      "highlights": 1818,
      "concerns": 1819,
      "10": 1820,
      "focus": 1821,
      "hits": 1822,
      "nav": 1823,
      "pot": 1824,
      "##aw": 1825,
      "##iving": 1826,
      "##aking": 1827,
      "unveil": 1828,
      "resc": 1829,
      "dism": 1830,
      "abe": 1831,
      "prince": 1832,
      "appo": 1833,
      "contin": 1834,
      "money": 1835,
      "philippine": 1836,
      "targets": 1837,
      "prepar": 1838,
      "hacking": 1839,
      "limit": 1840,
      "financial": 1841,
      "au": 1842,
      "bur": 1843,
      "now": 1844,
      "qatar": 1845,
      "sing": 1846,
      "##amp": 1847,
      "##ortion": 1848,
      "##itch": 1849,
      "##ides": 1850,
      "##cept": 1851,
      "thurs": 1852,
      "good": 1853,
      "cred": 1854,
      "brief": 1855,
      "access": 1856,
      "##nson": 1857,
      "militant": 1858,
      "prison": 1859,
      "bod": 1860,
      "commission": 1861,
      "term": 1862,
      "counter": 1863,
      "changes": 1864,
      "rebels": 1865,
      "names": 1866,
      "colomb": 1867,
      "johnson": 1868,
      "weapons": 1869,
      "thursday": 1870,
      "emb": 1871,
      "esc": 1872,
      "figh": 1873,
      "her": 1874,
      "hill": 1875,
      "low": 1876,
      "oc": 1877,
      "##iers": 1878,
      "##ank": 1879,
      "progress": 1880,
      "short": 1881,
      "##ife": 1882,
      "##ific": 1883,
      "mod": 1884,
      "donald": 1885,
      "early": 1886,
      "public": 1887,
      "tensions": 1888,
      "auth": 1889,
      "ow": 1890,
      "tech": 1891,
      "##iver": 1892,
      "##led": 1893,
      "##east": 1894,
      "##ided": 1895,
      "stre": 1896,
      "spanish": 1897,
      "##stem": 1898,
      "shows": 1899,
      "crack": 1900,
      "system": 1901,
      "##uck": 1902,
      "##book": 1903,
      "left": 1904,
      "expl": 1905,
      "confl": 1906,
      "suspect": 1907,
      "2016": 1908,
      "council": 1909,
      "surv": 1910,
      "request": 1911,
      "hearing": 1912,
      "concerned": 1913,
      "street": 1914,
      "due": 1915,
      "days": 1916,
      "fra": 1917,
      "fix": 1918,
      "oust": 1919,
      "pra": 1920,
      "som": 1921,
      "tues": 1922,
      "##ax": 1923,
      "##uation": 1924,
      "##lu": 1925,
      "##erence": 1926,
      "##anya": 1927,
      "##ences": 1928,
      "sets": 1929,
      "##ount": 1930,
      "options": 1931,
      "##ween": 1932,
      "woman": 1933,
      "investigation": 1934,
      "between": 1935,
      "netanya": 1936,
      "allegations": 1937,
      "author": 1938,
      "somal": 1939,
      "tuesday": 1940,
      "netanyahu": 1941,
      "give": 1942,
      "led": 1943,
      "list": 1944,
      "riv": 1945,
      "six": 1946,
      "wr": 1947,
      "##af": 1948,
      "##ble": 1949,
      "##loy": 1950,
      "tour": 1951,
      "##eaks": 1952,
      "##aces": 1953,
      "form": 1954,
      "##terte": 1955,
      "step": 1956,
      "cho": 1957,
      "##imin": 1958,
      "black": 1959,
      "##ika": 1960,
      "moves": 1961,
      "firm": 1962,
      "workers": 1963,
      "funds": 1964,
      "malays": 1965,
      "green": 1966,
      "dispute": 1967,
      "steps": 1968,
      "duterte": 1969,
      "soldiers": 1970,
      "12": 1971,
      "19": 1972,
      "bec": 1973,
      "cia": 1974,
      "fall": 1975,
      "ge": 1976,
      "gives": 1977,
      "zika": 1978,
      "##ved": 1979,
      "##ward": 1980,
      "##zb": 1981,
      "##isc": 1982,
      "train": 1983,
      "remar": 1984,
      "deep": 1985,
      "stance": 1986,
      "const": 1987,
      "##rad": 1988,
      "thous": 1989,
      "second": 1990,
      "indian": 1991,
      "exper": 1992,
      "##ogue": 1993,
      "find": 1994,
      "##ugg": 1995,
      "fuel": 1996,
      "look": 1997,
      "peru": 1998,
      "effort": 1999,
      "##uchin": 2000,
      "lawsu": 2001,
      "muslim": 2002,
      "mnuchin": 2003,
      "behind": 2004,
      "renew": 2005,
      "dismiss": 2006,
      "ball": 2007,
      "sn": 2008,
      "times": 2009,
      "vice": 2010,
      "west": 2011,
      "##eing": 2012,
      "##inks": 2013,
      "unt": 2014,
      "##uction": 2015,
      "iranian": 2016,
      "probes": 2017,
      "many": 2018,
      "raid": 2019,
      "deadly": 2020,
      "needs": 2021,
      "country": 2022,
      "broad": 2023,
      "middle": 2024,
      "risk": 2025,
      "citizens": 2026,
      "replace": 2027,
      "murder": 2028,
      "virgin": 2029,
      "geor": 2030,
      "thousands": 2031,
      "fle": 2032,
      "hom": 2033,
      "ic": 2034,
      "##eet": 2035,
      "##qq": 2036,
      "##und": 2037,
      "##uary": 2038,
      "##ric": 2039,
      "##gency": 2040,
      "##ont": 2041,
      "##eng": 2042,
      "##ising": 2043,
      "inj": 2044,
      "agre": 2045,
      "resum": 2046,
      "separ": 2047,
      "turn": 2048,
      "killing": 2049,
      "board": 2050,
      "migrant": 2051,
      "convention": 2052,
      "activist": 2053,
      "hopeful": 2054,
      "children": 2055,
      "confirms": 2056,
      "announce": 2057,
      "crackdown": 2058,
      "30": 2059,
      "cre": 2060,
      "cross": 2061,
      "dro": 2062,
      "gas": 2063,
      "hard": 2064,
      "##mo": 2065,
      "##eline": 2066,
      "only": 2067,
      "##thers": 2068,
      "##omber": 2069,
      "##sey": 2070,
      "asyl": 2071,
      "poland": 2072,
      "abortion": 2073,
      "blas": 2074,
      "##uma": 2075,
      "##ized": 2076,
      "contr": 2077,
      "missing": 2078,
      "frank": 2079,
      "suspends": 2080,
      "cites": 2081,
      "accuses": 2082,
      "considering": 2083,
      "nigeria": 2084,
      "executive": 2085,
      "colombia": 2086,
      "fraud": 2087,
      "asylum": 2088,
      "cz": 2089,
      "dial": 2090,
      "dang": 2091,
      "era": 2092,
      "hond": 2093,
      "##bb": 2094,
      "##ony": 2095,
      "##oral": 2096,
      "##olog": 2097,
      "prod": 2098,
      "coast": 2099,
      "tweet": 2100,
      "##lines": 2101,
      "road": 2102,
      "aides": 2103,
      "raqq": 2104,
      "charge": 2105,
      "threatens": 2106,
      "testify": 2107,
      "facebook": 2108,
      "fox": 2109,
      "activists": 2110,
      "question": 2111,
      "ceo": 2112,
      "family": 2113,
      "detained": 2114,
      "hillary": 2115,
      "hondur": 2116,
      "raqqa": 2117,
      "did": 2118,
      "est": 2119,
      "kerry": 2120,
      "line": 2121,
      "wa": 2122,
      "wed": 2123,
      "you": 2124,
      "zuma": 2125,
      "##ta": 2126,
      "##ness": 2127,
      "##dling": 2128,
      "##oric": 2129,
      "##orse": 2130,
      "##itution": 2131,
      "##isan": 2132,
      "##uses": 2133,
      "##ames": 2134,
      "through": 2135,
      "agend": 2136,
      "suc": 2137,
      "leads": 2138,
      "unity": 2139,
      "prime": 2140,
      "strate": 2141,
      "expand": 2142,
      "quits": 2143,
      "visa": 2144,
      "opens": 2145,
      "held": 2146,
      "assad": 2147,
      "diplomatic": 2148,
      "sale": 2149,
      "service": 2150,
      "christie": 2151,
      "journalist": 2152,
      "legislation": 2153,
      "shooting": 2154,
      "cooperation": 2155,
      "navy": 2156,
      "virginia": 2157,
      "agenda": 2158,
      "jr": 2159,
      "los": 2160,
      "made": 2161,
      "mond": 2162,
      "##ril": 2163,
      "##po": 2164,
      "##pr": 2165,
      "##ances": 2166,
      "##ata": 2167,
      "tol": 2168,
      "##ards": 2169,
      "thai": 2170,
      "aff": 2171,
      "ally": 2172,
      "univers": 2173,
      "commer": 2174,
      "##ators": 2175,
      "##nsel": 2176,
      "appear": 2177,
      "expected": 2178,
      "firms": 2179,
      "quit": 2180,
      "ends": 2181,
      "endors": 2182,
      "scand": 2183,
      "islamist": 2184,
      "airport": 2185,
      "manaf": 2186,
      "leaves": 2187,
      "nominate": 2188,
      "evac": 2189,
      "water": 2190,
      "controvers": 2191,
      "influ": 2192,
      "toward": 2193,
      "april": 2194,
      "counsel": 2195,
      "hung": 2196,
      "launches": 2197,
      "cambodia": 2198,
      "experts": 2199,
      "dialogue": 2200,
      "danger": 2201,
      "monday": 2202,
      "manafort": 2203,
      "bas": 2204,
      "jan": 2205,
      "makes": 2206,
      "pac": 2207,
      "slam": 2208,
      "##eg": 2209,
      "##ae": 2210,
      "##ging": 2211,
      "##ota": 2212,
      "they": 2213,
      "unc": 2214,
      "deals": 2215,
      "uph": 2216,
      "endorse": 2217,
      "looms": 2218,
      "charged": 2219,
      "seeking": 2220,
      "jersey": 2221,
      "policies": 2222,
      "libyan": 2223,
      "proposes": 2224,
      "points": 2225,
      "european": 2226,
      "central": 2227,
      "ethics": 2228,
      "address": 2229,
      "pledges": 2230,
      "documents": 2231,
      "emergency": 2232,
      "potential": 2233,
      "conflict": 2234,
      "lawsuit": 2235,
      "until": 2236,
      "draft": 2237,
      "diff": 2238,
      "emp": 2239,
      "ham": 2240,
      "measur": 2241,
      "wound": 2242,
      "##iel": 2243,
      "##ium": 2244,
      "process": 2245,
      "##ula": 2246,
      "sug": 2247,
      "beij": 2248,
      "blast": 2249,
      "##ago": 2250,
      "oper": 2251,
      "supporters": 2252,
      "raise": 2253,
      "hurt": 2254,
      "swiss": 2255,
      "temp": 2256,
      "america": 2257,
      "proposal": 2258,
      "feb": 2259,
      "town": 2260,
      "indonesia": 2261,
      "united": 2262,
      "international": 2263,
      "companies": 2264,
      "blasts": 2265,
      "czech": 2266,
      "beijing": 2267,
      "base": 2268,
      "dist": 2269,
      "fur": 2270,
      "fav": 2271,
      "full": 2272,
      "hos": 2273,
      "od": 2274,
      "others": 2275,
      "##over": 2276,
      "##atter": 2277,
      "##ites": 2278,
      "told": 2279,
      "treat": 2280,
      "##eau": 2281,
      "dept": 2282,
      "##aster": 2283,
      "play": 2284,
      "##ustry": 2285,
      "##apore": 2286,
      "taxes": 2287,
      "industry": 2288,
      "quick": 2289,
      "visits": 2290,
      "protect": 2291,
      "interest": 2292,
      "working": 2293,
      "puts": 2294,
      "threats": 2295,
      "biden": 2296,
      "resigns": 2297,
      "committed": 2298,
      "returns": 2299,
      "kenyan": 2300,
      "incr": 2301,
      "shutdown": 2302,
      "singapore": 2303,
      "remarks": 2304,
      "measures": 2305,
      "25": 2306,
      "land": 2307,
      "mu": 2308,
      "port": 2309,
      "rate": 2310,
      "tight": 2311,
      "yet": 2312,
      "##oks": 2313,
      "##ages": 2314,
      "##read": 2315,
      "##cker": 2316,
      "##estern": 2317,
      "##orce": 2318,
      "##rov": 2319,
      "##acts": 2320,
      "##igan": 2321,
      "##resent": 2322,
      "##leg": 2323,
      "##iance": 2324,
      "lav": 2325,
      "being": 2326,
      "union": 2327,
      "seven": 2328,
      "price": 2329,
      "##ogn": 2330,
      "##oke": 2331,
      "dream": 2332,
      "scal": 2333,
      "2017": 2334,
      "politics": 2335,
      "austria": 2336,
      "lebanese": 2337,
      "remains": 2338,
      "popul": 2339,
      "electoral": 2340,
      "eastern": 2341,
      "draws": 2342,
      "ousted": 2343,
      "success": 2344,
      "university": 2345,
      "commerce": 2346,
      "scandal": 2347,
      "18": 2348,
      "ber": 2349,
      "crow": 2350,
      "data": 2351,
      "gm": 2352,
      "gul": 2353,
      "great": 2354,
      "hot": 2355,
      "hist": 2356,
      "kir": 2357,
      "men": 2358,
      "overs": 2359,
      "pull": 2360,
      "vide": 2361,
      "##emp": 2362,
      "##aug": 2363,
      "##sh": 2364,
      "##son": 2365,
      "##ering": 2366,
      "##arm": 2367,
      "##ici": 2368,
      "##icts": 2369,
      "##icago": 2370,
      "inaug": 2371,
      "##iling": 2372,
      "stat": 2373,
      "##oman": 2374,
      "chicago": 2375,
      "proj": 2376,
      "represent": 2377,
      "exit": 2378,
      "##idents": 2379,
      "alab": 2380,
      "ano": 2381,
      "ang": 2382,
      "planned": 2383,
      "##ensive": 2384,
      "blocks": 2385,
      "strugg": 2386,
      "quake": 2387,
      "meddling": 2388,
      "interf": 2389,
      "##clud": 2390,
      "fri": 2391,
      "confident": 2392,
      "opposes": 2393,
      "polls": 2394,
      "nomination": 2395,
      "raises": 2396,
      "austrian": 2397,
      "fighting": 2398,
      "recogn": 2399,
      "##ollah": 2400,
      "heads": 2401,
      "settle": 2402,
      "speed": 2403,
      "challenges": 2404,
      "nyt": 2405,
      "center": 2406,
      "juncker": 2407,
      "promises": 2408,
      "argentina": 2409,
      "michigan": 2410,
      "welcomes": 2411,
      "credit": 2412,
      "fighters": 2413,
      "dismisses": 2414,
      "drops": 2415,
      "lavrov": 2416,
      "inaugur": 2417,
      "alabama": 2418,
      "17": 2419,
      "14": 2420,
      "aut": 2421,
      "cast": 2422,
      "dest": 2423,
      "pension": 2424,
      "row": 2425,
      "tpp": 2426,
      "##ney": 2427,
      "##uro": 2428,
      "##ys": 2429,
      "##ening": 2430,
      "##itor": 2431,
      "##eck": 2432,
      "##ety": 2433,
      "congo": 2434,
      "thir": 2435,
      "asse": 2436,
      "sue": 2437,
      "hezb": 2438,
      "crimes": 2439,
      "demands": 2440,
      "diss": 2441,
      "abuse": 2442,
      "##ibility": 2443,
      "ent": 2444,
      "december": 2445,
      "lobb": 2446,
      "among": 2447,
      "regional": 2448,
      "criticizes": 2449,
      "remain": 2450,
      "resignation": 2451,
      "illeg": 2452,
      "belg": 2453,
      "curb": 2454,
      "muslims": 2455,
      "insurance": 2456,
      "months": 2457,
      "linked": 2458,
      "september": 2459,
      "kirk": 2460,
      "hezbollah": 2461,
      "13": 2462,
      "boss": 2463,
      "hour": 2464,
      "nine": 2465,
      "oh": 2466,
      "pat": 2467,
      "rap": 2468,
      "since": 2469,
      "val": 2470,
      "##oo": 2471,
      "##ners": 2472,
      "##rid": 2473,
      "##fire": 2474,
      "##ani": 2475,
      "##itive": 2476,
      "station": 2477,
      "chem": 2478,
      "##imony": 2479,
      "spd": 2480,
      "spl": 2481,
      "euro": 2482,
      "##umb": 2483,
      "##ounts": 2484,
      "congressman": 2485,
      "##ization": 2486,
      "firing": 2487,
      "consumer": 2488,
      "flights": 2489,
      "worker": 2490,
      "##quir": 2491,
      "propose": 2492,
      "intel": 2493,
      "kurdistan": 2494,
      "evidence": 2495,
      "extrem": 2496,
      "proposed": 2497,
      "submar": 2498,
      "better": 2499,
      "respons": 2500,
      "educ": 2501,
      "relationship": 2502,
      "unlikely": 2503,
      "##nesday": 2504,
      "continue": 2505,
      "body": 2506,
      "choice": 2507,
      "homeland": 2508,
      "wednesday": 2509,
      "toll": 2510,
      "endorses": 2511,
      "hosp": 2512,
      "aims": 2513,
      "away": 2514,
      "bene": 2515,
      "eight": 2516,
      "fd": 2517,
      "fires": 2518,
      "gold": 2519,
      "met": 2520,
      "mess": 2521,
      "nations": 2522,
      "pap": 2523,
      "pip": 2524,
      "past": 2525,
      "person": 2526,
      "path": 2527,
      "tun": 2528,
      "tests": 2529,
      "ug": 2530,
      "vp": 2531,
      "western": 2532,
      "##que": 2533,
      "##iation": 2534,
      "##gest": 2535,
      "##val": 2536,
      "##vania": 2537,
      "##ced": 2538,
      "##men": 2539,
      "##mal": 2540,
      "##ats": 2541,
      "try": 2542,
      "##room": 2543,
      "##elop": 2544,
      "storm": 2545,
      "##anda": 2546,
      "##ander": 2547,
      "##str": 2548,
      "plot": 2549,
      "##nsyl": 2550,
      "defend": 2551,
      "proble": 2552,
      "interior": 2553,
      "missiles": 2554,
      "looks": 2555,
      "retire": 2556,
      "testimony": 2557,
      "delays": 2558,
      "postpon": 2559,
      "cities": 2560,
      "assaul": 2561,
      "liber": 2562,
      "needed": 2563,
      "accused": 2564,
      "agreement": 2565,
      "diplomats": 2566,
      "half": 2567,
      "pennsyl": 2568,
      "##ertain": 2569,
      "alleged": 2570,
      "life": 2571,
      "journalists": 2572,
      "position": 2573,
      "confirm": 2574,
      "withdrawal": 2575,
      "agrees": 2576,
      "resume": 2577,
      "separat": 2578,
      "strategy": 2579,
      "pacific": 2580,
      "another": 2581,
      "kirkuk": 2582,
      "chemical": 2583,
      "benef": 2584,
      "pennsylvania": 2585,
      "100": 2586,
      "bip": 2587,
      "bath": 2588,
      "cust": 2589,
      "dies": 2590,
      "fal": 2591,
      "kid": 2592,
      "kim": 2593,
      "kush": 2594,
      "loc": 2595,
      "outs": 2596,
      "pack": 2597,
      "weak": 2598,
      "wife": 2599,
      "##ew": 2600,
      "##oon": 2601,
      "##aire": 2602,
      "##uce": 2603,
      "##woman": 2604,
      "inquir": 2605,
      "rece": 2606,
      "##asc": 2607,
      "##osts": 2608,
      "within": 2609,
      "##uly": 2610,
      "send": 2611,
      "shot": 2612,
      "##artisan": 2613,
      "been": 2614,
      "crimin": 2615,
      "accept": 2616,
      "##eller": 2617,
      "moon": 2618,
      "moore": 2619,
      "decide": 2620,
      "relig": 2621,
      "relief": 2622,
      "discussed": 2623,
      "deadline": 2624,
      "running": 2625,
      "inform": 2626,
      "halt": 2627,
      "prosecutors": 2628,
      "##insula": 2629,
      "peninsula": 2630,
      "##wait": 2631,
      "develop": 2632,
      "weighs": 2633,
      "holds": 2634,
      "respond": 2635,
      "situation": 2636,
      "escal": 2637,
      "somalia": 2638,
      "hungary": 2639,
      "gmt": 2640,
      "ohio": 2641,
      "education": 2642,
      "bipartisan": 2643,
      "kushner": 2644,
      "ba": 2645,
      "bush": 2646,
      "cost": 2647,
      "gree": 2648,
      "gaz": 2649,
      "had": 2650,
      "leak": 2651,
      "links": 2652,
      "making": 2653,
      "purs": 2654,
      "rock": 2655,
      "tim": 2656,
      "tack": 2657,
      "well": 2658,
      "zor": 2659,
      "##mas": 2660,
      "##atch": 2661,
      "too": 2662,
      "trad": 2663,
      "##ilty": 2664,
      "##ias": 2665,
      "deir": 2666,
      "thail": 2667,
      "begin": 2668,
      "brid": 2669,
      "ads": 2670,
      "come": 2671,
      "comment": 2672,
      "fired": 2673,
      "finds": 2674,
      "scra": 2675,
      "cann": 2676,
      "impact": 2677,
      "presses": 2678,
      "record": 2679,
      "guilty": 2680,
      "leadership": 2681,
      "deliver": 2682,
      "nears": 2683,
      "reject": 2684,
      "billionaire": 2685,
      "subpo": 2686,
      "sentences": 2687,
      "camer": 2688,
      "civilians": 2689,
      "starts": 2690,
      "resolution": 2691,
      "indonesian": 2692,
      "##ructure": 2693,
      "appoint": 2694,
      "praises": 2695,
      "constitution": 2696,
      "##ength": 2697,
      "injured": 2698,
      "influence": 2699,
      "dangerous": 2700,
      "inauguration": 2701,
      "illegal": 2702,
      "pipeline": 2703,
      "criminal": 2704,
      "thailand": 2705,
      "subpoen": 2706,
      "cel": 2707,
      "hav": 2708,
      "kas": 2709,
      "mart": 2710,
      "mull": 2711,
      "pur": 2712,
      "self": 2713,
      "tel": 2714,
      "##ev": 2715,
      "##racy": 2716,
      "##work": 2717,
      "##lib": 2718,
      "##20": 2719,
      "##ona": 2720,
      "trib": 2721,
      "##icide": 2722,
      "includ": 2723,
      "trud": 2724,
      "stage": 2725,
      "##oming": 2726,
      "##resh": 2727,
      "##rain": 2728,
      "clar": 2729,
      "spar": 2730,
      "##istic": 2731,
      "whe": 2732,
      "crash": 2733,
      "around": 2734,
      "anc": 2735,
      "##ified": 2736,
      "discl": 2737,
      "attend": 2738,
      "##assment": 2739,
      "russians": 2740,
      "sanct": 2741,
      "driving": 2742,
      "protection": 2743,
      "scar": 2744,
      "alliance": 2745,
      "supports": 2746,
      "details": 2747,
      "detains": 2748,
      "wealth": 2749,
      "bombers": 2750,
      "weeks": 2751,
      "pushes": 2752,
      "diplomacy": 2753,
      "remov": 2754,
      "egyptian": 2755,
      "rebel": 2756,
      "infr": 2757,
      "apolog": 2758,
      "countries": 2759,
      "idlib": 2760,
      "maduro": 2761,
      "communic": 2762,
      "explos": 2763,
      "malaysia": 2764,
      "georg": 2765,
      "slams": 2766,
      "##ield": 2767,
      "mueller": 2768,
      "submarine": 2769,
      "inquiry": 2770,
      "gaza": 2771,
      "cease": 2772,
      "dod": 2773,
      "drop": 2774,
      "fresh": 2775,
      "gains": 2776,
      "jord": 2777,
      "ky": 2778,
      "pun": 2779,
      "rh": 2780,
      "same": 2781,
      "tear": 2782,
      "vol": 2783,
      "ws": 2784,
      "##ept": 2785,
      "##nbc": 2786,
      "##ience": 2787,
      "##ky": 2788,
      "##ange": 2789,
      "##onment": 2790,
      "##usion": 2791,
      "forward": 2792,
      "chance": 2793,
      "chile": 2794,
      "##nday": 2795,
      "prof": 2796,
      "##ironment": 2797,
      "shift": 2798,
      "suicide": 2799,
      "sunday": 2800,
      "bills": 2801,
      "bring": 2802,
      "cover": 2803,
      "democracy": 2804,
      "blow": 2805,
      "enough": 2806,
      "##astructure": 2807,
      "strength": 2808,
      "backing": 2809,
      "joint": 2810,
      "politico": 2811,
      "critical": 2812,
      "swed": 2813,
      "environment": 2814,
      "payments": 2815,
      "lawyers": 2816,
      "claim": 2817,
      "used": 2818,
      "services": 2819,
      "complet": 2820,
      "madrid": 2821,
      "drills": 2822,
      "releases": 2823,
      "released": 2824,
      "dreamers": 2825,
      "bathroom": 2826,
      "celeb": 2827,
      "trudeau": 2828,
      "infrastructure": 2829,
      "jordan": 2830,
      "wsj": 2831,
      "24": 2832,
      "aud": 2833,
      "aug": 2834,
      "fill": 2835,
      "hong": 2836,
      "july": 2837,
      "kong": 2838,
      "lar": 2839,
      "ok": 2840,
      "rises": 2841,
      "tem": 2842,
      "##nic": 2843,
      "##dad": 2844,
      "##ria": 2845,
      "##gan": 2846,
      "##ham": 2847,
      "##had": 2848,
      "##ko": 2849,
      "##icit": 2850,
      "##ury": 2851,
      "##aint": 2852,
      "##ults": 2853,
      "##akh": 2854,
      "ship": 2855,
      "##enders": 2856,
      "plead": 2857,
      "arr": 2858,
      "alarm": 2859,
      "##ability": 2860,
      "demand": 2861,
      "attemp": 2862,
      "prim": 2863,
      "##ghdad": 2864,
      "tweets": 2865,
      "##izing": 2866,
      "boat": 2867,
      "##ansas": 2868,
      "##ager": 2869,
      "drive": 2870,
      "drone": 2871,
      "commit": 2872,
      "medica": 2873,
      "front": 2874,
      "confidence": 2875,
      "conference": 2876,
      "judges": 2877,
      "japanese": 2878,
      "##ather": 2879,
      "import": 2880,
      "detention": 2881,
      "signals": 2882,
      "##rupt": 2883,
      "nearly": 2884,
      "extend": 2885,
      "cuban": 2886,
      "prev": 2887,
      "candidates": 2888,
      "eye": 2889,
      "limits": 2890,
      "christmas": 2891,
      "risks": 2892,
      "majority": 2893,
      "regulator": 2894,
      "collap": 2895,
      "citizen": 2896,
      "small": 2897,
      "cases": 2898,
      "unveils": 2899,
      "##anka": 2900,
      "##iscal": 2901,
      "wounded": 2902,
      "favor": 2903,
      "gulf": 2904,
      "video": 2905,
      "split": 2906,
      "hospital": 2907,
      "retirement": 2908,
      "assault": 2909,
      "local": 2910,
      "outside": 2911,
      "baghdad": 2912,
      "bridge": 2913,
      "sanctuary": 2914,
      "temer": 2915,
      "medicaid": 2916,
      "22": 2917,
      "21": 2918,
      "bol": 2919,
      "late": 2920,
      "light": 2921,
      "rad": 2922,
      "roll": 2923,
      "rise": 2924,
      "sil": 2925,
      "vat": 2926,
      "youn": 2927,
      "##ties": 2928,
      "##ots": 2929,
      "##nel": 2930,
      "##up": 2931,
      "##yal": 2932,
      "##vey": 2933,
      "##cc": 2934,
      "##ck": 2935,
      "##can": 2936,
      "##craft": 2937,
      "##erate": 2938,
      "##ality": 2939,
      "##arian": 2940,
      "##icop": 2941,
      "##ily": 2942,
      "reop": 2943,
      "##action": 2944,
      "##ece": 2945,
      "##rets": 2946,
      "##lement": 2947,
      "##ired": 2948,
      "polish": 2949,
      "##ches": 2950,
      "obs": 2951,
      "leading": 2952,
      "actions": 2953,
      "courts": 2954,
      "adm": 2955,
      "their": 2956,
      "enf": 2957,
      "eng": 2958,
      "enc": 2959,
      "ministers": 2960,
      "expect": 2961,
      "boy": 2962,
      "oppose": 2963,
      "ground": 2964,
      "commander": 2965,
      "deport": 2966,
      "deploy": 2967,
      "aircraft": 2968,
      "phone": 2969,
      "suspects": 2970,
      "helicop": 2971,
      "ifax": 2972,
      "haw": 2973,
      "seekers": 2974,
      "impro": 2975,
      "harassment": 2976,
      "guard": 2977,
      "bombing": 2978,
      "extends": 2979,
      "accusations": 2980,
      "banking": 2981,
      "pakistani": 2982,
      "incident": 2983,
      "food": 2984,
      "name": 2985,
      "sentence": 2986,
      "edt": 2987,
      "serious": 2988,
      "clears": 2989,
      "resolve": 2990,
      "families": 2991,
      "clashes": 2992,
      "study": 2993,
      "internet": 2994,
      "argentine": 2995,
      "growth": 2996,
      "declares": 2997,
      "romney": 2998,
      "freedom": 2999,
      "own": 3000,
      "uncertain": 3001,
      "further": 3002,
      "kidn": 3003,
      "information": 3004,
      "cannot": 3005,
      "whether": 3006,
      "vatican": 3007,
      "young": 3008,
      "bad": 3009,
      "bul": 3010,
      "cash": 3011,
      "dut": 3012,
      "fiscal": 3013,
      "gay": 3014,
      "iv": 3015,
      "ku": 3016,
      "mom": 3017,
      "paul": 3018,
      "tus": 3019,
      "vill": 3020,
      "##ez": 3021,
      "##een": 3022,
      "##he": 3023,
      "##lands": 3024,
      "##pap": 3025,
      "##isions": 3026,
      "trying": 3027,
      "##iled": 3028,
      "##uster": 3029,
      "online": 3030,
      "stall": 3031,
      "##etoric": 3032,
      "cong": 3033,
      "think": 3034,
      "she": 3035,
      "crime": 3036,
      "coh": 3037,
      "##ifies": 3038,
      "abd": 3039,
      "planning": 3040,
      "warning": 3041,
      "moving": 3042,
      "mission": 3043,
      "revamp": 3044,
      "judicial": 3045,
      "doz": 3046,
      "immigrant": 3047,
      "harvey": 3048,
      "##ropri": 3049,
      "##rows": 3050,
      "##ried": 3051,
      "newspap": 3052,
      "spokeswoman": 3053,
      "##ought": 3054,
      "brother": 3055,
      "lift": 3056,
      "closer": 3057,
      "curr": 3058,
      "skept": 3059,
      "##apped": 3060,
      "fears": 3061,
      "document": 3062,
      "doubt": 3063,
      "solution": 3064,
      "private": 3065,
      "rival": 3066,
      "announcement": 3067,
      "increase": 3068,
      "third": 3069,
      "package": 3070,
      "ceasefire": 3071,
      "rhetoric": 3072,
      "attempt": 3073,
      "primary": 3074,
      "tusk": 3075,
      "bab": 3076,
      "fake": 3077,
      "foll": 3078,
      "mis": 3079,
      "mand": 3080,
      "meas": 3081,
      "nbc": 3082,
      "old": 3083,
      "opt": 3084,
      "pa": 3085,
      "pet": 3086,
      "ross": 3087,
      "sat": 3088,
      "uae": 3089,
      "##oomber": 3090,
      "##non": 3091,
      "##hc": 3092,
      "##ming": 3093,
      "##ze": 3094,
      "##anam": 3095,
      "##ara": 3096,
      "##icer": 3097,
      "inst": 3098,
      "##used": 3099,
      "##olds": 3100,
      "##iven": 3101,
      "##ussels": 3102,
      "class": 3103,
      "sends": 3104,
      "##eeps": 3105,
      "taps": 3106,
      "##vemb": 3107,
      "brussels": 3108,
      "##resses": 3109,
      "bannon": 3110,
      "warn": 3111,
      "defeat": 3112,
      "bloomber": 3113,
      "pred": 3114,
      "novemb": 3115,
      "southern": 3116,
      "save": 3117,
      "orland": 3118,
      "grand": 3119,
      "##antanam": 3120,
      "visas": 3121,
      "marria": 3122,
      "saudis": 3123,
      "scr": 3124,
      "flint": 3125,
      "flag": 3126,
      "unders": 3127,
      "judici": 3128,
      "super": 3129,
      "accord": 3130,
      "happ": 3131,
      "door": 3132,
      "guantanam": 3133,
      "peaceful": 3134,
      "investment": 3135,
      "event": 3136,
      "remo": 3137,
      "rebuk": 3138,
      "proposals": 3139,
      "prosp": 3140,
      "convoy": 3141,
      "sentenc": 3142,
      "italian": 3143,
      "member": 3144,
      "belie": 3145,
      "palestinians": 3146,
      "divided": 3147,
      "announces": 3148,
      "pledge": 3149,
      "vetoes": 3150,
      "asked": 3151,
      "veter": 3152,
      "declaration": 3153,
      "letter": 3154,
      "safe": 3155,
      "rescue": 3156,
      "appoints": 3157,
      "modi": 3158,
      "rivals": 3159,
      "controversial": 3160,
      "tempor": 3161,
      "kuwait": 3162,
      "measure": 3163,
      "bloomberg": 3164,
      "november": 3165,
      "orlando": 3166,
      "marriage": 3167,
      "judiciary": 3168,
      "guantanamo": 3169,
      "400": 3170,
      "50": 3171,
      "bail": 3172,
      "equ": 3173,
      "fair": 3174,
      "fails": 3175,
      "fcc": 3176,
      "gors": 3177,
      "hands": 3178,
      "im": 3179,
      "kansas": 3180,
      "mag": 3181,
      "pel": 3182,
      "prem": 3183,
      "round": 3184,
      "sis": 3185,
      "wid": 3186,
      "##ees": 3187,
      "##iate": 3188,
      "##band": 3189,
      "##pts": 3190,
      "##erve": 3191,
      "##iting": 3192,
      "track": 3193,
      "##ilat": 3194,
      "##osi": 3195,
      "##osed": 3196,
      "there": 3197,
      "houth": 3198,
      "why": 3199,
      "when": 3200,
      "memo": 3201,
      "sues": 3202,
      "gov": 3203,
      "results": 3204,
      "##ucc": 3205,
      "##ips": 3206,
      "minim": 3207,
      "facing": 3208,
      "turns": 3209,
      "##ratul": 3210,
      "talib": 3211,
      "prior": 3212,
      "southeast": 3213,
      "declines": 3214,
      "contenders": 3215,
      "ending": 3216,
      "200": 3217,
      "##cons": 3218,
      "suspend": 3219,
      "terms": 3220,
      "rebu": 3221,
      "migration": 3222,
      "considers": 3223,
      "condition": 3224,
      "conduct": 3225,
      "summons": 3226,
      "labour": 3227,
      "sales": 3228,
      "foundation": 3229,
      "serb": 3230,
      "drugs": 3231,
      "damasc": 3232,
      "delayed": 3233,
      "cancel": 3234,
      "cancels": 3235,
      "safety": 3236,
      "oct": 3237,
      "contract": 3238,
      "loses": 3239,
      "evacu": 3240,
      "sugges": 3241,
      "oversight": 3242,
      "status": 3243,
      "friend": 3244,
      "lobby": 3245,
      "hours": 3246,
      "message": 3247,
      "religious": 3248,
      "cameroon": 3249,
      "pleads": 3250,
      "enforce": 3251,
      "congratul": 3252,
      "newspaper": 3253,
      "gorsuch": 3254,
      "pelosi": 3255,
      "sisi": 3256,
      "taliban": 3257,
      "damascus": 3258,
      "16": 3259,
      "28": 3260,
      "23": 3261,
      "care": 3262,
      "costs": 3263,
      "der": 3264,
      "doss": 3265,
      "ens": 3266,
      "hike": 3267,
      "keeps": 3268,
      "less": 3269,
      "mun": 3270,
      "non": 3271,
      "nar": 3272,
      "ty": 3273,
      "tension": 3274,
      "vac": 3275,
      "vow": 3276,
      "##off": 3277,
      "##ihad": 3278,
      "##gn": 3279,
      "##hood": 3280,
      "##back": 3281,
      "##erc": 3282,
      "##ored": 3283,
      "##iti": 3284,
      "##iter": 3285,
      "##itness": 3286,
      "traff": 3287,
      "##rod": 3288,
      "##aced": 3289,
      "##illance": 3290,
      "aggress": 3291,
      "shi": 3292,
      "beg": 3293,
      "##unity": 3294,
      "##veillance": 3295,
      "brib": 3296,
      "areas": 3297,
      "adds": 3298,
      "abs": 3299,
      "abb": 3300,
      "banks": 3301,
      "plane": 3302,
      "deficit": 3303,
      "##tober": 3304,
      "contacts": 3305,
      "maria": 3306,
      "scott": 3307,
      "lose": 3308,
      "##icted": 3309,
      "corker": 3310,
      "implement": 3311,
      "powers": 3312,
      "independent": 3313,
      "approval": 3314,
      "denoun": 3315,
      "surveillance": 3316,
      "few": 3317,
      "hacked": 3318,
      "naz": 3319,
      "mosque": 3320,
      "victims": 3321,
      "greece": 3322,
      "earth": 3323,
      "ceiling": 3324,
      "regulations": 3325,
      "ethnic": 3326,
      "june": 3327,
      "promot": 3328,
      "sexual": 3329,
      "schools": 3330,
      "doubts": 3331,
      "bali": 3332,
      "know": 3333,
      "building": 3334,
      "aimed": 3335,
      "lower": 3336,
      "honduran": 3337,
      "honduras": 3338,
      "tunis": 3339,
      "greek": 3340,
      "apologizes": 3341,
      "georgia": 3342,
      "dodd": 3343,
      "dutch": 3344,
      "dossier": 3345,
      "ben": 3346,
      "bomber": 3347,
      "cro": 3348,
      "dom": 3349,
      "dav": 3350,
      "gar": 3351,
      "hims": 3352,
      "jails": 3353,
      "lock": 3354,
      "misc": 3355,
      "nz": 3356,
      "ri": 3357,
      "ram": 3358,
      "site": 3359,
      "sell": 3360,
      "sides": 3361,
      "tort": 3362,
      "taking": 3363,
      "were": 3364,
      "##tain": 3365,
      "##nest": 3366,
      "##aed": 3367,
      "##ued": 3368,
      "##ient": 3369,
      "##sa": 3370,
      "##sw": 3371,
      "##sing": 3372,
      "##hic": 3373,
      "##ler": 3374,
      "##less": 3375,
      "##zy": 3376,
      "##ords": 3377,
      "stick": 3378,
      "stock": 3379,
      "##olf": 3380,
      "##ask": 3381,
      "##ceed": 3382,
      "##ley": 3383,
      "##pped": 3384,
      "##ulate": 3385,
      "spying": 3386,
      "spread": 3387,
      "islands": 3388,
      "overt": 3389,
      "goes": 3390,
      "tap": 3391,
      "breach": 3392,
      "area": 3393,
      "result": 3394,
      "secure": 3395,
      "disapp": 3396,
      "worried": 3397,
      "both": 3398,
      "oppon": 3399,
      "medical": 3400,
      "##onduct": 3401,
      "##ody": 3402,
      "phase": 3403,
      "advoc": 3404,
      "retal": 3405,
      "carson": 3406,
      "emir": 3407,
      "advisers": 3408,
      "farm": 3409,
      "buy": 3410,
      "capt": 3411,
      "calm": 3412,
      "soft": 3413,
      "canadian": 3414,
      "terrorist": 3415,
      "curbs": 3416,
      "sky": 3417,
      "handling": 3418,
      "damage": 3419,
      "casual": 3420,
      "views": 3421,
      "prepares": 3422,
      "october": 3423,
      "falls": 3424,
      "looking": 3425,
      "ballot": 3426,
      "replacement": 3427,
      "flee": 3428,
      "based": 3429,
      "operations": 3430,
      "representative": 3431,
      "castro": 3432,
      "pursue": 3433,
      "kasich": 3434,
      "communications": 3435,
      "volcan": 3436,
      "boyc": 3437,
      "moment": 3438,
      "follow": 3439,
      "abbas": 3440,
      "himself": 3441,
      "27": 3442,
      "60": 3443,
      "bio": 3444,
      "dac": 3445,
      "fun": 3446,
      "files": 3447,
      "kel": 3448,
      "ll": 3449,
      "mps": 3450,
      "wire": 3451,
      "##rict": 3452,
      "##fl": 3453,
      "##gate": 3454,
      "##bur": 3455,
      "##veland": 3456,
      "##cer": 3457,
      "##joy": 3458,
      "##ino": 3459,
      "##ened": 3460,
      "troub": 3461,
      "##icip": 3462,
      "truck": 3463,
      "##road": 3464,
      "deter": 3465,
      "sty": 3466,
      "##omm": 3467,
      "##atemal": 3468,
      "##amucc": 3469,
      "##ival": 3470,
      "isol": 3471,
      "island": 3472,
      "where": 3473,
      "norway": 3474,
      "shr": 3475,
      "anth": 3476,
      "minor": 3477,
      "refuses": 3478,
      "warren": 3479,
      "blames": 3480,
      "enter": 3481,
      "moder": 3482,
      "##ession": 3483,
      "##maker": 3484,
      "boeing": 3485,
      "boko": 3486,
      "chiefs": 3487,
      "##ansion": 3488,
      "##agwa": 3489,
      "operation": 3490,
      "amnest": 3491,
      "carri": 3492,
      "accounts": 3493,
      "comprom": 3494,
      "recount": 3495,
      "critics": 3496,
      "haram": 3497,
      "guatemal": 3498,
      "helped": 3499,
      "liberal": 3500,
      "extension": 3501,
      "##angagwa": 3502,
      "schumer": 3503,
      "slov": 3504,
      "deaths": 3505,
      "point": 3506,
      "haley": 3507,
      "ident": 3508,
      "nigerian": 3509,
      "positive": 3510,
      "session": 3511,
      "withdraws": 3512,
      "mnangagwa": 3513,
      "clean": 3514,
      "cleveland": 3515,
      "vehic": 3516,
      "grave": 3517,
      "bodies": 3518,
      "embar": 3519,
      "wrong": 3520,
      "malaysian": 3521,
      "upholds": 3522,
      "endorsement": 3523,
      "employ": 3524,
      "hamas": 3525,
      "interference": 3526,
      "belgian": 3527,
      "scaramucc": 3528,
      "wealthy": 3529,
      "punish": 3530,
      "environmental": 3531,
      "helicopter": 3532,
      "dozens": 3533,
      "optim": 3534,
      "##ilateral": 3535,
      "enforcement": 3536,
      "misconduct": 3537,
      "casualties": 3538,
      "daca": 3539,
      "kelly": 3540,
      "amnesty": 3541,
      "scaramucci": 3542,
      "bir": 3543,
      "dak": 3544,
      "ease": 3545,
      "gl": 3546,
      "gap": 3547,
      "games": 3548,
      "jet": 3549,
      "jets": 3550,
      "like": 3551,
      "mor": 3552,
      "mel": 3553,
      "mot": 3554,
      "mul": 3555,
      "might": 3556,
      "nsa": 3557,
      "pers": 3558,
      "pitch": 3559,
      "range": 3560,
      "rakh": 3561,
      "sack": 3562,
      "sina": 3563,
      "wage": 3564,
      "witness": 3565,
      "xin": 3566,
      "zone": 3567,
      "##tor": 3568,
      "##tic": 3569,
      "##na": 3570,
      "##iro": 3571,
      "##ray": 3572,
      "##fer": 3573,
      "##ki": 3574,
      "##wh": 3575,
      "##iction": 3576,
      "##oul": 3577,
      "rein": 3578,
      "##thing": 3579,
      "##cepts": 3580,
      "##osn": 3581,
      "##oses": 3582,
      "##lets": 3583,
      "##raph": 3584,
      "##ute": 3585,
      "##irl": 3586,
      "housing": 3587,
      "going": 3588,
      "ariz": 3589,
      "##ape": 3590,
      "answ": 3591,
      "seat": 3592,
      "sever": 3593,
      "aband": 3594,
      "abroad": 3595,
      "lev": 3596,
      "defect": 3597,
      "germans": 3598,
      "apple": 3599,
      "expansion": 3600,
      "joins": 3601,
      "flight": 3602,
      "interests": 3603,
      "winner": 3604,
      "confron": 3605,
      "revised": 3606,
      "rajoy": 3607,
      "account": 3608,
      "meetings": 3609,
      "monitor": 3610,
      "##ittle": 3611,
      "introd": 3612,
      "deleg": 3613,
      "citing": 3614,
      "powell": 3615,
      "text": 3616,
      "extrad": 3617,
      "approve": 3618,
      "slow": 3619,
      "prep": 3620,
      "feud": 3621,
      "restric": 3622,
      "muse": 3623,
      "blockade": 3624,
      "displ": 3625,
      "hunt": 3626,
      "closed": 3627,
      "mideast": 3628,
      "regulation": 3629,
      "tougher": 3630,
      "province": 3631,
      "behav": 3632,
      "student": 3633,
      "respect": 3634,
      "privacy": 3635,
      "romania": 3636,
      "##awi": 3637,
      "become": 3638,
      "citizenship": 3639,
      "crossing": 3640,
      "youth": 3641,
      "january": 3642,
      "differ": 3643,
      "crown": 3644,
      "hotel": 3645,
      "project": 3646,
      "destro": 3647,
      "responsibility": 3648,
      "postpones": 3649,
      "tackle": 3650,
      "scrap": 3651,
      "mulls": 3652,
      "explosion": 3653,
      "observ": 3654,
      "cohn": 3655,
      "##ropriate": 3656,
      "babis": 3657,
      "mandate": 3658,
      "veterans": 3659,
      "torture": 3660,
      "boycott": 3661,
      "biof": 3662,
      "dakota": 3663,
      "rakhine": 3664,
      "sinai": 3665,
      "arizona": 3666,
      "bah": 3667,
      "batter": 3668,
      "cnbc": 3669,
      "die": 3670,
      "ever": 3671,
      "g20": 3672,
      "hea": 3673,
      "ign": 3674,
      "lu": 3675,
      "loss": 3676,
      "lands": 3677,
      "little": 3678,
      "night": 3679,
      "nfl": 3680,
      "our": 3681,
      "rich": 3682,
      "sim": 3683,
      "tan": 3684,
      "ten": 3685,
      "tone": 3686,
      "ut": 3687,
      "ver": 3688,
      "wis": 3689,
      "your": 3690,
      "##eer": 3691,
      "##oint": 3692,
      "##nc": 3693,
      "##pl": 3694,
      "##ale": 3695,
      "##itz": 3696,
      "toge": 3697,
      "trig": 3698,
      "trust": 3699,
      "##ural": 3700,
      "stocks": 3701,
      "stability": 3702,
      "##olu": 3703,
      "cha": 3704,
      "##set": 3705,
      "##vert": 3706,
      "reporters": 3707,
      "##iant": 3708,
      "##andan": 3709,
      "##ada": 3710,
      "##adolu": 3711,
      "exch": 3712,
      "spot": 3713,
      "offensive": 3714,
      "suu": 3715,
      "suff": 3716,
      "goog": 3717,
      "anadolu": 3718,
      "reset": 3719,
      "residents": 3720,
      "coming": 3721,
      "##abil": 3722,
      "disag": 3723,
      "disaster": 3724,
      "abc": 3725,
      "banned": 3726,
      "warrant": 3727,
      "worry": 3728,
      "expert": 3729,
      "ite": 3730,
      "##mark": 3731,
      "drea": 3732,
      "option": 3733,
      "flood": 3734,
      "##berg": 3735,
      "winning": 3736,
      "register": 3737,
      "fundra": 3738,
      "##quake": 3739,
      "hamp": 3740,
      "proper": 3741,
      "immigrants": 3742,
      "acting": 3743,
      "transport": 3744,
      "higher": 3745,
      "sworn": 3746,
      "surge": 3747,
      "venezuelan": 3748,
      "powerful": 3749,
      "tower": 3750,
      "malta": 3751,
      "halts": 3752,
      "soccer": 3753,
      "doesn": 3754,
      "##hua": 3755,
      "disputed": 3756,
      "provoc": 3757,
      "maine": 3758,
      "allowing": 3759,
      "preparing": 3760,
      "snap": 3761,
      "broadc": 3762,
      "create": 3763,
      "appears": 3764,
      "historic": 3765,
      "entry": 3766,
      "fdp": 3767,
      "development": 3768,
      "martin": 3769,
      "kyi": 3770,
      "strengthen": 3771,
      "bridgegate": 3772,
      "bulg": 3773,
      "sentenced": 3774,
      "premier": 3775,
      "minimum": 3776,
      "##consin": 3777,
      "congratulates": 3778,
      "begins": 3779,
      "earthquake": 3780,
      "disappoint": 3781,
      "anthem": 3782,
      "xinhua": 3783,
      "wisconsin": 3784,
      "together": 3785,
      "google": 3786,
      "29": 3787,
      "35": 3788,
      "31": 3789,
      "da": 3790,
      "danish": 3791,
      "fil": 3792,
      "fig": 3793,
      "ful": 3794,
      "field": 3795,
      "hy": 3796,
      "iow": 3797,
      "jihad": 3798,
      "mix": 3799,
      "ni": 3800,
      "nhc": 3801,
      "rat": 3802,
      "rac": 3803,
      "tass": 3804,
      "##ael": 3805,
      "##dem": 3806,
      "##utions": 3807,
      "##iest": 3808,
      "##rust": 3809,
      "##har": 3810,
      "##bel": 3811,
      "##ke": 3812,
      "##ination": 3813,
      "##onom": 3814,
      "##aries": 3815,
      "##inger": 3816,
      "reaction": 3817,
      "##using": 3818,
      "##ille": 3819,
      "chur": 3820,
      "check": 3821,
      "##osa": 3822,
      "##ndred": 3823,
      "proceed": 3824,
      "##utral": 3825,
      "never": 3826,
      "neutral": 3827,
      "##adi": 3828,
      "##och": 3829,
      "spur": 3830,
      "##uds": 3831,
      "##oph": 3832,
      "anger": 3833,
      "willing": 3834,
      "unions": 3835,
      "secession": 3836,
      "##inees": 3837,
      "bans": 3838,
      "##atory": 3839,
      "partners": 3840,
      "blame": 3841,
      "##ikes": 3842,
      "pract": 3843,
      "##ghaz": 3844,
      "##umber": 3845,
      "worries": 3846,
      "probing": 3847,
      "cause": 3848,
      "##ansing": 3849,
      "quar": 3850,
      "##ryption": 3851,
      "parent": 3852,
      "suppl": 3853,
      "revers": 3854,
      "nominees": 3855,
      "advances": 3856,
      "manager": 3857,
      "leaving": 3858,
      "invol": 3859,
      "regrets": 3860,
      "recover": 3861,
      "##itting": 3862,
      "emiss": 3863,
      "voices": 3864,
      "even": 3865,
      "extra": 3866,
      "businesses": 3867,
      "donors": 3868,
      "insp": 3869,
      "restore": 3870,
      "reviewing": 3871,
      "payment": 3872,
      "hackers": 3873,
      "poised": 3874,
      "markets": 3875,
      "closes": 3876,
      "##aii": 3877,
      "frees": 3878,
      "hundred": 3879,
      "soldier": 3880,
      "mexicans": 3881,
      "students": 3882,
      "cancer": 3883,
      "executives": 3884,
      "michael": 3885,
      "cleansing": 3886,
      "growing": 3887,
      "cambodian": 3888,
      "welcome": 3889,
      "company": 3890,
      "couple": 3891,
      "briefing": 3892,
      "fighter": 3893,
      "##ucky": 3894,
      "somali": 3895,
      "george": 3896,
      "wait": 3897,
      "treaty": 3898,
      "treatment": 3899,
      "popular": 3900,
      "history": 3901,
      "struggles": 3902,
      "autonom": 3903,
      "uganda": 3904,
      "problem": 3905,
      "problems": 3906,
      "liberia": 3907,
      "separatists": 3908,
      "purge": 3909,
      "arrives": 3910,
      "commitment": 3911,
      "collapse": 3912,
      "hawaii": 3913,
      "kidnapped": 3914,
      "##heed": 3915,
      "believes": 3916,
      "rebuild": 3917,
      "suggests": 3918,
      "scottish": 3919,
      "benghaz": 3920,
      "lockheed": 3921,
      "style": 3922,
      "birth": 3923,
      "abandon": 3924,
      "restrictions": 3925,
      "bahrain": 3926,
      "dreamer": 3927,
      "disappointed": 3928,
      "iowa": 3929,
      "hundreds": 3930,
      "benghazi": 3931,
      "best": 3932,
      "date": 3933,
      "done": 3934,
      "fate": 3935,
      "gab": 3936,
      "hails": 3937,
      "hang": 3938,
      "jong": 3939,
      "kos": 3940,
      "lou": 3941,
      "ms": 3942,
      "mist": 3943,
      "nation": 3944,
      "qaed": 3945,
      "rou": 3946,
      "rig": 3947,
      "sri": 3948,
      "teach": 3949,
      "##ny": 3950,
      "##nier": 3951,
      "##ump": 3952,
      "##uing": 3953,
      "##sen": 3954,
      "##sid": 3955,
      "##ster": 3956,
      "##gs": 3957,
      "##grad": 3958,
      "##hani": 3959,
      "##va": 3960,
      "##keep": 3961,
      "##light": 3962,
      "##lah": 3963,
      "##ject": 3964,
      "##ined": 3965,
      "##inea": 3966,
      "##ores": 3967,
      "##orter": 3968,
      "##ature": 3969,
      "toky": 3970,
      "##aria": 3971,
      "tries": 3972,
      "##icult": 3973,
      "##ili": 3974,
      "##rol": 3975,
      "##eless": 3976,
      "##urday": 3977,
      "once": 3978,
      "##igdem": 3979,
      "stands": 3980,
      "##asse": 3981,
      "##reg": 3982,
      "##through": 3983,
      "##oma": 3984,
      "##see": 3985,
      "##ived": 3986,
      "##iana": 3987,
      "atl": 3988,
      "##aine": 3989,
      "##ado": 3990,
      "##adem": 3991,
      "exerc": 3992,
      "cler": 3993,
      "space": 3994,
      "while": 3995,
      "agents": 3996,
      "mem": 3997,
      "shif": 3998,
      "share": 3999,
      "shake": 4000,
      "##ieb": 4001,
      "plays": 4002,
      "breaks": 4003,
      "accepts": 4004,
      "academ": 4005,
      "alread": 4006,
      "##ifying": 4007,
      "unac": 4008,
      "resear": 4009,
      "reshu": 4010,
      "seize": 4011,
      "##elling": 4012,
      "lew": 4013,
      "nov": 4014,
      "works": 4015,
      "cauc": 4016,
      "expresses": 4017,
      "book": 4018,
      "wind": 4019,
      "amend": 4020,
      "advance": 4021,
      "raising": 4022,
      "puigdem": 4023,
      "termin": 4024,
      "guinea": 4025,
      "macri": 4026,
      "webs": 4027,
      "signal": 4028,
      "design": 4029,
      "buil": 4030,
      "surpr": 4031,
      "subsid": 4032,
      "slash": 4033,
      "foes": 4034,
      "holding": 4035,
      "mali": 4036,
      "later": 4037,
      "lifting": 4038,
      "requests": 4039,
      "breakthrough": 4040,
      "legislative": 4041,
      "condemn": 4042,
      "membership": 4043,
      "renegoti": 4044,
      "sharing": 4045,
      "massive": 4046,
      "sites": 4047,
      "##ructive": 4048,
      "embr": 4049,
      "model": 4050,
      "survey": 4051,
      "deepens": 4052,
      "saleh": 4053,
      "affect": 4054,
      "evacuation": 4055,
      "difficult": 4056,
      "quickly": 4057,
      "scalia": 4058,
      "berlin": 4059,
      "pulls": 4060,
      "assemb": 4061,
      "extremism": 4062,
      "personal": 4063,
      "benefits": 4064,
      "false": 4065,
      "escalation": 4066,
      "disclos": 4067,
      "removal": 4068,
      "swedish": 4069,
      "august": 4070,
      "fills": 4071,
      "oklah": 4072,
      "radio": 4073,
      "encryption": 4074,
      "improve": 4075,
      "saturday": 4076,
      "underst": 4077,
      "temporary": 4078,
      "funeral": 4079,
      "wiret": 4080,
      "defector": 4081,
      "introduce": 4082,
      "extradition": 4083,
      "behavior": 4084,
      "destroy": 4085,
      "fundraising": 4086,
      "property": 4087,
      "qaeda": 4088,
      "tokyo": 4089,
      "already": 4090,
      "research": 4091,
      "reshuff": 4092,
      "puigdemont": 4093,
      "oklahoma": 4094,
      "45": 4095,
      "amb": 4096,
      "bilateral": 4097,
      "bosn": 4098,
      "cop": 4099,
      "cbo": 4100,
      "ded": 4101,
      "dig": 4102,
      "ga": 4103,
      "golf": 4104,
      "hus": 4105,
      "hate": 4106,
      "huge": 4107,
      "lanka": 4108,
      "mut": 4109,
      "mult": 4110,
      "matter": 4111,
      "pin": 4112,
      "rates": 4113,
      "tor": 4114,
      "wake": 4115,
      "##of": 4116,
      "##ng": 4117,
      "##don": 4118,
      "##ses": 4119,
      "##fe": 4120,
      "##yad": 4121,
      "##hi": 4122,
      "##bl": 4123,
      "##wide": 4124,
      "##era": 4125,
      "##ane": 4126,
      "##iny": 4127,
      "##inder": 4128,
      "##oros": 4129,
      "touts": 4130,
      "trail": 4131,
      "reas": 4132,
      "rever": 4133,
      "forced": 4134,
      "##idel": 4135,
      "stir": 4136,
      "##otland": 4137,
      "tha": 4138,
      "them": 4139,
      "##iring": 4140,
      "reporter": 4141,
      "##ular": 4142,
      "speaks": 4143,
      "laund": 4144,
      "agent": 4145,
      "plat": 4146,
      "anal": 4147,
      "unf": 4148,
      "uncon": 4149,
      "##ipe": 4150,
      "comb": 4151,
      "mine": 4152,
      "minnes": 4153,
      "##itional": 4154,
      "abadi": 4155,
      "plant": 4156,
      "##ancy": 4157,
      "##ibb": 4158,
      "wars": 4159,
      "sough": 4160,
      "militias": 4161,
      "organ": 4162,
      "##aging": 4163,
      "contest": 4164,
      "backl": 4165,
      "consulate": 4166,
      "related": 4167,
      "param": 4168,
      "scotland": 4169,
      "outc": 4170,
      "##agement": 4171,
      "royal": 4172,
      "phot": 4173,
      "suspic": 4174,
      "leaks": 4175,
      "invites": 4176,
      "2015": 4177,
      "impeach": 4178,
      "impasse": 4179,
      "records": 4180,
      "criticized": 4181,
      "peacekeep": 4182,
      "sweep": 4183,
      "advisory": 4184,
      "millions": 4185,
      "armed": 4186,
      "businessman": 4187,
      "investigate": 4188,
      "barnier": 4189,
      "opening": 4190,
      "guns": 4191,
      "##ughter": 4192,
      "eyeing": 4193,
      "colle": 4194,
      "ideas": 4195,
      "getting": 4196,
      "freeze": 4197,
      "##ovo": 4198,
      "keeping": 4199,
      "disputes": 4200,
      "kingmaker": 4201,
      "showdown": 4202,
      "longer": 4203,
      "provide": 4204,
      "targeted": 4205,
      "complaint": 4206,
      "insurers": 4207,
      "maintain": 4208,
      "replaces": 4209,
      "sharif": 4210,
      "knife": 4211,
      "techn": 4212,
      "surviv": 4213,
      "produc": 4214,
      "tightens": 4215,
      "recognize": 4216,
      "dissident": 4217,
      "belgium": 4218,
      "##oods": 4219,
      "fda": 4220,
      "goldman": 4221,
      "separatist": 4222,
      "benefit": 4223,
      "customs": 4224,
      "wells": 4225,
      "include": 4226,
      "clarity": 4227,
      "prevent": 4228,
      "reopen": 4229,
      "deportation": 4230,
      "houthis": 4231,
      "conditions": 4232,
      "traffic": 4233,
      "bribery": 4234,
      "tunisia": 4235,
      "garland": 4236,
      "riyad": 4237,
      "opponents": 4238,
      "minority": 4239,
      "carrier": 4240,
      "compromise": 4241,
      "embargo": 4242,
      "sacked": 4243,
      "parenthood": 4244,
      "autonomy": 4245,
      "kosovo": 4246,
      "rouhani": 4247,
      "rigged": 4248,
      "atlant": 4249,
      "unaccept": 4250,
      "husband": 4251,
      "laundering": 4252,
      "minnesota": 4253,
      "sought": 4254,
      "riyadh": 4255,
      "26": 4256,
      "500": 4257,
      "aw": 4258,
      "ax": 4259,
      "age": 4260,
      "bond": 4261,
      "dict": 4262,
      "doll": 4263,
      "fat": 4264,
      "fish": 4265,
      "gang": 4266,
      "grants": 4267,
      "homes": 4268,
      "hires": 4269,
      "jew": 4270,
      "kent": 4271,
      "lack": 4272,
      "mour": 4273,
      "number": 4274,
      "py": 4275,
      "pain": 4276,
      "rare": 4277,
      "sd": 4278,
      "sant": 4279,
      "ts": 4280,
      "uzb": 4281,
      "wing": 4282,
      "##ek": 4283,
      "##dles": 4284,
      "##ua": 4285,
      "##ument": 4286,
      "##uels": 4287,
      "##iet": 4288,
      "##ror": 4289,
      "##rech": 4290,
      "##form": 4291,
      "##gue": 4292,
      "##hosa": 4293,
      "##van": 4294,
      "##mine": 4295,
      "##xon": 4296,
      "##aning": 4297,
      "##ori": 4298,
      "##ater": 4299,
      "##itarian": 4300,
      "tot": 4301,
      "##isiana": 4302,
      "inapp": 4303,
      "##ouse": 4304,
      "real": 4305,
      "reass": 4306,
      "##acle": 4307,
      "##ecks": 4308,
      "##ections": 4309,
      "stree": 4310,
      "checks": 4311,
      "##vereign": 4312,
      "promp": 4313,
      "things": 4314,
      "##irc": 4315,
      "##pping": 4316,
      "##uble": 4317,
      "exam": 4318,
      "exxon": 4319,
      "##ighter": 4320,
      "##aken": 4321,
      "##allies": 4322,
      "suit": 4323,
      "republic": 4324,
      "##ung": 4325,
      "brings": 4326,
      "across": 4327,
      "##aphosa": 4328,
      "altern": 4329,
      "coord": 4330,
      "adop": 4331,
      "reserv": 4332,
      "governors": 4333,
      "##ipen": 4334,
      "turmo": 4335,
      "##rates": 4336,
      "warned": 4337,
      "##enses": 4338,
      "##yang": 4339,
      "defying": 4340,
      "partial": 4341,
      "partner": 4342,
      "blue": 4343,
      "militia": 4344,
      "words": 4345,
      "cairo": 4346,
      "expands": 4347,
      "decades": 4348,
      "decries": 4349,
      "urged": 4350,
      "urgent": 4351,
      "##ograph": 4352,
      "queen": 4353,
      "opport": 4354,
      "##ongyang": 4355,
      "##lins": 4356,
      "allows": 4357,
      "retired": 4358,
      "nominates": 4359,
      "budd": 4360,
      "2019": 4361,
      "caribb": 4362,
      "threaten": 4363,
      "legacy": 4364,
      "recomm": 4365,
      "mont": 4366,
      "intens": 4367,
      "##ipping": 4368,
      "perm": 4369,
      "teen": 4370,
      "##riel": 4371,
      "parliamentary": 4372,
      "##angu": 4373,
      "nationals": 4374,
      "##ahn": 4375,
      "schae": 4376,
      "sovereign": 4377,
      "envoys": 4378,
      "income": 4379,
      "collins": 4380,
      "wanted": 4381,
      "pena": 4382,
      "salv": 4383,
      "##ulture": 4384,
      "edge": 4385,
      "divorce": 4386,
      "epipen": 4387,
      "elected": 4388,
      "stronger": 4389,
      "additional": 4390,
      "john": 4391,
      "casts": 4392,
      "##ebrech": 4393,
      "shares": 4394,
      "failure": 4395,
      "graham": 4396,
      "negotiator": 4397,
      "communist": 4398,
      "commissioner": 4399,
      "leftist": 4400,
      "survive": 4401,
      "tourism": 4402,
      "training": 4403,
      "raids": 4404,
      "icahn": 4405,
      "agreed": 4406,
      "franken": 4407,
      "controversy": 4408,
      "odebrech": 4409,
      "increas": 4410,
      "##shire": 4411,
      "struggle": 4412,
      "friends": 4413,
      "recognition": 4414,
      "assets": 4415,
      "rape": 4416,
      "values": 4417,
      "ugandan": 4418,
      "constitutional": 4419,
      "subpoena": 4420,
      "havana": 4421,
      "clarify": 4422,
      "complete": 4423,
      "seriously": 4424,
      "ivanka": 4425,
      "village": 4426,
      "stalled": 4427,
      "skeptical": 4428,
      "remove": 4429,
      "magn": 4430,
      "govt": 4431,
      "ensure": 4432,
      "aggressive": 4433,
      "denounces": 4434,
      "nazi": 4435,
      "croat": 4436,
      "ramaphosa": 4437,
      "advocates": 4438,
      "volcano": 4439,
      "following": 4440,
      "guatemala": 4441,
      "optimistic": 4442,
      "moroc": 4443,
      "several": 4444,
      "biofuels": 4445,
      "trigger": 4446,
      "hampshire": 4447,
      "fully": 4448,
      "nieto": 4449,
      "neutrality": 4450,
      "supplies": 4451,
      "emissions": 4452,
      "gabriel": 4453,
      "louisiana": 4454,
      "caucus": 4455,
      "wiretap": 4456,
      "reverse": 4457,
      "backlash": 4458,
      "atlantic": 4459,
      "unacceptable": 4460,
      "dollar": 4461,
      "kentucky": 4462,
      "pyongyang": 4463,
      "sdf": 4464,
      "uzbek": 4465,
      "streets": 4466,
      "turmoil": 4467,
      "caribbean": 4468,
      "schaeuble": 4469,
      "odebrecht": 4470,
      "40": 4471,
      "avert": 4472,
      "bern": 4473,
      "cold": 4474,
      "din": 4475,
      "fif": 4476,
      "fine": 4477,
      "fast": 4478,
      "fights": 4479,
      "gene": 4480,
      "grant": 4481,
      "giving": 4482,
      "given": 4483,
      "hatch": 4484,
      "hikes": 4485,
      "jones": 4486,
      "kuc": 4487,
      "kab": 4488,
      "lay": 4489,
      "lad": 4490,
      "lee": 4491,
      "lost": 4492,
      "mate": 4493,
      "mak": 4494,
      "myl": 4495,
      "oly": 4496,
      "ped": 4497,
      "rallies": 4498,
      "squ": 4499,
      "sana": 4500,
      "wal": 4501,
      "yell": 4502,
      "zar": 4503,
      "##ex": 4504,
      "##ob": 4505,
      "##ne": 4506,
      "##de": 4507,
      "##den": 4508,
      "##uana": 4509,
      "##ring": 4510,
      "##fall": 4511,
      "##yn": 4512,
      "##yers": 4513,
      "##gu": 4514,
      "##hran": 4515,
      "##bon": 4516,
      "##bul": 4517,
      "##ball": 4518,
      "##kn": 4519,
      "##zz": 4520,
      "##inds": 4521,
      "##ited": 4522,
      "##itation": 4523,
      "##ark": 4524,
      "##arms": 4525,
      "##arily": 4526,
      "tried": 4527,
      "##icing": 4528,
      "initi": 4529,
      "##ileaks": 4530,
      "recon": 4531,
      "##roit": 4532,
      "forec": 4533,
      "##ecution": 4534,
      "##iable": 4535,
      "##ersion": 4536,
      "##amb": 4537,
      "conyers": 4538,
      "##raint": 4539,
      "##utious": 4540,
      "##ouri": 4541,
      "afd": 4542,
      "spir": 4543,
      "spons": 4544,
      "spoke": 4545,
      "spicer": 4546,
      "overr": 4547,
      "normal": 4548,
      "officer": 4549,
      "shel": 4550,
      "##iev": 4551,
      "goal": 4552,
      "goals": 4553,
      "heart": 4554,
      "cruc": 4555,
      "acqu": 4556,
      "course": 4557,
      "unp": 4558,
      "resist": 4559,
      "##ably": 4560,
      "seoul": 4561,
      "mining": 4562,
      "##nski": 4563,
      "called": 4564,
      "blood": 4565,
      "prices": 4566,
      "nobel": 4567,
      "appar": 4568,
      "killings": 4569,
      "cautious": 4570,
      "exports": 4571,
      "expels": 4572,
      "##aged": 4573,
      "contact": 4574,
      "vision": 4575,
      "marij": 4576,
      "marawi": 4577,
      "scen": 4578,
      "scient": 4579,
      "missouri": 4580,
      "confusion": 4581,
      "attacked": 4582,
      "advice": 4583,
      "carry": 4584,
      "carbon": 4585,
      "county": 4586,
      "charl": 4587,
      "charity": 4588,
      "discusses": 4589,
      "impose": 4590,
      "recru": 4591,
      "detroit": 4592,
      "deadl": 4593,
      "maced": 4594,
      "hurdles": 4595,
      "##ruary": 4596,
      "bombs": 4597,
      "tehran": 4598,
      "##rown": 4599,
      "farc": 4600,
      "nationalist": 4601,
      "waters": 4602,
      "bump": 4603,
      "subm": 4604,
      "banker": 4605,
      "effect": 4606,
      "violent": 4607,
      "investigated": 4608,
      "investigating": 4609,
      "yemeni": 4610,
      "barc": 4611,
      "barred": 4612,
      "restraint": 4613,
      "ukrain": 4614,
      "named": 4615,
      "biggest": 4616,
      "hunger": 4617,
      "greens": 4618,
      "latin": 4619,
      "nyc": 4620,
      "stops": 4621,
      "network": 4622,
      "ceos": 4623,
      "posts": 4624,
      "dup": 4625,
      "smugg": 4626,
      "drilling": 4627,
      "limited": 4628,
      "owner": 4629,
      "authority": 4630,
      "tourist": 4631,
      "becomes": 4632,
      "constructive": 4633,
      "ballistic": 4634,
      "fleeing": 4635,
      "iceland": 4636,
      "##engers": 4637,
      "##ology": 4638,
      "didn": 4639,
      "hamm": 4640,
      "february": 4641,
      "odds": 4642,
      "settlements": 4643,
      "confirmation": 4644,
      "custody": 4645,
      "trader": 4646,
      "subpoenas": 4647,
      "removed": 4648,
      "sweden": 4649,
      "celebr": 4650,
      "celebration": 4651,
      "audience": 4652,
      "important": 4653,
      "bolster": 4654,
      "silent": 4655,
      "deployment": 4656,
      "uncertainty": 4657,
      "ivory": 4658,
      "currency": 4659,
      "paid": 4660,
      "predicts": 4661,
      "happen": 4662,
      "rebuke": 4663,
      "rebukes": 4664,
      "priority": 4665,
      "serbia": 4666,
      "absol": 4667,
      "promote": 4668,
      "##zynski": 4669,
      "vehicle": 4670,
      "mulvan": 4671,
      "confront": 4672,
      "prepare": 4673,
      "heav": 4674,
      "spotlight": 4675,
      "disagree": 4676,
      "daughter": 4677,
      "website": 4678,
      "assembly": 4679,
      "sweeping": 4680,
      "college": 4681,
      "survivors": 4682,
      "inappropriate": 4683,
      "morocco": 4684,
      "dinner": 4685,
      "geneva": 4686,
      "kuczynski": 4687,
      "kabul": 4688,
      "mylan": 4689,
      "olymp": 4690,
      "crucial": 4691,
      "marijuana": 4692,
      "smuggling": 4693,
      "mulvaney": 4694,
      "90": 4695,
      "ale": 4696,
      "bon": 4697,
      "bias": 4698,
      "cf": 4699,
      "cell": 4700,
      "cft": 4701,
      "card": 4702,
      "es": 4703,
      "ele": 4704,
      "eve": 4705,
      "gh": 4706,
      "girl": 4707,
      "hints": 4708,
      "koch": 4709,
      "lines": 4710,
      "ml": 4711,
      "mold": 4712,
      "pil": 4713,
      "perman": 4714,
      "porn": 4715,
      "ring": 4716,
      "rout": 4717,
      "rio": 4718,
      "races": 4719,
      "san": 4720,
      "ted": 4721,
      "vet": 4722,
      "ww": 4723,
      "wary": 4724,
      "wik": 4725,
      "wild": 4726,
      "yon": 4727,
      "##eated": 4728,
      "##tors": 4729,
      "##uf": 4730,
      "##uitt": 4731,
      "##iop": 4732,
      "##rill": 4733,
      "##rimin": 4734,
      "##fur": 4735,
      "##ga": 4736,
      "##gas": 4737,
      "##hol": 4738,
      "##hap": 4739,
      "##house": 4740,
      "##vada": 4741,
      "##cr": 4742,
      "##west": 4743,
      "##lus": 4744,
      "##pers": 4745,
      "##ports": 4746,
      "##just": 4747,
      "##anian": 4748,
      "##ongh": 4749,
      "##atic": 4750,
      "##ately": 4751,
      "##ils": 4752,
      "reve": 4753,
      "react": 4754,
      "sto": 4755,
      "stra": 4756,
      "stran": 4757,
      "stable": 4758,
      "##olt": 4759,
      "##the": 4760,
      "cheer": 4761,
      "##ams": 4762,
      "##rest": 4763,
      "conn": 4764,
      "throws": 4765,
      "##irts": 4766,
      "nevada": 4767,
      "repeat": 4768,
      "##pper": 4769,
      "##ulation": 4770,
      "##ulian": 4771,
      "lauds": 4772,
      "##ude": 4773,
      "##ste": 4774,
      "##stan": 4775,
      "##stone": 4776,
      "##stitution": 4777,
      "meth": 4778,
      "offsh": 4779,
      "shad": 4780,
      "##endez": 4781,
      "##ieve": 4782,
      "obst": 4783,
      "##unt": 4784,
      "eliz": 4785,
      "presidents": 4786,
      "euros": 4787,
      "demon": 4788,
      "sector": 4789,
      "mind": 4790,
      "disman": 4791,
      "facts": 4792,
      "mayors": 4793,
      "defy": 4794,
      "defiant": 4795,
      "partisan": 4796,
      "blog": 4797,
      "blaz": 4798,
      "indic": 4799,
      "prin": 4800,
      "pray": 4801,
      "pruitt": 4802,
      "nothing": 4803,
      "strongh": 4804,
      "upset": 4805,
      "factory": 4806,
      "##aganda": 4807,
      "backers": 4808,
      "consult": 4809,
      "finland": 4810,
      "parts": 4811,
      "ruled": 4812,
      "floods": 4813,
      "internal": 4814,
      "outr": 4815,
      "outlets": 4816,
      "catalans": 4817,
      "frust": 4818,
      "campaigns": 4819,
      "irs": 4820,
      "reven": 4821,
      "revive": 4822,
      "##coni": 4823,
      "##icking": 4824,
      "love": 4825,
      "loyal": 4826,
      "manuf": 4827,
      "discrimin": 4828,
      "cars": 4829,
      "politicians": 4830,
      "immed": 4831,
      "doing": 4832,
      "propaganda": 4833,
      "harm": 4834,
      "genoc": 4835,
      "hurdle": 4836,
      "transfer": 4837,
      "investors": 4838,
      "sway": 4839,
      "reported": 4840,
      "assist": 4841,
      "assass": 4842,
      "assess": 4843,
      "evas": 4844,
      "approach": 4845,
      "deny": 4846,
      "##anged": 4847,
      "keystone": 4848,
      "caps": 4849,
      "justices": 4850,
      "resigning": 4851,
      "ordered": 4852,
      "accuse": 4853,
      "investigates": 4854,
      "restart": 4855,
      "restruct": 4856,
      "restrict": 4857,
      "readies": 4858,
      "attorneys": 4859,
      "poor": 4860,
      "towards": 4861,
      "convicted": 4862,
      "activity": 4863,
      "repealing": 4864,
      "usa": 4865,
      "lifts": 4866,
      "closing": 4867,
      "closure": 4868,
      "##abeth": 4869,
      "require": 4870,
      "offered": 4871,
      "hearings": 4872,
      "divisions": 4873,
      "server": 4874,
      "serve": 4875,
      "poses": 4876,
      "ethiop": 4877,
      "targeting": 4878,
      "allowed": 4879,
      "reaches": 4880,
      "sharp": 4881,
      "unlock": 4882,
      "virus": 4883,
      "massac": 4884,
      "grows": 4885,
      "negotiations": 4886,
      "privat": 4887,
      "humanitarian": 4888,
      "naval": 4889,
      "continues": 4890,
      "prepared": 4891,
      "escape": 4892,
      "systems": 4893,
      "conflicts": 4894,
      "authorities": 4895,
      "blackl": 4896,
      "crew": 4897,
      "creates": 4898,
      "roads": 4899,
      "wave": 4900,
      "losing": 4901,
      "favors": 4902,
      "portug": 4903,
      "scale": 4904,
      "berlus": 4905,
      "menendez": 4906,
      "angry": 4907,
      "settlement": 4908,
      "##yster": 4909,
      "papua": 4910,
      "personnel": 4911,
      "receive": 4912,
      "timeline": 4913,
      "tribun": 4914,
      "crashes": 4915,
      "disclose": 4916,
      "coverage": 4917,
      "largest": 4918,
      "scrut": 4919,
      "removes": 4920,
      "prospect": 4921,
      "municip": 4922,
      "narrow": 4923,
      "tyco": 4924,
      "davis": 4925,
      "tape": 4926,
      "melania": 4927,
      "answers": 4928,
      "displaced": 4929,
      "tanz": 4930,
      "chaos": 4931,
      "bulgaria": 4932,
      "mixed": 4933,
      "ratings": 4934,
      "church": 4935,
      "quarter": 4936,
      "msnbc": 4937,
      "cleric": 4938,
      "embrace": 4939,
      "disclosure": 4940,
      "reshuffle": 4941,
      "reason": 4942,
      "combat": 4943,
      "paramilit": 4944,
      "peacekeepers": 4945,
      "total": 4946,
      "alternative": 4947,
      "buddh": 4948,
      "yellen": 4949,
      "apparent": 4950,
      "ukrainian": 4951,
      "cftc": 4952,
      "permanent": 4953,
      "wikileaks": 4954,
      "yonhap": 4955,
      "elizabeth": 4956,
      "blogger": 4957,
      "manufact": 4958,
      "restructuring": 4959,
      "berlusconi": 4960,
      "municipal": 4961,
      "01": 4962,
      "700": 4963,
      "ath": 4964,
      "bat": 4965,
      "bow": 4966,
      "bran": 4967,
      "bbc": 4968,
      "circ": 4969,
      "et": 4970,
      "ft": 4971,
      "fy": 4972,
      "fan": 4973,
      "fug": 4974,
      "filing": 4975,
      "gi": 4976,
      "gender": 4977,
      "hub": 4978,
      "hacks": 4979,
      "jeb": 4980,
      "jury": 4981,
      "kh": 4982,
      "lot": 4983,
      "langu": 4984,
      "mil": 4985,
      "match": 4986,
      "myster": 4987,
      "os": 4988,
      "ox": 4989,
      "pending": 4990,
      "png": 4991,
      "rw": 4992,
      "rand": 4993,
      "sar": 4994,
      "sem": 4995,
      "tied": 4996,
      "tank": 4997,
      "wil": 4998,
      "zones": 4999,
      "##eans": 5000,
      "##aur": 5001,
      "##iates": 5002,
      "##iety": 5003,
      "##ris": 5004,
      "##rich": 5005,
      "##gery": 5006,
      "##gents": 5007,
      "##hab": 5008,
      "##bit": 5009,
      "##kara": 5010,
      "##well": 5011,
      "##pan": 5012,
      "##xic": 5013,
      "##30": 5014,
      "##zani": 5015,
      "##12": 5016,
      "##70": 5017,
      "##eror": 5018,
      "##ered": 5019,
      "##onian": 5020,
      "##oring": 5021,
      "##itory": 5022,
      "##itrust": 5023,
      "toxic": 5024,
      "##ared": 5025,
      "##arma": 5026,
      "##isive": 5027,
      "##icers": 5028,
      "##ede": 5029,
      "##roar": 5030,
      "##elona": 5031,
      "##elming": 5032,
      "##iding": 5033,
      "##igin": 5034,
      "##sequ": 5035,
      "consequ": 5036,
      "##osen": 5037,
      "promin": 5038,
      "##rage": 5039,
      "##ither": 5040,
      "asian": 5041,
      "aside": 5042,
      "exc": 5043,
      "##icant": 5044,
      "spend": 5045,
      "##ston": 5046,
      "##ched": 5047,
      "overwh": 5048,
      "koreans": 5049,
      "officers": 5050,
      "##ops": 5051,
      "place": 5052,
      "table": 5053,
      "##eme": 5054,
      "##emy": 5055,
      "alask": 5056,
      "angl": 5057,
      "ankara": 5058,
      "code": 5059,
      "##ificant": 5060,
      "comes": 5061,
      "disrupt": 5062,
      "abuses": 5063,
      "refin": 5064,
      "##ilities": 5065,
      "blam": 5066,
      "indict": 5067,
      "prize": 5068,
      "pricing": 5069,
      "nod": 5070,
      "worth": 5071,
      "sav": 5072,
      "said": 5073,
      "mog": 5074,
      "caused": 5075,
      "uproar": 5076,
      "decided": 5077,
      "decisions": 5078,
      "##oking": 5079,
      "gren": 5080,
      "grass": 5081,
      "##antage": 5082,
      "common": 5083,
      "2020": 5084,
      "scare": 5085,
      "scores": 5086,
      "islamists": 5087,
      "flo": 5088,
      "frame": 5089,
      "debates": 5090,
      "opposed": 5091,
      "airlines": 5092,
      "roy": 5093,
      "undo": 5094,
      "amaz": 5095,
      "boris": 5096,
      "pharma": 5097,
      "suspension": 5098,
      "manip": 5099,
      "kurz": 5100,
      "accident": 5101,
      "immunity": 5102,
      "charter": 5103,
      "panama": 5104,
      "undermin": 5105,
      "compet": 5106,
      "comply": 5107,
      "antitrust": 5108,
      "##attle": 5109,
      "##attled": 5110,
      "recall": 5111,
      "hispan": 5112,
      "detent": 5113,
      "chances": 5114,
      "significant": 5115,
      "perry": 5116,
      "switch": 5117,
      "pushing": 5118,
      "passengers": 5119,
      "sett": 5120,
      "desert": 5121,
      "helping": 5122,
      "assoc": 5123,
      "fargo": 5124,
      "surr": 5125,
      "surgery": 5126,
      "sched": 5127,
      "tariff": 5128,
      "slap": 5129,
      "violated": 5130,
      "feel": 5131,
      "investigators": 5132,
      "bars": 5133,
      "barzani": 5134,
      "restaur": 5135,
      "reviews": 5136,
      "kenned": 5137,
      "poison": 5138,
      "conviction": 5139,
      "blocked": 5140,
      "palace": 5141,
      "##ground": 5142,
      "gunman": 5143,
      "sochi": 5144,
      "apec": 5145,
      "considered": 5146,
      "broke": 5147,
      "##going": 5148,
      "betting": 5149,
      "penal": 5150,
      "thanks": 5151,
      "using": 5152,
      "belt": 5153,
      "rising": 5154,
      "civilian": 5155,
      "steel": 5156,
      "programs": 5157,
      "collusion": 5158,
      "legislature": 5159,
      "complic": 5160,
      "insurgents": 5161,
      "easier": 5162,
      "fearing": 5163,
      "balance": 5164,
      "failed": 5165,
      "reduce": 5166,
      "vietnamese": 5167,
      "drawing": 5168,
      "negotiators": 5169,
      "community": 5170,
      "interviews": 5171,
      "burn": 5172,
      "burund": 5173,
      "briefings": 5174,
      "praise": 5175,
      "remark": 5176,
      "renewal": 5177,
      "renewed": 5178,
      "resumes": 5179,
      "hopefuls": 5180,
      "production": 5181,
      "questioned": 5182,
      "strateg": 5183,
      "unclear": 5184,
      "emperor": 5185,
      "suggest": 5186,
      "baseball": 5187,
      "distr": 5188,
      "crowd": 5189,
      "projects": 5190,
      "destabil": 5191,
      "lobbying": 5192,
      "paper": 5193,
      "pastor": 5194,
      "##struction": 5195,
      "plotting": 5196,
      "rocket": 5197,
      "appointed": 5198,
      "purch": 5199,
      "tribal": 5200,
      "including": 5201,
      "sparks": 5202,
      "profile": 5203,
      "reopens": 5204,
      "current": 5205,
      "petition": 5206,
      "warnings": 5207,
      "flags": 5208,
      "suspended": 5209,
      "domin": 5210,
      "retaliation": 5211,
      "determin": 5212,
      "sloven": 5213,
      "motion": 5214,
      "delegation": 5215,
      "museum": 5216,
      "observatory": 5217,
      "every": 5218,
      "resettle": 5219,
      "transportation": 5220,
      "provocative": 5221,
      "broadcaster": 5222,
      "teachers": 5223,
      "##grade": 5224,
      "memor": 5225,
      "shifts": 5226,
      "academic": 5227,
      "surprise": 5228,
      "##idelines": 5229,
      "thaad": 5230,
      "platform": 5231,
      "contested": 5232,
      "sovereignty": 5233,
      "bernie": 5234,
      "lady": 5235,
      "forecast": 5236,
      "barcelona": 5237,
      "heavy": 5238,
      "##uliani": 5239,
      "offshore": 5240,
      "shadow": 5241,
      "blaze": 5242,
      "genocide": 5243,
      "massacre": 5244,
      "giuliani": 5245,
      "consequences": 5246,
      "overwhelming": 5247,
      "alaska": 5248,
      "angloph": 5249,
      "amazon": 5250,
      "kennedy": 5251,
      "42": 5252,
      "corn": 5253,
      "cert": 5254,
      "dm": 5255,
      "dra": 5256,
      "dog": 5257,
      "diver": 5258,
      "ec": 5259,
      "each": 5260,
      "fel": 5261,
      "fem": 5262,
      "fret": 5263,
      "faul": 5264,
      "ferry": 5265,
      "got": 5266,
      "gain": 5267,
      "gates": 5268,
      "game": 5269,
      "gift": 5270,
      "gather": 5271,
      "hall": 5272,
      "holl": 5273,
      "ice": 5274,
      "jokes": 5275,
      "ko": 5276,
      "kiss": 5277,
      "kaz": 5278,
      "keen": 5279,
      "kaine": 5280,
      "kiev": 5281,
      "log": 5282,
      "mp": 5283,
      "mary": 5284,
      "map": 5285,
      "mike": 5286,
      "mater": 5287,
      "nj": 5288,
      "nun": 5289,
      "nurs": 5290,
      "page": 5291,
      "ren": 5292,
      "rail": 5293,
      "rush": 5294,
      "rating": 5295,
      "rift": 5296,
      "sic": 5297,
      "saint": 5298,
      "torn": 5299,
      "tighter": 5300,
      "uber": 5301,
      "ways": 5302,
      "##ding": 5303,
      "##uff": 5304,
      "##ira": 5305,
      "##iod": 5306,
      "##rc": 5307,
      "##so": 5308,
      "##ford": 5309,
      "##gen": 5310,
      "##hold": 5311,
      "##vili": 5312,
      "##cis": 5313,
      "##king": 5314,
      "##lor": 5315,
      "##let": 5316,
      "##lish": 5317,
      "##pg": 5318,
      "##pb": 5319,
      "##xes": 5320,
      "##jib": 5321,
      "##anges": 5322,
      "##ini": 5323,
      "##inent": 5324,
      "##ortions": 5325,
      "##orado": 5326,
      "##enn": 5327,
      "##atri": 5328,
      "tops": 5329,
      "took": 5330,
      "today": 5331,
      "##arant": 5332,
      "trill": 5333,
      "##icare": 5334,
      "##oud": 5335,
      "##outs": 5336,
      "##inga": 5337,
      "true": 5338,
      "##edent": 5339,
      "recess": 5340,
      "reality": 5341,
      "##roc": 5342,
      "##elle": 5343,
      "##acing": 5344,
      "forum": 5345,
      "##ecess": 5346,
      "##ecedent": 5347,
      "##urge": 5348,
      "onto": 5349,
      "stress": 5350,
      "stays": 5351,
      "story": 5352,
      "stresses": 5353,
      "##ola": 5354,
      "then": 5355,
      "those": 5356,
      "thought": 5357,
      "##utely": 5358,
      "##irms": 5359,
      "neo": 5360,
      "neg": 5361,
      "##adic": 5362,
      "houston": 5363,
      "##ulz": 5364,
      "##owled": 5365,
      "exod": 5366,
      "clin": 5367,
      "clay": 5368,
      "clock": 5369,
      "spat": 5370,
      "spent": 5371,
      "##akash": 5372,
      "##estic": 5373,
      "isis": 5374,
      "preserv": 5375,
      "preserve": 5376,
      "##che": 5377,
      "##cho": 5378,
      "nord": 5379,
      "means": 5380,
      "shuts": 5381,
      "shelling": 5382,
      "sum": 5383,
      "beat": 5384,
      "bear": 5385,
      "places": 5386,
      "brut": 5387,
      "artic": 5388,
      "arsen": 5389,
      "ackn": 5390,
      "symb": 5391,
      "also": 5392,
      "adjust": 5393,
      "unite": 5394,
      "reserve": 5395,
      "##iple": 5396,
      "seizes": 5397,
      "secrets": 5398,
      "miners": 5399,
      "abu": 5400,
      "able": 5401,
      "##ibly": 5402,
      "industr": 5403,
      "priest": 5404,
      "prieb": 5405,
      "worse": 5406,
      "worst": 5407,
      "appl": 5408,
      "saakash": 5409,
      "killer": 5410,
      "upd": 5411,
      "orban": 5412,
      "##makers": 5413,
      "boosts": 5414,
      "policeman": 5415,
      "britons": 5416,
      "##agers": 5417,
      "content": 5418,
      "driven": 5419,
      "grip": 5420,
      "finances": 5421,
      "medicare": 5422,
      "##ugs": 5423,
      "parents": 5424,
      "pardon": 5425,
      "opio": 5426,
      "outp": 5427,
      "supply": 5428,
      "airline": 5429,
      "francis": 5430,
      "##odo": 5431,
      "advantage": 5432,
      "invitation": 5433,
      "registration": 5434,
      "worked": 5435,
      "ramp": 5436,
      "raised": 5437,
      "carter": 5438,
      "politician": 5439,
      "doom": 5440,
      "##retch": 5441,
      "syrians": 5442,
      "pressures": 5443,
      "undermine": 5444,
      "harry": 5445,
      "guer": 5446,
      "guards": 5447,
      "guarant": 5448,
      "monument": 5449,
      "changing": 5450,
      "channel": 5451,
      "##airs": 5452,
      "period": 5453,
      "highest": 5454,
      "climb": 5455,
      "movement": 5456,
      "departure": 5457,
      "generals": 5458,
      "denied": 5459,
      "nationalists": 5460,
      "scheme": 5461,
      "schulz": 5462,
      "territory": 5463,
      "subst": 5464,
      "subvers": 5465,
      "accusation": 5466,
      "violations": 5467,
      "fees": 5468,
      "investigator": 5469,
      "cutting": 5470,
      "arabs": 5471,
      "challenging": 5472,
      "inciting": 5473,
      "terrorists": 5474,
      "gunmen": 5475,
      "##ught": 5476,
      "colorado": 5477,
      "apart": 5478,
      "idea": 5479,
      "label": 5480,
      "limbo": 5481,
      "starting": 5482,
      "shots": 5483,
      "skin": 5484,
      "strongly": 5485,
      "dump": 5486,
      "damages": 5487,
      "junta": 5488,
      "weighing": 5489,
      "shootings": 5490,
      "hitler": 5491,
      "shared": 5492,
      "unless": 5493,
      "michelle": 5494,
      "respects": 5495,
      "solve": 5496,
      "reduc": 5497,
      "cooperate": 5498,
      "##veni": 5499,
      "negotiate": 5500,
      "focused": 5501,
      "rescues": 5502,
      "rescued": 5503,
      "rescinds": 5504,
      "briefly": 5505,
      "prisoners": 5506,
      "embattled": 5507,
      "tourists": 5508,
      "formal": 5509,
      "ballots": 5510,
      "snub": 5511,
      "icb": 5512,
      "expanded": 5513,
      "uphill": 5514,
      "wounds": 5515,
      "odinga": 5516,
      "playing": 5517,
      "populist": 5518,
      "successor": 5519,
      "gulen": 5520,
      "hotels": 5521,
      "overseas": 5522,
      "videos": 5523,
      "creditors": 5524,
      "autom": 5525,
      "dissidents": 5526,
      "rapid": 5527,
      "extremely": 5528,
      "responsible": 5529,
      "postponed": 5530,
      "confirmed": 5531,
      "received": 5532,
      "rockets": 5533,
      "trading": 5534,
      "scraps": 5535,
      "kaspers": 5536,
      "large": 5537,
      "alarmed": 5538,
      "favorite": 5539,
      "admir": 5540,
      "engagement": 5541,
      "abduct": 5542,
      "instant": 5543,
      "prospects": 5544,
      "temporarily": 5545,
      "image": 5546,
      "houthi": 5547,
      "canceled": 5548,
      "friendly": 5549,
      "narrows": 5550,
      "aggression": 5551,
      "domestic": 5552,
      "overtime": 5553,
      "momentum": 5554,
      "isolated": 5555,
      "moderate": 5556,
      "slovak": 5557,
      "level": 5558,
      "monitoring": 5559,
      "museveni": 5560,
      "different": 5561,
      "exchange": 5562,
      "figure": 5563,
      "practices": 5564,
      "reverses": 5565,
      "popularity": 5566,
      "hangs": 5567,
      "builds": 5568,
      "subsidies": 5569,
      "deduction": 5570,
      "mutual": 5571,
      "pinera": 5572,
      "unconstitution": 5573,
      "suspicious": 5574,
      "jewish": 5575,
      "reserves": 5576,
      "##ography": 5577,
      "opportunity": 5578,
      "montana": 5579,
      "intensifies": 5580,
      "salvador": 5581,
      "increases": 5582,
      "fifth": 5583,
      "sanaa": 5584,
      "initiative": 5585,
      "spirit": 5586,
      "override": 5587,
      "scientists": 5588,
      "submits": 5589,
      "celebrate": 5590,
      "cfpb": 5591,
      "mladic": 5592,
      "pornography": 5593,
      "vetting": 5594,
      "stronghold": 5595,
      "portugal": 5596,
      "scrutiny": 5597,
      "tycoon": 5598,
      "tanzania": 5599,
      "buddhist": 5600,
      "manufacturing": 5601,
      "fugitive": 5602,
      "prominent": 5603,
      "framework": 5604,
      "hispanic": 5605,
      "detente": 5606,
      "restaurant": 5607,
      "burundi": 5608,
      "dmz": 5609,
      "koike": 5610,
      "kazakh": 5611,
      "maryland": 5612,
      "material": 5613,
      "trillion": 5614,
      "exodus": 5615,
      "arsenal": 5616,
      "acknowled": 5617,
      "symbol": 5618,
      "priebus": 5619,
      "saakashvili": 5620,
      "opioid": 5621,
      "subversion": 5622,
      "kaspersky": 5623,
      "38": 5624,
      "33": 5625,
      "43": 5626,
      "61": 5627,
      "70": 5628,
      "ak": 5629,
      "aoun": 5630,
      "awa": 5631,
      "await": 5632,
      "bes": 5633,
      "bit": 5634,
      "bust": 5635,
      "bash": 5636,
      "bitter": 5637,
      "buck": 5638,
      "bhar": 5639,
      "coc": 5640,
      "dail": 5641,
      "dnc": 5642,
      "fa": 5643,
      "fest": 5644,
      "fell": 5645,
      "file": 5646,
      "father": 5647,
      "gent": 5648,
      "gate": 5649,
      "hind": 5650,
      "hiring": 5651,
      "ia": 5652,
      "ire": 5653,
      "kicks": 5654,
      "lit": 5655,
      "lie": 5656,
      "live": 5657,
      "mic": 5658,
      "mort": 5659,
      "much": 5660,
      "mount": 5661,
      "pes": 5662,
      "pour": 5663,
      "rav": 5664,
      "rome": 5665,
      "rural": 5666,
      "sel": 5667,
      "sie": 5668,
      "sight": 5669,
      "sacks": 5670,
      "sach": 5671,
      "sinks": 5672,
      "soros": 5673,
      "tie": 5674,
      "tang": 5675,
      "task": 5676,
      "yes": 5677,
      "ypg": 5678,
      "##aq": 5679,
      "##aust": 5680,
      "##dy": 5681,
      "##imp": 5682,
      "##ios": 5683,
      "##rel": 5684,
      "##rand": 5685,
      "##hel": 5686,
      "##by": 5687,
      "##backs": 5688,
      "##ville": 5689,
      "##wor": 5690,
      "##ways": 5691,
      "##wood": 5692,
      "##lig": 5693,
      "##jim": 5694,
      "##erse": 5695,
      "##eriff": 5696,
      "##ermen": 5697,
      "##esville": 5698,
      "##orum": 5699,
      "##aled": 5700,
      "##itial": 5701,
      "##itude": 5702,
      "togo": 5703,
      "touch": 5704,
      "##arus": 5705,
      "##arters": 5706,
      "##icut": 5707,
      "initial": 5708,
      "##uset": 5709,
      "##acles": 5710,
      "##ecided": 5711,
      "##urn": 5712,
      "##ura": 5713,
      "##tert": 5714,
      "##illed": 5715,
      "stad": 5716,
      "stake": 5717,
      "stamp": 5718,
      "sturge": 5719,
      "stretch": 5720,
      "chad": 5721,
      "##amble": 5722,
      "##ett": 5723,
      "##osing": 5724,
      "##ivid": 5725,
      "##utes": 5726,
      "repr": 5727,
      "repatri": 5728,
      "##anding": 5729,
      "##andez": 5730,
      "##uls": 5731,
      "excess": 5732,
      "sports": 5733,
      "spurs": 5734,
      "##aked": 5735,
      "##ranean": 5736,
      "agric": 5737,
      "mean": 5738,
      "shock": 5739,
      "sheriff": 5740,
      "northeast": 5741,
      "object": 5742,
      "heal": 5743,
      "crim": 5744,
      "billions": 5745,
      "eln": 5746,
      "else": 5747,
      "elite": 5748,
      "##vement": 5749,
      "brand": 5750,
      "brace": 5751,
      "braces": 5752,
      "art": 5753,
      "arbit": 5754,
      "cool": 5755,
      "unch": 5756,
      "unease": 5757,
      "unhc": 5758,
      "resort": 5759,
      "turning": 5760,
      "refl": 5761,
      "refuse": 5762,
      "##ecticut": 5763,
      "##ailed": 5764,
      "calling": 5765,
      "##anced": 5766,
      "warner": 5767,
      "defensive": 5768,
      "particip": 5769,
      "blitz": 5770,
      "indicted": 5771,
      "individ": 5772,
      "##issipp": 5773,
      "engl": 5774,
      "mother": 5775,
      "moody": 5776,
      "caution": 5777,
      "causing": 5778,
      "##astrop": 5779,
      "strip": 5780,
      "export": 5781,
      "decree": 5782,
      "decry": 5783,
      "origin": 5784,
      "##oked": 5785,
      "grid": 5786,
      "finish": 5787,
      "##ashes": 5788,
      "mediter": 5789,
      "protections": 5790,
      "catastrop": 5791,
      "fujim": 5792,
      "flat": 5793,
      "flaw": 5794,
      "outline": 5795,
      "outrage": 5796,
      "##bert": 5797,
      "debut": 5798,
      "mississipp": 5799,
      "airports": 5800,
      "room": 5801,
      "attacker": 5802,
      "attacking": 5803,
      "franco": 5804,
      "undecided": 5805,
      "loan": 5806,
      "loom": 5807,
      "amaq": 5808,
      "manches": 5809,
      "regions": 5810,
      "polling": 5811,
      "##quarters": 5812,
      "hastert": 5813,
      "imminent": 5814,
      "##rete": 5815,
      "##weet": 5816,
      "imposes": 5817,
      "##ernandez": 5818,
      "undergo": 5819,
      "##active": 5820,
      "##ronic": 5821,
      "criticize": 5822,
      "guidelines": 5823,
      "active": 5824,
      "transpar": 5825,
      "swift": 5826,
      "headed": 5827,
      "headquarters": 5828,
      "voice": 5829,
      "passage": 5830,
      "setback": 5831,
      "##riers": 5832,
      "approved": 5833,
      "runs": 5834,
      "runner": 5835,
      "farage": 5836,
      "denmark": 5837,
      "##angel": 5838,
      "buhar": 5839,
      "cubans": 5840,
      "weekend": 5841,
      "rejection": 5842,
      "prosecution": 5843,
      "slim": 5844,
      "desperate": 5845,
      "fein": 5846,
      "feels": 5847,
      "takeover": 5848,
      "barb": 5849,
      "barriers": 5850,
      "restored": 5851,
      "ill": 5852,
      "najib": 5853,
      "##achuset": 5854,
      "itself": 5855,
      "blocking": 5856,
      "disperse": 5857,
      "mosul": 5858,
      "consideration": 5859,
      "bigger": 5860,
      "flying": 5861,
      "hunts": 5862,
      "cruise": 5863,
      "cypr": 5864,
      "belarus": 5865,
      "taiwanese": 5866,
      "christian": 5867,
      "hears": 5868,
      "doctor": 5869,
      "doctors": 5870,
      "divide": 5871,
      "regulators": 5872,
      "breaking": 5873,
      "aviation": 5874,
      "talking": 5875,
      "collision": 5876,
      "handle": 5877,
      "handover": 5878,
      "devast": 5879,
      "balk": 5880,
      "viewers": 5881,
      "standards": 5882,
      "massachuset": 5883,
      "hostage": 5884,
      "##ottesville": 5885,
      "romanian": 5886,
      "##entials": 5887,
      "credentials": 5888,
      "colombian": 5889,
      "escap": 5890,
      "hero": 5891,
      "occ": 5892,
      "owners": 5893,
      "explain": 5894,
      "wreck": 5895,
      "199": 5896,
      "deeper": 5897,
      "deeply": 5898,
      "lawsuits": 5899,
      "renews": 5900,
      "turnout": 5901,
      "hardline": 5902,
      "product": 5903,
      "affected": 5904,
      "affairs": 5905,
      "uphold": 5906,
      "district": 5907,
      "interested": 5908,
      "scalise": 5909,
      "succession": 5910,
      "representatives": 5911,
      "angel": 5912,
      "angola": 5913,
      "interfax": 5914,
      "auto": 5915,
      "dissent": 5916,
      "patrol": 5917,
      "##umbles": 5918,
      "##stream": 5919,
      "falters": 5920,
      "receives": 5921,
      "religion": 5922,
      "escalate": 5923,
      "escalates": 5924,
      "timing": 5925,
      "appointment": 5926,
      "telev": 5927,
      "protectionist": 5928,
      "protectionism": 5929,
      "georgian": 5930,
      "kyr": 5931,
      "rolls": 5932,
      "encou": 5933,
      "kidnapp": 5934,
      "skeptic": 5935,
      "attempted": 5936,
      "serbian": 5937,
      "evacuate": 5938,
      "evacuated": 5939,
      "farmers": 5940,
      "captures": 5941,
      "volcanic": 5942,
      "##burg": 5943,
      "trouble": 5944,
      "vehicles": 5945,
      "employees": 5946,
      "persist": 5947,
      "reinst": 5948,
      "answer": 5949,
      "levels": 5950,
      "battered": 5951,
      "lux": 5952,
      "exchanges": 5953,
      "racial": 5954,
      "involvement": 5955,
      "recovery": 5956,
      "birthday": 5957,
      "exercise": 5958,
      "exercises": 5959,
      "lewd": 5960,
      "understands": 5961,
      "ambush": 5962,
      "bosnian": 5963,
      "stirs": 5964,
      "outcome": 5965,
      "impeachment": 5966,
      "products": 5967,
      "fishermen": 5968,
      "mourning": 5969,
      "prompts": 5970,
      "coordin": 5971,
      "magnitude": 5972,
      "walk": 5973,
      "resistance": 5974,
      "charlottesville": 5975,
      "deadlock": 5976,
      "macedonia": 5977,
      "hammond": 5978,
      "celebrations": 5979,
      "absolutely": 5980,
      "olympics": 5981,
      "moldov": 5982,
      "connecticut": 5983,
      "##stein": 5984,
      "outreach": 5985,
      "assassination": 5986,
      "capsizes": 5987,
      "privatize": 5988,
      "paramilitary": 5989,
      "athens": 5990,
      "khan": 5991,
      "language": 5992,
      "oxford": 5993,
      "wilbur": 5994,
      "refinery": 5995,
      "grassley": 5996,
      "surrender": 5997,
      "schedul": 5998,
      "strategic": 5999,
      "resettlement": 6000,
      "memorial": 6001,
      "anglophone": 6002,
      "female": 6003,
      "nunes": 6004,
      "negative": 6005,
      "clayton": 6006,
      "icbm": 6007,
      "abducted": 6008,
      "unconstitutional": 6009,
      "awaits": 6010,
      "bharara": 6011,
      "daily": 6012,
      "iaea": 6013,
      "sachs": 6014,
      "##works": 6015,
      "stadium": 6016,
      "sturgeon": 6017,
      "agriculture": 6018,
      "unhcr": 6019,
      "english": 6020,
      "mediterranean": 6021,
      "fujimori": 6022,
      "mississippi": 6023,
      "manchester": 6024,
      "buhari": 6025,
      "massachusetts": 6026,
      "46": 6027,
      "44": 6028,
      "az": 6029,
      "award": 6030,
      "bub": 6031,
      "bey": 6032,
      "bag": 6033,
      "bound": 6034,
      "beach": 6035,
      "bought": 6036,
      "brown": 6037,
      "cate": 6038,
      "cors": 6039,
      "craft": 6040,
      "cbs": 6041,
      "certain": 6042,
      "dent": 6043,
      "dow": 6044,
      "duel": 6045,
      "ditch": 6046,
      "dark": 6047,
      "dhab": 6048,
      "echo": 6049,
      "fm": 6050,
      "fet": 6051,
      "fare": 6052,
      "fasc": 6053,
      "gir": 6054,
      "gore": 6055,
      "gear": 6056,
      "gag": 6057,
      "hon": 6058,
      "hint": 6059,
      "hell": 6060,
      "je": 6061,
      "jur": 6062,
      "jak": 6063,
      "jump": 6064,
      "kick": 6065,
      "kham": 6066,
      "lic": 6067,
      "lam": 6068,
      "lik": 6069,
      "lacks": 6070,
      "lives": 6071,
      "lula": 6072,
      "mir": 6073,
      "misl": 6074,
      "moral": 6075,
      "ot": 6076,
      "ouster": 6077,
      "ps": 6078,
      "piv": 6079,
      "pace": 6080,
      "pays": 6081,
      "rid": 6082,
      "rum": 6083,
      "ride": 6084,
      "rough": 6085,
      "sad": 6086,
      "sister": 6087,
      "size": 6088,
      "taken": 6089,
      "ven": 6090,
      "wo": 6091,
      "wy": 6092,
      "welf": 6093,
      "wolf": 6094,
      "xl": 6095,
      "ying": 6096,
      "##eus": 6097,
      "##eid": 6098,
      "##equ": 6099,
      "##tan": 6100,
      "##tim": 6101,
      "##au": 6102,
      "##ave": 6103,
      "##ause": 6104,
      "##dam": 6105,
      "##dict": 6106,
      "##uit": 6107,
      "##uces": 6108,
      "##ius": 6109,
      "##ruction": 6110,
      "##fers": 6111,
      "##fort": 6112,
      "##fell": 6113,
      "##gers": 6114,
      "##gues": 6115,
      "##gory": 6116,
      "##hr": 6117,
      "##hen": 6118,
      "##him": 6119,
      "##hib": 6120,
      "##bour": 6121,
      "##ctic": 6122,
      "##ware": 6123,
      "##luck": 6124,
      "##pal": 6125,
      "##pace": 6126,
      "##med": 6127,
      "##zi": 6128,
      "##ero": 6129,
      "##ining": 6130,
      "##oned": 6131,
      "##onial": 6132,
      "##oration": 6133,
      "##itb": 6134,
      "##itol": 6135,
      "##itors": 6136,
      "##itals": 6137,
      "tom": 6138,
      "##ares": 6139,
      "##array": 6140,
      "##iscl": 6141,
      "trapped": 6142,
      "##mpdown": 6143,
      "truc": 6144,
      "##eds": 6145,
      "trumps": 6146,
      "reac": 6147,
      "reid": 6148,
      "reaff": 6149,
      "##urb": 6150,
      "##ider": 6151,
      "##iders": 6152,
      "##idation": 6153,
      "deuts": 6154,
      "stations": 6155,
      "strain": 6156,
      "##olution": 6157,
      "##rew": 6158,
      "##rees": 6159,
      "che": 6160,
      "##seille": 6161,
      "##otic": 6162,
      "##oting": 6163,
      "##ete": 6164,
      "concess": 6165,
      "##lex": 6166,
      "proof": 6167,
      "##rab": 6168,
      "##raeus": 6169,
      "##ively": 6170,
      "neigh": 6171,
      "nepal": 6172,
      "ash": 6173,
      "##ppo": 6174,
      "##iances": 6175,
      "##ande": 6176,
      "##anded": 6177,
      "##adish": 6178,
      "exec": 6179,
      "exiled": 6180,
      "##ocaust": 6181,
      "spring": 6182,
      "sens": 6183,
      "istan": 6184,
      "##uda": 6185,
      "##stad": 6186,
      "presence": 6187,
      "overc": 6188,
      "offices": 6189,
      "shakes": 6190,
      "shipping": 6191,
      "sued": 6192,
      "gop": 6193,
      "##arta": 6194,
      "heat": 6195,
      "heats": 6196,
      "arson": 6197,
      "arctic": 6198,
      "acts": 6199,
      "aclu": 6200,
      "##apt": 6201,
      "along": 6202,
      "alarms": 6203,
      "anx": 6204,
      "euph": 6205,
      "##ifax": 6206,
      "unan": 6207,
      "unrest": 6208,
      "comfort": 6209,
      "##aba": 6210,
      "mineral": 6211,
      "disarray": 6212,
      "turned": 6213,
      "##elles": 6214,
      "##elled": 6215,
      "abortions": 6216,
      "plants": 6217,
      "##ancing": 6218,
      "warm": 6219,
      "defuse": 6220,
      "defenses": 6221,
      "enters": 6222,
      "##umers": 6223,
      "appropriate": 6224,
      "congresswoman": 6225,
      "probed": 6226,
      "probably": 6227,
      "sahel": 6228,
      "##izer": 6229,
      "mob": 6230,
      "moved": 6231,
      "caught": 6232,
      "##aste": 6233,
      "stream": 6234,
      "que": 6235,
      "quot": 6236,
      "quitting": 6237,
      "sanction": 6238,
      "contrad": 6239,
      "iraqis": 6240,
      "consens": 6241,
      "consumers": 6242,
      "drives": 6243,
      "drones": 6244,
      "202": 6245,
      "mediation": 6246,
      "mediate": 6247,
      "camps": 6248,
      "depend": 6249,
      "marco": 6250,
      "marseille": 6251,
      "rulings": 6252,
      "science": 6253,
      "fled": 6254,
      "flies": 6255,
      "flash": 6256,
      "interp": 6257,
      "fray": 6258,
      "##arding": 6259,
      "winter": 6260,
      "winds": 6261,
      "putting": 6262,
      "robert": 6263,
      "##eason": 6264,
      "##gyz": 6265,
      "revives": 6266,
      "revokes": 6267,
      "undiscl": 6268,
      "##enei": 6269,
      "looming": 6270,
      "invite": 6271,
      "regime": 6272,
      "##ounds": 6273,
      "##ously": 6274,
      "nominations": 6275,
      "seeker": 6276,
      "discussion": 6277,
      "discussing": 6278,
      "imports": 6279,
      "imposed": 6280,
      "visiting": 6281,
      "crises": 6282,
      "recapt": 6283,
      "tested": 6284,
      "guy": 6285,
      "guide": 6286,
      "changed": 6287,
      "delib": 6288,
      "generation": 6289,
      "speaking": 6290,
      "wein": 6291,
      "nearing": 6292,
      "##bank": 6293,
      "investor": 6294,
      "swear": 6295,
      "passed": 6296,
      "passport": 6297,
      "concert": 6298,
      "concrete": 6299,
      "assur": 6300,
      "assures": 6301,
      "evangel": 6302,
      "runoff": 6303,
      "mcm": 6304,
      "australians": 6305,
      "buff": 6306,
      "zimbabweans": 6307,
      "capitol": 6308,
      "##rawl": 6309,
      "orderly": 6310,
      "slain": 6311,
      "returning": 6312,
      "returned": 6313,
      "prefer": 6314,
      "##ullah": 6315,
      "candidacy": 6316,
      "effici": 6317,
      "donor": 6318,
      "inside": 6319,
      "paying": 6320,
      "direction": 6321,
      "incidents": 6322,
      "convicts": 6323,
      "foiled": 6324,
      "palin": 6325,
      "markle": 6326,
      "colonial": 6327,
      "fourth": 6328,
      "counties": 6329,
      "countdown": 6330,
      "clampdown": 6331,
      "victim": 6332,
      "specific": 6333,
      "##erties": 6334,
      "annivers": 6335,
      "latino": 6336,
      "controls": 6337,
      "battles": 6338,
      "closely": 6339,
      "freeport": 6340,
      "boosting": 6341,
      "skip": 6342,
      "christians": 6343,
      "founder": 6344,
      "stein": 6345,
      "cleared": 6346,
      "provision": 6347,
      "resolved": 6348,
      "collea": 6349,
      "complain": 6350,
      "complains": 6351,
      "socialists": 6352,
      "withdrawn": 6353,
      "mainstream": 6354,
      "promise": 6355,
      "replacing": 6356,
      "weah": 6357,
      "devices": 6358,
      "financing": 6359,
      "holocaust": 6360,
      "double": 6361,
      "mostly": 6362,
      "hostages": 6363,
      "cooper": 6364,
      "avoids": 6365,
      "150": 6366,
      "emerges": 6367,
      "##nessee": 6368,
      "negotiation": 6369,
      "##phoon": 6370,
      "safeg": 6371,
      "joining": 6372,
      "single": 6373,
      "prisoner": 6374,
      "lowest": 6375,
      "shortage": 6376,
      "##ification": 6377,
      "survives": 6378,
      "authorization": 6379,
      "becoming": 6380,
      "deepen": 6381,
      "indiana": 6382,
      "broader": 6383,
      "murdered": 6384,
      "flex": 6385,
      "crossings": 6386,
      "dropped": 6387,
      "contracts": 6388,
      "frankfur": 6389,
      "produce": 6390,
      "##print": 6391,
      "toler": 6392,
      "appearance": 6393,
      "##ields": 6394,
      "operating": 6395,
      "players": 6396,
      "protecting": 6397,
      "tighten": 6398,
      "successful": 6399,
      "crowds": 6400,
      "pullout": 6401,
      "struggling": 6402,
      "asset": 6403,
      "bosses": 6404,
      "patri": 6405,
      "valley": 6406,
      "hospitals": 6407,
      "metro": 6408,
      "greets": 6409,
      "leaked": 6410,
      "tackling": 6411,
      "haven": 6412,
      "martial": 6413,
      "spark": 6414,
      "strengthens": 6415,
      "importance": 6416,
      "regulatory": 6417,
      "collapses": 6418,
      "rollback": 6419,
      "silence": 6420,
      "admits": 6421,
      "engine": 6422,
      "helicopters": 6423,
      "abdullah": 6424,
      "petraeus": 6425,
      "satell": 6426,
      "happy": 6427,
      "sentencing": 6428,
      "believe": 6429,
      "equifax": 6430,
      "priorities": 6431,
      "rebuff": 6432,
      "lobbyist": 6433,
      "careful": 6434,
      "munich": 6435,
      "typhoon": 6436,
      "vacancy": 6437,
      "trafficking": 6438,
      "overturn": 6439,
      "opponent": 6440,
      "emirates": 6441,
      "capture": 6442,
      "modern": 6443,
      "liberals": 6444,
      "employee": 6445,
      "punishment": 6446,
      "optimism": 6447,
      "motor": 6448,
      "mulling": 6449,
      "pitches": 6450,
      "##where": 6451,
      "prepa": 6452,
      "observers": 6453,
      "ignore": 6454,
      "luther": 6455,
      "landsl": 6456,
      "tennessee": 6457,
      "utah": 6458,
      "verdict": 6459,
      "suffer": 6460,
      "figures": 6461,
      "hyd": 6462,
      "jihadist": 6463,
      "secessionists": 6464,
      "practice": 6465,
      "nationwide": 6466,
      "amendment": 6467,
      "bosnia": 6468,
      "gave": 6469,
      "multi": 6470,
      "analy": 6471,
      "analys": 6472,
      "warship": 6473,
      "organiz": 6474,
      "outcry": 6475,
      "photo": 6476,
      "technology": 6477,
      "dictators": 6478,
      "fatal": 6479,
      "santorum": 6480,
      "reassure": 6481,
      "adopt": 6482,
      "recommend": 6483,
      "permit": 6484,
      "croatia": 6485,
      "maker": 6486,
      "peddling": 6487,
      "zarrab": 6488,
      "sponsored": 6489,
      "scenes": 6490,
      "aleppo": 6491,
      "pilot": 6492,
      "route": 6493,
      "strange": 6494,
      "methane": 6495,
      "obstacles": 6496,
      "frustration": 6497,
      "discrimination": 6498,
      "evasion": 6499,
      "navalny": 6500,
      "tribunal": 6501,
      "0130": 6502,
      "osce": 6503,
      "blaming": 6504,
      "indictment": 6505,
      "savings": 6506,
      "mogadish": 6507,
      "manipul": 6508,
      "associates": 6509,
      "tariffs": 6510,
      "determined": 6511,
      "slovenia": 6512,
      "hollande": 6513,
      "sicily": 6514,
      "summer": 6515,
      "francisco": 6516,
      "guerrill": 6517,
      "guarantee": 6518,
      "skinny": 6519,
      "acknowledges": 6520,
      "faith": 6521,
      "festival": 6522,
      "micros": 6523,
      "siege": 6524,
      "reprieve": 6525,
      "unchanged": 6526,
      "catastrophe": 6527,
      "undergoes": 6528,
      "cyprus": 6529,
      "productive": 6530,
      "kyrgyz": 6531,
      "encoura": 6532,
      "kidnapping": 6533,
      "luxury": 6534,
      "beyond": 6535,
      "category": 6536,
      "dhabi": 6537,
      "jakarta": 6538,
      "khamenei": 6539,
      "welfare": 6540,
      "yingluck": 6541,
      "reaffirms": 6542,
      "deutsche": 6543,
      "istanbul": 6544,
      "undisclosed": 6545,
      "anniversary": 6546,
      "safegu": 6547,
      "frankfurt": 6548,
      "mogadishu": 6549,
      "36": 6550,
      "34": 6551,
      "300": 6552,
      "48": 6553,
      "55": 6554,
      "54": 6555,
      "78": 6556,
      "auster": 6557,
      "bh": 6558,
      "bee": 6559,
      "bite": 6560,
      "bish": 6561,
      "bav": 6562,
      "brawl": 6563,
      "cu": 6564,
      "cs": 6565,
      "cer": 6566,
      "cos": 6567,
      "cens": 6568,
      "cable": 6569,
      "cult": 6570,
      "culture": 6571,
      "dil": 6572,
      "dim": 6573,
      "dock": 6574,
      "dual": 6575,
      "daw": 6576,
      "either": 6577,
      "fab": 6578,
      "fans": 6579,
      "fior": 6580,
      "fier": 6581,
      "fields": 6582,
      "gut": 6583,
      "gerry": 6584,
      "hi": 6585,
      "hum": 6586,
      "imb": 6587,
      "jab": 6588,
      "jama": 6589,
      "jared": 6590,
      "ker": 6591,
      "kinder": 6592,
      "lights": 6593,
      "lays": 6594,
      "lying": 6595,
      "linger": 6596,
      "mas": 6597,
      "mock": 6598,
      "mounts": 6599,
      "nas": 6600,
      "ngo": 6601,
      "numb": 6602,
      "oas": 6603,
      "oce": 6604,
      "pd": 6605,
      "pf": 6606,
      "pul": 6607,
      "pret": 6608,
      "pages": 6609,
      "poros": 6610,
      "ran": 6611,
      "rif": 6612,
      "rank": 6613,
      "river": 6614,
      "rnc": 6615,
      "sin": 6616,
      "sle": 6617,
      "sust": 6618,
      "sab": 6619,
      "sail": 6620,
      "sink": 6621,
      "tay": 6622,
      "tally": 6623,
      "ul": 6624,
      "uran": 6625,
      "ustr": 6626,
      "vs": 6627,
      "version": 6628,
      "wra": 6629,
      "wish": 6630,
      "wide": 6631,
      "wto": 6632,
      "witch": 6633,
      "waning": 6634,
      "yah": 6635,
      "zink": 6636,
      "##eo": 6637,
      "##eel": 6638,
      "##egr": 6639,
      "##tese": 6640,
      "##omp": 6641,
      "##oing": 6642,
      "##oth": 6643,
      "##oft": 6644,
      "##ao": 6645,
      "##da": 6646,
      "##dom": 6647,
      "##ux": 6648,
      "##ually": 6649,
      "##iment": 6650,
      "##iary": 6651,
      "##iors": 6652,
      "##iately": 6653,
      "##rent": 6654,
      "##sk": 6655,
      "##yr": 6656,
      "##yet": 6657,
      "##gian": 6658,
      "##gart": 6659,
      "##her": 6660,
      "##hin": 6661,
      "##hmer": 6662,
      "##bik": 6663,
      "##bull": 6664,
      "##beat": 6665,
      "##viet": 6666,
      "##cy": 6667,
      "##cing": 6668,
      "##weets": 6669,
      "##lan": 6670,
      "##lers": 6671,
      "##pa": 6672,
      "##pion": 6673,
      "##ping": 6674,
      "##pir": 6675,
      "##me": 6676,
      "##met": 6677,
      "##mir": 6678,
      "##most": 6679,
      "##eres": 6680,
      "##anes": 6681,
      "##inary": 6682,
      "##ories": 6683,
      "##enous": 6684,
      "##enger": 6685,
      "##itim": 6686,
      "##itage": 6687,
      "##itable": 6688,
      "tos": 6689,
      "tool": 6690,
      "##arts": 6691,
      "##isons": 6692,
      "tra": 6693,
      "trick": 6694,
      "treason": 6695,
      "##icon": 6696,
      "##icate": 6697,
      "inequ": 6698,
      "##mpeo": 6699,
      "##ilar": 6700,
      "truth": 6701,
      "##edd": 6702,
      "reh": 6703,
      "reward": 6704,
      "recons": 6705,
      "##rooms": 6706,
      "##rogen": 6707,
      "fort": 6708,
      "##urers": 6709,
      "##igenous": 6710,
      "##iam": 6711,
      "saying": 6712,
      "deem": 6713,
      "stol": 6714,
      "stakes": 6715,
      "##olved": 6716,
      "##olera": 6717,
      "##ases": 6718,
      "##thodo": 6719,
      "##omo": 6720,
      "cham": 6721,
      "chanc": 6722,
      "chech": 6723,
      "chides": 6724,
      "cholera": 6725,
      "##ote": 6726,
      "##otional": 6727,
      "##otte": 6728,
      "conce": 6729,
      "##verage": 6730,
      "prove": 6731,
      "proced": 6732,
      "thw": 6733,
      "throw": 6734,
      "thinks": 6735,
      "theres": 6736,
      "##irut": 6737,
      "ast": 6738,
      "reput": 6739,
      "repair": 6740,
      "atroc": 6741,
      "##imidation": 6742,
      "##imously": 6743,
      "##eading": 6744,
      "##ube": 6745,
      "##adors": 6746,
      "##ower": 6747,
      "##owing": 6748,
      "exemp": 6749,
      "club": 6750,
      "spo": 6751,
      "spell": 6752,
      "##ista": 6753,
      "##istle": 6754,
      "laid": 6755,
      "present": 6756,
      "##acking": 6757,
      "norwe": 6758,
      "ago": 6759,
      "meant": 6760,
      "shap": 6761,
      "shape": 6762,
      "shaba": 6763,
      "##ended": 6764,
      "sun": 6765,
      "beirut": 6766,
      "obtain": 6767,
      "oblig": 6768,
      "heard": 6769,
      "plea": 6770,
      "elig": 6771,
      "##emb": 6772,
      "##emma": 6773,
      "brought": 6774,
      "ark": 6775,
      "argu": 6776,
      "align": 6777,
      "alone": 6778,
      "alert": 6779,
      "alger": 6780,
      "almost": 6781,
      "coff": 6782,
      "aden": 6783,
      "##lywood": 6784,
      "unins": 6785,
      "unilateral": 6786,
      "resur": 6787,
      "resour": 6788,
      "residence": 6789,
      "##uctions": 6790,
      "##ablish": 6791,
      "seiz": 6792,
      "seized": 6793,
      "seattle": 6794,
      "disgr": 6795,
      "##ressed": 6796,
      "turbul": 6797,
      "##ightly": 6798,
      "##ellor": 6799,
      "refusal": 6800,
      "refusing": 6801,
      "banning": 6802,
      "dealing": 6803,
      "dealings": 6804,
      "planes": 6805,
      "##ibuster": 6806,
      "warms": 6807,
      "theft": 6808,
      "leaning": 6809,
      "defence": 6810,
      "bloc": 6811,
      "indigenous": 6812,
      "precedent": 6813,
      "enacts": 6814,
      "enrich": 6815,
      "enemy": 6816,
      "southwest": 6817,
      "##izz": 6818,
      "##astic": 6819,
      "struck": 6820,
      "expelled": 6821,
      "ups": 6822,
      "upgrade": 6823,
      "upbeat": 6824,
      "##aves": 6825,
      "decides": 6826,
      "ord": 6827,
      "orthodo": 6828,
      "bob": 6829,
      "boom": 6830,
      "boys": 6831,
      "boats": 6832,
      "quo": 6833,
      "quiet": 6834,
      "##outa": 6835,
      "backfire": 6836,
      "grace": 6837,
      "fines": 6838,
      "command": 6839,
      "relie": 6840,
      "relatives": 6841,
      "park": 6842,
      "cathol": 6843,
      "depot": 6844,
      "marks": 6845,
      "fuels": 6846,
      "scam": 6847,
      "interim": 6848,
      "outlines": 6849,
      "outgoing": 6850,
      "aller": 6851,
      "alliances": 6852,
      "##uclearization": 6853,
      "campaigning": 6854,
      "irreg": 6855,
      "revise": 6856,
      "revival": 6857,
      "##icket": 6858,
      "manage": 6859,
      "league": 6860,
      "retail": 6861,
      "retreat": 6862,
      "retweets": 6863,
      "nominating": 6864,
      "2012": 6865,
      "ifx": 6866,
      "legitim": 6867,
      "discussions": 6868,
      "impl": 6869,
      "imposs": 6870,
      "panels": 6871,
      "pressured": 6872,
      "complex": 6873,
      "reck": 6874,
      "recent": 6875,
      "##clusion": 6876,
      "harare": 6877,
      "testing": 6878,
      "guill": 6879,
      "hoping": 6880,
      "intent": 6881,
      "integr": 6882,
      "intimidation": 6883,
      "macau": 6884,
      "##biya": 6885,
      "delta": 6886,
      "emotional": 6887,
      "hurri": 6888,
      "hurting": 6889,
      "transcr": 6890,
      "transfers": 6891,
      "##ipped": 6892,
      "supporting": 6893,
      "investments": 6894,
      "swing": 6895,
      "swap": 6896,
      "advisor": 6897,
      "advised": 6898,
      "pushed": 6899,
      "millenn": 6900,
      "passenger": 6901,
      "assail": 6902,
      "assails": 6903,
      "events": 6904,
      "extending": 6905,
      "extortion": 6906,
      "denuclearization": 6907,
      "issued": 6908,
      "issuing": 6909,
      "buoy": 6910,
      "buying": 6911,
      "afghans": 6912,
      "keys": 6913,
      "surges": 6914,
      "subject": 6915,
      "slide": 6916,
      "slightly": 6917,
      "committees": 6918,
      "error": 6919,
      "soviet": 6920,
      "conduc": 6921,
      "agreements": 6922,
      "violating": 6923,
      "donations": 6924,
      "insult": 6925,
      "restoring": 6926,
      "arabiya": 6927,
      "challenger": 6928,
      "pompeo": 6929,
      "incoming": 6930,
      "convers": 6931,
      "mao": 6932,
      "max": 6933,
      "foils": 6934,
      "male": 6935,
      "maltese": 6936,
      "naming": 6937,
      "society": 6938,
      "possibility": 6939,
      "prosecute": 6940,
      "annual": 6941,
      "greet": 6942,
      "salary": 6943,
      "palestine": 6944,
      "servants": 6945,
      "divest": 6946,
      "divisive": 6947,
      "electric": 6948,
      "electronic": 6949,
      "##gotiable": 6950,
      "showed": 6951,
      "worldwide": 6952,
      "ambassadors": 6953,
      "lasting": 6954,
      "resolutions": 6955,
      "anyone": 6956,
      "insurer": 6957,
      "socialist": 6958,
      "damaged": 6959,
      "adding": 6960,
      "mainland": 6961,
      "intervention": 6962,
      "easy": 6963,
      "device": 6964,
      "declare": 6965,
      "murders": 6966,
      "holiday": 6967,
      "reached": 6968,
      "kneel": 6969,
      "solid": 6970,
      "standoff": 6971,
      "africans": 6972,
      "failing": 6973,
      "jobbik": 6974,
      "hostile": 6975,
      "publish": 6976,
      "avoidance": 6977,
      "emerge": 6978,
      "##ciliation": 6979,
      "searching": 6980,
      "freedoms": 6981,
      "humanity": 6982,
      "continued": 6983,
      "bureau": 6984,
      "singer": 6985,
      "briefed": 6986,
      "accession": 6987,
      "heritage": 6988,
      "modest": 6989,
      "writer": 6990,
      "formally": 6991,
      "choose": 6992,
      "chooses": 6993,
      "blackm": 6994,
      "findings": 6995,
      "renewable": 6996,
      "broaden": 6997,
      "broadband": 6998,
      "##unders": 6999,
      "##ricts": 7000,
      "separate": 7001,
      "turnbull": 7002,
      "contrib": 7003,
      "establish": 7004,
      "##egration": 7005,
      "##egraph": 7006,
      "endorsements": 7007,
      "hammer": 7008,
      "districts": 7009,
      "furor": 7010,
      "landmark": 7011,
      "population": 7012,
      "populism": 7013,
      "greater": 7014,
      "statue": 7015,
      "angers": 7016,
      "recognizes": 7017,
      "inaugural": 7018,
      "##itorial": 7019,
      "thirds": 7020,
      "entire": 7021,
      "patent": 7022,
      "raps": 7023,
      "splits": 7024,
      "##umbling": 7025,
      "papers": 7026,
      "positions": 7027,
      "custom": 7028,
      "weaken": 7029,
      "weakens": 7030,
      "informed": 7031,
      "responding": 7032,
      "pursues": 7033,
      "subpoenaed": 7034,
      "having": 7035,
      "telec": 7036,
      "telegraph": 7037,
      "communication": 7038,
      "tears": 7039,
      "teargas": 7040,
      "chilean": 7041,
      "profits": 7042,
      "audit": 7043,
      "commitments": 7044,
      "hospitalized": 7045,
      "2212": 7046,
      "boliv": 7047,
      "radical": 7048,
      "silicon": 7049,
      "expectations": 7050,
      "stalls": 7051,
      "dozen": 7052,
      "misunders": 7053,
      "pause": 7054,
      "instead": 7055,
      "classified": 7056,
      "predict": 7057,
      "scramble": 7058,
      "veteran": 7059,
      "equity": 7060,
      "handsh": 7061,
      "wider": 7062,
      "widow": 7063,
      "widens": 7064,
      "career": 7065,
      "vacc": 7066,
      "nazis": 7067,
      "tunisian": 7068,
      "selling": 7069,
      "spreading": 7070,
      "tapes": 7071,
      "breaches": 7072,
      "retaliate": 7073,
      "captured": 7074,
      "soften": 7075,
      "shrink": 7076,
      "shrugs": 7077,
      "entering": 7078,
      "carriers": 7079,
      "guatemalan": 7080,
      "identifies": 7081,
      "embarr": 7082,
      "witnesses": 7083,
      "confronts": 7084,
      "youths": 7085,
      "differences": 7086,
      "biofuel": 7087,
      "battery": 7088,
      "similar": 7089,
      "utility": 7090,
      "provocations": 7091,
      "filibuster": 7092,
      "churches": 7093,
      "secessionist": 7094,
      "involved": 7095,
      "inspired": 7096,
      "abandoned": 7097,
      "mistura": 7098,
      "shifting": 7099,
      "window": 7100,
      "terminal": 7101,
      "built": 7102,
      "##blatt": 7103,
      "##ularities": 7104,
      "organization": 7105,
      "technical": 7106,
      "aware": 7107,
      "awards": 7108,
      "fatah": 7109,
      "prompt": 7110,
      "examine": 7111,
      "coordination": 7112,
      "recommends": 7113,
      "teenager": 7114,
      "zarif": 7115,
      "reconstruction": 7116,
      "reconciliation": 7117,
      "shelter": 7118,
      "scenar": 7119,
      "recruits": 7120,
      "bonds": 7121,
      "espion": 7122,
      "ghouta": 7123,
      "riots": 7124,
      "wwi": 7125,
      "ww2": 7126,
      "stopped": 7127,
      "straight": 7128,
      "dismant": 7129,
      "dismantle": 7130,
      "princ": 7131,
      "prayer": 7132,
      "revenue": 7133,
      "loyalty": 7134,
      "immediate": 7135,
      "immediately": 7136,
      "requirements": 7137,
      "ethiopia": 7138,
      "ethiopian": 7139,
      "blacklist": 7140,
      "blacklists": 7141,
      "roadside": 7142,
      "etihad": 7143,
      "mystery": 7144,
      "sarin": 7145,
      "grenfell": 7146,
      "undermining": 7147,
      "recalls": 7148,
      "settles": 7149,
      "penalty": 7150,
      "distract": 7151,
      "destabilizing": 7152,
      "purchase": 7153,
      "overwhelmingly": 7154,
      "renzi": 7155,
      "##ecessary": 7156,
      "nordic": 7157,
      "article": 7158,
      "industrial": 7159,
      "substance": 7160,
      "admiral": 7161,
      "slovakia": 7162,
      "kazakhstan": 7163,
      "besie": 7164,
      "bucking": 7165,
      "fellow": 7166,
      "litig": 7167,
      "peshmer": 7168,
      "repatriation": 7169,
      "transparency": 7170,
      "occup": 7171,
      "ownership": 7172,
      "television": 7173,
      "misleading": 7174,
      "pivot": 7175,
      "rumors": 7176,
      "##henko": 7177,
      "concessions": 7178,
      "neighb": 7179,
      "euphrates": 7180,
      "unanimously": 7181,
      "minerals": 7182,
      "consensus": 7183,
      "buffett": 7184,
      "efficiency": 7185,
      "complaints": 7186,
      "cooperating": 7187,
      "tolerance": 7188,
      "hydrogen": 7189,
      "dictatorship": 7190,
      "microsoft": 7191,
      "kyrgyzstan": 7192,
      "beef": 7193,
      "cuomo": 7194,
      "cerem": 7195,
      "dilemma": 7196,
      "fabric": 7197,
      "fiorina": 7198,
      "jamaica": 7199,
      "kindergart": 7200,
      "ocean": 7201,
      "pulling": 7202,
      "poroshenko": 7203,
      "sustain": 7204,
      "uranium": 7205,
      "yahoo": 7206,
      "zinke": 7207,
      "tricky": 7208,
      "stolen": 7209,
      "chamber": 7210,
      "chancellor": 7211,
      "theresa": 7212,
      "atrocities": 7213,
      "norwegian": 7214,
      "shabaab": 7215,
      "obligations": 7216,
      "arguments": 7217,
      "uninsured": 7218,
      "orthodox": 7219,
      "irregularities": 7220,
      "impossible": 7221,
      "hurriyet": 7222,
      "transcrip": 7223,
      "millennial": 7224,
      "espionage": 7225,
      "peshmerga": 7226,
      "47": 7227,
      "59": 7228,
      "72": 7229,
      "85": 7230,
      "80": 7231,
      "800": 7232,
      "auction": 7233,
      "bia": 7234,
      "bare": 7235,
      "bost": 7236,
      "born": 7237,
      "cra": 7238,
      "creat": 7239,
      "dar": 7240,
      "dub": 7241,
      "dlam": 7242,
      "dying": 7243,
      "died": 7244,
      "duty": 7245,
      "duck": 7246,
      "eruption": 7247,
      "eating": 7248,
      "erupt": 7249,
      "fer": 7250,
      "fid": 7251,
      "fant": 7252,
      "fash": 7253,
      "faster": 7254,
      "filed": 7255,
      "ferc": 7256,
      "g7": 7257,
      "ging": 7258,
      "gian": 7259,
      "gest": 7260,
      "grop": 7261,
      "gott": 7262,
      "ho": 7263,
      "hq": 7264,
      "hor": 7265,
      "hat": 7266,
      "hed": 7267,
      "heral": 7268,
      "hod": 7269,
      "homs": 7270,
      "hats": 7271,
      "hinder": 7272,
      "hernandez": 7273,
      "jen": 7274,
      "joke": 7275,
      "kis": 7276,
      "kate": 7277,
      "kash": 7278,
      "li": 7279,
      "les": 7280,
      "lith": 7281,
      "lect": 7282,
      "lord": 7283,
      "lind": 7284,
      "luck": 7285,
      "mr": 7286,
      "my": 7287,
      "mh": 7288,
      "ment": 7289,
      "mend": 7290,
      "mum": 7291,
      "mention": 7292,
      "mitch": 7293,
      "nra": 7294,
      "nice": 7295,
      "nik": 7296,
      "nast": 7297,
      "nerv": 7298,
      "native": 7299,
      "nix": 7300,
      "neck": 7301,
      "nancy": 7302,
      "naked": 7303,
      "oman": 7304,
      "oval": 7305,
      "oreg": 7306,
      "pk": 7307,
      "pit": 7308,
      "pist": 7309,
      "pod": 7310,
      "pict": 7311,
      "ports": 7312,
      "pose": 7313,
      "ray": 7314,
      "rain": 7315,
      "rican": 7316,
      "rice": 7317,
      "rust": 7318,
      "rage": 7319,
      "rick": 7320,
      "rogue": 7321,
      "rosn": 7322,
      "sor": 7323,
      "sac": 7324,
      "sand": 7325,
      "sure": 7326,
      "side": 7327,
      "sows": 7328,
      "stern": 7329,
      "simp": 7330,
      "tu": 7331,
      "tip": 7332,
      "tum": 7333,
      "tact": 7334,
      "ticking": 7335,
      "ticket": 7336,
      "vic": 7337,
      "via": 7338,
      "vess": 7339,
      "vital": 7340,
      "wise": 7341,
      "wai": 7342,
      "woo": 7343,
      "waste": 7344,
      "zamb": 7345,
      "zero": 7346,
      "##ef": 7347,
      "##eft": 7348,
      "##eant": 7349,
      "##eating": 7350,
      "##tr": 7351,
      "##time": 7352,
      "##toman": 7353,
      "##oen": 7354,
      "##oter": 7355,
      "##ods": 7356,
      "##othe": 7357,
      "##nish": 7358,
      "##nels": 7359,
      "##aid": 7360,
      "##db": 7361,
      "##uals": 7362,
      "##uador": 7363,
      "##ien": 7364,
      "##rt": 7365,
      "##rising": 7366,
      "##sible": 7367,
      "##fia": 7368,
      "##fra": 7369,
      "##fast": 7370,
      "##fires": 7371,
      "##field": 7372,
      "##yatt": 7373,
      "##ysee": 7374,
      "##gb": 7375,
      "##gel": 7376,
      "##gain": 7377,
      "##gage": 7378,
      "##gely": 7379,
      "##ha": 7380,
      "##hit": 7381,
      "##hag": 7382,
      "##hone": 7383,
      "##bu": 7384,
      "##br": 7385,
      "##bed": 7386,
      "##bow": 7387,
      "##bard": 7388,
      "##byn": 7389,
      "##cial": 7390,
      "##cure": 7391,
      "##kor": 7392,
      "##ken": 7393,
      "##western": 7394,
      "##los": 7395,
      "##latt": 7396,
      "##lieb": 7397,
      "##pe": 7398,
      "##pm": 7399,
      "##per": 7400,
      "##put": 7401,
      "##370": 7402,
      "##zder": 7403,
      "##jury": 7404,
      "##inion": 7405,
      "##inum": 7406,
      "##oni": 7407,
      "##oria": 7408,
      "##organ": 7409,
      "##enant": 7410,
      "##enberg": 7411,
      "##enhag": 7412,
      "##alid": 7413,
      "##itism": 7414,
      "##arn": 7415,
      "##arth": 7416,
      "##arations": 7417,
      "##arged": 7418,
      "##isition": 7419,
      "tri": 7420,
      "trop": 7421,
      "traction": 7422,
      "inn": 7423,
      "inev": 7424,
      "input": 7425,
      "##oup": 7426,
      "##ouds": 7427,
      "##ila": 7428,
      "##iloni": 7429,
      "##inge": 7430,
      "truce": 7431,
      "##edes": 7432,
      "##ayev": 7433,
      "rex": 7434,
      "reel": 7435,
      "reth": 7436,
      "reign": 7437,
      "reag": 7438,
      "really": 7439,
      "reins": 7440,
      "reiter": 7441,
      "##usual": 7442,
      "##rokor": 7443,
      "##enthold": 7444,
      "##eld": 7445,
      "##aco": 7446,
      "ford": 7447,
      "forest": 7448,
      "##urate": 7449,
      "##uries": 7450,
      "##idance": 7451,
      "##terror": 7452,
      "##illing": 7453,
      "stey": 7454,
      "stem": 7455,
      "steal": 7456,
      "stokes": 7457,
      "sticks": 7458,
      "stages": 7459,
      "stabil": 7460,
      "stolt": 7461,
      "##olete": 7462,
      "##asts": 7463,
      "##asters": 7464,
      "##real": 7465,
      "##omen": 7466,
      "chat": 7467,
      "chels": 7468,
      "##ersions": 7469,
      "##amatic": 7470,
      "##resp": 7471,
      "##respon": 7472,
      "##ception": 7473,
      "conver": 7474,
      "conway": 7475,
      "conclusion": 7476,
      "##verty": 7477,
      "##nds": 7478,
      "prost": 7479,
      "procure": 7480,
      "##ivals": 7481,
      "##ivatives": 7482,
      "thrill": 7483,
      "##utenant": 7484,
      "##irelles": 7485,
      "negotiable": 7486,
      "aso": 7487,
      "repay": 7488,
      "reparations": 7489,
      "##pple": 7490,
      "##imm": 7491,
      "exim": 7492,
      "exist": 7493,
      "exile": 7494,
      "exception": 7495,
      "clouds": 7496,
      "##ighth": 7497,
      "spok": 7498,
      "sense": 7499,
      "##eeze": 7500,
      "##istrat": 7501,
      "poles": 7502,
      "politb": 7503,
      "laugh": 7504,
      "lago": 7505,
      "##alled": 7506,
      "##estr": 7507,
      "whip": 7508,
      "which": 7509,
      "whole": 7510,
      "whistle": 7511,
      "presents": 7512,
      "##charged": 7513,
      "oversee": 7514,
      "agrokor": 7515,
      "megh": 7516,
      "meirelles": 7517,
      "shan": 7518,
      "shun": 7519,
      "shown": 7520,
      "shield": 7521,
      "shirts": 7522,
      "northwest": 7523,
      "god": 7524,
      "behead": 7525,
      "obj": 7526,
      "obsc": 7527,
      "height": 7528,
      "##une": 7529,
      "##ope": 7530,
      "##opol": 7531,
      "##opular": 7532,
      "plug": 7533,
      "cracks": 7534,
      "crush": 7535,
      "crunch": 7536,
      "taipe": 7537,
      "elysee": 7538,
      "##ema": 7539,
      "note": 7540,
      "notes": 7541,
      "brics": 7542,
      "arch": 7543,
      "arpa": 7544,
      "acid": 7545,
      "alban": 7546,
      "statements": 7547,
      "statehouse": 7548,
      "co2": 7549,
      "unh": 7550,
      "unw": 7551,
      "unm": 7552,
      "unusual": 7553,
      "##uciary": 7554,
      "comed": 7555,
      "sechin": 7556,
      "disarm": 7557,
      "faced": 7558,
      "##itions": 7559,
      "turks": 7560,
      "attention": 7561,
      "##ighting": 7562,
      "##ellion": 7563,
      "##rated": 7564,
      "abo": 7565,
      "abrupt": 7566,
      "refocus": 7567,
      "##ecting": 7568,
      "##ailable": 7569,
      "##assing": 7570,
      "iranians": 7571,
      "##ibes": 7572,
      "##ibol": 7573,
      "warming": 7574,
      "leverage": 7575,
      "defl": 7576,
      "defers": 7577,
      "defaul": 7578,
      "defeated": 7579,
      "blind": 7580,
      "blank": 7581,
      "sounds": 7582,
      "pri": 7583,
      "prays": 7584,
      "preach": 7585,
      "proud": 7586,
      "prisons": 7587,
      "noise": 7588,
      "encl": 7589,
      "enact": 7590,
      "enrol": 7591,
      "##umm": 7592,
      "##umibol": 7593,
      "worsen": 7594,
      "##ounting": 7595,
      "southwestern": 7596,
      "tweak": 7597,
      "tweaks": 7598,
      "apply": 7599,
      "apprent": 7600,
      "probable": 7601,
      "exposed": 7602,
      "exposes": 7603,
      "expuls": 7604,
      "uprising": 7605,
      "decisive": 7606,
      "box": 7607,
      "boxes": 7608,
      "urging": 7609,
      "briton": 7610,
      "ites": 7611,
      "qual": 7612,
      "queb": 7613,
      "quota": 7614,
      "##marks": 7615,
      "##ague": 7616,
      "contests": 7617,
      "contender": 7618,
      "backer": 7619,
      "conspir": 7620,
      "drama": 7621,
      "driver": 7622,
      "dramatic": 7623,
      "grill": 7624,
      "##antly": 7625,
      "ended": 7626,
      "endang": 7627,
      "reluct": 7628,
      "protected": 7629,
      "parad": 7630,
      "parade": 7631,
      "depos": 7632,
      "depends": 7633,
      "departs": 7634,
      "opinion": 7635,
      "joy": 7636,
      "marine": 7637,
      "ruler": 7638,
      "score": 7639,
      "flap": 7640,
      "flake": 7641,
      "flock": 7642,
      "##cles": 7643,
      "##club": 7644,
      "fruit": 7645,
      "fracking": 7646,
      "##lined": 7647,
      "confined": 7648,
      "irrespon": 7649,
      "airs": 7650,
      "##eash": 7651,
      "revoke": 7652,
      "revolt": 7653,
      "revolution": 7654,
      "##eneg": 7655,
      "##icken": 7656,
      "loos": 7657,
      "loans": 7658,
      "loosen": 7659,
      "looting": 7660,
      "phoen": 7661,
      "management": 7662,
      "inversion": 7663,
      "inversions": 7664,
      "regain": 7665,
      "helm": 7666,
      "helps": 7667,
      "retr": 7668,
      "retake": 7669,
      "retweet": 7670,
      "pollution": 7671,
      "raf": 7672,
      "carn": 7673,
      "carries": 7674,
      "puzz": 7675,
      "puzder": 7676,
      "##qual": 7677,
      "hasn": 7678,
      "accomp": 7679,
      "hait": 7680,
      "haiti": 7681,
      "doj": 7682,
      "doors": 7683,
      "cord": 7684,
      "corrupt": 7685,
      "corbyn": 7686,
      "wouldn": 7687,
      "threatened": 7688,
      "imposing": 7689,
      "properties": 7690,
      "visitor": 7691,
      "travelers": 7692,
      "pressed": 7693,
      "compar": 7694,
      "recip": 7695,
      "recounts": 7696,
      "administrat": 7697,
      "bids": 7698,
      "detail": 7699,
      "harms": 7700,
      "harsh": 7701,
      "guidance": 7702,
      "intends": 7703,
      "intensive": 7704,
      "integration": 7705,
      "actress": 7706,
      "mach": 7707,
      "delivers": 7708,
      "gener": 7709,
      "weather": 7710,
      "transcan": 7711,
      "##rupts": 7712,
      "bombings": 7713,
      "supported": 7714,
      "striking": 7715,
      "perf": 7716,
      "perjury": 7717,
      "heading": 7718,
      "headway": 7719,
      "setbacks": 7720,
      "assum": 7721,
      "assured": 7722,
      "libel": 7723,
      "farenthold": 7724,
      "buster": 7725,
      "denial": 7726,
      "buzz": 7727,
      "picked": 7728,
      "##aho": 7729,
      "rebuts": 7730,
      "rebellion": 7731,
      "schiff": 7732,
      "rejo": 7733,
      "downgrade": 7734,
      "sla": 7735,
      "slum": 7736,
      "slips": 7737,
      "eric": 7738,
      "bankrupt": 7739,
      "soothe": 7740,
      "donation": 7741,
      "infighting": 7742,
      "investigations": 7743,
      "venezuelans": 7744,
      "insists": 7745,
      "barbs": 7746,
      "bargain": 7747,
      "restive": 7748,
      "hacker": 7749,
      "kenyatt": 7750,
      "firearms": 7751,
      "fireworks": 7752,
      "walls": 7753,
      "poverty": 7754,
      "towns": 7755,
      "##ache": 7756,
      "mafia": 7757,
      "foe": 7758,
      "foot": 7759,
      "holders": 7760,
      "malawi": 7761,
      "legalize": 7762,
      "legalizing": 7763,
      "##group": 7764,
      "brady": 7765,
      "hurricanes": 7766,
      "broker": 7767,
      "idaho": 7768,
      "##yll": 7769,
      "speculation": 7770,
      "protesting": 7771,
      "hunting": 7772,
      "usual": 7773,
      "usgs": 7774,
      "afrin": 7775,
      "ears": 7776,
      "freez": 7777,
      "freeing": 7778,
      "##aires": 7779,
      "started": 7780,
      "below": 7781,
      "midter": 7782,
      "##azine": 7783,
      "requires": 7784,
      "serves": 7785,
      "shooter": 7786,
      "skir": 7787,
      "skips": 7788,
      "skirts": 7789,
      "hearts": 7790,
      "concerning": 7791,
      "serge": 7792,
      "kingdom": 7793,
      "drugmakers": 7794,
      "strongest": 7795,
      "available": 7796,
      "frets": 7797,
      "stars": 7798,
      "resolving": 7799,
      "collab": 7800,
      "collides": 7801,
      "##teen": 7802,
      "damaging": 7803,
      "smear": 7804,
      "smog": 7805,
      "smoo": 7806,
      "easing": 7807,
      "devos": 7808,
      "studying": 7809,
      "financier": 7810,
      "murray": 7811,
      "holy": 7812,
      "hollywood": 7813,
      "unleash": 7814,
      "doubles": 7815,
      "##ija": 7816,
      "weaponry": 7817,
      "baltim": 7818,
      "known": 7819,
      "knew": 7820,
      "solberg": 7821,
      "standing": 7822,
      "standard": 7823,
      "buildings": 7824,
      "aiming": 7825,
      "hosted": 7826,
      "hostility": 7827,
      "negotiating": 7828,
      "##phemy": 7829,
      "couples": 7830,
      "##aware": 7831,
      "continuing": 7832,
      "preparations": 7833,
      "burk": 7834,
      "burst": 7835,
      "burned": 7836,
      "buried": 7837,
      "##ample": 7838,
      "credibility": 7839,
      "countering": 7840,
      "counterterror": 7841,
      "embold": 7842,
      "progressive": 7843,
      "shortfall": 7844,
      "frag": 7845,
      "authorizes": 7846,
      "wray": 7847,
      "greenblatt": 7848,
      "1970": 7849,
      "because": 7850,
      "fallout": 7851,
      "deepening": 7852,
      "construction": 7853,
      "##rador": 7854,
      "finding": 7855,
      "dismissal": 7856,
      "risky": 7857,
      "ican": 7858,
      "icrc": 7859,
      "injures": 7860,
      "injuries": 7861,
      "creation": 7862,
      "hardlin": 7863,
      "blasphemy": 7864,
      "contrast": 7865,
      "czar": 7866,
      "coastal": 7867,
      "waiting": 7868,
      "succeed": 7869,
      "expanding": 7870,
      "##point": 7871,
      "commercial": 7872,
      "endorsed": 7873,
      "scandals": 7874,
      "controversies": 7875,
      "influx": 7876,
      "hungarian": 7877,
      "bases": 7878,
      "basis": 7879,
      "bastion": 7880,
      "sugar": 7881,
      "operator": 7882,
      "tempers": 7883,
      "hosts": 7884,
      "landing": 7885,
      "landfall": 7886,
      "menu": 7887,
      "pulled": 7888,
      "##icient": 7889,
      "projected": 7890,
      "interfering": 7891,
      "illegally": 7892,
      "valeant": 7893,
      "eurogroup": 7894,
      "extremist": 7895,
      "tunnel": 7896,
      "plotters": 7897,
      "postpone": 7898,
      "liberian": 7899,
      "liberated": 7900,
      "falter": 7901,
      "kids": 7902,
      "weakening": 7903,
      "weakened": 7904,
      "leakers": 7905,
      "pursuing": 7906,
      "rocky": 7907,
      "tradition": 7908,
      "commentary": 7909,
      "delivery": 7910,
      "deliveries": 7911,
      "cameron": 7912,
      "tribute": 7913,
      "includes": 7914,
      "apology": 7915,
      "explosive": 7916,
      "explosives": 7917,
      "profess": 7918,
      "completion": 7919,
      "completed": 7920,
      "celebrates": 7921,
      "largely": 7922,
      "##hadows": 7923,
      "ships": 7924,
      "arrivals": 7925,
      "demanding": 7926,
      "extended": 7927,
      "prevail": 7928,
      "preview": 7929,
      "obsolete": 7930,
      "admit": 7931,
      "expecting": 7932,
      "deported": 7933,
      "deportations": 7934,
      "deploys": 7935,
      "hawk": 7936,
      "hawija": 7937,
      "improved": 7938,
      "bullets": 7939,
      "villages": 7940,
      "thinking": 7941,
      "cohen": 7942,
      "brotherhood": 7943,
      "lifted": 7944,
      "skeptics": 7945,
      "baby": 7946,
      "scramb": 7947,
      "undersc": 7948,
      "peacefully": 7949,
      "prosper": 7950,
      "imag": 7951,
      "magazine": 7952,
      "widening": 7953,
      "minimize": 7954,
      "conducted": 7955,
      "evacuates": 7956,
      "suggestion": 7957,
      "derail": 7958,
      "derails": 7959,
      "derivatives": 7960,
      "enshr": 7961,
      "absent": 7962,
      "implementation": 7963,
      "denounce": 7964,
      "fewer": 7965,
      "david": 7966,
      "sticking": 7967,
      "spreads": 7968,
      "advocate": 7969,
      "softens": 7970,
      "software": 7971,
      "troubling": 7972,
      "troubled": 7973,
      "isolate": 7974,
      "isolation": 7975,
      "shrine": 7976,
      "identify": 7977,
      "glass": 7978,
      "glitch": 7979,
      "gaps": 7980,
      "persu": 7981,
      "delegate": 7982,
      "display": 7983,
      "heaps": 7984,
      "nightclub": 7985,
      "tanker": 7986,
      "tenure": 7987,
      "utilities": 7988,
      "##place": 7989,
      "triggers": 7990,
      "chaotic": 7991,
      "suffers": 7992,
      "disagrees": 7993,
      "surgeon": 7994,
      "broadcast": 7995,
      "bulgarian": 7996,
      "film": 7997,
      "jihadi": 7998,
      "racist": 7999,
      "proceedings": 8000,
      "spurns": 8001,
      "reversal": 8002,
      "rebuilding": 8003,
      "academics": 8004,
      "slashes": 8005,
      "renegotiate": 8006,
      "renegotiation": 8007,
      "improvement": 8008,
      "understand": 8009,
      "researchers": 8010,
      "reshuffles": 8011,
      "copenhag": 8012,
      "digital": 8013,
      "multiple": 8014,
      "maintaining": 8015,
      "producing": 8016,
      "axios": 8017,
      "dictator": 8018,
      "fishing": 8019,
      "jews": 8020,
      "mourn": 8021,
      "tsai": 8022,
      "##orius": 8023,
      "adopts": 8024,
      "blueprint": 8025,
      "urgently": 8026,
      "##ographer": 8027,
      "opportun": 8028,
      "increased": 8029,
      "friendship": 8030,
      "croatian": 8031,
      "triggered": 8032,
      "granted": 8033,
      "makers": 8034,
      "squeeze": 8035,
      "##obble": 8036,
      "sponsor": 8037,
      "heartland": 8038,
      "acquits": 8039,
      "acquisition": 8040,
      "unpaid": 8041,
      "unpopular": 8042,
      "bloody": 8043,
      "charlotte": 8044,
      "recruit": 8045,
      "macedonian": 8046,
      "effective": 8047,
      "absolute": 8048,
      "confrontation": 8049,
      "olympic": 8050,
      "alex": 8051,
      "ghana": 8052,
      "reveal": 8053,
      "reactor": 8054,
      "obstacle": 8055,
      "demonst": 8056,
      "indication": 8057,
      "frustrated": 8058,
      "revenge": 8059,
      "evasive": 8060,
      "milest": 8061,
      "mysterious": 8062,
      "rwanda": 8063,
      "rwandan": 8064,
      "semitic": 8065,
      "semitism": 8066,
      "undermines": 8067,
      "competitor": 8068,
      "penalties": 8069,
      "suggested": 8070,
      "destabilize": 8071,
      "purchases": 8072,
      "everything": 8073,
      "certifies": 8074,
      "drags": 8075,
      "ecuador": 8076,
      "felons": 8077,
      "faulty": 8078,
      "tornado": 8079,
      "clinch": 8080,
      "preserved": 8081,
      "bears": 8082,
      "brutal": 8083,
      "brutality": 8084,
      "adjustment": 8085,
      "contentious": 8086,
      "doomed": 8087,
      "apartment": 8088,
      "reducing": 8089,
      "snubs": 8090,
      "automak": 8091,
      "symbolic": 8092,
      "bashir": 8093,
      "cocaine": 8094,
      "gentiloni": 8095,
      "hindu": 8096,
      "lieutenant": 8097,
      "mortgage": 8098,
      "excessive": 8099,
      "shocking": 8100,
      "crimea": 8101,
      "elsewhere": 8102,
      "reflects": 8103,
      "individuals": 8104,
      "flawed": 8105,
      "huntsman": 8106,
      "devastation": 8107,
      "balkans": 8108,
      "angeles": 8109,
      "skepticism": 8110,
      "reinstating": 8111,
      "coordinate": 8112,
      "moldova": 8113,
      "scheduled": 8114,
      "bubble": 8115,
      "corsica": 8116,
      "fetes": 8117,
      "farewell": 8118,
      "fascist": 8119,
      "honor": 8120,
      "jeff": 8121,
      "licenses": 8122,
      "ottoman": 8123,
      "wyoming": 8124,
      "##eidah": 8125,
      "trucks": 8126,
      "reaching": 8127,
      "overcome": 8128,
      "anxiety": 8129,
      "quotas": 8130,
      "interpol": 8131,
      "weiner": 8132,
      "assurances": 8133,
      "evangelical": 8134,
      "mcmaster": 8135,
      "colleagues": 8136,
      "satellite": 8137,
      "rebuffs": 8138,
      "analysis": 8139,
      "organizations": 8140,
      "guerrilla": 8141,
      "encouraged": 8142,
      "austerity": 8143,
      "bhumibol": 8144,
      "bishops": 8145,
      "bavaria": 8146,
      "dawns": 8147,
      "fierce": 8148,
      "numbers": 8149,
      "ranks": 8150,
      "ranking": 8151,
      "sleep": 8152,
      "sailors": 8153,
      "taylor": 8154,
      "inequality": 8155,
      "rehear": 8156,
      "reconsider": 8157,
      "procedural": 8158,
      "thwart": 8159,
      "reputation": 8160,
      "eligibility": 8161,
      "arkansas": 8162,
      "algeria": 8163,
      "resources": 8164,
      "seizure": 8165,
      "relieved": 8166,
      "catholic": 8167,
      "allergan": 8168,
      "legitimate": 8169,
      "reckless": 8170,
      "integrity": 8171,
      "buoyed": 8172,
      "conducts": 8173,
      "conversations": 8174,
      "publisher": 8175,
      "establishment": 8176,
      "customers": 8177,
      "predictit": 8178,
      "vaccine": 8179,
      "scenario": 8180,
      "wwii": 8181,
      "principle": 8182,
      "besieged": 8183,
      "buckingham": 8184,
      "ceremony": 8185,
      "fabricated": 8186,
      "kindergarten": 8187,
      "biafra": 8188,
      "boston": 8189,
      "darfur": 8190,
      "dlamini": 8191,
      "fiduciary": 8192,
      "fashion": 8193,
      "gingrich": 8194,
      "gottlieb": 8195,
      "hedge": 8196,
      "hodeidah": 8197,
      "jenner": 8198,
      "kashmir": 8199,
      "mh370": 8200,
      "nervous": 8201,
      "oregon": 8202,
      "pkk": 8203,
      "pistorius": 8204,
      "picture": 8205,
      "rosneft": 8206,
      "waiver": 8207,
      "##hito": 8208,
      "tropical": 8209,
      "inevitable": 8210,
      "reagan": 8211,
      "reiterates": 8212,
      "steyer": 8213,
      "stoltenberg": 8214,
      "chelsea": 8215,
      "procurement": 8216,
      "spoken": 8217,
      "politburo": 8218,
      "whistlebl": 8219,
      "meghan": 8220,
      "taipei": 8221,
      "arpaio": 8222,
      "enclave": 8223,
      "apprentice": 8224,
      "expulsion": 8225,
      "quebec": 8226,
      "irresponsible": 8227,
      "phoenix": 8228,
      "transcanada": 8229,
      "kenyatta": 8230,
      "smooth": 8231,
      "baltimore": 8232,
      "counterterrorism": 8233,
      "1970s": 8234,
      "scrambles": 8235,
      "copenhagen": 8236,
      "05": 8237,
      "1b": 8238,
      "49": 8239,
      "51": 8240,
      "65": 8241,
      "66": 8242,
      "69": 8243,
      "75": 8244,
      "74": 8245,
      "82": 8246,
      "95": 8247,
      "92": 8248,
      "aer": 8249,
      "ase": 8250,
      "ach": 8251,
      "amm": 8252,
      "ams": 8253,
      "aung": 8254,
      "bi": 8255,
      "bp": 8256,
      "bay": 8257,
      "bea": 8258,
      "ble": 8259,
      "bell": 8260,
      "biz": 8261,
      "baff": 8262,
      "ct": 8263,
      "cd": 8264,
      "cp": 8265,
      "cin": 8266,
      "cot": 8267,
      "cad": 8268,
      "cran": 8269,
      "cite": 8270,
      "cass": 8271,
      "crop": 8272,
      "cio": 8273,
      "di": 8274,
      "dal": 8275,
      "dall": 8276,
      "dip": 8277,
      "drow": 8278,
      "dips": 8279,
      "dna": 8280,
      "drown": 8281,
      "dashes": 8282,
      "erupts": 8283,
      "fit": 8284,
      "fro": 8285,
      "fee": 8286,
      "fum": 8287,
      "fades": 8288,
      "fta": 8289,
      "fitness": 8290,
      "finger": 8291,
      "fernandez": 8292,
      "fizz": 8293,
      "g4": 8294,
      "gill": 8295,
      "gran": 8296,
      "gins": 8297,
      "gcc": 8298,
      "giant": 8299,
      "gamb": 8300,
      "hen": 8301,
      "hid": 8302,
      "hers": 8303,
      "hud": 8304,
      "hab": 8305,
      "hail": 8306,
      "hast": 8307,
      "hire": 8308,
      "huck": 8309,
      "hager": 8310,
      "hired": 8311,
      "hitting": 8312,
      "hobble": 8313,
      "ju": 8314,
      "jf": 8315,
      "jin": 8316,
      "jay": 8317,
      "jam": 8318,
      "jub": 8319,
      "jacks": 8320,
      "jumb": 8321,
      "juster": 8322,
      "jpm": 8323,
      "kc": 8324,
      "km": 8325,
      "kind": 8326,
      "kitch": 8327,
      "kept": 8328,
      "komm": 8329,
      "kabil": 8330,
      "len": 8331,
      "las": 8332,
      "lone": 8333,
      "lunch": 8334,
      "living": 8335,
      "laced": 8336,
      "likes": 8337,
      "lyn": 8338,
      "liable": 8339,
      "lgb": 8340,
      "lighth": 8341,
      "mat": 8342,
      "mech": 8343,
      "mumb": 8344,
      "nt": 8345,
      "nail": 8346,
      "nuk": 8347,
      "nerve": 8348,
      "necessary": 8349,
      "ol": 8350,
      "oks": 8351,
      "pi": 8352,
      "pon": 8353,
      "pas": 8354,
      "packs": 8355,
      "pock": 8356,
      "pne": 8357,
      "paves": 8358,
      "rt": 8359,
      "ron": 8360,
      "ros": 8361,
      "rans": 8362,
      "rant": 8363,
      "rang": 8364,
      "ratch": 8365,
      "rather": 8366,
      "rattle": 8367,
      "sre": 8368,
      "sights": 8369,
      "sod": 8370,
      "sval": 8371,
      "sidel": 8372,
      "sams": 8373,
      "tes": 8374,
      "tea": 8375,
      "tas": 8376,
      "tuss": 8377,
      "tib": 8378,
      "tide": 8379,
      "tire": 8380,
      "tiger": 8381,
      "ticks": 8382,
      "tatar": 8383,
      "tips": 8384,
      "tiny": 8385,
      "taco": 8386,
      "uigh": 8387,
      "uly": 8388,
      "van": 8389,
      "vent": 8390,
      "vie": 8391,
      "vps": 8392,
      "vets": 8393,
      "vanish": 8394,
      "vamp": 8395,
      "wir": 8396,
      "wav": 8397,
      "wides": 8398,
      "wrest": 8399,
      "yank": 8400,
      "yrc": 8401,
      "zan": 8402,
      "##ten": 8403,
      "##tland": 8404,
      "##table": 8405,
      "##overs": 8406,
      "##ni": 8407,
      "##nac": 8408,
      "##nim": 8409,
      "##nie": 8410,
      "##aim": 8411,
      "##dr": 8412,
      "##dp": 8413,
      "##dow": 8414,
      "##dons": 8415,
      "##dney": 8416,
      "##qing": 8417,
      "##uan": 8418,
      "##uay": 8419,
      "##ule": 8420,
      "##uine": 8421,
      "##uum": 8422,
      "##uous": 8423,
      "##uments": 8424,
      "##uania": 8425,
      "##iator": 8426,
      "##ique": 8427,
      "##rall": 8428,
      "##rack": 8429,
      "##run": 8430,
      "##rary": 8431,
      "##rum": 8432,
      "##rors": 8433,
      "##rous": 8434,
      "##sb": 8435,
      "##sens": 8436,
      "##sters": 8437,
      "##sential": 8438,
      "##far": 8439,
      "##fare": 8440,
      "##face": 8441,
      "##few": 8442,
      "##flets": 8443,
      "##fighter": 8444,
      "##filling": 8445,
      "##gus": 8446,
      "##gos": 8447,
      "##gle": 8448,
      "##gra": 8449,
      "##gall": 8450,
      "##gence": 8451,
      "##gling": 8452,
      "##gged": 8453,
      "##hs": 8454,
      "##hed": 8455,
      "##hate": 8456,
      "##hof": 8457,
      "##be": 8458,
      "##bto": 8459,
      "##bles": 8460,
      "##blo": 8461,
      "##bren": 8462,
      "##brid": 8463,
      "##brand": 8464,
      "##vin": 8465,
      "##vent": 8466,
      "##vation": 8467,
      "##vang": 8468,
      "##ction": 8469,
      "##cle": 8470,
      "##cury": 8471,
      "##curate": 8472,
      "##kush": 8473,
      "##kamp": 8474,
      "##krel": 8475,
      "##will": 8476,
      "##wall": 8477,
      "##wards": 8478,
      "##wale": 8479,
      "##water": 8480,
      "##lment": 8481,
      "##lif": 8482,
      "##ped": 8483,
      "##pay": 8484,
      "##part": 8485,
      "##post": 8486,
      "##poke": 8487,
      "##mates": 8488,
      "##zard": 8489,
      "##zone": 8490,
      "##jin": 8491,
      "##jak": 8492,
      "##jev": 8493,
      "##eri": 8494,
      "##erally": 8495,
      "##erland": 8496,
      "##erini": 8497,
      "##anism": 8498,
      "##inity": 8499,
      "##inational": 8500,
      "##esco": 8501,
      "##onto": 8502,
      "##orant": 8503,
      "##orough": 8504,
      "##eney": 8505,
      "##enomen": 8506,
      "##alu": 8507,
      "##alach": 8508,
      "##aljak": 8509,
      "##itime": 8510,
      "toe": 8511,
      "##ars": 8512,
      "##arre": 8513,
      "trem": 8514,
      "troll": 8515,
      "trains": 8516,
      "treated": 8517,
      "##icter": 8518,
      "##icul": 8519,
      "##ications": 8520,
      "##icates": 8521,
      "##icals": 8522,
      "inac": 8523,
      "inner": 8524,
      "##ilt": 8525,
      "##eding": 8526,
      "##ederate": 8527,
      "##aying": 8528,
      "remin": 8529,
      "rework": 8530,
      "rehab": 8531,
      "##usts": 8532,
      "##usive": 8533,
      "##eaf": 8534,
      "##eab": 8535,
      "##eaval": 8536,
      "##rote": 8537,
      "##entives": 8538,
      "##elph": 8539,
      "##actions": 8540,
      "##acep": 8541,
      "fores": 8542,
      "forge": 8543,
      "forget": 8544,
      "forty": 8545,
      "forfe": 8546,
      "forex": 8547,
      "##ecur": 8548,
      "##ecoming": 8549,
      "##ecutions": 8550,
      "##urd": 8551,
      "##uru": 8552,
      "##urse": 8553,
      "##urbs": 8554,
      "ongoing": 8555,
      "##idy": 8556,
      "##tery": 8557,
      "##terres": 8558,
      "##terdam": 8559,
      "stal": 8560,
      "stun": 8561,
      "stab": 8562,
      "stone": 8563,
      "stole": 8564,
      "stiff": 8565,
      "##oli": 8566,
      "##olk": 8567,
      "##oline": 8568,
      "##olese": 8569,
      "##asy": 8570,
      "##asp": 8571,
      "##omed": 8572,
      "##atever": 8573,
      "chill": 8574,
      "chip": 8575,
      "chast": 8576,
      "chong": 8577,
      "chains": 8578,
      "chosen": 8579,
      "cheney": 8580,
      "##ersant": 8581,
      "##amed": 8582,
      "##ament": 8583,
      "##resolved": 8584,
      "##oty": 8585,
      "##otine": 8586,
      "##otry": 8587,
      "##etary": 8588,
      "##etable": 8589,
      "conclud": 8590,
      "##very": 8591,
      "##oster": 8592,
      "##lem": 8593,
      "prolif": 8594,
      "##rahim": 8595,
      "##ivity": 8596,
      "thing": 8597,
      "thorn": 8598,
      "thaw": 8599,
      "thys": 8600,
      "thorough": 8601,
      "##irely": 8602,
      "##ksin": 8603,
      "neph": 8604,
      "neither": 8605,
      "reply": 8606,
      "repress": 8607,
      "repels": 8608,
      "repeated": 8609,
      "atom": 8610,
      "##ima": 8611,
      "##imov": 8612,
      "##andering": 8613,
      "##ourse": 8614,
      "##adin": 8615,
      "##aded": 8616,
      "##adelph": 8617,
      "##ulance": 8618,
      "##owed": 8619,
      "##owers": 8620,
      "exits": 8621,
      "exclud": 8622,
      "execution": 8623,
      "exhib": 8624,
      "afl": 8625,
      "clad": 8626,
      "clout": 8627,
      "clues": 8628,
      "cloud": 8629,
      "spa": 8630,
      "spr": 8631,
      "spin": 8632,
      "spill": 8633,
      "spie": 8634,
      "spare": 8635,
      "spaw": 8636,
      "##isti": 8637,
      "##istries": 8638,
      "laure": 8639,
      "lags": 8640,
      "isna": 8641,
      "whatever": 8642,
      "##rance": 8643,
      "##iests": 8644,
      "overse": 8645,
      "shore": 8646,
      "shaken": 8647,
      "shkrel": 8648,
      "##endous": 8649,
      "aftersh": 8650,
      "sunn": 8651,
      "gove": 8652,
      "beer": 8653,
      "bets": 8654,
      "##mance": 8655,
      "obstruction": 8656,
      "obrador": 8657,
      "heed": 8658,
      "heath": 8659,
      "lawful": 8660,
      "##unte": 8661,
      "##unction": 8662,
      "cry": 8663,
      "tamp": 8664,
      "tapped": 8665,
      "tapping": 8666,
      "elimin": 8667,
      "elusive": 8668,
      "bron": 8669,
      "brands": 8670,
      "argue": 8671,
      "syn": 8672,
      "sydney": 8673,
      "alive": 8674,
      "alum": 8675,
      "alco": 8676,
      "alias": 8677,
      "alwale": 8678,
      "cov": 8679,
      "coats": 8680,
      "copper": 8681,
      "advert": 8682,
      "adams": 8683,
      "##lying": 8684,
      "unn": 8685,
      "uns": 8686,
      "unse": 8687,
      "uneas": 8688,
      "unaff": 8689,
      "unco": 8690,
      "unpr": 8691,
      "unmas": 8692,
      "unified": 8693,
      "unex": 8694,
      "unkn": 8695,
      "unesco": 8696,
      "unresolved": 8697,
      "##ucting": 8698,
      "##ipment": 8699,
      "##ipino": 8700,
      "##iphate": 8701,
      "##abad": 8702,
      "##abee": 8703,
      "##ables": 8704,
      "seism": 8705,
      "sext": 8706,
      "seals": 8707,
      "seats": 8708,
      "minutes": 8709,
      "minsk": 8710,
      "ministries": 8711,
      "dispar": 8712,
      "disband": 8713,
      "disreg": 8714,
      "disob": 8715,
      "disqual": 8716,
      "factions": 8717,
      "taxpay": 8718,
      "clintons": 8719,
      "mayadin": 8720,
      "##ellent": 8721,
      "##ellate": 8722,
      "abide": 8723,
      "abused": 8724,
      "bang": 8725,
      "##assan": 8726,
      "##ibution": 8727,
      "##ibrand": 8728,
      "##boarding": 8729,
      "warrants": 8730,
      "theory": 8731,
      "##ensation": 8732,
      "lets": 8733,
      "learn": 8734,
      "defam": 8735,
      "defies": 8736,
      "defects": 8737,
      "defeating": 8738,
      "bless": 8739,
      "blacks": 8740,
      "blago": 8741,
      "blunt": 8742,
      "##iking": 8743,
      "##derful": 8744,
      "indef": 8745,
      "prone": 8746,
      "praljak": 8747,
      "priests": 8748,
      "##ghai": 8749,
      "##gherini": 8750,
      "enl": 8751,
      "##umonia": 8752,
      "word": 8753,
      "worsens": 8754,
      "twist": 8755,
      "appropri": 8756,
      "appalled": 8757,
      "appalach": 8758,
      "appellate": 8759,
      "probation": 8760,
      "saving": 8761,
      "mov": 8762,
      "mogherini": 8763,
      "killers": 8764,
      "causes": 8765,
      "cautions": 8766,
      "strife": 8767,
      "stranded": 8768,
      "stricter": 8769,
      "expel": 8770,
      "expensive": 8771,
      "exposing": 8772,
      "upon": 8773,
      "upgrad": 8774,
      "decline": 8775,
      "oracle": 8776,
      "##making": 8777,
      "boon": 8778,
      "booing": 8779,
      "breath": 8780,
      "urban": 8781,
      "urgency": 8782,
      "governments": 8783,
      "sours": 8784,
      "quad": 8785,
      "contain": 8786,
      "background": 8787,
      "backtr": 8788,
      "consular": 8789,
      "drivers": 8790,
      "grasp": 8791,
      "finmin": 8792,
      "finnish": 8793,
      "##uees": 8794,
      "commits": 8795,
      "commanders": 8796,
      "commutes": 8797,
      "relax": 8798,
      "reliance": 8799,
      "203": 8800,
      "##ashed": 8801,
      "medics": 8802,
      "mediator": 8803,
      "##uggl": 8804,
      "pardons": 8805,
      "campuses": 8806,
      "catch": 8807,
      "cattle": 8808,
      "catches": 8809,
      "deports": 8810,
      "joe": 8811,
      "maritime": 8812,
      "fukush": 8813,
      "scre": 8814,
      "scene": 8815,
      "scope": 8816,
      "islamabad": 8817,
      "flare": 8818,
      "flows": 8819,
      "flares": 8820,
      "intercepts": 8821,
      "securities": 8822,
      "catalonian": 8823,
      "fract": 8824,
      "fredd": 8825,
      "##irez": 8826,
      "##lining": 8827,
      "allied": 8828,
      "##ardier": 8829,
      "winners": 8830,
      "##ephone": 8831,
      "suppress": 8832,
      "campaigner": 8833,
      "confused": 8834,
      "confederate": 8835,
      "opposing": 8836,
      "airways": 8837,
      "rod": 8838,
      "roil": 8839,
      "revision": 8840,
      "reviving": 8841,
      "revising": 8842,
      "revived": 8843,
      "franks": 8844,
      "##itsky": 8845,
      "loose": 8846,
      "amt": 8847,
      "amending": 8848,
      "borders": 8849,
      "phenomen": 8850,
      "manus": 8851,
      "manning": 8852,
      "managers": 8853,
      "manila": 8854,
      "leaflets": 8855,
      "invited": 8856,
      "invalid": 8857,
      "registry": 8858,
      "retains": 8859,
      "##ounding": 8860,
      "discipl": 8861,
      "discord": 8862,
      "##ictory": 8863,
      "nominated": 8864,
      "2014": 8865,
      "rapp": 8866,
      "carp": 8867,
      "cargo": 8868,
      "carlos": 8869,
      "##athers": 8870,
      "politically": 8871,
      "counts": 8872,
      "accel": 8873,
      "accidents": 8874,
      "accords": 8875,
      "haul": 8876,
      "hazard": 8877,
      "doable": 8878,
      "jerry": 8879,
      "corr": 8880,
      "corps": 8881,
      "threatening": 8882,
      "legally": 8883,
      "imper": 8884,
      "israelis": 8885,
      "traveling": 8886,
      "supremac": 8887,
      "underground": 8888,
      "compare": 8889,
      "compensation": 8890,
      "##acted": 8891,
      "recusal": 8892,
      "recuse": 8893,
      "recovers": 8894,
      "deton": 8895,
      "detected": 8896,
      "criticizing": 8897,
      "harder": 8898,
      "testifying": 8899,
      "guterres": 8900,
      "monk": 8901,
      "monks": 8902,
      "monster": 8903,
      "monopol": 8904,
      "monuments": 8905,
      "monetary": 8906,
      "intact": 8907,
      "deadlines": 8908,
      "mercury": 8909,
      "channels": 8910,
      "delet": 8911,
      "genuine": 8912,
      "emig": 8913,
      "hurts": 8914,
      "transit": 8915,
      "posted": 8916,
      "posture": 8917,
      "bombed": 8918,
      "bombardier": 8919,
      "cited": 8920,
      "swamp": 8921,
      "switz": 8922,
      "swipe": 8923,
      "advising": 8924,
      "##ecuted": 8925,
      "powder": 8926,
      "passing": 8927,
      "setting": 8928,
      "concili": 8929,
      "concede": 8930,
      "concedes": 8931,
      "armored": 8932,
      "descr": 8933,
      "helpful": 8934,
      "asser": 8935,
      "shouldn": 8936,
      "evening": 8937,
      "philadelph": 8938,
      "##riend": 8939,
      "denying": 8940,
      "mck": 8941,
      "ruins": 8942,
      "ruined": 8943,
      "remands": 8944,
      "remanded": 8945,
      "rememb": 8946,
      "capable": 8947,
      "capability": 8948,
      "caliphate": 8949,
      "prosecutions": 8950,
      "rightist": 8951,
      "terrible": 8952,
      "terrifying": 8953,
      "suburbs": 8954,
      "downt": 8955,
      "downpl": 8956,
      "downfall": 8957,
      "slur": 8958,
      "slice": 8959,
      "slip": 8960,
      "slump": 8961,
      "accuser": 8962,
      "accusers": 8963,
      "businessmen": 8964,
      "violate": 8965,
      "violation": 8966,
      "donate": 8967,
      "donated": 8968,
      "feed": 8969,
      "info": 8970,
      "infl": 8971,
      "insist": 8972,
      "payouts": 8973,
      "nairo": 8974,
      "readers": 8975,
      "readiness": 8976,
      "##ierre": 8977,
      "challenged": 8978,
      "summoned": 8979,
      "firef": 8980,
      "firebrand": 8981,
      "directed": 8982,
      "dirty": 8983,
      "incentives": 8984,
      "convict": 8985,
      "maio": 8986,
      "music": 8987,
      "muscles": 8988,
      "muscle": 8989,
      "malian": 8990,
      "legalization": 8991,
      "marked": 8992,
      "eyeb": 8993,
      "activities": 8994,
      "brain": 8995,
      "columb": 8996,
      "yorkers": 8997,
      "brothers": 8998,
      "bigotry": 8999,
      "possibly": 9000,
      "speeches": 9001,
      "directive": 9002,
      "directly": 9003,
      "victor": 9004,
      "labels": 9005,
      "wonderful": 9006,
      "califf": 9007,
      "alleges": 9008,
      "usda": 9009,
      "controllers": 9010,
      "lifeline": 9011,
      "battling": 9012,
      "battisti": 9013,
      "earn": 9014,
      "brazilian": 9015,
      "##load": 9016,
      "belief": 9017,
      "curt": 9018,
      "curfew": 9019,
      "editorial": 9020,
      "##oved": 9021,
      "required": 9022,
      "requiring": 9023,
      "peoples": 9024,
      "serving": 9025,
      "offering": 9026,
      "shoots": 9027,
      "centers": 9028,
      "journey": 9029,
      "networks": 9030,
      "trips": 9031,
      "tripoli": 9032,
      "divid": 9033,
      "division": 9034,
      "divides": 9035,
      "##roshim": 9036,
      "regular": 9037,
      "steve": 9038,
      "stealth": 9039,
      "programme": 9040,
      "ethical": 9041,
      "famine": 9042,
      "toughen": 9043,
      "toughest": 9044,
      "strongman": 9045,
      "aviv": 9046,
      "clearing": 9047,
      "clearance": 9048,
      "embassies": 9049,
      "longtime": 9050,
      "talked": 9051,
      "battleground": 9052,
      "provoke": 9053,
      "provisions": 9054,
      "providing": 9055,
      "providers": 9056,
      "finalize": 9057,
      "finalizes": 9058,
      "collection": 9059,
      "##ukee": 9060,
      "##ukayev": 9061,
      "indonesians": 9062,
      "handed": 9063,
      "staying": 9064,
      "##coin": 9065,
      "##waukee": 9066,
      "intervene": 9067,
      "smoke": 9068,
      "smoking": 9069,
      "sonic": 9070,
      "eases": 9071,
      "mccask": 9072,
      "mccarth": 9073,
      "globe": 9074,
      "globally": 9075,
      "detainees": 9076,
[...]
